#version: 0.2
Ġ t
Ġ a
h e
i n
r e
Ġt he
o n
e r
Ġ s
Ġ w
a t
Ġ o
e n
Ġ c
i t
i s
a n
o r
Ġ b
Ġ f
e s
e d
in g
Ġ p
o u
Ġa n
Ġt o
a l
a r
Ġ m
Ġ in
Ġo f
Ġ h
Ġ d
Ċ Ċ
a s
Ġan d
i c
â Ģ
Ġt h
l e
o m
i on
l l
en t
Ġ n
Ġ l
Ġ re
s t
v e
l y
Ġ e
Ġb e
Ġ g
r o
i d
u t
o t
a c
Ġ T
Ġ on
Ġth at
Ġ I
a y
Ġ is
Ġ S
i m
e t
a m
o w
a d
Ġf or
âĢ Ļ
i g
s e
v er
Ġ A
l d
u r
c t
Ġ C
Ġ u
Ġs t
Ġ y
Ġ it
Ġ he
i r
it h
Ġw h
at ion
Ġ M
c e
t er
Ġw e
o l
Ġw ith
i l
Ġa s
Ġ B
i ll
c h
n d
s ,
Ġy ou
Ġw as
k e
Ġ P
s .
Ġ âĢ
Ġc on
Ġd e
Ġ r
âĢĻ s
he r
at e
Ġa t
i f
Ġh a
a g
Ġs e
Ġ W
o re
Ġp ro
Ġ H
p p
er s
Ġa re
m ent
u l
r i
Ġc om
es t
Ġ D
an d
is t
o p
a in
Ġ R
ĠT he
r om
ig h
or t
u s
Ġn e
Ġ 1
Ġ 2
Ġ F
o d
Ġe x
u m
u n
Ġn ot
Ġha ve
Ġ v
a b
Ġ N
ou ld
âĢ Ŀ
it y
Ġo r
re s
e m
Ġb y
ar t
Ġ (
an t
Ġf rom
i ve
Ġ G
Ġa l
o s
' s
Ġs u
t h
e l
o c
Ġs h
Ġth is
ĊĊ T
n t
Ġ L
es s
igh t
q u
Ġs a
u st
Ġ le
p e
i es
Ġc h
en d
ou t
Ġa b
Ġ E
Ġh as
al l
ac k
i e
re d
Ġp l
al ly
ĠâĢ ľ
Ġg o
Ġ J
e .
Ġh is
e ,
e ar
ar d
o st
g h
i v
Ġt r
ou r
as t
Ġ j
Ġ O
a p
a k
0 0
om e
u d
Ġsa id
Ġd o
Ġthe y
Ġb ut
Ġw ill
Ġw or
Ġc an
r ou
Ġw he
Ġ U
Ġa ll
Ġ k
ic h
Ġwh o
o k
ĊĊT he
Ġin t
Ġo ut
Ġthe ir
t her
i al
u re
on g
f f
Ġ "
id e
Ġm ore
g e
Ġu p
e p
e ct
i ke
ac t
p l
Ġa d
Ġab out
an s
b er
am e
Ġs o
at ed
ou s
r a
Ġwe re
p t
a re
Ġh ad
Ġw ould
c c
Ġm e
i a
on e
Ġ K
Ġa g
Ġc l
u b
o g
a ke
Ġ im
Ġ2 0
Ġwh ich
Ġon e
ĊĊ A
Ġof f
Ġt e
ver y
ic e
Ġcon t
Ġu s
in d
Ġbe en
Ġcom p
ag e
i z
Ġu n
s o
Ġ en
Ġy ear
ig n
ĠS t
a u
p er
in e
ĠT h
âĢĻ t
Ġl ike
e w
ar y
Ġt im
Ġp e
v en
i p
Ġin c
o ok
Ġm an
es ,
e re
o se
ion s
r y
ĊĊ I
Ġp er
Ġre s
Ġs p
m er
ab le
or d
i re
u e
Ġo ther
op le
Ġs ome
i le
ĠI n
es .
Ġne w
Ġ20 1
Ġo ver
en ce
Ġthe re
i b
Ġth an
Ġal so
Ġd is
as s
Ġbe c
ow n
in t
ou nt
ic al
Ġthe m
p ort
ul t
ou gh
Ġa r
Ġyou r
Ġa pp
Ġwor k
it e
Ġwhe n
Ġpe ople
Ġp art
r u
an ce
Ġwh at
a il
f ter
Ġs c
on d
ac e
ic k
Ġ qu
Ġj ust
or m
ĠC h
Ġit s
Ġan y
a v
Ġs ay
res s
re e
ac h
Ġ Y
ĠI t
Ġk n
Ġre c
i an
Ġg et
ct ion
Ġm y
Ġhe r
re at
Ġ if
y ,
Ġt w
Ġint o
ir st
Ġpl ay
ou nd
in k
Ġ V
ve l
it ion
an g
Ġn o
ar k
d u
l ic
id ent
Ġo ur
Ġ 3
en s
Ġp re
ĊĊ S
Ġc o
o b
w n
au se
h ing
Ġp ol
ation s
it t
Ġ -
ĊĊ âĢ
Ġ ro
Ġa fter
Ġs he
as e
o ve
Ġf irst
am p
Ġh ow
ed .
Ġc ould
Ġa cc
or y
' t
c k
ĠH e
nd er
i ld
Ġp o
a w
Ġh im
ver s
Ġf e
Ġat t
Ġon ly
n ing
Ġtw o
ic t
n e
he d
ad e
Ġp r
Ġcom m
i ous
Ġs er
Ġs pe
o v
Ġ1 9
Ġb l
f orm
is h
Ġb ack
Ġbe t
f t
Ġa ct
ĊĊâĢ ľ
Ġm ost
ĊĊ W
Ġtim e
w e
d ay
or s
Ġde c
ed ,
er ,
ĠâĢ ĵ
ing ,
y .
Ġf o
n âĢĻt
e k
Ġa m
Ġd id
rou nd
rou gh
Ġag ain
Ġw ant
ĠâĢ Ķ
if f
Ġw ay
ing s
w ay
as on
Ġu nder
Ġd es
Ġn ow
ing .
Ġbec ause
o y
ub lic
u al
at es
oc k
Ġcon s
l ud
r it
u ll
Ġe ven
ĊĊ "
se l
Ġin v
an c
Ġne ed
Ġad d
ter n
Ġkn ow
m an
. âĢĿ
Ġ 4
ĠW e
e c
Ġse c
is s
ĊĊ B
T he
Ġe very
t e
Ġ $
Ġd on
Ġm ake
Ġin d
f ore
u ch
Ġsu pp
pe ct
Ġe m
ur n
o ld
on s
at er
Ġwhe re
Ġthe se
ver n
ĠU n
en c
um p
Ġb u
Ġl ook
ation al
Ġth ink
j ect
Ġd ay
v ent
ĠA nd
Ġ 5
x t
is e
Ġr ight
ĠT r
Ġbe ing
i ly
Ġre m
ro w
Ġc all
Ġp os
ĠB ut
Ġm ay
Ġinc lud
Ġl ast
n g
Ġde f
an k
Ġthe n
mer ic
Ġman y
Ġp res
Ġd iff
ie w
o od
a ,
Ġf l
Ġre g
Ġth rough
Ġre l
Ġim p
Ġsaid .
ar g
Ġsh ould
Ġth ose
Ġsh ow
on t
Ġst ate
Ġ very
le ct
Ġm uch
ak ing
ri b
ot her
ur ing
at ing
ĊĊ M
Ġs y
Ġb r
it ies
, âĢĿ
Ġse e
Ġc ount
at h
Ġwe ll
e ll
as ed
h at
at ive
u nd
Ġd own
Ġo wn
if ic
ĠTh is
ĊĊ H
it ed
Ġbe l
Ġp h
he n
ar ly
Ġ end
ot h
vern ment
ĠA meric
or k
in ce
Ġl ong
Ġu se
ow er
Ġre port
Ġm on
s s
Ġf in
Ġbe fore
Ġst art
t ing
Ġas s
Ġte am
Ġdo es
l i
om et
Ġ ke
w ard
ĠN ew
ĊĊ C
al k
g r
ib le
Ġ2 00
u p
b le
Ġwe ek
l p
ou n
ĊĊI n
ers on
Ġoff ic
Ġwor ld
er t
re n
Ġs m
. "
Ġsu ch
Ġgo od
Ġst ud
f ul
Ġm ade
u ally
ll ow
Ġgo ing
ĊĊ F
ol og
Ġa c
en er
Ġagain st
i ent
ment s
il ity
Ġs ur
ill ion
l es
Ġgo vernment
c ed
Ġs et
Ġpo int
Ġg u
t y
Ġhe lp
Ġ ent
v ed
Ġst ill
Ġyear s
Ġm in
Ġle ad
Ġe ff
i ed
Ġwh ile
g an
Ġsu b
) .
Ġ [
rou p
n 't
i x
. .
st em
is m
o ,
ĊĊ O
Ġpro du
Ġt ake
a x
we en
Ġg r
Ġcon f
ut ion
Ġc ar
Ġs im
Ġst r
Ġin st
v ing
er .
Ġc ol
ĊĊ P
Ġin ter
Ġc r
an ge
00 0
e f
Ġo b
Ġl aw
Ġ 6
Ġdis c
Ġth ough
sel f
Ġpro v
Ġo p
Ġh igh
Ġdiff ere
Ġbet ween
l and
us s
Ġs ign
re ad
e ver
c ent
Ġn um
ar ch
a ir
u es
h ip
Ġr un
g g
Ġs omet
at ch
vel op
Ġt er
Ġa round
o ol
Ġin s
) ,
Ġs ame
Ġre f
y s
Ġm ed
Ġf ound
Ġre t
Ġhe re
Ġtr ans
Ġm em
ou se
Ġcomp an
al s
Ġit âĢĻs
, "
Ġg am
Ġth ree
Ġre al
ter s
ĠR e
i o
Ġre ally
at her
âĢĻ re
a ve
a h
Ġsupp ort
ĠTr ump
Ġc our
c es
Ġ ed
Ġg roup
Ġl if
ĠY ou
Ġsy stem
Ġex p
Ġp ublic
ly ,
a .
Ġf am
im e
Ġspe c
ĠA r
l ed
Ġh and
er n
ce pt
a z
Ġm od
Ġc ur
c on
t s
ĠL e
ic s
Ġg reat
Ġw om
, 000
ĊĊ R
Ġha pp
en se
al th
Ġus ed
Ġ1 0
Ġex t
ĊĊ D
is ion
Ġre p
Ġex per
t on
ist s
ĠC l
Ġf r
Ġf ind
c ess
om m
ĠI s
Ġf act
Ġb oth
- -
Ġmon th
i ence
Ġb ig
Ġre ad
ire ct
ĠThe y
Ġc ap
it s
y ing
n er
Ġto ld
ĠW h
Ġw ar
ul ar
ation .
Ġd et
Ġd uring
ent s
Ġs l
S .
m in
e red
Ġs ince
Ġis s
Ġc re
Ġde velop
Ġ 7
p r
ĠA l
Ġa ut
o h
Ġp erson
ord ing
Ġf ew
Ġb o
ĠA s
g et
ation ,
Ġle g
s on
Ġpol it
a red
Ġc ent
Ġfo llow
ĠS h
ort h
ĠI âĢĻ
Ġl ot
ic ally
in es
p h
i vers
Ġbel ie
u res
a j
Ġex pl
Ġpl an
Ġo pp
Ġcont in
r ic
Ġpro t
Ġas k
Ġg ame
ak es
m s
re nt
Ġp ut
i ally
Ġf il
h is
as h
Ġc le
Ġinv est
Ġg ener
ch ool
Ġm ark
Ġre qu
Ġan other
er v
Ġv ot
he s
Ġres p
ĊĊ N
Ġsomet hing
e x
Ġc amp
Ġ 8
at t
c om
i et
ĠF r
ĠI f
Ġdiffere nt
m ed
Ġre le
Ġcomm un
Ġse ason
Ġc he
al e
Ġf ar
Ġdon âĢĻt
Ġl oc
Ġar t
Ġhe ad
iv es
Ġsay s
Ġc or
ĠU .
Ġin f
Ġne xt
ere st
Ġm ight
re t
ĠD e
Ġpos s
Ġch ild
Ġp ass
Ġs oc
Ġper cent
Ġne ver
v iew
Ġde p
Ġe ach
Ġb us
ĠR ep
Ġb est
Ġg ot
Ġqu est
Ġop en
Ġsec ond
Ġall ow
it al
Ġm et
- b
Ġto o
r at
Ġ 9
Ġde m
Ġp ower
ro ss
ĠTh at
ie ld
itt le
ĊĊ L
Ġp ost
Ġse em
Ġfe el
Ġit .
ĠF or
Ġnum ber
Ġch ar
er s,
Ġm illion
Ġp ri
n ce
Ġd at
ar s
gr am
t he
Ġcon c
ĠU. S.
p le
ĠA n
Ġe v
Ġcom e
Ġc are
Ġw in
Ġh ard
ĠU S
e e
Ġd irect
i k
t en
or n
v es
i red
Ġinc re
Ġinclud ing
u c
ĠP ro
Ġcont ro
Ġd ist
Ġto p
Ġcount ry
iz ed
u g
Ġe vent
Ġor d
Ġrec ent
Ġim port
Ġin form
con om
Ġa v
Ġw r
Ġbu ild
Ġcomp le
ch n
Ġwith out
le g
W e
Ġres ult
Ġpro ble
Ġch ang
Ġ ide
Ġf our
a im
Ġad v
b ers
Ġbet ter
Ġh um
Ġst and
ĠB l
u ck
âĢ Ķ
i er
ri end
Ġm ov
ut e
ag es
Ġg l
Ġle t
r al
Ġt alk
ĠâĢ ĺ
iz e
Ġint erest
Ġl ittle
- s
Ġp ay
et s
Ġt ri
u ro
is hed
Ġan n
Ġe l
Ġt urn
ĠAmeric an
Ġm il
at ure
Ġpart ic
ever ,
Ġb ro
Ġapp ro
e ad
ĊĊ E
Ġbe h
le ,
ar n
Ġke ep
Ġd r
Ġatt ack
in al
Ġcall ed
Ġser v
r act
ĠI nd
Ġle ft
th ing
Ġre st
Ġm ove
Ġf ull
Ġ .
aj or
Ġth ings
Ġp op
od y
ĠS c
l ing
ic es
Ġ 0
er s.
Ġl ess
im ate
ab ly
Ġpro gram
os ed
in ess
Ġm ain
ion .
Ġ '
ĠThe re
in s
way s
Ġt est
re m
a pp
Ġe conom
Ġus ing
ert ain
am a
Ġfor m
Ġl ist
- c
- f
Ġpres ident
Ġs chool
ion al
Ġf un
le ction
Ġe as
ot t
er ing
v ious
Ġsm all
I t
Ġ Z
h or
Ġwom en
Ġeff ect
an n
Ġcur rent
Ġv al
' re
w ork
re en
Ġpol ic
Ġd ri
is ed
Ġs it
Ġg iv
Ġp rom
ion ,
Ġle vel
Ġit 's
- t
ĠO b
Ġal read
o .
Ġre ce
ir d
Ġoffic ial
os s
pl oy
Ġex pect
a ign
at ter
Ġhapp en
Ġh ist
Ġm one
ĠA t
Ġj ob
Ġb re
l ess
at or
en g
Ġpro ject
Ġre ason
ant s
g y
Ġnew s
o in
oh n
Ġte chn
Ġs ol
ain ed
Ġpol ice
Ġu nt
Ġh ome
Ġcl aim
Ġth ing
Ġalread y
n ess
Ġhe alth
Ġp ast
ĠUn ited
Ġm ajor
ar ge
r ation
ivers ity
Ġor gan
Ġt y
Ġre se
id ed
Ġb ook
- p
Ġdes ign
Ġpro f
2 0
Ġab le
a ff
Ġc ity
st and
n es
ĊĊB ut
ĊĊI t
Ġv is
Ġal ways
ĠH ow
ĠP h
on ,
i or
Ġb as
Ġa way
Ġcamp aign
r ap
ur ity
ĠP res
ru ct
Ġ- -
ou th
Ġwh y
ĠS he
er al
ain s
Ġg row
us ed
Ġo per
o ot
Ġimport ant
Ġ Q
l in
Ġle ast
Ġh op
he re
Ġc ost
ĠCh r
Ġpl ace
Ġk ill
o x
u red
Ġo ld
- y
ĠA d
Ġc as
l ine
Ġs k
ur s
Ġt ax
Ġf ac
Ġte ll
Ġst re
ĠB e
Ġm ust
Ġen ough
Ġde al
ĠG o
le t
Ġ est
Ġfam ily
w it
ur al
ver t
Ġrec ord
Ġv ide
Ġa ff
ar i
Ġp at
Ġc ame
Ġm en
ĠRep ublic
r .
ĠC an
g in
ment .
Ġf riend
ies ,
Ġm aking
is ter
Ġk ind
Ġv iew
r or
_ _
Ġcon st
Ġmark et
Ġme an
Ġst ory
ĊĊ G
Ġde b
Ġf ree
oc rat
Ġcompan y
Ġlif e
Ġpolit ical
Ġunt il
ĠS p
enc y
us h
Ġdat a
r on
Ġ ve
ain ing
Ġto ok
Ġacc ording
end ing
are nt
Ġproble m
Ġfor mer
Ġin tern
Ġhum an
al f
o ad
Ġf und
ĠJ ohn
au gh
b e
ent ion
Ġf ore
Ġact ually
ĠI '
Ġ1 8
al ity
in c
Ġa ir
Ġm iss
ĊĊT his
Ġ1 2
i ol
ĠS o
ĠD em
ĠC omm
Ġ es
w are
Ġg ive
Ġw on
od e
Ġbec ome
-y ear
ĠE uro
Ġwork ing
Ġof ten
Ġb it
em ber
Ġl arge
Ġe ver
Ġ1 5
Ġcl ass
Ġbus iness
ĠM ar
c rib
ĠR uss
id er
Ġe lect
m ost
ĠP l
ies .
in a
- d
ut ure
Ġo pt
ĠM c
o int
c l
Ġde v
Ġto day
pp ed
Ġse ver
Ġch ange
ĠPres ident
Ġn ight
Ġed it
Ġmed ia
ĠS y
Ġret urn
pe c
Ġr a
Ġ$ 1
Ġwor d
s ide
ar li
Ġdon 't
im es
Ġl a
ne y
is ing
g u
Ġinform ation
ĠM ay
Ġse en
ak en
iv ed
Ġapp ear
ra ft
it her
Ġf ive
Ġme et
Ġper form
ĠS e
Ġ =
id d
Ġe arly
Ġs ing
Ġwhe ther
cc ess
ĠM an
Ġyou ng
Ġp ot
Ġchar ac
Ġha ving
Ġchild ren
Ġsu re
ĠY ork
m ber
Ġsever al
em pt
c hed
Ġw ent
ĠO r
Ġpro cess
id es
Ġmil it
Ġc rit
ly .
b s
ĠC on
ort un
ĠA ll
i qu
Ġc ase
Ġmone y
an ,
ar ing
Ġpro p
Ġsoc ial
id ence
i ate
ro p
Ġcontro l
art ment
Ġh our
Ġlike ly
Ġal ong
Ġc ertain
Ġinv ol
ĠB r
Ġsh ort
ĠEuro pe
en n
Ġe qu
Ġl ater
Ġinvest ig
and s
Ġ vers
if ied
i ver
ĠC ol
Ġ1 1
ĠIt âĢĻs
Ġh om
Ġf uture
Ġf ight
Ġo cc
Ġst at
ap s
g er
ent ial
Ġb en
Ġp ress
Ġse x
- 1
Ġcour se
b all
Ġthough t
Ġaut hor
ĠC ar
Ġex amp
Ġquest ion
Ġw rit
âĢĻ ve
i um
Ġan t
our n
Ġpl ac
Ġam ong
- m
Ġch o
Ġon ce
ĠO n
Ġloc al
am es
Ġcommun ity
is c
is on
Ġv iol
olog y
Ġpri v
re w
Ġ19 9
on y
Ġunder stand
Ġprodu ct
Ġy et
Ġav ail
ed eral
Ġprot ect
Ġposs ible
al d
Ġwith in
ĠIâĢĻ m
Ġdo ing
ur ch
Ġh old
gg est
Ġkn own
i ans
Ġac ross
ĠâĢľ I
n ect
o ll
Ġact iv
ĠSt ate
Ġann oun
ĠH ouse
u ff
Ġm akes
ic le
Ġen g
Ġf ail
Ġ201 6
ens ive
iv id
ard s
Ġsu ggest
l f
e b
Ġc ut
Ġsaid ,
it ive
Ġw ater
Ġget ting
ĊĊ J
Ġbelie ve
Ġpro b
Ġor ig
ĠOb ama
ac y
ĠW hen
Ġstr ong
ment ,
f or
Ġgiv en
b y
an e
Ġl ine
Y ou
ĠDem ocrat
ub l
i ber
Ġm us
le y
end ed
Ġtr ad
Ġn on
is k
it ing
Ġord er
ar m
ia ,
p or
ĠA m
Ġf re
Ġs ent
ĠUn iversity
Ġl ight
or ld
am ent
ore d
as hing
Ġsa f
ir on
ĠS en
ĠT e
o ber
ay ,
Ġfil m
Ġ ident
Ġit ,
Ġs our
Ġn et
Ġn ational
Ġl im
E R
Ġme ans
Ġc reat
Ġplay ers
Ġind ust
Ġ &
Ġmem bers
re st
Ġ i
Ġcl ose
ĠChr ist
t ed
el s
iz ation
Ġavail able
ĠM in
Ġ3 0
Ġc a
Ġl ove
ur ther
Ġcon d
Ġ201 5
iv ing
Ġem ploy
Ġl ow
b r
Ġacc ount
ĠC ent
as ter
o ver
Ġvide o
Ġcom es
Ġ ,
n ot
Ġh ig
g ress
Ġf oc
ĠF l
Ġsu ccess
Ġcour t
Ġday s
le ment
b ook
ĠW hat
Ġde ath
ĊĊ 1
Ġm om
Ġal most
Ġtr ying
Ġn ame
5 0
ur y
Ġto get
Ġtoget her
ie f
ag ed
Ġcle ar
Ġdid nâĢĻt
Ġb ased
ĠC om
âĢĻ ll
2 .
u se
Ġask ed
Ġfollow ing
ĊĊH e
Ġexper ience
Ġimp ro
ĊĊA s
Ġs ix
Ġr ul
ri pt
Ġb ill
ust om
un ch
res ent
Ġ X
al ,
Ġh alf
Ġl ive
ur d
Ġlook ing
ĠB ro
ab ility
.. .
ĠCan ad
r ict
ere nce
Ġstart ed
min ist
st er
iss ion
il ar
Ġ201 4
ition al
Ġ /
u ed
Ġpr act
ra el
Ġeff ort
oc i
c her
ri es
Ġv ict
Ġph ot
ĊĊ U
Ġf av
Ġreport ed
ul ation
-- --
Ġdec ision
âĢ ¦
s h
Ġp ick
Ġcomp et
Ġsec urity
ag ue
Ġacc ess
Ġv ar
Ġb ad
th ough
a id
Ġm or
i ,
Ġt aken
Ġbeh ind
re am
Ġ ]
ro du
3 .
ot s
og rap
h ile
Ġne ar
ĠCl int
ĠD on
Ġtim e,
or ,
er man
Ġs al
Ġent ire
Ġl at
Ġan al
Ġth reat
oc u
o ff
Ġm ar
Ġmilit ary
Ġconc ern
ivid ual
un e
b ack
os p
Ġqu ick
ru g
ĠP ol
le .
Ġp ar
ra w
Ġpres ent
Ġd one
ĠN orth
ĠD ep
Ġtr y
or ies
ĠE x
Ġs ide
Ġp ubl
ĠE ng
Ġm ult
u ge
o f
l er
Ġdisc uss
ĠP r
Ġtim es
e v
Ġto t
ĠA f
- l
Ġpre vious
Ġf all
Ġfo od
Ġl and
Ġpro per
Ġgam es
a f
ver age
Ġbr ing
Ġr ather
Ġs um
Ġcomple te
Ġ1 6
ĠT o
ĠO ne
Ġthat âĢĻs
Ġspec ial
Ġpre t
g ed
Ġfo ot
Ġthem .
ĠS ec
Ġs w
Ġ er
ĠW ar
Ġm ind
Ġbl ack
as k
ashing ton
ep t
ĠN ational
Ġt aking
Ġind ividual
Ġm ess
Ġatt empt
Ġdoes nâĢĻt
Ġ z
Ġc ou
Ġtim e.
Ġcharac ter
h y
u ly
Ġcom b
Ġh it
ab l
Ġsing le
Ġa ction
- old
Ġsome one
ĠG r
wit ter
ĠB rit
ĠC ity
v iron
Ġc ult
Ġfr ont
el t
Ġrese arch
Ġthat ,
Ġwant ed
Ġre du
ir m
ĠIs rael
Ġprob ably
A T
Ġdet ail
Ġke y
Ġ( 1
ar ter
Ġb ank
Ġex ist
Ġs us
Ġle arn
Ġm atter
Ġnot hing
ĠC al
Ġben ef
Ġel se
ic ult
ĠI m
ĠW orld
Ġto ward
ar r
Ġl arg
Ġpos ition
ĊĊâĢľ I
ĠA ust
Ġcon nect
Ġyear ,
ir c
Ġide a
p ly
Ġch all
Ġar gu
Ġbe gin
Ġen c
Ġhist ory
ĠâĢľ The
Ġf ederal
Ġ1 4
Ġt re
Ġre pl
ot e
Ġim m
Ġc and
Ġd i
i -
Ġc oun
Ġsim ilar
Ġf ire
Ġcre ate
o id
Ġr isk
Ġdes crib
Ġbl ock
Ġcom pl
Ġe lection
Ġw ro
Ġt arg
Ġh ouse
Ġth ird
Ġst op
Ġe ither
Ġw a
ĠW ashington
ag e.
on es
Ġr ac
ol ution
Ġst ep
if y
il t
Ġf ig
rem e
ĊĊA nd
d d
s w
ĠC o
y n
ĠClint on
t o
Ġw atch
p ar
Ġf urther
Ġex ec
rib ut
ll ing
a ult
Ġc ustom
ir l
Ġpart y
Ġsign ific
m y
p ite
Ġcom ing
ĠW ith
Ġch arg
m .
a i
Ġfin al
Ġmonth s
Ġf ield
Ġsay ing
Ġtr a
Ġm ass
en e
s :
ĠJ an
n ow
pec ially
Ġyou âĢĻre
Ġme as
Ġche ck
ĠS u
am ed
un g
3 0
Ġ1 7
Ġst ri
at ic
c he
Ġ #
a ul
Ġsu per
if e
ace book
ĠS outh
ĠD av
ĠA pp
ĠG e
o ke
om in
Ġ201 7
ĠIn st
Ġg un
Ġbre ak
Ġs ound
as ing
Ġen er
a pe
Ġseem s
Ġbe gan
Ġd ocu
Ġser ies
iv il
ĠG u
Ġex c
Ġfin anc
Ġd ue
ĊĊW e
e al
ib ility
Ġem ail
Ġd am
he ad
-year -old
l am
Ġl ab
Ġd ou
s y
Ġe y
Ġam ount
ob al
Ġinter view
m b
Ġro om
Ġin it
Ġrun ning
Ġt reat
ĠIn tern
pl ay
ĊĊI f
Ġl ate
Ġrep resent
Ġprov ide
ĠA ss
ĠP art
Ġad minist
Ġhim self
Ġfe at
Ġthem sel
Ġprof ess
- w
3 ,
Ġ" I
Ġne g
pp ing
ĠJ ust
ĠI r
Ġin j
a ut
se c
. 5
Ġsit u
Ġany thing
Ġit self
l im
l u
Ġb all
at s
Ġab ove
Ġrel ations
Ġspec ific
art h
in ed
B C
Ġiss ue
ĠSt ates
Ġd rug
Ġse lf
Ġ Â
ĊĊ" I
Ġfor ward
Ġyear .
Ġcand id
Ġg round
Ġbel ow
Ġdiff icult
Ġbec ame
I N
ĠRepublic an
Ġc op
Ġnet work
g o
itt ed
am er
o on
Ġ1 00
ity .
ist ic
Ġindust ry
Ġal leg
Ġw alk
Ġgo al
at ur
Ġb illion
Ġsim ply
um b
anc es
ag e,
i od
Ġcontin ue
Ġsignific ant
en ,
ĊĊF or
ĠE d
Ġmus ic
Ġresp ons
ĠT witter
Ġmin ut
i am
Ġcap t
Ġev idence
at ors
Ġplay er
Ġty p
ĠR es
Ġwho le
Ġr ad
Ġf ace
1 ,
Ġpret ty
ow s
Ġde ep
Ġ2 5
r ight
ir t
ĠB ar
Ġsa w
O N
ri ed
iet y
Ġrele ased
ĠG erman
i enc
Ġout side
re g
Ġqu ite
ĠM ed
og n
2 ,
Ġmem ber
Ġleg al
Ġa p
Ġst ay
Ġag ree
Ġmom ent
Ġinclud e
- h
Ġt em
Ġen viron
ance ,
Ġlead ers
I S
Ġcan âĢĻt
Ġd est
id ay
Ġe arli
Ġopp ortun
Ġh ost
ĠW est
ang u
Ġstud y
Ġl ost
Ġtr ack
Ġeconom ic
0 .
ate g
cc ording
Ġes pecially
r ing
ull y
l ight
Ġs ense
ourn al
it ions
Ġinst ead
Ġsh oot
Ġk id
ĠH is
Ġsh are
Ġofficial s
Ġplay ed
k s
ĠM us
T his
Ġan im
Ġcomm on
idd le
ĠHow ever,
ĠAmeric a
s. âĢĿ
ity ,
Ġg en
Ġph ys
Ġother s
Ġplay ing
it ution
Ġp le
s c
ĠA b
w here
Ġ19 8
ĠA fter
Ġm ag
Ġyear s,
ĠC ong
Ġj ud
Ġ :
Ġm ot
Ġre d
Ġpolic y
Ġb ar
ap er
Ġab s
Ġro le
' ve
ĊĊThe re
Ġtarg et
Ġp ain
ĊĊO n
Ġbuild ing
Ġwe bs
Ġpriv ate
Ġj oin
Ġvers ion
Ġadd ress
Ġsh ot
ĠSy ri
Ġp ie
Ġevery thing
iv al
Ġcons um
ĠO ct
Ġl ink
1 .
Ġsu ff
Ġadd ed
Ġwr ong
if t
ĠN ot
ep end
le v
Ġc red
ac hed
Ġcompan ies
ĠWh ite
Ġdet er
Ġpot ential
Ġp ort
Ġac cept
Ã ©
os ing
ĠW ill
Ġwom an
Ġ5 0
Ġgener al
Ġl o
il i
og le
Ġt it
ic e.
Ġre ve
Ġper iod
Ġp arent
Ġed uc
Ġcont ract
er y
ĠS ept
ĠM arch
Ġhe ld
in ation
Ġe p
ĠM ond
A N
Ġl ed
l t
O R
ul arly
Ġhig her
Ġneed s
Ġ |
or .
ues day
Ġst ru
Ġshow s
ĊĊS t
ate ,
Ġre view
ĠM ich
Ġrel ig
Ġc e
ĠDep artment
Ġob ject
Ġmod el
an a
Ġspe ak
att le
Ġfun ction
Ġup d
Ġevery one
Ġfoc us
ĠI' m
A R
Ġa ud
on se
p ut
Ġare a
Ġpoint s
Ġb ody
Ġso ld
Ġcons ider
ĊĊâĢľ The
ĠF acebook
h am
ĠN o
itt ing
Ġ )
Ġp red
end er
Ġsp ace
Ġw ind
Ġright s
Ġser ious
Ġpop ular
* *
Ġstud ents
u el
ĠM y
med iate
Ġapp lic
f ect
Ġsur pr
is l
le ar
o ard
Ġpr im
Ġhop e
Ġso on
Ġde ad
Ġan sw
u ary
id ing
v al
ally ,
ĠSt e
Ġperson al
ĠA ug
h od
Ġwh ite
Ġyear s.
or ing
ĠThe se
ĠT uesday
Ġd en
Ġcomp ut
il ities
re et
c ing
Ġwro te
ent ly
ic ro
Ġcre ated
n ed
Ġsc ient
Ġc irc
pr il
Ġexec ut
ĠD o
Ġ2 4
ive ly
is ,
Ġcr im
ap t
ĊĊA n
Ġimp act
Ġs en
ĠIt 's
Ġp ack
c hes
ĠH ill
Ġserv ice
Ġst aff
Ġne arly
ate .
Ġdid n't
om b
ĠH ar
Ġter ror
ĠP e
Ġcont ent
Ġres pect
Ġneed ed
u e.
A S
Ġre v
ĠS m
ĠAust ral
Ġtot al
Ġlong er
Ġ1 3
Ġhow ever,
as ,
e ch
her n
ĊĊ K
it iz
Ġne cess
Ġfav or
ic e,
Ġdevelop ment
b ody
Ġfor ce
our t
m ing
le x
c il
t t
Ġar rest
Ġex act
ia .
ed nes
Ġcl ub
Ġexp ress
ation s.
Ġbec om
Ġsp ok
ĠE n
Ġco ver
Ġcom ment
Ġv ol
o e
Ġrecent ly
Ġener gy
h ood
Ġis nâĢĻt
Ġcan not
Ġintern ational
Ġannoun ced
ru pt
et t
ednes day
s, âĢĿ
Ġle ave
Ġc ivil
un t
r ay
ĠC ount
urs day
Ġrece ived
Ġh y
Ġl angu
Ġp ur
Ġhe âĢĻs
Ġorig inal
' ll
Ġw orth
ater ial
Ġbro ad
Ġrelations hip
r ain
ĠM r.
Ġo il
Ġresp ond
Ġ ur
l oad
ĠA pril
Ġco ll
Ġresp onse
av ing
Ġhist or
c ast
in ,
on st
E S
Ġhour s
Ġso ft
ĠR ed
e g
f er
Ġgl obal
Ġany one
du ct
Ġstate ment
Ġhe art
h aps
Ġfinanc ial
Ġsour ce
Ġro ad
Ġdef in
Ġrequ est
vert ise
Ġst ates
ĠS und
Ġty pe
rough t
ag er
c er
Ġst ore
Ġim mediate
ĠA ct
ĠW ednesday
ĠP al
Ġd iv
ot o
ag ing
a el
h ic
ell ig
Ġt ou
Ġincre ase
ĊĊW hat
Ġm id
Ġpubl ished
ĠCal if
it er
Ġab ility
ĠTh ursday
Ġch ance
Ġrele ase
Ġ" The
Ġad m
ĠNew s
ĠWh ile
ĠJ ap
ang er
Ġstud ent
Ġwe ap
ĊĊW hen
Ġt akes
an .
al t
Ġe mer
ĠS an
Ġs qu
Ġcurrent ly
Ġexpect ed
at ural
igh b
Ġl ack
Ġart icle
ĠG od
Ġdec ided
Ġfore ign
Ġg irl
ĠE m
ip le
an y
Ġiss ues
Ġpo ll
Ġc al
iqu e
end s
Ġm other
os ition
Ġbu y
ĊĊA d
j oy
Ġest abl
itt en
ove mber
ĊĊ" The
l ike
Ġm at
Ġcol le
Ġde l
ĠN ow
Ġg ave
Ġchang es
Ġrequ ire
c ript
act ion
ĠP er
ĠO ff
ure ,
Ġs ort
ation s,
Ġc ell
Ġcol lect
ru ction
Ġp ict
he l
Ġcou ple
5 .
Ġwho se
Ġbo ard
4 .
ut h
ĠT V
H e
Ġar ri
ĊĊT h
ĠGe or
__ __
ough t
Ġsub ject
Ġf em
9 .
Ġthere âĢĻs
Ġon line
Ġl og
et er
ĠS ome
ĠIs lam
Ġc ard
ĠGo ogle
o le
S t
Ġsim ple
Ġob s
Ġvis it
Ġ19 7
1 0
Ġaff ect
Ġwork ed
ĊĊH ow
ou d
Ġdirect or
Ġsec ret
ro wn
Ġsay s.
Ġpre vent
Ġval ue
ĠJan uary
Ġint rodu
Ġde li
ĠCh ina
y le
Ġinf lu
Ġse ek
Ġvot e
Ġvict im
ic ated
Ġcap ital
Ġto ol
g ing
Ġeas y
Ġv ia
Ġm aterial
im ent
ĠF eb
Ġturn ed
Ġrec ogn
a ily
- st
Ġ ill
Ġcon v
Ġm is
Ġ {
Ġl iving
Ġpartic ip
Ġappro ach
Ġimpro ve
a ur
Ġgroup s
ĠB y
Ġthat 's
ĠDav id
Ġthemsel ves
ĠSept ember
Ġlaw s
Ġr ound
Ġc y
ĠEurope an
Ġun c
Ġexamp le,
e xt
Ġleg isl
ĠN ovember
ĠAf ric
b it
Ġsp ent
Ġbu ilt
Ġd ig
ĠC ourt
Ġreg ard
ĠP aul
Ġoff ice
olog ical
Ġh on
ĠA g
Ġp ull
Ġreve al
Ġth ous
g est
Ġmor ning
re l
Ġf elt
Ġn orm
ĠA ng
ĠG l
Ġearli er
Ġtra vel
Ġne ighb
ĠCalif orn
Ġ4 0
ke y
ig r
Ġhe ard
âĢĻ d
iz ing
ĠC or
ad es
Ġdem and
Ġre pe
as es
ĠM r
Ġr ate
Ġm atch
Ġb ase
Ġh uge
Ġmet hod
Ġins ide
Ġ0 .
Ġcount ries
ll ed
Ġenviron ment
Ġ1 .
Ġf ather
8 .
Ġtr ue
ch ie
Ġte xt
ĠP ark
Ġto wn
ĠRuss ian
on .
re ct
ĠIâĢĻ ve
ĠJ une
ĠK ore
Ġprodu ction
u e,
Ġb ud
Ġhim .
Ġfriend s
he m
ct or
ĊĊT hat
Ġst e
Ġlat est
ĠJ uly
Ġe t
Ġper fect
-b ased
ĠU K
Ġen joy
Ġgo es
ĠOct ober
- up
Ġen s
Ġ +
atur day
ĠAug ust
Ġinvol ved
ce mber
Ġchall eng
ĠM e
n ers
Ġhe ar
Ġwant s
Ġkn ew
- in
Ġoff er
Ġa verage
Ġco ach
Ġf ear
ud e
Ġkill ed
ĠCong ress
Ġwe âĢĻre
es tern
re ed
8 ,
Ġre ach
is hing
Ġget s
ĠE l
Ġse par
. ,
Ġn ation
ance .
Ġhe av
Ġis ,
Ġc ode
is es
e es
Ġgrow th
Ġl ower
E N
Ġthat .
ĠBrit ish
i res
Ġb rought
Ġcrit ic
ĠSt reet
ra z
Ġdoes n't
Ġc ause
ur ning
Ġallow ed
Ġf air
. m.
Ġpat ient
Ġh ot
Ġbeh av
c y
ĊĊ V
" .
for ce
Ġpartic ular
Ġcont act
u s,
Ġs ite
Ġtri ed
ĊĊ (
Ġspok es
und red
Ġquest ions
Ġvar ious
ĠP ost
et ,
Ġmeet ing
Ġset t
Ġf ans
u le
Ġc itiz
Ġpre p
Ġres ident
Ġw ide
Ġp ers
ĠS ch
6 .
Ġpr ice
Ġse arch
Ġpl ans
u it
y ond
9 ,
op h
Ġdocu ment
Ġweek s
Ġlook s
Ġv o
ar ily
ĠFr iday
Ġm e.
ure .
Ġeng ine
Ġb i
Ġex am
Ġrem ain
Ġa ge
un k
Ġmed ical
ĠS w
Ġresult s
Ġus ers
ĠDe cember
ĠBl ack
Ġf ast
Ġre b
Ġcl os
ide red
Ġstand ard
Ġst ruct
Ġim ag
Ġadd ition
Ġs ong
ov ed
n a
Ġm ention
Ġw ond
ĠC ont
ra q
Ġthey âĢĻre
Ġstru gg
ĠMond ay
ĊĊS o
Ġhere .
ĠS aturday
ĠAmeric ans
pl es
Ġl iber
Ġdo ll
Ġter ms
Ġh or
Ġsp ort
Ġind epend
g round
âĢĿ .
Ġare as
Ġpl at
an i
en ed
Ġ ess
Ġsc reen
Ġtechn ology
ĠT ex
Ġst ar
Ġinclud ed
ĠP at
itt ee
ib ly
osp ital
Ġsl ow
at ory
ellig ence
en .
Ġprot est
Ġph one
es e
ĠI S
Ġqu arter
vertise ment
h old
Ġb oy
ec ause
a âĢĻs
ĠDon ald
Ġse ven
at ives
Ġcons erv
se qu
ĠM ark
Ġbo x
7 .
Ġcon duct
ĠR om
am s
ĊĊ You
Ġm e,
Ġbig gest
Ġa chie
Ġsex ual
Ġter m
al .
Ġu nd
Ġcons idered
Ġsur ve
Ġs n
ĠQ u
ĠMus lim
ĠH er
Ġwork s
r im
Ġm ach
Ġinc ident
Ġ201 0
p ro
Ġp ark
in e,
Ġcl imate
on e.
he t
Ġtalk ing
Ġe ight
Ġdes pite
6 0
Ġd raw
f ield
ĠI raq
ĠJap an
Ġj ournal
Ġviol ence
Ġteam s
e ared
in o
ĊĊA l
Ġminut es
Ġ <
Ġass oci
Ġa w
Ġ2 1
E D
us ion
Ġ1 ,
ĠJ ew
Ġb ott
om p
et .
ad d
f ully
ro om
Ġext ra
ĠS and
ar ning
Ġl oss
c ial
Ġsum mer
Ġexamp le
Ġdef ense
Ġ( w
Ġyou 're
u f
ĠL ond
? âĢĿ
able .
Ġdou b
Ġl ay
r ast
Ġincre asing
Ġway s
cher s
Ġpri or
Ġsc en
ĠB ill
Ġp aid
or ter
Ġinst all
Ġadminist ration
- A
Ġcar ry
Ġpartic ularly
ur t
ru ary
Ġres our
Ġs ens
ent ially
ĠMc C
it ch
Ġtr ade
Ġfe ature
er c
. com
Ġro ck
Ġnow ,
en ing
âĢ ĵ
Ġman age
Ġ @
he st
ip s
Ġfl o
Ġsk ill
c oin
Ġass ist
Ġmov ie
ce ed
p ir
- 2
Ġwas nâĢĻt
o o
Ġ201 3
1 1
. [
ĊĊA t
Ġpolit ic
Ġh undred
uc lear
id e,
Ġ }
Ġch ief
Ġext reme
ĠE ast
id e.
Ġexper ienc
on e,
Ġthem ,
Ġrese ar
Ġwork ers
ĠN et
ĠM ore
Ġcourse ,
Ġquick ly
v il
ĠSt at
i ant
c o
Ġd ro
9 9
Ġbud get
er ve
Ġf ill
O P
ĠDemocrat ic
um e
Ġreport s
it ,
Ġsc ience
Ġr out
Ġcertain ly
et y
Ġlead ing
7 ,
ĠSund ay
ab or
Ġcon vers
Ġocc ur
t ain
Ġwr itten
sy ch
Ġstart ing
Ġav oid
e ff
ĠCh ar
Ġserv ices
ren ch
Ġrequ ired
Ġqu ality
Ġst uff
Ġup on
Ġmod ern
Ġproble ms
s. "
op s
ĠRuss ia
Ġm ob
Ġexact ly
Ġn atural
Ġsur v
ic ,
ib r
Ġcan 't
ĊĊW hile
Ġu lt
or ters
Ġ201 2
= =
ĠSen ate
augh t
Ġgiv ing
w o
Ġreg ul
Ġgu y
ate ly
6 ,
o llow
Ġm ent
Ġcomplete ly
Ġex cept
an ch
in n
- g
e ed
Ġp urch
Ġg as
d own
Ġfoot ball
k y
ac her
ĠK e
ĠFeb ruary
Ġlet ter
Ġc amer
ord er
Ġpro gress
Ġlook ed
Ġem b
ict ion
Ġc ross
ĠâĢľ A
O S
Ġshow ed
it es
it .
Ġ( A
row d
ess ion
Ġm ill
ove red
ĊĊA fter
in e.
ĠP ar
Ġh ous
Ġbl ood
Ġce le
Ġr ank
Ġplat form
Â Ń
Ġ ...
ines e
Ġp an
ĠM or
Ġdem onst
Ġind ic
Ġcommun ic
ĠE ven
Ġanal ys
Ġun f
Ġ( and
ly ing
ĠK ing
Ġnum bers
- r
Ġmajor ity
Ġmult iple
m p
l ish
F L
et h
ĠC oun
Ġspe ech
f ort
Ġperform ance
Ġdescrib ed
Ġ2 .
Ġim age
h ib
u k
Ġro b
ĠInd ian
Ġf an
Ġhappen ed
Ġf ix
Ġpr ison
is .
Ġn amed
ĠMich ael
ĊĊT o
Ġob vious
ĠMin ister
Ġm iddle
Ġant i-
ar ian
ay s
Ġrem ains
Ġwell .
in ary
P h
Ġp en
Ġse ll
Ġdec l
h a
Ġopportun ity
ĊĊO ne
Ġp ath
ain t
Ġinclud es
Ġa head
Ġand ,
it or
Ġbe yond
ak er
Ġ il
Ġf ile
Ġpur p
ac ed
Ġ$ 2
Ġfig ure
ĠD es
Ġtw e
Ġthrough out
Ġbl og
ĠS oc
Ġsitu ation
Ġla unch
ĠT ur
Ġper m
i .
Ġimp lement
Ġfeat ures
ĠG ener
Ġus ually
Ġgrow ing
Ġfin ally
I T
Ġit em
Ġlead er
Ġrec omm
ight s
Ġout .
Ġtr aining
ur g
Ġhand s
s, "
ĠI nt
Ġprov ided
ĠF irst
b an
Ġsoft ware
imate ly
es ter
Ġdis play
Ġcr is
Ġcor por
Ġf irm
c ome
Ġpie ce
Ġal though
Ġtr ain
Ġse lect
A C
Ġrem ember
Ġspe ed
us es
as c
augh ter
Ġrece ive
Ġexpl ain
Ġatt ention
Ġcons ist
Ġfact ,
ĠC ons
Ġtoward s
ĠâĢľ We
z e
Ġin n
Ġfor ces
Ġar m
b l
Ġadd itional
Ġcomple x
Ġag o
y l
Ġop in
Ġbr ain
Ġcond ition
Ġsus pect
Ġsomet imes
Ġt ro
Ġd anger
A L
ĠG reen
ĠJ ack
ĠThat âĢĻs
Ġpop ulation
Ġep is
e gr
Ġcontin u
Ġalleg ed
I C
Ġgam e.
f ord
Ġsub st
Ġsp end
ens ion
Ġm urd
on ent
u x
Ġs le
Ġbegin ning
Ġl ives
Ġcont ribut
Ġdesign ed
Ġc ast
Ġgr ad
- M
Ġhe 's
Ġdo g
Ġdri ve
Ġmove ment
Ġcare er
ĠâĢ ¦
Ġt our
ĊĊ Y
ĊĊâĢľ We
Ġevent s
z z
ĠS er
ĠCh inese
Ġthous ands
ĠIr an
Ġcoun ter
Ġworld .
Ġ( C
led ge
ĠT im
Ġpresident ial
ĠPl ay
Ġus er
5 ,
Ġ( S
Ġsub s
Ġcon cept
Ġdis app
Ġb and
anc ed
-t o
Ġp ow
Ġclaim s
B I
Ġconf erence
us ing
Ġw at
Ġtou ch
Ġcas es
Ġhelp ed
ex ic
Ġ( R
ou l
Ġenc our
ĠJ ames
Ġn uclear
Ġ ver
Ġd om
ir th
Ġst or
Ġread y
ĠSt ar
ad em
---- ----
ĊĊW ith
Ġpre c
h ,
Ġs ize
ic ient
Ġexecut ive
Ġa im
im um
ĠT H
Ġsc ore
Ġt en
Ġs il
ate ver
ĠR ich
Ġrel ative
ĠWill iam
Ġp age
amp ions
Ġfam il
ct ions
Ġpl ant
Ġwon âĢĻt
Ġ ut
Ġcomm and
Ġper haps
ri ef
Ġsaf e
Ġinterest ing
Ġb an
ĠCount y
Ġorgan iz
Ġmess age
Ġmy self
Ġmov ed
Ġoffic ers
ber g
Ġsen ior
Ġsp ot
ĠS erv
Ġ ign
j u
t .
Ġd ark
Ġc at
20 1
ol ute
Ġb od
Ġt able
ĠAss oci
Ġlarg est
Ġincre ased
U S
Ġwr ite
op er
ĠSu per
m on
Ġappear s
Ġdiffere nce
ĠM on
Ġw all
Ġ( 2
Ġst ra
ĠT or
ĠM art
Ġil leg
ĠPart y
ĠRepublic ans
uf act
Ġr ange
ĠThe n
Ġcall s
Ġd raft
Ġpower ful
Ġcomp ared
Ġde g
ĠH ere
Ġcrim inal
Ġc rowd
Ġr ace
Ġest im
Ġb al
a 's
ll ,
Ġparent s
Ġs at
Ġsm art
pp er
Ġtr ust
ast ic
Ġfor ced
ĠV al
r am
Ġpo or
ĠApp le
w ood
Ġdirect ly
e an
Ġread ing
Ġpos itive
ĠS im
Ġcop y
Ġansw er
Ġopt ion
ĊĊAd vertisement
Ġsaid :
Ġth row
ific ation
Ġup .
Ġme ant
Ġp us
Ġrul es
Ġs on
Ġ6 0
Ġa ware
C .
g es
Ġco ol
Ġevent ually
Ġdr ink
Ġref er
4 0
Ġword s
Ġm ix
ĠR ober
Ġst ories
- se
j ust
Ġsus p
ĠEng lish
a ud
ĠW ind
Ġar ch
Ġthis ,
" ,
Ġ2 2
ous ly
Ġpart s
ĠA ir
p s
Ġaut om
ĠF rench
Ġmov ing
ĠI I
Ġsur f
Ġn ature
Ġsh own
Ġallow s
op e
Ġeas ily
Ġover all
Ġr at
n y
ĊĊ" We
Ġyour self
Ġan g
Ġcle an
ĠO f
Ġt al
Ġt ask
ĠChrist ian
Ġwrit ing
ĠE U
ak ers
Ġrelig ious
Ġinvestig ation
Ġg ives
ĠC he
It âĢĻs
ĠB en
Ġp aper
Ġanal y
Ġprom ot
ĠM exic
Ġnecess ary
et ro
4 ,
sec ut
re c
ĠH am
Ġstre ng
ĠAng el
om en
ĠCent er
. )
Ġmay be
Ġpeople ,
ĠB el
ĠT imes
Ġh ospital
Ġapp eared
Ġorgan ization
ro y
h o
ĠLe ague
or id
Ġimp ress
Ġcom ments
m ore
Ġmean ing
le ase
Ġphys ical
ent y
I n
Ġmar ri
Ġes c
b and
ĠTex as
Ġorig in
b oard
c raft
Ġcent ral
Ġprop os
Ġs we
ĠJ er
Ġwebs ite
Ġsign ed
it ness
y an
Ġd rop
ĠâĢľ W
Ġbenef it
Ġdetail s
ĠS chool
Ġweek ,
it ut
Ġexp and
Ġm ist
Ġcor rect
ĠFr anc
Ġbe aut
Ġlif e.
or s,
c le
Ġl ic
Ġout ,
i ers
Ġapp arent
en ge
Ġeffort s
Ġlevel s
Ġchang ed
Ġst o
ock ed
ĠIntern ational
ag on
b um
ograp h
Ġtr aff
Ġpass ed
Ġint elligence
Ġ *
ive ,
Ġdis e
Ġreg ular
Ġr ap
Ġmin ister
Ġday ,
av es
Ġvot ers
O T
Ġconf lic
Ġstra ight
Ġimmediate ly
Ġthink ing
Ġfre ed
Ġal tern
Ġsuccess ful
ĠAr ab
or ney
Ġpr inc
ow ,
Ġis n't
Ġpre m
Ġ â
ĠD ay
ĠD r
Ġfre qu
ĠInd ia
Ġre form
Ġv ari
Ġre n
Ġcontin ued
ĠSm ith
Ġpress ure
ĠE arth
Ġadv ant
Ġseason .
Ġatt ract
Ġfe ed
Ġla un
Ġwe b
Ġweek end
ĠC r
Ġcle arly
ĊĊA ccording
Ġs end
Ġlangu age
Ġprim ary
Ġsp read
res h
Ġe arn
Ġmeas ure
Ġgu ys
b ed
ĠCoun cil
Ġbro ther
Ġman ufact
Ġpred ict
Ġsa ve
ĠPol ice
id ge
Ġrel ated
Ġfail ed
Ġre ached
Ġall ,
Ġhigh ly
ĠBro wn
ĠCaliforn ia
Ġag o,
ism ,
Ġex ch
Ġtr uth
Ġun s
m a
Ġthere 's
Ġd ied
c ul
Ġfull y
Ġyou .
Ġr are
ĠÂ £
Ġlim ited
ar ies
Ġk ick
' d
Ġeconom y
Ġke pt
Ġthere .
I A
Ġp sych
E O
lev ision
ĊĊC h
Ġpeople .
Ġmin or
Ġsol ution
Ġch air
Ġc ities
ĠCom p
n ces
Ġ201 1
ir ing
Ġcred it
Ġ19 6
Ġha ven
Ġlim it
is ions
Ġsh ut
ĠN e
Ġf a
ite ly
ĠFl orid
r ated
ĠDemocrat s
ĠH igh
Ġattack s
Ġsp ending
Ġbe at
ter m
Ġ( @
Ġdeter min
Ġseem ed
Ġoffic er
Ġem ot
Ġfollow ed
Ġstr ateg
ag o
rib ution
st on
-t ime
Ġus es
Ġauthor ities
Ġ x
Ġprevious ly
ist an
ĠF in
Ġcent er
Ġag ency
ĠHill ary
Ġ >
ag n
ĠD ef
ĠM ac
Ġjob s
8 0
ĠU p
it ute
Ġ2 3
Ġcost s
Ġcall ing
ĠB er
ĠEng land
ĠG old
ĠGeor ge
ĠR ob
ch an
b ox
Ġun ique
Ġkid s
Ġtr ou
Ġhim ,
ĠB re
ank s
Ġ Ð
ĠCh ic
al y
Ġbr and
ĠSc ott
Ġd ire
- C
Ġwill ing
Ġhapp y
Ġsp ac
Ġpro s
Ġp un
Ġbas ic
ari ju
ĠA nt
Ġsay ,
ĠE very
Ġg reen
Ġdevelop ed
Ġint egr
Ġl ik
Ġsp ir
Ġj ump
ro id
Ġsupp osed
ĠR ec
Ġsaf ety
Ġg one
Ġn am
Ġnow .
Ġreg ion
port s
ac hes
Ġgr and
Ġca used
Ġp ush
Ġens ure
Ġcreat ing
E C
al es
ain ,
ig ration
Ġv irt
Ġcolle ge
Ġref lect
Ġcomput er
Ġl iter
Ġdef end
Ġlarg er
Ġadd ing
Ġh ar
Ġal bum
ĠF rom
Ġcandid ate
Ġgreat er
Ġbehav ior
Ġcom mer
ĠLond on
all ed
iv en
Ġproduct s
Ġon es
Ġpro ces
Ġcontin ues
Ġoff ered
ir med
enc es
ar ,
b on
w hile
Ġpract ice
able ,
Ġtrad itional
Ġfreed om
Ġsl ight
son ,
ĠL a
s et
Ġdam age
Ġac qu
? "
Ġday .
ĠM o
Ġpost ed
Ġlaw y
ic it
Ġst ock
iver se
Ġen force
ut y
- S
Ġfavor ite
Ġwe ight
Ġabs olute
ĠGener al
Ġn ice
E T
Ġgo vern
Ġsee ing
Ġpr int
Ġb irth
Ġ( the
ĠP ort
ve re
ĠA P
Ġresear chers
Ġass ault
ry ,
ic .
Ġact ual
k en
at a
Ġt ick
Ġb attle
Ġide as
r ad
Ġv ac
E L
Ġgam e,
Ġcho ose
Ġ" A
Ġdeb ate
Ġstre et
ri an
Ġclaim ed
Ġag enc
Ġen em
A M
ĠM il
p re
Ġb rief
Ġp .m.
t ,
ro ll
ĠM ost
ĊĊ 2
Ġneg ot
Ġle ague
Ġdis p
r ont
Ġindepend ent
Ġtechn olog
Ġre ven
k n
Ġcult ure
Ġcl ient
m ark
ĠA lex
Ġcele br
Ġra ised
ro l
so ft
Ġd omin
ic es.
Ġad op
Ġnon -
arli ament
eng th
Ġsub m
Ġad ult
Ġsystem s
Ġgo ld
) ;
S A
ive .
ab les
- 0
Ġmost ly
Ġc ry
Ġw ild
Ġdist rict
Ġ3 .
Ġeffect s
Ġt end
Ġknow s
ĠS un
Ġle aving
Ġqu al
Ġl ose
ĠA ccording
ĠâĢľ S
Ġim pl
Ġprofess ional
ĠâĢľ the
Ġwe 're
Ġwa it
Ġseason ,
Ġopp osition
oc r
Ġ ir
Ġway .
Ġdri ver
c .
Ġe th
ol ic
ĠB ush
Ġb ab
ist ,
ĠT om
Ġdig ital
os h
Ġfight ing
ĠL et
Ġm ap
h ich
ĠSec ret
ear ch
Ġcomm it
o om
Ġr id
ĠL aw
B ut
Ġadv oc
Ġeduc ation
Ġsh ip
Ġwh atever
ĠM att
Ġmass ive
Ġm ount
ĠW all
Ġme chan
Ġwond er
ĠPe ople
Ġte acher
I D
ar a
at ,
Ġcrit ical
Ġtem per
ĠL ou
il ed
Ġfeel ing
Ġa ward
Ġshow ing
ĠC up
Ġup ,
ism .
ĠB it
Ġyou ,
Ġtit le
ĠB ay
ur b
is e,
ĠTr ans
ic ed
al se
Ġway ,
or s.
ĠPh il
Ġwh om
et ic
ĠN FL
Ġfem ale
um an
Ġdev ice
if ying
Ġe le
Ġ( D
Ġm er
ur ance
ĠHe alth
ce ll
Ġc ru
ĊĊS he
Ġshoot ing
m en
Ġthey 're
Ġprodu ce
Ġcitiz ens
Ġannoun ce
ra v
Ġend ed
ĠD is
Ġphot o
Ġd ream
Ġwor se
Ġd aily
Ġsal es
Ġc ore
Ġask ing
O M
or ial
Ġent er
5 00
est ic
ĠL ab
Ġon e.
- term
am b
i pp
Ġinflu ence
ap h
Ġhig hest
Ġrespons ible
man ,
r ick
Ġprov ides
ĠM ike
ant ly
ĠL iber
Ġte levision
o very
Ġinc ome
Ġcas e,
i pe
Ġon .
Ġproper ty
Ġle arning
a res
ĠPal est
Ġse ction
vent ion
ĊĊ [
ic ial
i j
Ġown ers
er o
Ġbelie ved
ĠM od
Ġhe ro
ĠCanad a
ĠCanad ian
1 2
ĠM icro
Ġcho ice
Ġtreat ment
ud d
Ġ2 7
Ġr ise
T hat
Ġv ill
Ġm ariju
ĠSt ud
Ġman ager
ĠG et
Ġrepl ace
Ġwin ning
Ġ" We
Ġreveal ed
Ġrest rict
Ġche m
Ġworld ,
Ġb omb
ĠI' ve
It 's
Ġwork .
d om
Ġst ick
Ġcontro vers
Ġlat er,
B A
Ġs am
IN G
d o
u gg
Ġtoo .
ĠTrump âĢĻs
Ġchar ge
ĠD el
Ġiss u
Ġocc as
ĠM al
Ġfind ing
Ġbe g
Ġpe ace
Ġnot ed
ĠW estern
lin ed
Ġlearn ed
in y
ĠSec urity
Ġcharac ters
ĠâĢľ s
out hern
ro g
ĠS am
Ġchall enge
Ġpict ure
Ġelect ric
Ġdire ction
- e
n o
ĠU k
Ġpat tern
r ig
s )
Ġsur round
el ,
ĠO ur
Ġam az
ĠRe g
Ġcompet ition
Ġf at
Ġhundred s
com ing
Ġon to
Ġwas n't
Ġopen ing
Ġachie ve
ĠF ound
Ġreal ity
ĠIntern et
ĠWh y
Ġre ject
Ġpop ul
m ine
Ġoff ers
Ġd aughter
v est
Ġstri k
Ġun like
ĠB ank
Ġmob ile
Ġmill ions
ĠO p
u ild
ated .
Ġst age
Ġinc red
Ġb orn
ro s
Ġacc used
Ġcom fort
m age
ic ip
in .
ĠB ecause
Ġemer g
Ġdet ect
ist ry
ort hern
Ġnorm al
ĠIslam ic
Ġsh ared
Ġw ife
Ġconf irmed
Ġbecom ing
Ġsc ene
Ġh arm
Ġdef e
Ġsol id
Ġprop osed
Ġser ve
ĠB ig
ĠA ut
ent ,
m e
er âĢĻs
um n
Ġfamil ies
Ġsle ep
Ġknow ,
âĢĻ m
Ġass um
pt ion
Ġaud ience
gh an
l ant
Ġb ur
Ġrem ark
ĠO ther
Ġwe alth
Ġfund ing
Ġconserv ative
Ġagain .
Ġare nâĢĻt
Ġbenef its
Ġput ting
as e.
Ġweek .
G B
Ġextreme ly
Ġbott om
Ġl oad
Ġnot e
Ġlaun ched
p ri
ĠAt t
ir gin
Ġ2 ,
Ġ( M
Ġcommun ities
Ġleaders hip
Ġinit ial
Ġart ic
ĠM ill
Ġredu ce
Ġ2 6
Ġcustom ers
Ġinterest ed
Ġact ions
ĠN o.
Ġexper iment
or row
Ġf uel
ĠJ on
os es
Ġs pl
ĠD ist
Ġ2 8
ri al
Ġdou ble
Ġfl ag
ak ed
Ġsepar ate
Ġindividual s
Ġneighb or
Ġco al
Ġanalys is
ĠH all
ĊĊH ere
ĊĊ -
ign ed
Ġ( or
Ġam b
âĢĿ ,
Ġf it
Ġdis m
Ġr ule
Ġdep artment
Ġarrest ed
Ġd er
Ġprodu ced
Ġn ine
if ul
Ġjud ge
Ġbecom es
ĠF ox
ĊĊIt âĢĻs
Ġheav y
Ġthis .
Ġtre nd
Ġcol or
ĠMan y
wit ch
Ġdefin itely
P A
1 5
r is
igh ter
kn own
ist s,
ĠG reat
Ġrest aur
Ġrun s
Ġr ates
is her
Ġch urch
Ġmiss ion
Ġinvest ment
Ġthough ,
ĠF BI
Ġexist ing
st e
Ġneg ative
Ġh ack
iv ity
Ġre act
ĠY our
Ġbelie f
ĠM ad
ĠCar ol
Ġdest roy
on ents
Ġatt end
u s.
Ġwor st
Ġsp oke
ent ed
Ġcont ain
2 5
Ġeffect ive
ĠC ap
Ġback ground
Ġser ved
ĠAd d
ĠT er
ol f
l ay
Ġanim al
Ġagree ment
d e
Ġc od
Ġgo als
ĠUn ion
ampions hip
Ġinj ur
ĠSt .
Ġp urs
Ġr an
Ġpurp ose
ĠL os
at .
Ġte ach
il es
h icle
Ġaff ord
Ġc ash
ĠG OP
le vel
ĠJust ice
row s
Ġ( P
F C
Ġp air
Ġ8 0
Ġd ate
i ation
Ġfa ith
i ou
ad o
qu e
ĠT re
Ġf resh
Ġassoci ated
ĠAr t
Ġvo ice
O U
Ġgener ally
Ġcommer cial
Ġdec ad
l es,
Ġn orth
ĠComm un
Ġthere ,
Ġag reed
Ġref ere
k in
Ġh ol
ĠW il
se e
Ġres ist
Ġd ie
ĠD r.
Ġwe l
Ġsoc iety
Ġh us
Ġapp eal
Ġdisc overed
Ġwe âĢĻve
Ġd ed
R E
Ġplac es
Ġopen ed
i pl
Ġgr ant
er ved
Ġex cl
im in
Ġmil es
ed d
Ġann ual
ĊĊThe y
Ġrepe ated
ĠUk rain
ub e
ĠRe ad
ĠRober t
Ġdo z
Ġconcern s
at ically
Ġweap ons
Ġknow ledge
Ġwell ,
Ġ( N
Ġimm igr
i ance
ĠM ag
Ġtrans port
Ġiss ued
Ġstud ies
Ġhigh light
I L
ĠL ike
Ġcl ick
Ġs un
ĠT od
ĠS up
ĠO ver
ĠS ince
Ġc aught
ĠWind ows
ĠD irect
Ġrecomm end
ann el
Ġ9 0
Ġallow ing
Ġn ames
k i
it ation
Ġcons id
u pp
se y
z ,
ing er
N N
Ġm icro
ili ar
Ġinter f
Ġdo or
ow l
Ġl iv
- 3
Ġtell ing
Ġwatch ing
ĠChr is
ĠAf ghan
r s
Ġtri p
Ġdeli ver
Ġey e
Ġno vel
Ġlarge ly
Ġall .
Ġcountry .
ĊĊS ome
as e,
ĠP ak
B S
Ġplan ning
in ct
ic es,
Ġs an
ate gy
land ,
ĠC EO
ar ant
Ġconst ruction
Ġstre am
ĊĊHow ever,
Ġm ale
Ġfe et
Ġg ay
Ġagain ,
ĠP ri
Ġemploy ees
Ġpr ices
Ġbook s
ion s,
ĠU N
A P
Ġfar m
Ġsay s,
Ġf alse
A D
Ġhold ing
Ġar g
se mb
Ġr ough
n ight
ĠQ ue
Ġg e
Ġra ise
ĠA re
Ġcond itions
ĠTh om
Ġex erc
h ow
Ġilleg al
Ġresident s
Ġcharg ed
Ġbelie ves
Ġref uge
in ing
ron ic
Ġstat us
Ġm ax
ing ly
Ġschool s
Ġc ateg
ul f
Ġcharg es
ary ,
Ġoff ensive
Ġstreng th
Ġtr uly
Ġas pect
Ġ200 8
Ġactiv ities
Ġrad io
ĠComm ission
Ġvict ory
ĠJ im
Ġunderstand ing
Ġcomp ar
ĠMicro soft
- and
Ġey es
Ġc atch
ĠAfric an
Ġsystem .
v an
Ġim ages
Ġn or
ber t
Ġresour ces
Ġun it
Ġdeb t
Ġwould nâĢĻt
es s.
ĠO h
is e.
Ġtell s
Ġser ver
i pped
Ġhere ,
Ġreason s
Ġve ter
Ġl ines
Ġ( s
res p
Ġthen ,
ck now
and om
Ġpatient s
ot a
Ġdown load
oss ible
Ġrequ ires
ĠS il
ĠCh urch
Ġcr ime
ĠSand ers
Ġcon sequ
Ġyou âĢĻll
d er
Ġacc ur
ĠAnd roid
te red
Ġact ive
A .
Ġjoin ed
ĊĊâĢ ¢
and on
e qu
ĠInst ead
Ġprov iding
Ġwon 't
Ġscient ists
Ġsour ces
Ġab use
Ġc ook
Ġapplic ation
Ġtr ail
us ive
Ġproject s
Ġsuggest ed
Ġt ough
ĠAustral ia
r ump
Ġtrans fer
Ġf ant
Ġestabl ish
ĠM iss
ĠJ eff
ated ,
Ġpres ence
Ġfour th
Ġnews p
Ġweap on
ĠIsrael i
Ġhapp ens
Ġtyp es
ĠJew ish
Ġcent ur
Ġmem ory
C C
ĠS l
Ġve hicle
ion s.
Ġve hic
Ġeas ier
ĠG ree
Ġtwe et
ĠA M
Ġspokes man
ar io
ĊĊ '
F or
Ġpolic ies
go ing
ĠIâĢĻ d
Ġmore .
Ġreturn ed
Ġth us
ĠSt ep
ĠPalest in
Ġpart ners
ĠV er
ĠFr ank
Ġgu ard
ĠA c
ĠU s
: 00
o es
Ġg ain
Ġcont ext
o ly
Ġb att
ĠSup reme
ĠR ock
our ce
ĠV irgin
Ġs outh
while ,
and er
ĠF ore
Ġ4 .
Ġfin ished
ĠOff ice
h ouse
Ġ$ 3
Ġfe llow
Ġl ength
Ġhus band
D on
Ġa cknow
Ġsupport ed
ress ed
Ġopt ions
ĠAm az
Ġset ting
Ġkeep ing
ang ing
Ġplac ed
ĠH oll
Ġb ul
Ġdef ensive
Ġcol lection
ac he
ĠM er
ĠâĢľ c
Ġargu ment
Ġal one
Ġdri ving
Ġ ice
it ude
w ise
Ġdo .
t ime
ĠCon f
ĠJ ud
Ġst ation
ord in
i h
ent .
ĠGo vernment
ĠRich ard
ĠG ame
Ġse qu
Ġ7 0
ĠChic ago
Ġpart ner
Ġ" W
Ġlif e,
Ġcould nâĢĻt
Ġn ar
oy al
Ġadvant age
Ġw itness
Ġcris is
Ġconf irm
Ġst yle
ĠG roup
Ġdoub t
Ġwa iting
ĊĊB y
ot ed
Ġfl ow
Ġ" S
a e
Ġocc up
ĠJohn son
im b
Ġval u
Ġcap ac
Ġuse ful
Ġass ess
Ġl ibr
Ġmariju ana
Ġhe aring
c ient
____ ____
ĠLe g
ĠM ont
Ġfe ll
Ġfr ame
ve red
v ant
Ġnegot i
ĠPro f
Ġha ir
Ġestabl ished
ĠP M
ĠT y
Ġro ll
Ġb order
/ /
Ġconc lud
Ġin .
ound s
Ġprogram s
ov .
as .
Ġman aged
st itution
Ġfoc used
Ġfeel s
ĠP C
ĠS al
) :
7 0
ah ,
ad ium
Ġsmall er
Ġnot ice
ĠSyri an
Ġrelative ly
anc y
ĊĊâĢľ A
rib ute
Ġappro pri
Ġrem ind
Ġ Ã
Ġph il
Ġwork ,
l ig
Ġstri ke
ĠM P
s p
Ð ¾
Ġreg ist
ic y
Ġag gress
Ġ200 9
Ġproper t
Ġple ase
Ġsu st
-p ro
ĊĊA ll
u ct
Ġfl ight
Ġt ack
Ġdoll ars
ĠB ern
Ġstr ategy
A ,
Ġpre fer
Ġe at
Ġwe ak
Ġ( I
Ġp et
Ġacc ident
E M
it e,
Ġb atter
r ate
Ġactiv ity
ĊĊB e
ĠP et
Ġdep end
ic on
Ġsoc iet
rast ruct
ĠThat 's
Ġpart ies
hed ul
Ġtri al
Ġkill ing
i en
Ġ2 9
Ġintrodu ced
H L
ony m
Ġcomm itted
om an
ortun ate
Ġrem ov
ĠâĢľ f
ĠD N
ĠTe am
Ġf le
Ġf ine
Ġhelp ing
Ġexper t
y m
Ġrecord s
Ġp ap
Ġcre w
Ġapp oint
Ġwind ow
Ġ ;
Ġpros pect
ant ,
iz z
Ġdo ct
ĠM os
n el
ĠâĢľ M
Ġneighbor hood
ill ,
Ġinit i
er ous
Ġentire ly
Ġbus ines
Ġb ag
Ġdr am
ed y
Ġu s.
ĠM et
Ġmanage ment
am m
ĠBrit ain
Ġspe ct
Ġer ror
âĢĶ âĢĶ
Ġmed ic
Ġlab or
ĠTor ont
on a
r d
ĠIm ages
Ġplay s
ĠAt lant
Ġe arth
Ġw ish
Ġtrans l
Ġtraff ic
ĠâĢľ w
Ġsc hedul
ĠG ood
al u
Ġme re
Ġdom estic
re y
Ġcirc um
ĠJ ose
Ġsu dd
Ġ3 5
Ġp il
Ġenvironment al
ĠL at
ĠN or
Ġintern et
ĠIn ter
ĠF ire
Ġcar s
is f
ĠBit coin
i ot
Ġtrans form
O L
Ġstruct ure
as y
Ġv ul
ĠThe ir
ĠS ur
ic a
Ġat h
it e.
Ġsupp orters
ĠWe b
Ġment al
ĠS pe
Ġthere fore
Ġte en
id s
ĠFranc isc
Ġm al
Ġcar ried
Ġthan ks
are n
Ġac adem
Ġlegisl ation
Ġfil ed
Ġinn ov
Ġscient ific
Ġcomm ission
Ġfam iliar
Ġbl ue
gy pt
S P
Ġself -
i able
Ġj ail
ĠJ oe
Ġhon est
ĠRes earch
ĠComm ittee
- th
ĠO ut
ĠL ast
Ġexp ensive
Ġsc ript
Ġspir it
Ġinter act
Ġap art
Ġpro secut
Ġplac e.
iz es
Ġr ich
Ġold er
Ġon e,
ĠJapan ese
Ġdanger ous
Ġwar ning
Ġincreasing ly
u ke
Ġcl osed
oc ol
Ġag o.
ver se
Ġcomm ittee
it z
or y,
rou d
! âĢĿ
ĠPr ime
ĠK h
Ġpay ing
Ġimp ossible
ĠAl though
ac ing
st ream
ĠR yan
Ġtoday .
ĠSecret ary
Ġco ld
Ġ( F
v is
ĠDist rict
Ġgrad u
Ġdec ide
Ġter rit
we ll
Ġenforce ment
ab b
Ġt on
Ġcorpor ate
Ġ19 4
ĠGerman y
- day
ĠD ec
Ġaltern ative
ĠIs land
ĠD en
Ġoper ating
Ġon ,
s hip
in ter
Ġseek ing
yn am
ward s
Ġv ast
Ġslight ly
Ġbeaut iful
i os
ĠAl so
it ect
Ġconcern ed
ĠS ub
g e,
ak s
Ġstand ing
Ġl ock
Ġpolit ics
Ġsurve y
Ġval ues
ĠFlorid a
Ġt ast
Ġadv is
1 6
Ġident ified
ĠLou is
ĠB ost
Ġqu e
Ġequ ip
Ġvictim s
Ġthe ory
Ġins urance
ĠM ary
ĠTH E
P S
Ġsol ar
Ġposs ibly
Ġun iversity
Ġde ploy
ĠâĢľ d
Ġv ision
Ġsto pped
app ed
Ġcamer a
ĠW ork
ester day
ĠA ri
el ine
ĠP ut
Ġh ate
oc al
ĠP re
Ġl ob
ĊĊS h
Ġl osing
t r
ph one
ear s
le ge
os ure
Ġgu ess
Ġopt im
o ch
as hed
ru it
ĠCent ral
g n
Ġprofess or
Ġmention ed
Ġun ivers
ĊĊM ore
Ġposs ibility
Ġsu it
Ġb ed
t ained
Ġinf rastruct
Ġregard ing
at es,
Ġfund ament
Ġp it
Ġsudd en
Ġupd ate
ol it
ĠInst itute
Ġabsolute ly
c oh
th ,
Ġbig ger
Ġcount ri
ann ed
Ġsystem ,
b or
Ġdec ades
Ġsum m
Ġexpl ained
Ġmiss ing
Ġdevelop ing
Ġrespons ibility
Ġco vered
Ġdocu ments
f l
Ġview s
D A
1 4
Ġt ight
Ġ3 2
Ġad just
ĠM iddle
ect ion
Ġst ated
Ġgu arant
air s
Ġf ol
ĊĊâĢľ W
am in
Ġturn s
Ġo dd
a it
- T
Ġf ired
Ġcons ult
l ock
Ġm ad
Ġret ail
Ġhom e.
Ġsh ift
ars h
Ġvar iety
a wn
ĠC amp
Ġoper ations
Ġcandid ates
Ġmag az
Ġmain tain
l es.
ĠU nder
Ġbo ost
1 3
Ġco verage
ĠCh ief
.. ..
Ġl uck
ĠJ un
Ġintern al
vil le
a ven
Ġwhat âĢĻs
anc he
c es.
ul ate
Ġn one
Ġbring ing
r ist
Ġs ch
Ġcoun cil
ically ,
ĊĊ" A
Ġmonth ,
Ġsc hem
Ġs itting
Ġpot entially
ĠAustral ian
ĠP ress
Ġdev ices
l ass
Ġoff ering
Ġrev olution
ĠTh ose
r id
Ġsuggest s
li ed
ce l
Ġh urt
Ġins p
Ġmarri age
Ġpl enty
Ġloc ation
ac e.
ĠD .
Ġun less
ĠB ur
ĊĊU n
Ġsh ock
ic i
Ġplan ned
Ġtest ing
- of
Ġpro ve
Ġcur ren
il ing
Ġepis ode
Ġmach ine
Ġphil os
ence ,
Ġoccur red
Ġwor ry
Ġpers pect
ill ing
Ġvul ner
ĊĊN ot
Ġthan k
ac e,
ourn ament
Ġapparent ly
c es,
ĠE gypt
ĠG al
g ar
m m
ĠSyri a
Ġprep ared
Ġgener ation
ĠC ru
ig g
ro ad
ĠP eter
Ġdro pped
Ġf aster
ĠMed ic
ĠP ublic
in a,
-s h
Ġis land
Ġhous ing
Ġyou âĢĻve
Ġspec ies
- P
Ġestim ated
re al
ĠB ob
ad y
Ġg ar
ist ics
ĠGu ard
Ġf if
ĠR iver
hen s
Ġbro ke
Ġexp ans
ĠR o
ĠMart in
Ġdep art
Ġhelp s
Ġdeter mine
Ġtool s
Ġtalk s
Ġrap id
Ġtr uck
Ġexch ange
ut ers
ic s,
Ġa id
Ġphot os
Ġfam ous
ĠS ant
Ġl ived
Ġsport s
Ġitem s
av a
v es.
ĠS aud
u zz
Ġins ist
ĠT wo
Ġm ut
Ġpoint ,
b ut
Ġab ort
Ġse lling
Ġclos er
Ġcor rupt
use um
Ġapp ly
Ġopin ion
Ġult imately
Ġvot ed
Ġeng age
ĠO nce
ĠIt al
Ġcor ner
c ious
ĠS ing
ĠJ es
Ġn omin
ly mp
ĠPh oto
p art
Ġstart s
Ġst ret
Ġfin ish
1 8
Ġstep s
ar p
Ġsy mb
Ġrem ove
ul ated
9 0
ress ion
Ġcr ack
Ġpoint ed
Ġdiscuss ion
Ġl in
Ġconnect ion
ĠF ederal
ell ,
Ġcl ot
ure au
b re
Ġ2014 ,
ĠOb am
Ġ2015 ,
Ġe lement
00 ,000
Ġtrad ition
Ġb ought
Ġconflic t
ly n
ĠJ ones
Ġco -
Ġconc l
res s.
' m
S T
ĠW al
ĠN av
ĠC ath
Ġpr ime
Ġm aster
u nder
Ġ" the
ĠIâĢĻ ll
ĠAn y
Ġorigin ally
Ġnot es
Ġmot iv
Ġdown .
Ġchem ical
w hat
Ġre nt
r ant
ĠF e
ĊĊN ow
l or
ĠS pr
an o
Ġso ,
Ġsh op
Ġfac ing
Ġchang ing
Ġrem oved
Ġg ender
ict ed
Ġg rew
ĠJ .
ow nt
ĠM el
ĠCons erv
ĠP lease
ad ing
Ġtr ick
ĠD aily
Ġhigh -
ĊĊ Q
ĠSte ve
Ġsh ape
ĠFr ance
Ġexpress ed
Ġterror ist
Ġcar bon
ĠJ u
1 7
ĠG ar
ot y
ĠR ub
E :
Ġbas is
Ġb reat
Ġsit es
ph as
ĠCol or
Ġsupp ly
ĠThom as
Ġimm igration
Ġown er
Ġopportun ities
ad ed
ĠChar l
Ġmin imum
Ġcont est
Ġinvol ve
Ġbusiness es
T C
ĠPro t
Ġv ir
Ġmeas ures
Ġarri ved
Ġi Ph
Ġr andom
Ġpresent ed
os en
Ġpan el
por ary
- B
Ġadd ed.
Ġgreat est
ĠD an
Ġm arg
Ġwar m
y a
ĠS ol
ĠHe âĢĻs
Ã ¡
ord s
ĠSoc ial
Ġhand ,
Ġ3 ,
w ide
Ġ( B
Ġu s,
Ġcopy right
Ġfig ures
: 30
Ġ" s
Ġopp onent
es s,
Ġgirl s
Ġcult ural
Ġfail ure
ĠB BC
Ġsupport ing
Ġl ands
Ġt urning
ed er
cept ion
Ġapp rec
Ġc ards
Ġconsid ering
enc ed
ĠAr my
ĠB oth
ĠO lymp
Ġ( T
Ġg iant
in ent
- 4
ĠS T
Ġse at
D P
l a
Ġt un
Ġem p
Ġb ound
Ġamaz ing
1 9
Ġteam .
Ġconduct ed
Ġexpl os
Ġsound s
- the
id el
m akers
Ġte le
Ġspe aking
Ġcapt ion
Ġint ended
Ġs witch
coh ol
Ġwe aring
ter ,
Ġt act
p ret
Ġconvers ation
ĠFor ce
Ġw ood
Ġr ail
Ġin ,
ĠP ac
er 's
Ġcent ury
Ġfund s
Ġher .
Ġbank s
one y
Ġcl in
cript ion
p oint
1 ]
ive red
el ess
ĠM ur
rel ated
iss ions
Ġdisc l
ĠH aw
Ġhy p
Ġde ck
Ġun ion
Ġfr ust
ĠD uring
Ġlong -term
Ġdisapp oint
ĠB o
ĠWh o
Ġ200 0
ĠA N
ĠR oad
ra ud
ĠSt r
Ġdoll ar
tt p
Ġatt orney
== ==
he red
Ġher self
h ab
i us
Ġcol umn
ĊĊR ead
Ġmag n
Ġup gr
ĊĊ *
Ġhop es
ĠR ad
Ġlike ,
Ġloc ated
Ġimag ine
Ġdec isions
ig an
Ġreported ly
Ġa ver
Ġpull ed
ĠC ur
Ġ4 5
Ġch amp
Ġa st
Ġexper ts
Ð µ
Ġbel ong
Ġr u
I V
Ġst orm
ĊĊThe se
ĠT ime
ĊĊP h
Ġren ew
Ġdism iss
Ġcoll abor
Ġprotect ion
Ġpro ced
i pping
Ġback .
Ġtrou ble
Ġref used
/ 2
ĠOp en
ĠN AS
Ġdeb ut
Ġad vert
Ġis .
Ġair craft
Ġcont rast
ĠâĢľ B
Ġcent re
Ġcountry ,
C H
Ġ19 5
idd en
Ġident ify
at es.
ĊĊD es
ĊĊL ast
Ġent ertain
ĠLab our
Ġ5 .
** **
Ġpl us
ĠâĢľ O
ĠM ass
Ġath let
Ġvis ual
ĠâĢľ C
Ġconf ident
Ġp itch
Ġdevelop ers
R A
om pl
ĠR em
Ġrem ained
Ġtrans ition
ab ilities
ĠAssoci ation
on om
Ġtalk ed
Ġcl as
Ġliber al
ra ve
Ġpercent age
Ġn om
Ġconst itution
Ġsu ic
Ġlist en
Ġag ent
Ġpropos al
Ġfor get
Ġc art
ĠH ol
Ġlot s
is ation
Ġtoday ,
ĠS pec
Ġnot .
Ġwe ather
Ġconf idence
ence .
Ġlaws uit
EN T
Ġel imin
s en
Ġprom pt
m osp
Ġequ al
Ġfil es
Ġp roud
Ġinj ured
Ġsec ure
ad ow
ĠPro ject
Ġn av
Ġele ments
Ġm and
Ġbal ance
Ġco ff
ĊĊ" W
Ġqu iet
b ur
Ġm ort
Ġhow ever
Ġb urn
k ,
ra wn
ĠCol lege
ĠF ree
Ġth r
Ġtyp ically
m as
ĠP enn
Ġ$ 4
Ġdel ay
ĠâĢľ T
r an
Ġcut s
Ġco ast
Ġlead s
Ġdis s
w w
Ġtw ice
Ġ(w hich
Ġbe er
m ond
Ġsurf ace
Ġyou th
ĠF ollow
- on
ĠThere âĢĻs
Ġinc om
Ġc raz
Ġbroad cast
Ġs ides
Ġdel ivered
ĠSc ot
Ġword s,
ĠAnd rew
ĠAngel es
Ġsuff ered
Ġc raft
Ġinst itution
our s
un te
Ġrem aining
G et
Ġbas ically
Ġhaven âĢĻt
Ġtemper ature
Ġquarter back
h i
ad a
ograp hy
Ġhe at
Ġ201 3,
amp le
Ġcl oud
Ġflo or
Ġsh o
Ġvot ing
ĠM L
k et
Ġwide ly
Ġrestaur ant
Ġspecific ally
ar l
Ġjust ice
Ġfuture .
Ġb rows
Ġdef ault
Ġv s.
Ġtechn ical
ani el
Ġepis od
Ġprof it
er g
ĠJ ournal
\ x
Ġse vere
Ġdisc rim
ĠServ ice
om s
Ġcon cent
or al
ab in
Ġbro ken
Ġun able
e. âĢĿ
Ġexperienc ed
Ġse a
Ġexc ited
ĠB et
Ġg ather
ĠSp ace
Ġ201 2,
ĠR od
Ġtre ated
em ploy
Ġanim als
ul a
ĠKore a
p m
ĠâĢľ It
ol es
Ġsign s
res s,
Ġconst ruct
ĠWe ek
and a
Ġex cell
Ġdrug s
ĠSen .
Ġplan et
Ġte ch
A A
Ġexpl o
Ġar r
Ġelect ed
Ġbut ton
Ġopp osed
Ġdecl ared
Ġord ered
Ġref erence
Ġdes ire
ĠP ower
ĠB ook
ĠS qu
nes s,
Ġsc ale
Ġhand le
raz il
Ġother wise
Ġst ress
Ġcolle ag
ĠI N
Ġcan n
f it
Ġpick ed
Ð °
Ġgu est
Ġval id
ĠS o,
Ġhealth y
Ġar my
Ġsc r
il it
Ġdetermin ed
ĠM em
ill ed
I P
k ins
ĠToront o
Ġse m
Ġcal cul
Ġpass ing
Ġy esterday
ev in
ĠR el
Ġfr anch
rib le
ĠL in
Ġrul ing
Ġrep orter
Ġacc ompl
O W
ĠS ign
Ġgam es.
Ġemerg ency
Ġrecord ed
Ġcap able
Ġoper ation
Ġco oper
ĠS her
as tern
Ġplay off
ce an
Ġnum erous
ĊĊN ew
# #
Ġqu ant
ĠPh ot
Ġarch itect
Ġdi pl
Ġdem ocr
ĠPalestin ian
he w
ĊĊP ro
ĠâĢľ m
Ġwe âĢĻll
ĊĊAn other
Ġsat isf
Ġmod els
Ġobs erv
ĠH uman
ĠA T
ĠSh ow
ĠGr and
ĠBar ack
Ġres olution
ĠI re
x ual
ĠC NN
Ġwe ar
I M
Ġant i
i as
Ġs ac
Ġdeg ree
Ġopp os
ĠSc ience
Ġper man
ist .
Ġdipl om
Ġl it
Ġa .m.
i est
Ġhom es
stand ing
Ġ5 00
Ġb ull
Ġappro x
Ġsh all
Ġ3 1
Ġsubst ant
ain e
ĠR on
ust er
ĠUS A
ĊĊC l
Ġre action
Ġn ut
Ġnight ,
Ġbre w
Ġour sel
ortunate ly,
Ġlab el
re es
Ġcircum st
end ment
ĠM a
ĠW ood
Ġvot es
Ġ( 3
Ġt ournament
Ġpr ay
âĢĶ and
Ġoff ense
Ġden ied
- R
Ġd in
p et
Ġre -
resp ond
Ġsold iers
at o
I ON
Ġpo ol
Ġrec all
im al
ac es
ĠG M
ap ter
ic ations
ore s
ol a
Ġem phas
Ġ" M
out s
Ġess entially
Ġfor g
he du
Ġpro ceed
Ġsignificant ly
Ġy ards
Ġb ond
ĠAmaz on
Ġanaly st
Ġinit ially
ĠC apt
Ġpass eng
ĠB ack
Ġ2016 ,
ĠA C
Ġres ol
Ġs ad
Ġagenc ies
-s c
Ġf ly
Ġadminist r
Ġche ap
un ning
les s,
l ies
Ġleg it
Ġaway .
ĠIn c
Ġredu ced
Ġf ish
Ġsurpr ising
Ġday s,
U T
e ed,
Ġpurch ase
Ġobvious ly
ĊĊ 3
Ġident ity
ĠN BA
Ġ(1 9
or g
2 ]
Ġschedul ed
Ġto .
Ġcell s
Ġb on
ĠGeor g
Ġargu ed
- n
ĠSy stem
Ġdec lined
Ġto o,
Ġw ound
Ġ( a
Ġcan cer
Ġsp ons
Ġro t
Ġ199 0
Ġaffect ed
ĠT ra
ĠD ou
ail s
Ġ id
Ġcomb at
Ġdat ab
if i
ri e
Ġb ord
Ġ" c
ĠV ict
Ġl oved
Ġadm itted
ĠP rem
i at
Ġsc ored
est ival
Ġhappen ing
Ġ ing
Ġtro ops
ĠB us
Ġh all
ĠDirect or
ĠH ou
Ġj our
Ġj oint
ĠK ell
ĠBost on
Ġcritic ism
Ġfl ood
ill a
er ry
ĠL ake
Ġro w
Ġmy ster
Ġinterest s
ĠSt an
se ason
Ġbab y
Ġdo ctor
Ġauthor ity
Ġout s
Ġcapac ity
Ġpie ces
Ġd ial
Ġ$ 5
Ġproces s.
ĠT w
ĠK im
ĠWe ll,
Ġmonth .
ĠTe chn
Ġnecess arily
Ġch art
Ġs ke
Ġsqu are
ack ed
Ġappro ved
Ġmurd er
meric an
Ġthis :
s âĢĻ
Ġd ynam
Ġp arliament
ĠAri z
! "
Ġat mosp
Ġattempt s
Ġpus hed
n ,
Ġb ike
Ġdist ribut
Ġskill s
as p
ĠâĢľ a
ĠI ll
ĠYou T
u ,
Ġfor t
Ġb are
um m
Ġpre f
ĠCol umb
Ġag end
pl ace
Ġorganiz ations
ov iet
Ġe c
Ġinj ury
w hel
Ġgam es,
Ġev alu
ĠKore an
Ġother s.
ĠM ount
ĠSaud i
Ġar med
7 5
Ġsp r
ĠI D
Ġmor al
Ġfill ed
Ġc up
Ġal cohol
un ction
ĊĊE x
app ing
ap ed
Ġreal ize
Ġy ell
Ġteam ,
y r
Ġwrit er
ld er
k a
ĠA ff
Ġv an
ĠâĢľ N
Ġ3 D
y wood
Ġr ain
ĠB oard
Ġviol ent
ĠR ight
4 5
Ġrough ly
Ġcont ains
Ġalleged ly
Ġth ing.
ĠDe velop
Ġp ra
Ġthink s
Ġh un
ne ll
Ġlink ed
p ay
Ġm igr
Ġdiv ision
Ġ200 7
itt e
ad er
Ġs ought
ĠL ib
ĠSw ed
res ents
ĠW alk
Ġsu c
Ġfact or
Ġon going
ĠC ub
ĠJ ul
ĠLe e
Ġsub sequ
ĠB razil
ĠMed ia
ĊĊS ince
ĠA ven
-c alled
Ġsa v
ĊĊE ven
Ġrad ical
Ġdist ribution
Ġn ative
le y,
Ġbr ings
Ġet c.
Ġfor ms
Ġcomb ined
Ġsu cc
nes s.
Ġsign al
ĠâĢľ H
ĊĊM y
tern al
ĠK enn
Ġinc or
Ġa f
Ġnot ,
re ens
ri p
Ġpublic ly
ie ,
ĠâĢľ b
ste in
Ġmanufact ure
Ġab andon
Ġfac ed
- D
P D
Ġres c
Ġmot or
Ġne ither
Ġtot ally
Ġwell -
ĠG en
Ġexpl an
ĠT en
Ġgl ass
at ures
Ġdo ,
Ġwro t
Ġany where
Ġre in
Ġf raud
Ġbr ight
Ġinst ruct
Ġwalk ing
L E
ĠH en
ag es.
Ġto w
y. âĢĿ
Ġworld âĢĻs
ĠC ard
ĠCl ub
Ġstand s
Ġst ood
ĠAn n
Ġm ir
ĠT O
Ġaccount s
o oth
crib e
Ġhouse hold
Ġbe .
Ġfav our
Ġfac ility
ĠY ear
Ġwe 've
Ġsurround ing
Ġheav ily
Ġunder st
ul s
Ġwith d
Ġd ownt
Ġconnect ed
Ġnight .
ĠA v
ens es
Ġ/ /
ag es,
ĠBro ok
ar .
Ġdec ade
Ġwould n't
Ġrece iving
Ġent ered
Ġany th
ĠStat es.
ac ter
ĠH y
Ġlist ed
ĠStat es,
Ġs now
Ġse ctor
d en
Ġacknow led
ĊĊM r
ĠJack son
Ġsurpr ise
Ġhard ware
- L
Ġen h
ĠW he
e y
ĠSec ond
Ġgr ab
ist s.
Ġch annel
Ġday s.
g ers
ĠFrancisc o
e, âĢĿ
ĠR am
Ġdec re
Ġbl ow
Ġhop ing
Ġcitiz en
Ġcompl ain
ĊĊF irst
Ġinst ance,
ook ing
Ġse g
I G
Ġrep resents
l o
Ġg od
ic ious
Ġd iet
f e
Ġv ice
ĠE ner
Ġconf ig
ĠIm age
Ġpro hib
Ġmiss ed
ĊĊF ollow
Ġ4 ,
Ġ2015 .
Ġf ash
Ġcas e.
Ġnews let
du c
Ġtax es
Ġs ister
Ġarg ue
Ġsqu ad
Ġstate .
th at
Ġgovernment s
Ġchang e.
ĠMexic o
Ġ3 6
r um
ĠIt s
Ġvol unte
ĠRe v
Ġreport ing
Ġappropri ate
Ġare n't
Ġw ire
g e.
- N
Ġchalleng es
Ġbre aking
Ġb ird
Ġ2016 .
Ġun its
Ġup coming
Ġto m
Ġrespond ed
ĠR E
ath an
Ġadv ance
Ġcomb ination
P R
Ġs ale
es ters
Ġre ward
Ġout put
Ġar ms
Ġconf ront
Ġtest s
Ġso -called
Ġadv anced
Ġman ag
Ġwar ned
at iv
âĢ ľ
Ġgovernment .
Ġfair ly
Ġcould n't
Ġr um
Ġpolitic ians
igh ters
Ġbu ying
id ers
Ġco ordin
Ġreven ue
Ġg rown
Ġsc al
Ġal t
Ġsymb ol
c hen
ĠE ach
ĠOn ly
ang ed
ĠCarol ina
b urg
Ġun us
Ġcontrovers ial
Ġencour age
ĠF am
form ation
Ġfew er
Ġpriv acy
Ġhistory .
res ident
and ,
- off
Ġp ip
ĠAn other
Ġcomple ted
Ġpus hing
ĠH arr
il s
ion ally
Ġhistor ical
anc ing
n oon
Ġp hen
ok ing
ĊĊO ther
Ġcompet itive
ĊĊA r
Ġappear ance
ac c
: 0
Ġs ick
Ġl augh
Ġle aves
ary .
u y
Ġp ure
or se
ard ,
n am
Ġsome what
Ġc ere
ĠS oviet
p erson
Ġ( L
Ġright .
ment s.
Ġpl ed
Ġap olog
Ġinter pret
ĠO k
y, âĢĿ
Ġtim es,
Ġbu g
es h
ĠE ll
Ġdise ase
v es,
Ġsign ing
il ty
ĠBl ue
Ġst ars
Ġess ential
ate ll
Ġch ain
Ġill ust
y âĢĻs
Ġsubs id
us al
Ġse es
ton ,
ĊĊâĢľ It
Ġ" d
Ġsk in
b o
ĠBr ad
Ġin put
Ġsc hedu
Ġr ally
Ġt rib
Ġg ap
Ġeffect ively
Ġ198 0
Ġcreat ive
Ġinfrastruct ure
ut ions
Ġ3 3
ĊĊIt 's
Ġem pt
Ġem br
Ġfeat ured
ĊĊD uring
Ġemot ional
ĠNet work
Ġfac es
ER S
ĠD ie
Ġdown ,
Ġset s
i o,
Ġ2014 .
Ġcor respond
le ts
Ġrob ot
Ġsurve ill
ĠE v
ograp hic
Ġreg ional
ic s.
ĊĊO f
Ġalong side
Ġint ent
ĠW ik
ĠW atch
3 ]
P U
ĠOh io
Ġr ising
Ġmone y.
ĠâĢľ ItâĢĻs
ĠS ky
Ġinst itut
Ġmon it
Ġstate ment.
t op
Ġ( f
Ġad vent
ĠâĢľ P
Ġconsum er
Ġhot el
n er,
Ġstru ck
Ġded icated
ĠPl an
ĠE lect
Ġrep orters
Ġhe ll
ment al
Ġent ry
ĠEx p
e ople
ĠIn s
Ġc ert
Ġmain stream
ĠPar is
Ġgr aph
- ch
Ġrele vant
Ġhom e,
Ġeff icient
Ġcarry ing
ĊĊF rom
Ġcompl aint
ĠW ild
ĠD iv
ĠF ar
Ġt ank
Ġpl ot
we ight
ed ia
or ne
Ġw ave
Ġsurpr ised
Ġinsp ired
Ġlet âĢĻs
Ġis ol
id ay,
Ġpict ures
am ing
Ġe gg
Ġpre gn
an ish
Ġl ov
ĠâĢľ h
Ġ201 1,
Ġsch ol
Ġearn ed
Ġstrugg le
l ines
ĠM ot
Ġindust rial
ĠCon stitution
on na
Ġvide os
Ġstand ards
ĊĊI mage
Ġconsist ent
Ġhas nâĢĻt
Ġ( in
ri er
Ġfundament al
2 4
ĊĊ" It
Ġvehic les
Ġan cient
Ġapplic ations
Ġconsum ers
Ġtal ent
Ġhold s
ĠIS IS
ĊĊH is
Ġperform ed
Ġvirt ual
ĠC IA
ur ation
ĠStep hen
ocrat ic
Ġdiffere nces
Ġinf l
Ġev olution
Ġrep ut
Ġover whel
Ġhum ans
o z
m ,
ĠRom ney
- out
Ġgovernment ,
-------- --------
Ġtrans p
Ġinf ect
au g
Ġra pe
Ġter min
Ġoff .
ĠL ong
Ġl os
Ġcomple t
ĠV ol
ke l
Ġend s
Ġafter noon
Ġres erv
ĠS ar
ide o
ut ch
Ġst y
Ġclass ic
Ġl iqu
g ent
ĠR og
Ġstr ing
ol ice
Ġhe ight
ĠChrist mas
r ac
Ġany way
ĠS ports
Ġt ens
ĠI P
ĠS ee
Ġsust ain
Ġnom ine
Ġspl it
Ġus ual
ĠN Y
ĠP R
Ġev ol
Ġwat ched
ĠMay be
Ġfact ors
ĠDef ense
Ġlo an
ve y
ĊĊR e
Ġfem in
Ñ Ĥ
ĠH el
Ġlaw ,
Ġmonth s,
ĠC le
ĠT ay
Ġexpl ore
Ġs ending
ĠE r
ĠA .
z er
Ġrefer red
Ġt ag
Ġcre ation
Ġ19 3
Ġl ie
Ġdescrib e
p d
ĠiPh one
Ġstre ets
Ġw ake
Ġur ban
v ed.
ĠAd am
Ġdeal ing
Ġaut h
Ġtechn iqu
Ġn arr
Ġca using
ess or
Ġunlike ly
ĠFound ation
ĠE ric
Ġback ,
Ġcon gress
Ġattempt ed
-l ike
ĠB oy
F P
g l
Ġsy n
Ġcr ash
Ġ( b
Ġdetail ed
Ġun employ
Ġs ession
ĠT op
ic ing
Ġpossible .
ab led
Ġalleg ations
Ġse lection
ir ty
ĠRom an
ĠAr m
Ġt ort
ĊĊN o
ĠCath olic
ĠD etro
Ġser ving
Ġsecret ary
Ġwas ,
Ġapp lied
all ,
ĠH ist
ĠK en
Ġedit or
ĠE conom
GB T
as ure
ĠYou ng
p ass
ĠEn ter
Ġ" f
h us
Ġbehav i
Ġs and
Ġmar ried
Ġinst ru
Ġcon vent
Ġret ire
Ġf asc
ad el
Ġsp ring
ĠC y
Ġmark ets
ĠJ ord
ro c
Ġapp s
Ġdri vers
ĠInstead ,
Ġread ers
is hes
ri ve
Ð ¸
Ġput s
ic ation
Ġadop t
Ph oto
ĊĊAl though
Ġgu ilty
Ġkind s
Ġown ed
Ġemail s
w ord
Ġmist ake
Ġm outh
v in
Ġn orthern
Ġso .
Ġmethod s
Ġh ur
ans as
lin e.
Ġimpro ved
g en
Ġun iverse
Ġinvol ving
ĠN HL
Ġlater .
ĊĊ 2.
Ġaccept ed
Ġwalk ed
Ġmonth s.
Ġha bit
Ġstud io
Ġmet al
el lect
ang ers
es. âĢĿ
Ġshe l
Ġca uses
Ġsim pl
ĠTh ank
Ġrepeated ly
Ġmov es
Ġg ang
in i
Ġr ival
Ġh at
Ġequip ment
ĠC amer
Ġch ose
Ġt iny
it a
Ġcommit ment
Ĥ ¬
ĠVirgin ia
Ġit ?
ĠWilliam s
ĊĊT rump
Ġlaw .
Ġupd ates
Ġreg ime
Ġexcell ent
ĠHoll ywood
Ġactiv ists
ĠK evin
Ġ" C
Ġpack age
Ġk it
Ġext rem
Ġyoung er
ĠD own
ack s
Ġannounce ment
Ġp al
Ġdiscuss ed
Ġpos itions
Ġbeg ins
ĠB at
ĠV an
er m
it ud
ĠD C
Ġgovern or
ĠJ o
Ġdisc over
Ġdes k
ĊĊâĢ ĵ
ĠT al
n ic
Ġnear by
ian ,
ra ham
Ġbas ket
Ġro ot
Ġ( G
Ġw est
Ġne ut
Ġrepl aced
Ġknow ing
ĠW ay
Ġcomp onent
Ġ6 .
ĠTrump 's
Ġappro val
et her
ĠP y
Ġadv ice
Ġexam ples
ĠF il
ĊĊ1 .
Ġlic ense
ir ms
Ġare ,
Ġfl u
Ġex hib
Ġmess ages
Ġsur ger
Ġtyp ical
Ġtr ig
Ġthough ts
u ing
red it
op y
in ning
ĠS omet
Ġend ,
Ġsh aring
u gh
ĠâĢľ D
re hens
ĠM iam
Ġbefore .
Ġfore st
ĠF ord
ess ions
Ġdr ag
Ġact ing
T A
Ġd u
Ġ" w
Ġdeep ly
Ġdef ined
ĠPak istan
Ġclose ly
is ters
Ġ" B
Ġw id
ĠFr iday,
ad or
ĠT it
Ġsh if
ĠCh ild
Ġdis ag
Ġmore ,
Ġproblem .
ĠH ome
Ġart ist
Ġfac ilities
ant .
I R
Ġsecond s
O D
Ã Ń
Ġed ge
Ġyou 'll
ĠL ord
ĠD am
Ġpro of
Ġl atter
ĠNow ,
Ġe ast
Ġdist ance
ĠIn f
Ġhead s
Ġb unch
Ġfind ings
! !
Ġun known
Ġan onym
p ool
Ġtarget ed
Ġmod er
Ġdi agn
Ġnar row
Ġexpans ion
Ġprom ote
Ġapprox imately
ĠAd minist
Ġstate ments
ĠSu pp
n s
ĠRep ort
ou s,
Ġimport ance
ĠY et
ĠK n
ing. âĢĿ
Ġevery body
Ġp ed
int end
Ġpow ers
Ġp ages
ing, âĢĿ
Ġse ed
i xt
Ġmarket ing
ĠPol it
Ġad apt
Ġtim es.
ard en
ĠâĢľ p
Ġb at
ĠM ic
Ġcond em
Ġ3 00
Ġdefin ition
ĠTuesday ,
Ġstory .
r ific
Ġas semb
Ġveter an
um ber
c are
Ġhar ass
Ġaw es
Ġfl av
ĠW at
Ġind eed
Ġbit coin
ren ce
T S
ĠIre land
im p
ra id
Ġben ch
Ġrelig ion
Ġliter ally
ap se
ĠB est
it arian
Ġstate ,
ĠSe attle
Ġrout e
a o
Ġtrans m
Ġupd ated
ĠO ld
Ġprodu c
g or
Ġdep th
Ġrem ote
Ġchair man
Ġfl at
Ġhard er
w est
ob ile
: 3
Ġmax imum
oc key
Ġstret ch
Ġphen omen
Ġright ,
ad ,
Ġs outhern
Ġb id
Ġoffic ially
ĠMond ay,
Ġob lig
ĠM at
Ġincre ases
Ġ200 6
Ġnewsp aper
Ġgot ten
Ġsome where
ĠS k
ĠM ax
ĠC ast
Ġ201 8
Ġpoint .
ĠD aniel
i ro
Ġserious ly
ĠR ights
ok ed
Ġhol iday
ĠChar les
Ġbod ies
Ġdes per
ĠTur k
Ġ" T
O n
Ġcomp rom
Ġ2010 ,
Ġint ention
on ic
Ġpil ot
ĠAs ian
ce ler
Ġf lex
ĊĊâĢľ ItâĢĻs
ĠP S
Ġ$1 0
i âĢĻs
Ġare a.
ĠAmeric a,
4 )
Ġag ents
Ġr ide
ĠCar l
Ġlik es
ĠJ ava
Ġb oss
er :
Ġr ub
ĠL ife
ĊĊM any
ĠD all
Ġass ert
ĠA L
Ġ7 .
h an
h ost
ĠâĢľ You
Ġclaim ing
Ġcoal ition
I I
ĠG az
ock et
ĠSt and
Ġun w
ĠAtt orney
ĠN ight
Ġprom ise
Ġthing s.
Ġprov ince
Ġmere ly
Ġin qu
Ġreal ized
Ġs ight
ment s,
ot al
op her
ĠWashington ,
ĠAr ch
Ġde leg
Ġvac c
Ġenem y
ĠB .
ĠEner gy
ĠD ar
Ġv ent
ĠP an
het ic
Ġdoct ors
ĠIr ish
Ġto ,
Ġ( c
ĠO F
Ġpun ish
ĊĊDes pite
Ġso le
Ġcut ting
ĠF our
Ġmin ute
ĊĊA b
Ġfil ms
m pt
ic ul
Ġexpl ains
Ġ3 4
Ġprom ised
Ġcomfort able
Ġequ ival
I F
ĠCru z
Ġdri ven
Ġsupport s
ing u
ĠB owl
Ġtick et
a ire
Ġl oud
lud ing
Ġdis rupt
Ġext ended
Ġdis aster
Ġshe âĢĻs
Ġun p
Ġcommunity .
Ġreg ularly
Ġbase ball
Ġunderst ood
ĊĊL et
Ġrecogn ize
ill s
ĠSp anish
us se
Ġconst ant
Ġcon vert
Ġlink s
ĠT est
Ġexerc ise
Ã ³
- G
if e,
Ġwe ird
ĠD un
Ġ201 3.
ĠMin nes
ĠU t
Ġprec ise
Ġev il
s '
Ġincred ible
Ġse ct
Ġwas te
- 5
et te
Ġcountry âĢĻs
ĠM en
- re
ĠMo ore
Ġcustom er
ĠG all
Ġd rawn
âĢĶ the
Ġmult i
Ġcl ar
l ook
Ġass ume
ry .
Ġcolleag ues
Ġfrequ ently
Ġan x
Ġ icon
ĠDes pite
Ġfif th
ĠRe al
Ġ( W
ĠAfric a
Ġesc ape
Don ald
Ġp od
ag ram
Ġrespect ive
: 5
Ġext ensive
ef ully
Ġsc and
Ġwrit es
Ġf uck
Ġent hus
ter .
Ġfor med
o en
ĠL ove
Ġz ero
Ġtogether .
ĠW omen
Ġregist ered
Ġb le
Ġrul ed
Ġpl ants
Ġkeep s
Ġnarr ative
Ġnot iced
Ġatmosp here
ing s,
Ġbelow .
Ġer a
V ER
Ġvers ions
Ġcapt ured
Ġ5 ,
ll s
Ġpass ion
ĠCont in
ĠMich igan
g a
ĠI T
Ġelse where
Ġdoz en
um ,
Ġaddition ,
Ġprof ile
Ġexperienc es
ĊĊâĢľ S
ĠCh ampionship
ig er
isc ons
ant s,
ĠL uc
Ġth read
Ġ" It
ĠS outhern
Ġhistor y,
ĠW ars
Ġenc oun
Ġthey âĢĻve
D .
Ġcol on
Ġany more
ĠPut in
al le
ic o
Ġk il
ĊĊW hy
Ġoppos ite
Ġstrong ly
ĠI' d
Ġair port
Ġhy d
ĊĊ 3.
Ġcas es,
x y
ĠB ru
- related
Ġact s
Ġcru cial
Ġprotect ed
Ġl ies
ĠL ew
Ġincred ibly
Ġfor th
Ã ¤
ĠTh ough
g ender
Ġpro te
2 )
Ġsudden ly
Ġle ag
ot ten
Ġbook ,
Ġe ating
ĠSte ven
ĠL ight
ĠSen ator
Ġlawy er
ce ived
is an
ĊĊO ver
Ġstor age
Ġprim arily
ag an
Ġst uck
1 )
ĠL GBT
- a
w ar
ĠJ r.
ĠL abor
ĠV iew
Ġfeed back
Ġra ising
Ġiss ue.
ou s.
m et
Ġr us
isc al
Ġstr ange
Ġdirect ed
Ġret urning
Ġob tained
Ġ197 0
Ġthing s,
if orm
ĠRep .
Ġwor ried
Ġcol leg
Ġdec ent
Ġinvest ors
Ġswe et
ĠB rian
Ġcontribut ed
ĠN BC
ĠWednesday ,
ĠAc adem
ĠT urn
Ġs atell
Ġbe ar
Ġnew ly
og ue
ch o
ĠI ow
ĠAut hor
Ġst ead
w ater
Ġ( J
ĊĊJ ust
adel ph
ĠNAS A
ed. âĢĿ
Ġplan e
ĠC am
ĠâĢľ He
Ġcon ven
Ġch ick
ac y.
ĠH om
Ġe arning
Ġfind s
Ġsuc ceed
L A
Ġitself .
Ġsurveill ance
Ġg ift
Ġmechan ism
Ġener g
Ġartic les
Ġpen al
Ġrec overy
ĠTur key
ĠO âĢĻ
ĠN az
ĠD ark
ĠR os
Ġsuff ering
Ġgu ide
ĠW ater
- F
Ġap artment
e ah,
ĠVict or
Ġd ress
ĊĊG o
ĠCl ass
Ġsh ots
ll er
Ġ4 9
ĠE nd
Ġbl ame
ĠOr gan
Ġpark ing
Ġselect ed
ĠI' ll
Ġdist inct
Ġover se
ĊĊâĢľ This
ĠN ick
ĠD i
Ġprotest s
c an
ĠâĢľ This
ĠC all
ĠMuslim s
Ġfall ing
Ġher ,
S S
Ġdownt own
ĠC at
ory .
Ġgood .
Ġcompl icated
ke ep
ĠMos c
ĠHe 's
ĠC D
ens us
Ġphot ograph
Ġbatter y
Ġt ied
a ed
Ġresult ing
w oman
ĠB as
ob e
Ġaim ed
Ġh o
Ġsome how
Ġattack ed
Ġ201 2.
M A
Ġs iz
ĠThursday ,
ĊĊ" It's
Ġt ree
ill y
2 6
Ġst im
p read
Ġamount s
ĠZ eal
Ġ7 5
Ġch ampionship
ĠW here
Ġno body
Ġint ellect
Ġant icip
z a
Ġman ,
Ġsp ark
Ġbefore ,
I .
Ġauth ors
Ġ4 8
Ã ¶
Ġmone y,
ar ters
Ġr ig
Ġ( p
ĠM S
Ġ( H
ĠYouT ube
Ġdeath s
( )
ĠB ell
Ġcons pir
Ġplac e,
Ġpartners hip
over ,
ĠP arliament
Ġcomp ens
ĠH un
Ġide al
Ġdemonst r
Ġ( E
o or
ĠC ivil
Ġf ake
Ġtax pay
Ġthous and
] .
Ġwel come
ĠPac ific
ĠâĢľ L
ĠC are
Ġcr imes
Ġparticip ants
Ġtest ed
Ġchildren .
ĠO reg
Ġgener ate
Ġmom ents
ĠL and
Ġu pper
ĊĊI s
Ġcontinu ing
Ġcontro lled
ĠE duc
Ġchildren ,
Ġsol ve
ack ing
Ġdefe at
Ġ" a
Ġal ert
Ġgroup ,
Ġbetter .
ab is
ĠFore ign
es y
es, âĢĿ
Ġautom atically
ĠDis ney
ĠC oll
ĠLin ux
ĠCo ast
Ġthreat s
ry pt
Ġyear âĢĻs
ĠO s
Ġcont em
ĠB ull
Ġ3 8
Ġpro ved
on âĢĻs
ĊĊM ost
Ġconst antly
Ġpl astic
Ġinstitut ions
Ġins pir
Ġelect ions
im e,
Ġz one
Ġreturn s
Ġmot ion
red ient
olog ist
Ġmat ters
Ġcons cious
Ġwin ner
Ġ200 5
ar ry
ĠK urd
Ġmod e
Ġimpress ive
ĠH ot
ĠW .
li x
Ġch osen
Ġthreat ened
o âĢĻs
Ġcamp us
in als
Ġpar am
ac le
Ġr ing
ĠO S
Ġman ip
m ont
Ġframe work
Ġmarket .
sh ire
ĠPro gram
O C
Ġreg ulation
Ġbr ut
E W
Ġexc iting
Ġexp osed
Ġme at
Ġsh arp
l ist
Ġpower .
al ed
Ġw estern
Ġ iron
Ġs oul
Ã ¼
il arly
Ġpain t
Ġseason s
Ġbl ind
Ġen able
ĠR ick
Ġprot esters
ĠF re
ĊĊA m
Ġunc ertain
Ġposs ess
r ich
ĠW iscons
Ġunus ual
Ġt aught
l an
ĠColor ado
I s
ĠS C
Ġreport .
ev it
Ġother .
og an
Ġt ies
ĠAl ab
Ġg all
Ġ6 ,
pect ed
Ġr iver
am ber
Ġph r
ĠV eg
f all
Ġjud g
Ġcurren cy
ĠT ake
ĠJ osh
- 8
Ġoursel ves
Ġcry pt
Ġdep ending
ĠItal ian
Ġ8 .
Ġout r
Ġtrad ing
ities ,
Ġ3 7
Ġsy mpt
ĠAn th
Ġassist ant
Ġsome body
Ġmov ies
ot ic
Ġaf raid
Ġf lying
ĊĊ" S
6 5
Ġ( d
Ġperson ally
2 7
T V
ĠC ome
Ġint ense
Ġhe l
Ġ" N
Ġex cess
Ġwomen ,
Ġthe rap
Ġg ear
ĠO ak
ĠâĢľ t
= "
ĠIn vest
Ġfol ks
Ġpriv ile
ĠE SP
Ġgun s
Ġ" m
Ġdisc ipl
Ġext ent
Ġhon or
ĠB alt
ĠWe âĢĻre
Ġpercent .
Ġt ip
Ġrac ial
/ or
Ġh ttp
ever al
ĊĊR el
Ġbuild ings
Ġacc omp
Ġinform ed
Ġext ract
ĠF all
ĠMc G
Ġwere nâĢĻt
Ġ" H
Ġsong s
ib ilities
gor ith
ĠPhil adelph
Ġmix ed
um in
Ġmagaz ine
Ġd ry
Ġfound er
Ġelect ronic
Ġwith .
ĠG ames
ĠJose ph
Ġobject s
Ġperman ent
Ġdec line
ities .
Ñ ģ
Ġult imate
Ġd ict
ut s
Ġleg end
Ġlibr ary
Ġexperience .
ĊĊL ike
Ġprom inent
ĠHou ston
Ġl ine.
ĠT ony
Ġevery where
ĠObama âĢĻs
ĠSpec ial
ost er
Ġn od
ĠS n
ĠMar c
v ed,
ĠO per
- H
Ġboy s
he nt
Ġwhe el
ĠF ood
Ġprinc ip
ĠI d
ĠN orthern
Ġmaterial s
Ġk ing
Ġent it
Ġcampaign .
Ġ" O
Ġr ating
ĊĊA dd
in em
iou s,
Ġm ail
Ġth ick
ĊĊR ep
ĠE p
Ġs ample
Ġaud io
Ġf ought
ĠS .
Ġ1 ,000
er r
Ġbasket ball
lin e,
ĠF C
Ġim per
Ġenjoy ed
Ġs or
Ġfar ,
2 8
ĠE astern
Ġacadem ic
ĠPrem ier
Ġmark ed
Ġend ing
Ġaspect s
Ġcoff ee
E .
Ġqu ot
Ġfamily ,
t aining
ĠTh anks
ograp her
ĊĊM ean
% .
Ġreject ed
et ary
Ġatt ended
Get ty
ĠâĢľ F
m ates
ĠâĢľI f
Ġjour ney
Ġrec ip
ĠF ort
f ortunately,
ig ure
Ġst adium
Ġreason able
ĠA R
Ġen orm
ĠJes us
Ġcy c
Ġdoz ens
ce ,
ret t
ax y
Ġperfect ly
Ġv en
Ġfirst ,
p an
Ġpl ug
Ġw age
es c
Ġlaw makers
or ough
% )
reed om
Ġchamp ion
au c
pr int
Ġfix ed
ĠS af
Ġin evit
Ġf ighter
Ġinn oc
ri k
ĠT em
ĠBut ,
Ġcompan y,
Ġn ations
ĠH as
Ġb es
Ġmain ly
Ġind ex
ĊĊP olice
Ġaggress ive
ĠF oot
Ġh ang
Ġrepresent ed
Ġwin s
Ġadd s
Ġresult ed
ow ed
as er
Ġac celer
ol t
Ġstr ict
Ġmed ium
Ġpay ment
Ġdescrib es
ĠM ajor
ar on
uild ing
ĠWil son
m ail
at hered
ĠTrump ,
Ġr ang
Ġconsequ ences
Ġcoun sel
up id
Ġ( The
Ġmy th
ac y,
ĠVal ley
Ġwhat 's
Ġand /or
Ġlic ens
Ġed ition
Ġcy ber
Ġbeh alf
Ġcapt ure
ĠR ay
ĠBe fore
al ing
ĠV R
ĠA p
Ġt ap
Ġfact s
Ġhistor ic
ĠP ay
Ġp ump
Ġvis ited
Ġother s,
Ġwonder ful
ver ,
Ġback ed
Ġ( as
h ite
way ,
ĠV iet
y stem
Ġport ion
ĠA li
ĠS now
Ġob st
Ġpract ices
k ed
Ġc ited
Ġemploy ee
Ġj ur
3 5
l van
Ġrequest s
Ġart ists
Ġsuccess fully
Ġla id
Ġvis ible
b oy
Ġve get
h t
Ġcivil ian
ually ,
Ġcommunic ation
Ġ15 0
-c ont
anche ster
o il
Ġlands c
Ġsu p
U R
Ġ$1 .
ĊĊAl so
Ġthem e
ĠG reg
Ġplay .
Ġresult ,
Ġsuff er
Ġequival ent
Ġthemsel ves.
g .
w in
ĠO l
ro ph
Ġ" P
Ġover t
Ġstor y,
ĠUkrain e
ĠDav is
Ġatt ribut
Ġvol ume
Ġtarg ets
Ġslow ly
Ġsub t
Ġprop ag
ĠDetro it
Ġd im
re p
-c lass
ĠGree k
ric ult
Ġinjur ies
Ġb orrow
ĠRob in
og ether
ĠScot land
ĠJ am
Ġgen u
Ġobs erved
Ġinv ent
2 2
e z
in a.
Ġde als
Ġstore s
Ġ2017 .
Ġc rop
Ġorgan ized
Ġcommunic ations
Ġrare ly
Ġ7 ,
ĠJ ason
ĠGl obal
-p art
Ġdat a.
Ġrel ief
Ġsuff icient
ed, âĢĿ
Ġf ault
Ġlevel .
Ġe uro
Ġregard less
he rent
ĊĊC on
Ġre ly
Ġscen ario
ĠCent re
Ġ10 ,
Ġadult s
ĠV is
ĠR en
ams ung
Ġo k
ĠG i
ens ity
f ast
Ġdon e.
om a
ĠBus iness
Ġto ler
Ġh ired
ides pread
Ġcity .
Ġimmigr ants
f ire
Ġrec ording
Ġacc us
Ġ200 9,
Ġliber t
6 4
Ġrefuge es
ĠR oyal
Ġj u
Ġord ers
Ġsupp orter
Ġcreat es
if er
Ġt or
Ġopp onents
ant s.
Ġfl aw
Ġt ear
Ġabort ion
ose xual
Ġyou 've
Ġwrong .
ĠM oh
Ġexpress ion
Ġcom ic
Ġserv ices.
ili pp
Ġb ath
ĠAmeric a.
E ,
ĠK ent
Ġag ricult
Ġeng aged
-to -
Ġsuic ide
ĠDe ad
Ġdrink ing
Ġpost s
um mer
Ġfor um
st one
ĠR and
Ġdevelop er
ious ly
Ġinform ation.
ĠDN A
ĠJew s
Ġfamily .
Ġcampaign ,
ĠH T
Ġh idden
Ġmay or
Ġpro ven
Ġp in
50 ,000
ĠâĢľ E
ĠL u
Ġwar rant
Ġhaven 't
or ation
Ġal gorith
Ġrisk s
Ġare a,
Ġelection .
Ġredu ction
C h
ĠM u
am ,
ĠN C
sy lvan
bur gh
st r
Ġeven ing
Ġproces s,
Ġy ield
Ġch ances
Ġreport ,
ĠA h
ch ain
Ġ" b
Ġet c
ĠAlso ,
Ġar ray
Ġneut ral
- level
Ġg ained
ĠAs h
ĠTurk ish
Ġsh ares
ĊĊ" This
Ġcrit ics
al a
s. [
ott ed
Ġexist ence
Ġcompet e
al o
Ġdeli very
Ġcollect ed
anc ou
Ġh its
ĠConf erence
ĠInd epend
Ġwithd raw
ĠM id
int erest
Ġpow er,
Ġun iform
Ġsett le
Ġth ing,
m ar
Ġinc ent
Ġregul ations
n et
im ore
: 4
Ġe lev
y 's
Ġgener ated
2 00
ere nces
Ġgam ing
os m
ĠESP N
Ġoper ate
g reg
9 5
are ,
Ġprogram m
Ġrout ine
Ġent ering
Ġworld 's
.com /
Ġempt y
is p
Ġret ired
Ġst em
Ġteach ing
Ġwin ter
ir k
Ġoff ,
- W
Ġstrong er
Ġkn ock
ort ed
Ġdeli ber
Ġprogram .
ĠAg ency
Ġshould nâĢĻt
Ġshort ly
Ġb ail
Ġvalu able
Ġown .
Ġbusines s.
Ð¾ Ð
st ate
ĠW in
Ġfun ctions
Ġsc oring
ic er
Ġcl imb
ĠU FC
Ġexpl icit
Ġcont aining
Ġball ot
Ġconcl usion
ĠY es,
i y
aw a
Ġissu es.
Ġfash ion
ĠâĢľ G
ĠMay or
ĠO nt
ĠJ ac
Ġschedu le
Ġext end
Ġdat a,
ou red
Ġrec ru
n er.
4 ]
oc ation
Ġfollow s
ĠJord an
ĠU C
ĠM .
Ġc able
Ġnav ig
Ġro se
or ic
ĠB ry
Ġto x
Ġunc lear
Ġun ex
ĠF und
ĠTod ay
ĠL o
A s
Ġbl ast
ĠC .
Ġ( Photo
Ġfranch ise
w an
ĠF red
ĠN ations
Ġ \
Ġform al
3 )
Ġhead ed
ub b
Ġest ate
ĊĊS c
ĠP ack
a us
Ġres ign
Ġ200 8,
if ies
ĠâĢľ R
Ġbus y
Ġclass es
ĠO '
âĢĻ .
Ġgr ap
ĠN ob
ĠAb out
Ġit .âĢĿ
Ġt ail
Ġact or
Ġjournal ists
l aw
AT O
ĠF air
Ġsent ence
Ġmillion .
Ġ8 ,
D ,
Ġbare ly
Ġsm ooth
ĊĊT wo
Ġh itting
Ġiniti ative
Ġcl ock
Ġm o
Ġarr ange
ĠA BC
ĠBern ie
ĠâĢľThe re
H S
Ġstrugg ling
ri ent
Ġestim ates
Ġyet ,
Ġter rible
Ġne uro
ĊĊN ow,
Ġw idespread
ment ed
Ġmount ain
Ġpubl isher
el and
Ġabout .
Ġbeg un
Ġperson nel
Ġelectric ity
Ġdraw ing
Ġt all
Ġwe 'll
Ġpe ak
ĠN SA
ĠJ ay
em en
a un
M L
olog y,
Ġfound ed
ĠRe view
ĠAfghan istan
Ġargu ments
ĊĊS o,
Ġf iscal
Ġcompar ison
ĠP oint
Ġcraz y
Ġdev ast
Ġs ide,
ĠF ield
Ġw ing
ĠKing dom
Ġmat ches
Ġlevel ,
ann y
Ġel ig
-b e
or a
Ġwrot e.
we et
arr ass
ĠF ed
ĠX box
ant ic
ĠH ard
ĠBe ach
ach us
- E
Ġexcl usive
ĠPenn sylvan
Ġshow .
Ġ" D
T h
Ġproject .
Ġ10 .
ĠKe y
az e
Ġg onna
Ġb urd
Ġself -d
ĠJud ge
y ou
Ġoffic e.
Ġrepresent ative
Ġdest ruction
Ġfeat uring
Ñ Ģ
ĊĊ 4
Ġemer ged
Ġreach ing
Ġ( U
Ġass ets
aw ay
ĠMosc ow
Ġteacher s
ĠB rew
Ġadop ted
i ples
Ġproper ly
Ġmag ic
Ġvulner able
Ġchang e,
ĠN ext
Ġf ighters
Ġtogether ,
Ġform at
Ġvill age
ĠL .
Ġut il
ick s
Ġfl ash
ĠL ind
im m
em b
anc es,
ĠD id
Ġst eal
ĠSund ay,
ĊĊC ont
Ġper pet
Ġreg ister
i ated
Ġsens itive
Ġal ien
Ġhard ly
Ġwe lf
Ġth rown
ĠMe an
ĠO K
Ġv ital
Ġmorning ,
Ġbehavi our
ig en
Ġsuggest ing
] ,
Ġbr anch
ĊĊâĢ Ķ
Ġhand ful
ĠH ay
Ġsk y
Ġjob .
Ġ" h
ĠSe ason
M P
Ġredu cing
o s,
Ġne ck
ĠC irc
ĠâĢľThe y
Ġfor .
-f oot
az z
Ġrecogn ition
an es
Ġnetwork s
ĠN .
Ġlim its
Ġind icated
oun ced
/ A
ĠA ward
l ad
Ġprep are
ĠCh ina,
ĠR ose
Ġcoll apse
Ġm el
Ġ5 5
L e
ĠE s
Ġrelationship s
ĠAriz ona
Ġi P
Ġgenu ine
it ar
Ġjoin ing
arli er
at i
Ġ$ 6
ĠDon âĢĻt
Ġsen ator
ĊĊ 4.
Ġatt ent
Ġ6 4
Ġmon itor
ĠH it
Ġpro port
ind ing
ĊĊâĢľThe re
Ġtop ic
ag g
Ġposs ession
Ġindic ate
re te
Ġdef ence
2 9
Ġsc ream
Ġaccur ate
Ġem issions
ic ate
le te
Ġg athered
Ġphys ic
Ġ11 ,
Ġ( 5
Ġschool ,
Ġro ok
Ġsy nt
ĠL ive
ĠI C
Ġsm oke
he ast
Ġing redient
Ġcy cle
Ġprogram ,
iver pool
ĠIran ian
6 )
ĠAnt on
Ġrec over
Ġm ine
v y
Ġprodu cing
ĠD ig
if est
Ġtouch down
Ġfin ance
Ġpet ition
Ġport ray
ĠS P
Ġpre -
Ġconc ert
Ġtrou b
Ġex ceed
N ew
ĠZeal and
Ġinform ation,
Ġob tain
Ġ= >
Ġall ies
Ġmean ,
Ġbe ,
it u
ĊĊI nd
Ġover .
Ġpropert ies
ĊĊâĢľ O
ur rent
Ġdem ands
ĠChe ck
ĠTh ree
I ,
Ġ" It's
is er
b el
ĠN ic
Ġtr ue.
Ġb om
Ġdisc overy
em an
Ġsurv iv
Ġpart ,
ĠM ir
ĠThere 's
Ġowners hip
l og
Ġrid icul
Ġ4 4
S L
Ġass et
ĠPat rick
Ġex port
1 00
Ġrefere nd
in es,
Ġsubs crib
Ġs oph
Ġminor ity
Ġrefer ring
ec ut
/ Getty
ĠT own
p .
Ġ6 5
Ġ200 4
Ġam id
ienc es
Ġdep uty
ĠP en
Ġang ry
r ical
p ire
Ġparticip ate
C ,
act ive
ĠRad io
Ġpract ical
Ġgrant ed
Ġpay ments
Ġhead qu
ĠH or
ia âĢĻs
omm od
se a
Ġlik ed
- cent
-f ree
Ġconv in
ĊĊâĢ ĺ
ĠMed ical
Ġr ural
sec ution
Ġinstall ed
-w ing
Ġpres um
Ġliqu id
Ġb anned
Ġ4 00
ĊĊO ur
ĠServ ices
Ġevery th
Ġnorm ally
ici ency
re ll
2 3
Ġf ab
Ġdestroy ed
Ġel ite
Ġrece iver
Ġconstitution al
ĠPol icy
Ġintellect ual
ĠV ancou
iven ess
- min
ĊĊ #
Ġuse .
Ġcommunity ,
ĠL ink
ĠSt adium
ĠAmerica âĢĻs
ĠL ittle
Ġconclud ed
Ġattempt ing
ĠDall as
ĠA ction
r as
Ġgood ,
Ġcomp rehens
um er
ĠC ore
Ġfr ag
Ġexcl us
Ġph ase
Ġtack le
ĠM anchester
u a
Ġ âĢĻ
ĊĊR es
ĠDiv ision
Ġs ide.
br id
ĠConserv ative
-m ail
ĠD isc
Ġshow ,
Ġpenal ty
Ġeas tern
ĠGo vern
er a
and ed
ĊĊMean while,
Ġknow .
ĠL y
ĠI ce
Ġext ension
Ġt rem
ĠR et
Ġlet ters
rodu ct
Ġst ake
ĠMatt hew
ĠHen ry
Ġequ ally
ĠG ov.
Ġign ore
Ġrecogn ized
Ġloc ations
Ġstrateg ic
os it
Ġresist ance
is on,
r ans
ĠBro ther
Ġaway ,
Ġnewsp ap
Ġgen etic
Ġlegit imate
ĠCh air
Ġare .
Ġp ound
ĠI R
ĠP ent
b ar
ab il
st ead
Ġgroup .
Ġin ject
Ġ2017 ,
ĠM ake
Ġwat er,
Ġtrans gender
ĠPh ilipp
Ġ19 60
Ġas ide
Ġreput ation
Ġdram atic
-1 0
-A merican
Ġwomen .
Ġinv ited
im e.
ĠMass achus
f lix
ul ating
Ġelse .
Ġproject ,
ĠN ation
Ġaccomp an
I mage
re pre
il ton
Ġemploy ment
Ġeth nic
Ġbr ill
> >
B O
ĠC O
Ġ201 1.
Ġpoll s
Ġspokes person
anc es.
Ġprogress ive
Ġinv as
og en
Ġdatab ase
ĠMiam i
l ah
ĠB all
Ġh ook
ĠPer haps
ĠJer sey
Ġcas ual
k .
Ġemb arrass
r ,
Ġpresident ,
Ġst upid
ĠSoc iety
ĠCaliforn ia,
ĠM useum
im ents
Ġtom orrow
Ġt ur
Ġhas n't
Ġseem ingly
y e
Ġtest im
Ġhead ing
Ġ( see
Ġser ves
ĠSh are
i i
Ġex ternal
repre ne
Ġsa ving
r ors
ĠK at
ĠEn viron
Ġcollect ive
ĠU lt
ĠHe ad
Ġinqu ir
Ġcont ribute
Ġcont ained
D S
ĠSaturday ,
ĠAl bert
ĊĊO nce
u ction
ĠMin istry
g un
Ġ( $
Ġmanufact uring
Ġcountri es,
z en
Ġf oss
Ġ( 4
iou s.
Ġrank ed
Ġ( O
Ġmeet ings
ĊĊThe n
Ġincor por
Ġmiss ile
Ġest imate
Ġthe at
Ġatt ached
ers âĢĻ
Ġdeath .
ĠH ospital
Ġsa ved
ĠC level
Ġfail ing
in ity
Ġ %
ĠS ir
Ġvers us
Ġout com
Ġpass es
ih ad
Ġ( m
Ġconv icted
el .
ing. "
ĠGet ty
Ġcity ,
Ġc abin
Ġr aw
Ð ½
Ġrequire ments
b al
Ġpolitic ian
Ġm os
Ġhor ror
i er,
M y
Ġtast e
Ġp orn
Ġhous es
ĠM as
ĠC ross
Ġmid field
Ġnewslet ter
Ġdef ine
Ġd iversity
Ġcele b
ĠA cc
Ġh ung
Ġ9 ,
Ġexplan ation
Ġcountri es.
es sel
ĠHar ry
Ġtem porary
Ġy es,
Ġfoot age
ĠBalt imore
Ġprogram ming
Ġast ron
Ġcount y
Ġattack ing
Ġresear cher
ĠAnd erson
Ġnot ion
Ġmedia ,
Ġprem ium
ĠP itt
ĠYork ,
ver .
E A
ĊĊ Â
ĠN ever
alle l
Ġsuspect ed
Ġconvin ced
are .
st ers
ĠS amsung
Ġsett lement
Ġf inger
ĠL as
oc iate
-se x
Ġcann abis
ess ed
ĠO N
Ġb ureau
Ġawes ome
Ġlawy ers
ink ing
ĠMark et
ĠTay lor
Ġlob by
Ġinvol ves
Ġcont ribution
Ġman ner
Ġsay ing,
pe aking
ĠA le
e en
Ġh am
Ġ4 2
ĠG am
ĠO tt
Ġblock s
ĠMcC ain
% ,
Ġcompany âĢĻs
Ġover s
Ġoffic e,
-g ame
Ġsh r
Ġ- >
Ġm ask
Ġthrow ing
Ġr het
ro lled
Ġpast ,
' ,
land s
Ġ(2 00
ĠR ef
d it
Ġfe es
y. "
ĠIll ino
ĠQue en
Ġdid .
Ġschem e
Ġelection ,
Ġo cean
ful ,
Ġsan ctions
ou ch
Ġlow est
ĠGold en
Ġvirt ually
end ers
Ġhand ed
op hy
ach ing
ĠC BS
ĠThey âĢĻre
e. "
in er
Ġapprec iate
ĠCity ,
Ġexp osure
ĊĊS ee
Ġview ed
Ġf ulf
Ġcon ce
t hen
ar c
ĠE .
Ġyet .
ĊĊThat âĢĻs
Ġhor se
Ġg rav
Ġacc ommod
ĠPak ist
Ġperspect ive
Ġsubstant ial
Ġth in
Ġother ,
Ġh int
-h our
Ġstart up
Ġ20 ,
ĠD ub
te en
ĠN ote
ĠDevelop ment
ĠAnth ony
Ġi OS
Ġgood s
b ec
ĠH D
ĠâĢľ But
Ġw rest
Ġ4 3
Ġmem or
Ġbu ck
ĠAnd ,
ĠB ang
Ġaut hent
Ġ" He
ĠB ab
Ġgo .
ĊĊRel ated
ĠâĢľ g
ĊĊD on
Ġc ust
Ġsh out
Ġso il
ĠSept .
Ġser ies,
Ġsay .
ang el
Ġd rew
f ront
ĠAs ia
ĠSe a
Ġoverwhel ming
Ġenough ,
ap ol
E P
ĠW W
- 6
Ġ3 9
Ġhe âĢĻd
Ġcountry 's
Ġse ats
ĠC ook
Ġy ard
Ġwrit ers
Ġh ide
ĠProf essor
al i
o 's
Ġ$ 7
Ġ( for
S cript
c omm
P G
Ġout come
ĠM OR
Ġadvert ising
ĠGeorg ia
rom e
s âĢĿ
own ed
ĠAb b
ĠF urther
Ġchalleng ing
we red
ĠBro ad
Ġst ol
Ġpurch ased
ĠF reedom
Ġindustry .
Ġc oc
T H
u ce
Ġstud y,
Ġsol utions
u ous
ĠMexic an
ĠSp ain
Ġdemocr acy
Ġfo ld
Ġcomp onents
Ġ15 ,
Ġtr ained
Ġengine ering
Ġn erv
ro t
Ġinvestig ating
ĠSant a
ĠCommun ity
Ġright ?
Ġj oke
ep ing
Ġjournal ist
ĠE vent
Ġtechnolog ies
Ġ Î
Ġadm it
ĠFam ily
Ġcontrol s
Ġnot ing
ortun ately
Ġsu gar
Ġwar .
un icip
Ġth rew
Ġpres id
ion e
ed. "
Ġgr id
Ġterror ism
age ment
ing, "
ig are
Ġiss ue,
Ġbro wn
Ġperson ality
Ġfound ation
i el
ĊĊE n
ĠFoot ball
rop ri
ĠTuesday .
Ġdem ocratic
u per
Ġle ts
Ġ" You
Ġsp in
ĠR a
Ġâ Ĥ¬
ĠInt elligence
Ġn atur
Ġstay ed
Ġemploy e
ĠSer ies
ĠM ah
: //
ĊĊ"The re
it ter
âĢĶâĢĶ âĢĶâĢĶ
Ġpre ced
ur a
ĠPat ri
Ġassist ance
r ary
ick et
ĠS at
ĠN ev
ĠN ATO
ĊĊ" O
Ġbar rel
Ġ12 ,
Ġl ine,
rou s
Ġre vel
ĠIn formation
Ġup set
Ġprotect ing
Ġyou âĢĻd
ĠT our
sc ript
Ġent r
ĠIraq i
Ġprov ision
Ġwater .
ĠMus ic
Ġd ump
Ġcon so
Ġrele as
â ĸ
ĠCont rol
ĠAssoci ated
uck s
Ġansw ers
Ġinvestig ate
Ġcover ing
Ġminut es.
Ġl oyal
ĠAm endment
Ġ" p
- le
Ġimplement ation
h .
a ired
ver ty
Ġplay ers.
Ġf irms
Ġagend a
ĊĊBe fore
ĠE ag
Ġspeak s
ĠComp any
ĠAN D
ĠA D
Ġwork er
ĠEd ward
ĠWh ich
Ġwebs ite.
Ġb acter
ĠLat in
Ġprot ocol
ĠP ot
b ell
Ġexpand ed
ĊĊG et
ific ations
ĠMill er
i 's
app y
Ġg al
Ġachie ved
Ġal ter
ĠT ri
S ,
uck y
ĠMar vel
Ġdog s
ĊĊD o
ĠH op
Ġwar ,
Ġcour ts
Ġissu es,
Ġ20 20
7 )
Ġr ational
Ġgr ass
Ġpo verty
bre ak
Ġexch ang
Ġnam e,
Ġfall en
ĠLiber al
ĠP op
oty pe
ĠSpr ing
Ġreg ions
n i
l ife
Ġg ra
Ġad s
Ġd iverse
ab eth
ens ions
Ġmembers hip
ĠWith out
Ġlist ening
Ġf ing
r int
ĠK ong
Ġdeg rees
ĊĊP er
Ġsubsequ ent
________ ________
Ġcon vention
Ġend .
ĠD ata
Ġresour ce
Ġ20 th
ĠCon nect
ct ic
00 00
Ġbill s
Ġcongress ional
Ġestablish ment
ĠC hel
ĠM ain
Ġvot er
ĠB ron
i ability
Ġsh adow
um .
Ġcompan y.
Ġfant astic
el f
Ġro ster
Ġl es
Ġp ace
Ġbo ot
Ġpo ly
Ġfear s
Ġeither .
-m on
r ison
ĠComm on
ĠL yn
Ġarri ve
ĠSt art
ource :
Ġenorm ous
ĠS uch
Ġstrik es
w rit
Ġmus ical
Ġs om
on 's
Ġin ner
Ġgovernment âĢĻs
Ġcom pe
Ġtr ave
ĠOlymp ic
ist ent
Ġm arch
ĠB uff
ĠR oy
ĠH o
man n
Ġrecomm ended
Ġcap abilities
Ġch apter
ĠV ill
our se
Ġmedia .
ing ton
Ġmen u
ĠB attle
ent h
ĠMonday .
Ġbo om
2 1
Ġt ape
Ġwar ming
ĊĊâĢľI f
less ly
Ġcity âĢĻs
ĠC re
Ġske pt
Ġconsist ently
ĠL iverpool
Ġign ored
Ġschool .
ĠKell y
b n
ĠN ov
Ġal arm
t a
ĠD ave
Ġbr idge
ĊĊD e
Ġplay ers,
6 ]
ĠM ars
. S.
S h
Ġr amp
Ġf estival
Ġ9 /
Ġab st
Ġd uty
Ġr om
ivers ary
Ġtrans act
Ġscen es
ĠB a
Ġtri es
Ġst able
ĠC ost
ĠRev olution
ĠN intend
k o
ĠObam ac
Ġ9 .
Ġmen ,
ĠAcadem y
ĠDe v
Ġd ust
Ġur ged
Ġwel com
ĠA S
ian a
ĠCl ark
Ġab road
Ġ" This
Ġwith ,
Ġacqu ired
ĠS H
ĠK ansas
Ġwelf are
Ġdist ract
Ġaction .
Ġlong ,
Ġrepresent ing
rat ors
E G
Ġlandsc ape
am med
Ġdeep er
ĠB ureau
av id
Ġequ ality
ĠMinnes ota
ick ing
im a
Ġcho ices
ĠF ull
Ġd ut
Ġlet ting
Ġinvolve ment
Ġobs er
e, "
in s,
Ġproblem s.
âĢĶ w
Ġaccompl ish
Ġdep ends
ĠB ad
Ġrapid ly
Ġprodu cer
inc luding
J .
d ict
Ġr if
ĠM s.
re ,
nt il
Ġconsum ption
Ġcl osing
Ġhyp ot
Ġguarant ee
Ġd ad
he im
ĠCap it
n ew
Ġsit e.
ĊĊ" He
ĠGuard ian
ĠDo es
Ġfeel ings
Ġwomen âĢĻs
ĊĊâĢľ He
Ġreport ed.
ĠEurope ,
ay .
Ġfriend ly
Ġtoday âĢĻs
Ġmarket ,
Ġcare ful
ES T
Ġtrack s
Ġord inary
ĠNav y
ĠG un
Ġ18 ,
in ction
l ow
Ġtrans action
Ġv ary
Ġhappen .
Ġ30 ,
ĊĊT od
ĠOct .
Ġart ific
Ġnegoti ations
pr ise
Ġfuture ,
Ġencour aged
Ġin equ
ĠM aster
Ġserv ice.
Ġpro l
Ġdro ve
ok es
ĠT rib
ate :
Ġconvent ional
Ġintrodu ction
ast s
ĊĊPh oto
ĠBe ij
Ġrec ruit
Ġdis put
Ġsurv ive
Ġtit les
Ġatt orne
p es
ĠB udd
Ġfore cast
ĠE xt
Ġdisapp ear
Ġspac e.
b our
Ġtre es
ĠHar v
ĠFriday .
Ġspok en
Ġsign ature
ĠWiscons in
Ġenough .
Ġ" F
Ġ200 3
Ġdiscrim in
Ġsusp ended
Ġm useum
Ġbrows er
Ġperm ission
ed :
Ġj ury
ĠEduc ation
Ġspirit ual
ed, "
ĠAdminist ration
Ġprior ity
ub s
Ġt ab
ĠA st
ol ph
ha ust
Ġweek s,
ĠOk lah
ĠLet âĢĻs
oun ce
Ġco vers
Ġl ocked
ĠD et
Ġeconom y.
Ġfe e
ĠS ony
Ġbo at
Ġfilm ,
ĠH ind
Ġrock et
ĠTrump .
Ġtechniqu es
Ġcy cl
Ġlight s
Ġsy mp
Ġcl im
Ġliv es.
Ġvis iting
Ġinc l
ĠPr ince
idel ines
Ġhand ling
Ġdemonst rated
Ġ" L
ĠN ov.
ĊĊ 5.
Ġent reprene
ĠEng ine
c ol
D F
ĠWednesday .
Ġschol ars
l ers
Ġdynam ic
Ġse ar
Ġal one.
Ġb read
ĠA ud
Ġ0. 0
Ġv s
Ġattack .
Ġde em
ing :
ï ¿
our ces
f ile
Ġsupport .
enc ies
ĠBre x
Ġclient s
Ġthough .
Ġline up
Ġex ists
ĠRe uters
Ġbu ff
Ġf ro
Ġhealth care
Ġun pre
8 )
ind er
Ġdist urb
Ġintrodu ce
Ġappro ached
ĠU se
Ġh ole
usal em
ou ri
ene z
Ġass ign
ĠJust in
P M
Ġre nder
- 7
ĠN OT
Ġche st
Ġw edd
Ġcomplain ts
Ġfant asy
Ġpl ain
Ġwe igh
Ġmeas ured
Ġp atch
Ġstate âĢĻs
Ġterrit ory
Ġimpro ving
ĠNet flix
P .
ĠB on
ĊĊF in
Ġexperience ,
U n
8 5
it ors
Ġcamer as
Ġ" t
Ġcommon ly
Ġj e
ors hip
Ġacknowled ged
Ġf ur
Ġproblem ,
ul es
ĠT ok
ĠDie go
Ġbrill iant
ĠS om
Ġcare fully
he s,
ĠSc ient
ecut ive
ord inary
P ,
Ġj un
Ġ19 0
Ġprinc iples
est ,
Ġc ow
Ġtick ets
Ġaround .
Ġunemploy ment
Ġple as
ĠSy d
Ġ16 ,
in es.
Ġlegisl ative
Ġcritic ized
Ġr ush
ath y
er ies
Ġstat es,
th is
R e
est y
ĠAg ain
ĠPro v
-p oint
Ġfarm ers
it i
y, "
Ġfocus ing
Ġpercent ,
hat t
man .
- he
Ġitself ,
Ġweek s.
Ġmach ines
Ġrestrict ions
Ġpeople âĢĻs
Ġac id
is en
ĠWe ll
U L
Ġwho âĢĻs
Ġtr illion
Ġadvoc ates
Ġch ip
Ġp age.
eral d
Ġ4 7
Ġwhen ever
Ġcan c
ge on
ĠD ream
iz abeth
Ġprep aring
ĠG irl
Ġdes cription
Ġsame -sex
ĠUniversity ,
ĠCl ick
Ġbul let
ĠM arsh
ĠFr ont
Ġmort g
f ull
Ġsw ing
ĠH ur
re e,
ĠF inal
b ro
Ġevent ,
ant ed
Ġabs or
Ġmorning .
Ġmoment ,
Ġsc reens
Ġaff air
Ġc ul
Ġdom ain
Ġbusines s,
A F
Ġal ive
Ġaut o
ator ,
Ġdisag ree
Ġton ight
Ġinvestig ators
Ġfor cing
Ġencoun ter
- St
ĠP o
ĠAlab ama
Ġpl ate
arr ing
Ġtarget ing
he ck
ub ble
ĠThursday .
US T
Ġpolic y.
Ġexec ution
Ġ201 0.
m ad
os is
ĊĊU pd
ï¿ ½
ĠCor por
Ġliter ature
Ġl unch
Ġth orough
Ġt ie
ĠC H
Ġcorrupt ion
ĠT ed
ĠA k
ĠG ord
as s,
ann a
Ġprocess ing
Ġactiv ist
ĠC ow
Ġperform ing
ĠâĢľI n
Ġstat es.
Ġ2 1,
Ġclub s
re ction
ish op
Ġmonth ly
Ġfrequ ent
Ġfoss il
Ġc ogn
ĠOreg on
Ġact ively
Ġ14 ,
Ġneighb our
Ġ17 ,
Ġb owl
Ġf ruit
ĠOr ig
Ġwhich ,
Ġview ers
Ġmark s
Ġmind ,
Ġpar allel
Ġde lic
ĠAP I
Ġp ig
ir lf
-r un
Ġfund ed
ult ane
Ġsaf et
Ġnam e.
Ġappoint ed
Ġenem ies
rodu ction
ĠWar ren
Ġnomine e
ab ly,
Ġfield s
Ġ(w ith
Ġst ability
Ġpre par
Ġmatter .
irlf riend
ĠBl oom
Ġorgan is
Ġdiv ided
ĠG ulf
ĠDes ign
ĊĊ 5
I f
ĠJer usalem
Ġcircumst ances
Ġman .
Ġlo ose
Ġsal ary
Ġdes erve
Ġspokes woman
+ +
Ġkil omet
Ġdeal .
Ġw ra
Ġpurs ue
Ġmat hem
Ġ19 ,
re e.
ĠGal axy
Ġw ider
ĠG T
more ,
Ġlist .
Ġmin ing
Ġdiscuss ions
ĠIow a
Ġchild hood
Ġcateg ory
Ġw ife,
c end
ĠScott ish
ĠF orm
ĠG raham
Ġgl ob
ĊĊB oth
ĠHow ard
,000 .
ed s
Ġle ak
Ġvisit ors
Ġdistribut ed
ut t
Ġdin ner
Ġk m
1 %
ĠBel g
ĠSt ore
ĊĊB l
- J
Ġre ar
Ġnation âĢĻs
Ġcontract s
ĠEm pire
ĠBe ck
Ġpattern s
Ġlow -
Ġh ip
ĠInst agram
Ġch at
Ġcomp are
il le
ĊĊ Z
ĠTe ch
an âĢĻs
Ġroom .
Ġloss es
Ġevent .
ĠDe ath
Ġ200 1
Ġ2 2,
ĠD utch
ĠH ave
Ġyell ow
Ġask s
Ġph ones
ugh t
âĢ ĺ
ful .
Ġ1 3,
Ġg ent
ass ador
Ġv essel
enc y.
ie v
Ġlif t
Ġset up
er d
f ol
ĊĊJ ohn
Ġpolit ically
Ġany body
Ġrel ax
Ġint im
Ġrec ipe
-st yle
ĠD. C.
ĠClevel and
ect ive
enn is
Ġtrem end
ĠB ible
w alk
Ġro of
Ġ1 st
Ġsw im
Ġconspir acy
3 3
7 ]
ob s
Ġex it
ition ally,
Ġsu ck
ĠU ber
ĠJan .
ĠAd v
Ġdemand ing
or ge
Ġaware ness
iv es,
h r
ĠTen nes
Ġclass ified
Ġa er
Ġd ub
j ud
Ġmil k
Ġsm ell
Ġfriend s,
Ġ" G
o j
Ġ( 201
Ġrac ist
ĠAm ong
Ġin ning
h ot
Ġman ifest
Ġm ole
- right
Ġbroad er
R I
Ġassoci ation
iz on
-min ute
Ġ" E
C on
Ġ4 6
Ġtrack ing
ĠD O
Ġyear 's
vil le,
ĠM ach
ri v
ĊĊO ff
Ġp uzz
Ġmind .
ĠK ar
ĠL ook
ĊĊE very
ĠClinton âĢĻs
ĠL ow
Ġrat io
con f
Ġ( e.
ĠT es
ĠAs semb
N .
Ġfo ol
che s,
Ġinsist ed
Ġscore s
- round
Ġste pped
Ġmuch .
Ġab ilities
Ġcar ri
Ġb urning
ĠAven ue
Ġlay er
Ġtechn ique
Ġargu ing
M S
ĠDe b
Ġst ored
ĠH a
Ġm oon
Ġ25 ,
Ġengine er
Ġhom eless
olog ists
Ġrook ie
ĠSt one
Ġend orse
-l ong
Ġcontrol .
Ġdiscrim ination
Ġden y
Ġb ot
Ġexcept ion
Ġro les
e ven
ĠIt aly
Ġ24 ,
- O
Ġhop ed
Ġstrugg led
Ġman aging
Ġprinc iple
Ġaccess ible
ĠEm ail
k er
Ġqu oted
Ġex haust
Ġrele ase.
Ġelig ible
Ġ2 nd
al ys
Ġkit chen
R L
Ġmonit oring
r un
Ġ ?
as s.
Ġpar ad
-mon th
ĊĊAn y
Ġinterf ace
Ġfund ra
âĢĻ ,
on es,
Ġcol our
d og
Ġl apt
Ġindustry ,
Ġenthus i
Ġre verse
ĠK ick
ĠB ud
Ġsh ips
Ġst ations
ĠP u
Ġpoint ing
Ġp ill
ĠC redit
Ġh ire
ĠH ong
Ġfall s
ĊĊU nder
ĠR oss
ĊĊTh ose
Ġrep air
Ġa x
Ġabs ence
Ġweek ly
Ġthey âĢĻll
Ġl ists
ĠR .
Ġhost ed
ra ig
rat or
Ġpers u
Ġ$ 20
Ġcelebr ate
Ġdef icit
ĠB oe
Ġpen alt
ĠBer lin
ĠU r
ĠH old
Ġepisod es
Ġit ."
Ġexpect ations
Ġpast .
ĠN orm
Ġprocess es
Ġsil ver
Ġe -mail
Ġdo ors
Ġle an
ĠS ab
Ġaddress ed
Ġl ux
A G
Ġtw enty
ĠPhiladelph ia
Ġshe 's
T .
Ġimprove ments
Ġhimself .
Ġstud ied
ĠInd ust
Ġcapt ain
Ġinterview s
Ġfact ory
ĠW as
ĠW H
ĠâĢľI âĢĻm
ĊĊ 0
ĠS on
ne y,
==== ====
Ġinst ance
Ġgroup s,
Ġun com
ĊĊM r.
Ġsho pping
Ġspe ll
sen al
Ġse vent
ĠW olf
Ġcontact ed
- 9
Ġrequest ed
Ġcounter part
Ġmind s
ĊĊC om
ĠCap ital
Ġtox ic
Ġpr on
Ġsh irt
Ġ200 7,
ĠIn c.
Ġprom ises
Ġdead ly
Ġwant ing
ĠViet nam
ĠF al
Ġcont rad
Ġste el
ro ck
ĠCanad a,
Ġthey 've
ĠS port
Ġser ies.
et ime
Ġworld wide
ĠInd eed,
Ġclot hing
ĠEx pl
Ġco inc
ĠWe 're
ĠJ ere
Ġbl ank
ĠV ice
Ġn ic
ĠChrist ians
Ġsure ly
ĠAll en
ĠGovern or
ĠMc K
Ġentit led
te xt
Ġhy per
Ġadded :
Ġproced ure
Ġw al
Ġcorpor ations
Ġupgr ade
Ġscand al
gr ad
Ġm ac
ĊĊR ec
ĊĊ"I f
Ġm it
Ġpolic e.
Ġscr ut
Ġstay ing
ĠV ik
Ġ100 %
Ġpublic .
ĠS ix
ak h
Ġstol en
u an
ĠY OU
Ġabandon ed
Ġreve als
Ġcentur y,
ĠMor gan
Ġsubm itted
Ġco aches
Ġfield .
Ġunf air
ĠE qu
s ?
ĠH .
ĠM etro
Ġpromot ing
Ġsm ile
Ġnatur ally
Ġaward ed
e ath
Ġaut onom
ĠG il
e le
ĊĊB ecause
Ġt ired
Ġimplement ed
Ġ2 8,
ĠP ict
ĠR un
z ed
ĠL ist
ĠGree ce
os ystem
R C
ĠR y
ĠSar ah
w orth
Ġresc ue
ater n
Ġdisc ount
Ġsim ultane
d a
ill er
um ble
Ġ2 3,
Ġlob b
Ġblock ed
ple te
Ġinter vention
oen ix
ra ,
Ġ2 6,
o ice
ĠTe le
Ġstream ing
Ġconvers ations
Ġf iring
z ing
ĊĊA pp
ĠJon athan
Ġplay ,
Ġ$1 00
-se ason
Ġsuper ior
es :
Ġthreat ening
Ġspect rum
Ġins ight
Ġb ik
-f or
ĠLe ft
Ġh al
Ġprofess ion
Ġph arm
Ġmillion ,
Ġl ying
Ġcl ip
Ġfun ny
ĠDec .
ĊĊF acebook
! )
Ġshe ll
- Q
j a
Ġapp e
Ġserv ices,
3 2
Ġg ains
ĠâĢ Ŀ
ĠM oon
Ġ$ 8
Ġc ens
Ġfasc in
Ġrec re
Ġpick ing
Ġreport s.
Ġcomprehens ive
Ġconnect ions
ah u
Ġan s
Ġhour s.
r ust
Ġtransport ation
or gan
Ġo m
Ġtrans it
Ġ1 .5
Ġposition .
Ġsatell ite
th on
rap h
Ġdemonst rate
Ġdiv or
Ġsh ield
ĠSe an
K .
Ġsam ples
ition ,
enc y,
Ġdismiss ed
ix ed
ĠPh ill
ĠP ass
ĠHe ll
Ġbe ach
ac hel
Ġhe lic
Ġre vers
ĠP erson
Ġdep ress
Ġcompet ing
aut hor
enez uel
Ġp ounds
ĠCr ime
ĠHarv ard
ĠS us
Ġun ve
Ġ[ the
Ġw ine
Ġhelp .
et he
ĠLe ader
Ġeduc ational
Ġemer ging
Ġdifferent .
Ġcomput ers
ob b
T o
ag h
8 ]
v a
Ġstat istics
Ġf et
ur ren
ĠS S
ĠHaw ai
Ġsurv ival
Ġviol ation
Ġunpre ced
Ġins pect
ĠA z
ac on
Ġbirth day
Ġ" R
Ġsoc cer
ĠHist ory
Ġass ass
Ġcontribut ions
ĠâĢľ That
ĠSqu are
Ġtra um
m al
Ġ2 7,
Ġ200 2
Ġluck y
Ġbreak s
Ġfac ilit
Ġimprove ment
L C
ĠKe ep
Ġgu itar
ĠRep resent
Ġv ig
ĠL ibr
Ġj ack
ĠC S
Ġm ood
ĠB al
Ġbank ing
Ġdis ord
ĊĊâĢľ You
Ġfather ,
Ġpoll ution
ap ing
ĊĊS p
Ġd ance
ge red
opy right
Ġsitu ation.
Ġtrig ger
Ġesc al
Ġfil ter
ĠL A
Ġleg ally
Ġenh ance
itte e,
ĠAnd re
Ġst ere
Ġabove ,
ĊĊAb out
Ġgradu ate
ĠChild ren
Ġmarg in
Ġs id
Ġ1 :
Ġ"I f
we ek
Ġremark s
ĠCamer on
Ġpoint s.
Ġins ult
Ġjud ges
ĠAr k
Ġan ger
-f ound
Ġst arter
ĠTh omp
Ġar bit
Ġanother .
Ġregul atory
Ġ2 :
Ġentertain ment
Ġdiscuss ing
Ġc iting
Ġhelic op
Ġcop ies
Ġsurger y
r itten
ph y
Ġquestion ed
ĊĊL e
Ġunex pected
Ġc ro
A )
Ġpart y.
- pl
ĠEl izabeth
ĠUp d
Ġpossible ,
Ġmin istry
aw are
Ġphilos oph
Ġag ed
-e lect
ĠA I
Ġcare er.
or ous
ĠTh rough
ĠSil ver
Ġconc rete
et ts
ĠPro p
Ġcre am
Ġcurren c
ĠT ai
Ġh ockey
Ġm ath
ig ious
ĠâĢľ in
Ġdef ending
B y
a is
Ġopin ions
ĠEurope .
ie ce
Ġcom ed
Ġrank s
am i
Ġrepe at
Ġc ock
ĠAtlant a
Ġevery day
9 )
Ġdist ingu
ĠD V
ĠBru ce
vertise ments
Ġdeath ,
Ġjob ,
ore t
v ision
x ,
cl aim
Ġtit led
Ġf ict
Ġgl ad
it age
Ġex empt
Ġfab ric
Ġwebs ites
or ious
Ġcomp at
Ġbon us
Ġgrap hic
Ġvot e.
ĠD ick
ĠB ow
ĠH art
Ġroom ,
ad s
Ġavailable .
-d own
ĊĊU s
ĠS et
Ġcr us
Ġreplace ment
Ġ3 rd
ĊĊHere âĢĻs
- K
n ame
Ġop ens
Ġphys ically
Ġincident s
Ġob sc
Ġg ig
it ary
ĠâĢľW hat
Ġde port
Ġn a
Ġleft ,
Ġv end
Ġup load
Ġemploy ed
Ġdr one
Ġinnoc ent
ĠOnt ario
Ġcom edy
Ġt one
Ġpull ing
Ġserv ice,
Ġvir us
C l
Ġreferend um
Ġit ,âĢĿ
Ġexpl aining
Ġn in
Ġpasseng ers
s burgh
Ġstrik ing
Ġconv ince
Ġb ow
Ġass igned
Ġb old
ĠLe on
Ġprefer red
ĠVancou ver
Ġgu id
igen ous
Ġopen ly
es. "
anc ial
ĠS ound
ĠS av
Ġchick en
Ġ19 50
Ġr iding
Ġinst ant
ĠHar per
Ġ9 5
unicip al
Ġstri p
ĠBl u
Ġexpand ing
ĊĊTh ough
Ġte a
en a
ĠH on
c est
Ġlo op
Ġpo ison
ĠSt ill,
Ġt ut
Ġ4 1
Ġquest ion.
Ġreview s
Ġter r
Ġact ors
ch ,
Ġstud ying
ĊĊO b
c ott
arg o
Ġback ing
ar re
-b y
Ġs in
Ġclin ical
Ġhighlight s
Ġso vere
ĠKenn edy
Ġpredict ed
ĠUt ah
ĠE th
Ġt iss
Ġtweet ed
5 ]
Ġstruct ures
Ġreb el
p ost
Ġsold ier
Ġrequ iring
Ġunder lying
ĠC reat
Ġgam ep
Ġcontrovers y
Ġsitu ations
ĠG ary
est s
Ġextra ordinary
o ir
ĠMag ic
op en
Ġsent enced
U N
ĠâĢ ¢
ing s.
ĊĊM c
Ġdram atically
st al
ĠSyri a,
Ġ( t
ĊĊQ u
ĠV ideo
ĠF riend
w ise,
Ġass ociate
ĠPhot os
Ġ10 ,000
a ver
ĠP ow
Ġof ,
Ġg ross
ier ce
ĠR oll
ĠB ase
Ġpart y,
Ġreg ion.
th .
Ġsociet y.
Ġrepresent atives
Ġv ocal
Ġprompt ed
Ġmove ments
Ġ$ 2.
Ġch a
Ġs ed
ag ic
ĠB u
E F
Ġafford able
ĠAtlant ic
ĠHarr is
Ġans wered
ĠM ess
Ġdes ert
Ġleg acy
ĠBrook lyn
Ġmin im
Ġtr ue,
ĊĊ $
Ġconst itu
A Y
Ġo w
Ġbod y.
Ġw is
Ġpubl ishing
ut en
Ġphilos ophy
Ä ĥ
Ġprom ising
Ġoutr age
m art
Ġprov iders
Ġatt itude
on z
Ġmer ch
Ġprosecut ors
Ġdesk top
Ġbe ating
ĠTr ade
Ġdiplom atic
Ġro y
T ,
ĠG DP
ĠR ather
Ġmeaning ful
ĠTre as
Ġcoach ing
2 %
Ġunivers al
it als
ĠCon st
Ġbre ast
Ġ1 20
Ġterror ists
ond er
ĠE st
Ġperm it
Ġadd ed,
ĠWhe ther
ĠEx per
Ġresult s.
Ġtr aged
Ġbill ions
ĠB ox
Ġwhere as
3 %
âĢĶ a
Ġdevelop ment.
Ġhom osexual
Ġde light
Ġbath room
8 6
ĠHere âĢĻs
ĠL ine
ĠE PA
Ġprecise ly
Ġann iversary
Ġe ar
ĠEx ecutive
Ġassum ed
ĠJava Script
Ġrel iable
Ġpolic y,
se ct
it ual
Ġperiod .
ĠLew is
ar ms
o pp
Ġblock chain
Ġsett led
ater al
Ġec osystem
Ġe cho
od ox
- 20
Ġrac e,
Ġcoll aps
7 %
Ġj oy
ĊĊM ay
ĠD od
Ġexplo it
Ġsc ope
Ġkey board
Ġwas .
ĠSher iff
Ġle ct
Ġtem por
9 %
Ġb in
a )
Ġt ips
Ġper ceived
Ġtemper atures
usse ll
ed ing
Ġindic ates
z y
z .
Ġsc an
ĠUs ing
Ġgreat ly
ĊĊI m
Ġback up
Ġ"The re
ber ry
ĠCharl ie
Ġst one
ĊĊS ec
ĠY an
Ġcert ific
Ġpublic ation
4 4
ĠBel ow
Ġe lder
Ġprote in
ĠRuss ia,
enc ing
Ġlog ic
Ġcom ment.
Ġsecond ary
Ġd ating
Ġsh it
rog en
ne cess
ĠH u
Ġcount s
Ġcheck s
ĠInst itut
ĠAss ad
Ġut ility
Ġno ise
ocol ate
iz ed,
Ġmain ten
Ġmain tained
est ed
B M
ia 's
Ġs its
Ġscient ist
Ġlet 's
Ġadvent ure
Ġp unch
r ating
ĠSt ory
Ġir re
Ġopp ose
Ġacknow ledge
ĠC C
ĠSt ew
er ning
b orn
Ġpoint s,
ĠPh oenix
r ite
ĊĊI âĢĻm
ĠDig ital
ĠTal ib
Ġarri val
Ġelimin ate
ĠCapit ol
ĊĊB ack
Ġaround ,
Ġ2 9,
ĠML S
Ġsit e,
Ġunder t
Ġ( l
Ġground .
Ġsix th
Ġpat ent
Ġfood ,
Ġpart ly
ere nt
Ġinequ ality
ap ore
Ġaff ili
i ac
Â Ĵ
8 %
Ġe ager
Ġspac es
ĠCo oper
ĠFirst ,
P C
Ġconserv atives
f riend
ĠOr land
Ġthat ?
Ġpropos als
ĠT ax
Ġsusp ic
ĠPri v
Ġrecent ly,
Ġhead .
Ġdr ama
Ġdocument ary
Ġc am
Ġinter ior
e ah
Ġwere n't
Ġbur st
-sc ale
ĠJ en
ra h
all ing
ig ation
Ġdr unk
Ġremark able
ov ing
Ġartific ial
l er,
Ġsearch ing
Ġvide o,
Ġless on
ĠSomet imes
ĠM it
Ġhop efully
ut ter
Ġfor ,
Ġre nd
Ġpsych ological
Ġfirst .
Ġassess ment
Ġover ,
pl ed
h ar
9 ]
es, "
ask a
Ġdi am
Ġindepend ence
Ġwebs ite,
Ġch ann
Ġcampaign s
ĠD er
ĠK now
Ġpass word
Ġsoon .
Ġstim ul
Ġsort s
Ġsummer ,
Ġhappen ed.
P P
che s.
ers '
ar ity
Ġodd s
R .
Ġgen re
b a
Ġg irlfriend
Ġ12 .
Ġs li
Ġthink ,
ator s,
Ġ"The y
Ġas yl
ĠRober ts
id ,
Ġforward .
ĠNintend o
ĠWar ri
Ġold ,
ĠI ron
A n
c ore
Ġground s
Ġconcl us
ĠV enezuel
um es
ĠAlex ander
Ġresol ve
Ġdomin ant
em s
Ġlov es
f ace
Ġteam âĢĻs
k ing
Ġwealth y
Ġqu ote
ĠH al
ag ger
ĊĊC an
ke ,
Ġland ing
Ġpost ing
ĠD og
Ġhelp ful
Ġinter cept
ĠMean while,
Ġstate ment,
Ġt ons
Ġhand .
' '
Ġw ages
H ow
ĠRes erve
Ġpresident .
re ck
ĠOr le
Ġown s
Ġsucc ess.
ĠJ enn
Ġpod cast
Ġn urs
ist ol
b ow
Ġcreat ure
land .
Ġcan ce
ĠE ff
ĠS a
ĠPr ice
ĠMount ain
un es
ĠHe art
Ġorgan ic
ĠTrans port
Ġveter ans
Ġmir ror
Ġsympt oms
Ġtechnolog y,
Ġdid ,
Ġcrit er
ĠD al
Ġ( not
Ġread er
6 %
Ġleast ,
Ġill ness
Ġobject ive
ĠMiss ouri
m ate
Ġse e,
ri ving
ĠH amp
Ġcon ver
Ġphr ase
Ġwho ,
Ġcomp ound
Ġf iction
ĠLe ag
Ġfl ed
ĠB urn
Ġ( K
Ġcompany 's
Ġst ack
Ġn ose
ĠTr ust
Ġut ter
ak a
Ġspac e,
Ġuse ,
Ġoffic es
ĠSt aff
t ies
inc ol
app ropri
ĠLond on,
Ġtem pl
Ġst amp
Ġd ates
Ġwall s
Ġh unt
Ġdecl ar
Ġelect oral
Ġs wit
Ġsmart phone
Ġg est
Ġquest ion,
Ġmen .
Ġjump ed
Ġs ne
as ters
oc a
ard .
-th ird
Ġbank rupt
Ġcompan ies,
Ġm ile
m l
Ġres ort
ĠDen ver
Ġburd en
ĠCo al
Ġperson .
Ġunder ground
ĊĊâĢľThe y
Ġun con
Ġoccas ional
Ġcl er
Ġj ihad
ĠG iven
Ġstat ist
ann on
o op
ĠPitt sburgh
Ġprincip al
Ġopp osing
ac u
ĠL im
ĠG O
el a
ĠB ol
he s.
ow ered
ĠJ ean
ig .
ĠC ustom
Ġtw ist
i er.
ch ange
ĠP .
Ġmain taining
Ġaim s
ĠEconom ic
ow ing
Ġ21 st
ĠAct ,
ĊĊ" You
Ġsal t
ĠAust in
is a
Ġnew s,
th ood
Ġcar ,
lin ing
el son
Ġperson ,
ĠF eder
ĠB M
Ġfac e.
/ s
ĠE ver
Ġhour s,
ĠVeg as
ĠM ail
Ġprof its
Ġbut ,
se ,
Ġinfl ation
Ġbetter ,
row ing
Ã ±
ĠâĢľ l
ĠIm m
Ġminut es,
Ġre cept
Ġch ronic
ĠA ge
Ġsh ipping
ĠR ic
/ 201
Ġcar .
Ġpopular ity
ĠE b
ĊĊâĢľI n
Ġ19 th
Ġcontrast ,
ĠInt el
Ġsam e.
-s p
ĠLe ban
st arter
ĠC ode
Ġrec on
Ġpap ers
Ġperiod ,
Ġbeaut y
Ġeconom y,
av ed
Ġref use
Ġright s.
Ġann oy
Ġnot able
Ġlo ans
ĠF act
ent al
Ġad equ
ally .
Ġfl our
ĠPent agon
Ġinter action
Ġjun ior
ĠTod ay,
Ġpolic e,
ĠMic hel
ĠV e
ri a
ĠO cc
Ġ200 9.
ĠAr gent
ark s
ĊĊO r
Ġgather ing
ĠL ear
ĠThen ,
Ġj er
ĠF ant
Ġthemsel ves,
Ġdon e,
ĠB arn
ĠW ord
ĠHam ilton
Ī Ĵ
ĠAfghan ist
ĊĊ"The y
Ġroad s
ixt ure
Ġint ellig
Ġf el
Ġunpreced ented
ĠM s
Ġbi ological
ĠUkrain ian
ĠC ould
Ġrepe al
Ġm ock
ĠZ e
Ġattack ,
Ġgo ,
ĊĊI nt
Ġ5 4
Ġimpress ion
Ġcivil ians
/ C
Ġcar ries
Ġshort ,
A V
p ed
Ġh anging
Ġ200 8.
ĠMan hatt
ab et
ĠH ad
ĠUn fortunately,
ab s
-part y
d .
ĊĊâĢľ N
Ġexc lud
Ġexp ense
ĠJ oin
Ġinc hes
ĠB C
Ġat he
Ġsurround ed
Ġmusic ,
Ġbut t
ĠD ur
Ġdri ves
ĠHouse ,
Ġdescrib ing
ate ful
af e
Ġse ized
ĠâĢľA nd
ĠO x
B ,
ĠSh ort
ĊĊSt ill,
T ER
Ġremov ing
ty pe
Ġshe et
Ġt urb
Ġlike .
Ġclos est
Ġm aps
Ġrefuge e
Ġtal ented
Ġacqu is
Ġgroup s.
ĠWe âĢĻve
Ġsl ot
Ġbrother s
ph ones
Ġint r
Ġam endment
Ġro lling
Ġdecision .
7 4
Ġ" But
Ġconso le
Ġdemand ed
Ġheadqu arters
Ġexecut ives
ĠV lad
- 201
Ġarg ues
Ġcons ensus
Ġsav ings
Ġpro g
ĠS N
Ġin herent
Ġlab our
Ġrespons es
re ts
ĠB i
ĠDr agon
Ġtremend ous
Ġ( 6
Ġsubject s
ĠInd ia,
ĠTechn ology
ĠSunday .
Ġend ors
Ġkick ed
ĠL am
Ġland ed
ĠBrex it
ĠInd ones
ĠAl an
ĠAug .
ĠP ant
Ġsex ually
ĠColumb ia
Ġo rient
Ġvo ices
Ġd a
Ġhad nâĢĻt
re f
Ġfat al
ĠFollow ing
ĠGaz a
Ġreason ,
ion ed
ĠFeb .
Ġanyth ing,
Ġ2. 0
on ed
Ġcontem porary
ĊĊS peaking
erv es
' .
ĠK u
o ft
Ġhouse .
ĊĊS e
ĠR aj
Ġplan ,
ĠUS ,
AT CH
Ġin box
Ġsoph istic
Ġatt itud
Ġst ro
Ġretire ment
-b ack
ĊĊThere âĢĻs
Ġple ased
Ġinnov ation
at ar
ail ed
ear ly
Ġencour aging
Ġdifficult y
s "
Ġnon pro
Ġnew ,
im mer
Ġinterview ed
Ġfriend s.
oc ial
Ġ ~
Ġkn ee
Ġcal m
Ġdis h
oph ob
ĠMassachus etts
Ġshould er
inc ome
il er
ĠC raig
p ower
h and
**** ****
Ġhouse ,
ac co
ĠE ve
ĠY es
Ġg rave
ĠW right
im ir
ond uct
ĠGerman y,
Ġp ir
Ġcomp r
in ite
i. e.
ell ow
m aker
J ust
Ġmoment .
Ġ( including
ian o
ĠMar ine
Ġp ocket
Ġ vert
ĠF .
Ġdecad es,
Ġplan .
Ġexpect s
ĠII I
Ġte eth
ĠTh ink
Ġg ri
Ġcooper ation
ĠA ccess
Ġor bit
Ġ11 .
in ations
T ON
ĠProt ection
Ġwin .
Ġstreng then
ĠU b
Ġone âĢĻs
Ġdeem ed
Ġnow here
N A
olog y.
ĠEnter tain
ĠC ro
ĠThere fore
u its
ern and
Ġprof ound
Ġc inem
Ġacc um
Ġtestim ony
Ġrob ust
Ġus age
Ġphot ographer
way .
ĠI M
ou b
ĠD ak
ĠCapt ain
aed a
Ġal .
Ġbureau c
ĠM ap
Ġcou p
Ġdevelop ment,
ĠSing apore
Ġfig ured
i ar
ĠWalk er
Ġcol ors
Ġ" g
ric ane
ĠL og
ĠB ul
ĊĊY et
ator .
Ġd ual
Ġth ro
Ġjust ify
ĠF estival
Ġf er
W hat
Ġ8 5
Ġbill ,
Ġdefe ated
Ġen act
Ġag e,
ĊĊ 201
Ġconc erning
Ġedit orial
ĠChic ag
ĠF ive
ĠH aving
Ġdeploy ed
Ġtravel ing
ear ing
v ia
Ġpick s
ĠM un
Ġg if
Ġsubm it
Ġmother ,
Ġrac ing
Ġpro secution
Ġparticip ation
Ġdomin ated
iss ion.
am ous
Ġb ars
ĠIllino is
Ġhave .
Ġgener al,
ĠD uke
Ġar c
Ġ19 1
St ation
o is
Ġadd ict
Ġev ident
Ġimpl ications
ĠCh ina.
Ġintim id
## ##
li hood
Ġfol k
The re
Ġcentur y.
ĠO sc
Ġco -found
Ġproduc ers
Ġcommunic ate
Ġb arg
ĠT el
Ġtransp aren
ĠMedic aid
Ġsm oking
ĠCapt ion
ĊĊSt ory
j o
ĊĊC ons
Ġattract ed
Ġref ers
Ġway s.
Ġimp osed
Ġmoder ate
Ġlapt op
Ġapp l
Ġst ages
Ġ( n
ing ham
ĠBat man
igh th
uters )
7 7
Ġ( al
ĠH and
ability .
Ġ( âĢľ
Ġcare er,
ir ts
ĠBr idge
ĠP ers
Ġparticular ,
ĠTwitter .
iv als
secut ive
Ġin aug
Ġrat ings
Ġsupp lies
ĠCh annel
Ġ5 2
Ġ200 6,
Ġwat ers
Ġbelief s
Ġrac e.
/ d
Ġcho osing
Ġe ase
Ġrele asing
Ġ201 9
Ġoccas ionally
at ing.
ĠMur ray
N BC
ist ant
th rough
Ġsent iment
m ath
Ġcourse .
ĠChina âĢĻs
gr ade
e ep
Ġ 00
b od
Ġr ic
Ġout do
ĠEvery one
ĠG ard
ĠJere my
AT E
ĠEd it
ĠStew art
ĠUS B
ĠGr iff
ich ael
m ble
com .
ĠCur rent
Ġrec overed
iz ation,
w ich
Ġmus cle
Ġb iz
Ġbl amed
-1 2
Ġstudent s,
ĠD u
Ġpip eline
ĠS U
ĠNet her
Ġdisplay ed
-1 9
Ġpubl ish
ass y
ĠPort ug
Ġatt ending
Ġappear ances
Ġb ust
Ġcourt esy
Ġsc ared
Ġcirc uit
ĊĊW ill
ĠL incol
ĠE C
T P
Ġ(R e
ition .
Ġf ert
ĠBeij ing
Ġide a.
ĠL es
Ġembr ace
Ġeff iciency
Ġtask s
Ġright s,
Ġabst ract
ir a
ĠB enn
Ġsequ ence
Ġprov inc
Ġan cest
ĠOklah oma
Ġenviron ment.
Ġbi as
Ġun necess
ĠMiss iss
Ġdesper ate
ĠSt ock
ĠCar ter
ĠOb s
u es,
rim inal
ix el
ĠH an
m ith
ĠR est
Ġre ass
Ġsc ar
ĠF uture
it able
Ġdef ended
Ġplay er,
ĠC PU
Ġover come
Ġj et
Ġdam aged
- com
Ġg ro
Ġconv ict
Ġs on,
er ving
ll y
ĠObama 's
Ġeduc ation,
Ġrequire ment
Ġbr id
Ġprov id
Ġanyth ing.
Ġdro pping
Ġ _
ĠAssemb ly
Ġanalyst s
Ġthe ft
ĠHamp shire
Ġshould n't
ĠD omin
ĠN S
Ġclas s.
Ġearth qu
Ġlangu ages
Ġfunction ality
Ġforg otten
ĠM ove
sec urity
Ġpass age
he ro
Ġhuman ity
Ġdes p
ĠA ren
Ġrest ore
ik a
Ġwh ist
O .
ĠP ap
Ġmigr ants
Ġsupport ,
ĠAnton io
Ġanonym ous
Ġdisp ute
Ġle aked
Ġtransact ions
op t
Ġ3 1,
Ġhimself ,
ĠA lp
Ġtechnolog y.
ep s
Ġc igare
iz ed.
ĠR ussell
ĠW ould
Ġ2 .5
8 8
Ġmod ified
ĠC ase
Ġsh ame
ent ly,
Ð »
Ġpack ed
Ġsett ings
Ġpat ri
Ġcourt .
Ġh arsh
p en
Ġaff airs
Ġdecad es.
Ġremov al
5 )
Ġuncom fort
Ġunivers ities
ut her
ĠG ill
Ġmuch ,
ĠChrist opher
ĠBl ock
Ġinvestig ation.
-t r
ĠAnd y
ter ror
il ,
ik h
ĠFore st
ĊĊAr t
Ġ( V
pe ed
Ġprogram me
Ġo xy
ag ers
Ġcare .
Ġexclus ively
ĠS or
- ed
ch ing
Ġal one,
ĠSh ould
Ġartic le,
ĠEgypt ian
Ġeng aging
Ġdon ations
et ers
Ġcon secutive
ĠCount y,
ĠMan agement
Ġprem ie
Ġrele ases
erg us
Ġthreat en
Ġfar .
v as
ĠG ib
Ġdeal ,
w art
ac re
Ġadvoc ate
Ġjur is
ĠF A
ĠChel sea
ĠBar b
ĠH ung
Ġsummer .
ĠR s
Ġlaunch ing
ĠT s
Ġhave ,
ĊĊLet âĢĻs
ĠSte el
it ure
Ġleg s
ĠA aron
ĠH IV
ay ing
ĠB or
ĠSupp ort
m ir
Ġdest ro
Ġpers ons
id em
l aim
Ġ5 3
Ġra ises
ar ia
Ġclot hes
Ġv oid
Ġcollabor ation
om ing
ĠN o,
ĠO pp
play er
Ġ( i.e.
Ġke ys
Ġke en
w .
ĠComp an
Ġasyl um
ĠObamac are
F F
Ġsor ry
Ġ !
Ġh iring
ĠSim on
Ġsubsequ ently
Ġrac es
Ġalgorith m
ubl ished
Ġcogn itive
ĠC ult
Ġthe ater
ĊĊH er
ĠFr ance,
Ġg olf
ĊĊ 6.
ĠSyd ney
Ġconsider able
an a,
Ġrel uct
ĠCo le
om ic
Ġbott le
as hes
ĠM and
Ġcity 's
ast y
ĠA FP
Ġbod y,
Ġown ,
Ġsp ots
ĠPort land
Ġinnov ative
Ġd ying
ĠG ro
Ġharass ment
Ġc osm
em bers
ĠC R
Ġ1 /
Ġp ension
Ġinstruct ions
Ġrec k
Ġcheck ing
Ġrel ation
Ġb ol
Ġcons ol
Ġsc rew
Ġcharg ing
T rump
ĠIndian a
Ġbrut al
Ġlong time
Ġcomp os
Ġign or
Ġresearch ,
Ġrenew able
ĠContin ue
Ġcod e.
ĠAb d
Ġpropag anda
L Y
od ed
i per
ĠStan ford
ĠC B
on es.
Ġev acu
- k
âĢĻ s,
Ġof .
Ġexam ine
Ġinvestig ations
Ġsole ly
Ġyou ?
Ġ(1 )
Ġme al
Ġareas .
6 6
ĠTok y
Ġfrequ ency
Ġam bit
Ġw aves
enn ial
Ġresident ial
he ther
Ġover l
Ġtransfer red
f ather
ĠFacebook ,
Ġch amber
ĠMay ,
O ,
ol ar
Ġin du
am .
ĠFranc is
Ġshow c
m ony
ch ild
Ġplay er.
Ġtact ics
pt on
ĠChair man
Ġcent ers
ĠDo ctor
ĠAr senal
ie .
ĠW y
Ġfle e
Ġinflu ential
c ont
an im
el ve
B .
Ġround s
Ġathlet es
Ġreg ret
res hold
ĠD rug
ĠP H
Ġsystem s.
Ġpost ,
ĠP el
re nd
âĢĻ âĢĿ
Ġtim ing
ĠF O
Ġbad ly
ile y
Ġin her
m at
Ġblock ing
ĠKurd ish
r if
Ġathlet ic
Ġgraph ics
Ġv .
ll a
u .
Ġp ose
Ġord er.
Ġg ate
ĠV en
ĠK night
ĠH ug
Ġvol unt
Ġabs urd
iz ation.
Ġmod est
le e
Ġpurp os
ĊĊ" N
ĠP oll
Ġd ies
Ġexc use
Ġin ex
ĠS ummer
Ġimportant ly,
Ġview ,
ĠArab ia
Ġ2 50
Ġint rig
Ġhe 'd
Q L
Ġm isc
ĠG ab
ĠDon 't
Ġgovernment 's
Ġun re
Ġacc ord
ĊĊâĢľ M
Ġ ).
ĠUn like
A r
um s
y c
Ġsuspect s
Ġaddress es
ĠTwitter ,
ĠB an
Ġ# 1
Ġreal istic
Ġkid n
at tered
th odox
Ġmember s,
y er
is ons
Ġattract ive
Ġvent ure
Ġen gin
Ġpres ents
Ã §
ĠMan ning
ĠM other
** *
M .
EM ENT
E E
Ġevent s,
ĠM arg
at ing,
W hen
ĠC old
Ġsim ilarly
- man
Ġb other
- qu
Ġoff season
ĠN i
ĠPalestin ians
Ġcons ent
Ġd imin
Ġst ance
oc c
Ġjob s.
Ġ(Photo :
Ġer u
Ġche aper
Ġen for
Ġpres erve
Ġins ert
Ġb ump
le ep
Ġhere âĢĻs
le m
Ġfin ishing
ĠUn ivers
Ġident ical
Ġun ions
Ġout let
Ġpurp oses
ĠGr ant
ĠMod el
AN D
Ġt ables
olit ical
Ġmem ories
ĠPlay Station
Ġmin imal
Ġintegr ated
Ġprint ed
ĠMal ays
Ġ5 1
Ġcho ice.
oc ated
ich ol
Ġaccept ing
ĠW inter
Ġprodu ces
ĠPennsylvan ia
Ġhypot hes
Ġd ivid
Ġcal end
ĊĊ s
Ġg ut
Ġv it
Ġevent s.
Ġsustain able
Ġfac ult
ĠAff airs
Ġbur ied
ish ,
ap es
ĠTreas ury
Ġmanag ers
ĠN ik
ĊĊâĢľ P
ĠP sych
Ġwond ering
ick ,
Ġb icy
th ur
Ġweekend ,
ĠH oly
ag ine
aw ks
Ġsmall ,
Ġstop s
Ġinst ruction
Ġfield ,
ĠFil m
Ġchar ity
ĊĊR ef
Ġbut ter
Ġplatform s
H z
ag u
Ġval ue.
Ġinvest ed
Ġprison ers
Ġhttp ://
ump h
ĠJer ry
ĊĊIn stead
S :
out .
Ġstead y
izz a
ĠTh us,
ang le
Ġmin i
Ġsh ocked
ĠL i
Ġbar ri
Ġret ain
ĠPlay er
ĊĊS im
Ġexpect ing
an s,
Ġproblem s,
Ġm art
b i
Ġmedic ine
Ġ50 %
Ġabout ,
av y
Ġwe âĢĻd
ĠN iger
Ġ100 ,000
Ġwom an,
Ġicon ic
av or
ĠMcC on
Ġcommand er
Ġdial ogue
Ġaction ,
Ġst ating
Ġro lled
Ġal ign
Ġb ip
Ġseek s
Ġep ic
Ġ$1 5
Ġcle ared
Ġgr ade
Ġsubst ance
t es
Ġ(1 99
ĠMar io
Ġdec or
Ġscen e.
-g ener
Ġinvest ments
olit an
Ġn u
Â °
ĠiP ad
ĊĊSt ep
oll ar
Ġbul k
Ġisol ated
Ġmon u
Ġless ons
Ġlist ,
ĠL ad
Ġprevent ing
ĠN ash
Ġsp ray
Ġg ene
Ġmove ment.
Ġtwe ets
Ġtou g
Ġdef ender
ĠâĢľ n
ĠMc Donald
Ġfunction al
Ġrun .
Ġsense ,
Ġnomin ation
ere n
ĠThomp son
ĠC as
ĠMad rid
ĠCl imate
Ġsur ge
Ġover night
Ġu g
ke e
Ġt ent
u es.
ĠCh ampions
her s
Ġqu it
ĊĊT e
Ġwire less
emb ered
Ġant ib
Ġsign als
Ġwork s.
Ġperform ance.
Ġexamp le.
Ġcirc le
crib ed
Ġfore ver
Ġdepend ent
ĠO cean
Ġh osp
b ling
Ġdep ict
K ,
Ġengine ers
ĠB and
ĠFin ancial
Ġspect ac
Ġcour s
Ġpeace ful
Ġproject ed
ĠUn it
s: //
Ġviolence .
Ġinf o
Ġbatt les
ry ing
Ġrac ism
ability ,
Ġadvis er
Ġit ,"
ĠKick starter
Ġdesign s
Ġanother ,
ĠS aint
ĠD rive
ĠOak land
Ġper ception
am e.
Ġel abor
Ġpol ar
Ġwound ed
ĠSp ir
ĊĊW here
Ġstrateg ies
Ġben eath
r ates
Ġsupposed ly
ĠAb u
Ġon line.
io x
Ġo ught
Ġsystem s,
ake ,
ĠT ro
Ġgamep lay
iv es.
al e,
ĠRe agan
Ġf ishing
Ġtort ure
ĊĊE arlier
Ġsol o
Ġfilm .
Ġrhet oric
as m
ĠE T
Ġpasseng er
ĠBer ke
Ġcor rel
ur se
Ġr anging
- or
Ġaffect s
ĠM ult
it o
ĊĊâĢľI âĢĻm
Ġgu ilt
Ġ$ 500
Ġway s,
Ġoverse as
Ġposs ibilities
Ġreb els
ag a
Ġad vertisement
ĠN on
ĠC av
anc er
ĠCom mer
ĠP A
E very
p at
Ġpresent ation
oc urren
Ġclass room
Ġpred ec
Ġreflect s
Ġrese mb
Ġpolitic s.
ĠU.S. ,
ke y,
Ġ1 3.
Ġinflu enced
ĠC ON
Ġbook .
Ġrev ol
Ġload ed
Ġsp otted
ĠMag az
-in ch
Ġman ual
Ġpri ze
Ġag es
m es
Ġsil ence
ĠJim my
il st
Ġgu idelines
ĠFl ash
Ġbrief ly
Ġan ch
Ġimp rison
Ġsec ular
ĠT ower
est ion
ut er
se ction
Ġfr act
ĠTy pe
ĠC itiz
ĠP age
Ġwar n
ĠMar x
Ġphenomen on
Ġform ation
Ġt orn
-l ife
Ġqual ified
Ġautom atic
Ġcris is.
ĠNot hing
ĠMc M
ĊĊP art
ĠE mer
ĠP ope
ĠNaz i
Ġhe âĢĻll
Ġm ak
Ġmatter ,
Ġchalleng ed
en âĢĻs
Ġmanufacture r
Ġsub script
ude au
Ġtable t
Ġreally ,
Ġbreat h
Ġconven ient
ĠNew s.
Ġtrans f
T IS
ĠRon ald
Ġun lock
Ġhost ing
Ġarchitect ure
ĠBe ing
Ġimm une
oy d
Ġbe ef
vious ly
il a
Ġjob s,
ĠSaturday .
ĠTh ings
Ġconsider ation
Ġweak ness
ĠC A
i -f
Ġpromot ed
Ġright -wing
Ġca ution
ĠOff icer
ĠY ah
ĊĊ .
Ġelect ron
ĠCl oud
ativ es,
ĠWar ner
Ġaccompan ied
in âĢĻs
ĠHouse .
Ġcontent .
Ġclas s,
ĠLe v
ĠAir port
Ġcabin et
ĠS everal
Ġwell- known
ĠE V
l ash
E x
ĊĊAd vertisements
ing e
Ġreform s
orm al
le y.
ĠPhoto :
Ġf ed
ĠJac ob
d y
ĠH ans
Ġmist akes
A pp
Ġdesign ,
ĠP ear
) )
Ġcons ists
ĠMississ ipp
ĠH uff
ĠD a
Ġ"I n
ĠT otal
Ġad j
ĠO il
ĠClint on,
Ġon es.
Ġold est
Ġpo lling
ĠT am
ĠYou âĢĻre
Ġhe s
et ing
- led
Ġ2 ,000
Ġproport ion
ĠRub y
ĠState ,
Ġpra ised
ĠSo ft
ĠP od
Ġf its
ĠCom b
Ġoper ated
ĠCent er,
c ons
pec ific
ĠJanuary ,
Ġm ouse
ib l
Ġse ctions
ĠMarch ,
Ġsumm it
ĠF OR
Ġdemonst ration
ab out
D R
pp ers
sh ore
Ġp our
ĠMary land
Ġcontrol ,
alys is
iss ion,
Ġdes cript
Ġexplicit ly
ifi ed.
Ġ6 00
ick ed
Ġser vers
k ward
in stein
Ġelse ,
ĠN ature
Ġens uring
ĠJ ane
Ġregard ed
Ġcompens ation
ĠC o.
ĠBl ood
ĠA y
ĠGord on
Ġcere mony
Ġmurd ered
Ġthey âĢĻd
ator s.
Ġparticip ating
" :
ĠY emen
Ġm unicipal
Ġsense .
ĠComm and
8 00
l s
Ġres erve
Ġrestaur ants
ĊĊF r
Ġapp lies
Ġcur ious
el ing
Ġfavour ite
ĠVlad imir
an 's
ou p
Ġinter rupt
Ġad ap
Ġha z
' "
Ġguarant eed
r ations
ĠâĢľ re
Ġit er
ĠQue bec
ĠB J
< /
les s.
ĠAn na
Ġcompl ained
Ġoccup ied
ĊĊFin ally,
ĠJun e,
us sel
Ġ5 6
AS H
Ġmilit ants
ĠCity .
ĠWik i
Ġimm un
Ġwrong ,
Ġg ym
3 00
Ġrecommend ations
P I
Ġst ir
Ġam m
Ġcou ples
Ġexper iments
Ġsup rem
Ġsto pping
Ġpre view
Ġwis dom
Ġadministr ative
Ġmainten ance
ĠL ocal
ĠSyri a.
Ġmanufacture rs
Ġseg ment
ĠF ergus
ri x
Ġsy nd
Ġexc ite
Ġmad e.
Ġcount less
Ġp y
Ġrecip ient
Ġaddress ing
ĠF lyn
ĊĊW ell,
f are
Ġdeliver ing
ĊĊ"I n
Ġdisappoint ed
ĠK a
Ġcontro ll
Ġr hy
ĠP ir
s he
ĠN ative
ĠO R
ĠStand ard
apol is
Ġpopul ation.
Ġin hab
ĠO w
Ġinter ven
Ġrel ie
Ġmove ment,
ch .
ĠLincol n
i ed.
O V
Ġst unning
Ġto ss
b ury
ĊĊN ote
Ġw ore
Ġf ru
ert o
ĠT alk
Ġ199 9
.... ....
ĠBudd h
Ġwind ows
Q u
an z
4 00
ĊĊAm ong
Ġhand led
Ġchann els
ne g
Ġsac rific
Ġmod ule
ain ts
Ġlux ury
go vernment
bl ock
ĠT oy
ĠDe ep
Ġpro be
ĠR ound
Ġsan ction
Ġshel ter
ĊĊP resident
ĠK ings
ĠDel hi
Ġout lets
he ld
ĠM ind
lim ited
Ġis :
Ġt ension
ĠK al
ĠGo og
ĠNet any
Ġlong .
Ġrefere nces
Ġmin isters
ic ity
ĠHT ML
Ġweekend .
int on
ĠStreet ,
ĠâĢĺ I
Ġpopul ations
ĠP ok
Ġthe ories
Ġemphas is
ĊĊ1 0
che ll
IL L
Ġth reshold
Ġamong st
Ġemploy ers
ac cept
ĠT .
Ġv oc
ĠF ather
Ġline back
her iff
Ġcon ced
Ġre ign
Ġint end
est .
ĠS EC
Ġappear ing
Ġback s
u ate
Ġf ate
Ġam end
ĠE lection
Ġsub ur
Ġmotiv ated
.com .
m it
Ġassum ption
Ġt u
S U
pt ions
Ġd ressed
Ġtwo ,
ĠL arry
B e
-f riend
Ġpain ting
ĠStan ley
ĠH ann
Ġas pir
ĠN one
Ġimp ose
ĠCongress ional
ll or
r in
Ġdeal t
ĠWh it
Ġvari able
- one
ĊĊA D
Ġthis ?
ĠGi ants
Ġpow ered
Ġfuck ing
Ġanal og
Ġcat ast
Ġscen ari
ĠWhat âĢĻs
DA Y
ic ienc
Ġit :
Ġrele ase,
Ġteam 's
Ġtrad ed
ul ations
Ġme ets
Ġknow led
Ġbill .
Ġsust ained
Ġpublic ,
Ġgen es
V P
Ġsomething .
ĠAustral ia,
ium ,
Ġcap s
ĠRed dit
Ġbook s,
ĠEvery thing
Ġpo et
ĠObam a,
Ġreal ity,
Ġcur ve
P L
Ġra id
ĊĊ f
Ġare as,
Ġpre v
Ġcateg or
ĠM orm
Ġcheck ed
Ġd il
Ġcollect ing
Ġthe r
AT ED
Ġtro op
ĠG re
Ġ(Re uters)
Ġal ike
Ġanx iety
Ġbird s
ĠTh ird
ĠS ac
enc es.
ĊĊW atch
Ġdest ination
way s,
ĠIndepend ent
ug by
Ġtele phone
Ġ' I
ĊĊP lease
ers :
Ġanyway .
ĠAuthor ity
Ġun e
Ġdecre ase
ĠGod ,
Ġvot e,
Ġpat rol
Ġdam n
ĠTex as,
Ġbiz arre
/ 0
ĠTre k
Ġthought ,
at al
Ġw et
Ġwedd ing
p o
Ġb ubble
br idge
ĠBar cel
Ġit !
ĠMore over,
Ġrepresent ation
ĠL uke
ĠTim es,
Ġpolitic s,
ĠQue ens
3 4
Ġto ll
b ian
ĠPark ,
b ing
Ġ( like
Ġconv iction
ĠS umm
ĠM M
ĠIm p
Ġstuff .
Ġ18 0
ak ,
Ġreason s.
ĊĊN ext
Ġ10 %
Ġmember s.
Ġjudg ment
Ġquestion s.
Ġtown s
ĠEnviron mental
Ġto b
Ġar ts
Ġ1 000
ĠThey 're
ĠMot or
\x 6
Ġhere :
Ġt empt
Ġt ends
Ġthe oret
Ġsociet y,
g ust
Ġvolunte ers
Ġabove .
ĠSwed ish
Ġspec ulation
Ġread s
Ġyou 'd
Ġ200 5,
ĠOn line
p a
Ġdesign er
Ġcitizens hip
Ġg arden
ĊĊThat 's
3 6
Ġwork ers,
ĠF ind
Ġprospect s
ĠâĢľ un
Ġsen ators
Ġ" That
Ġtop ics
Ġab und
Ġinspir ation
u ccess
ok en
Ġwrote :
ail able
E AD
i )
ible .
eng er
Ġtrend s
Ġocc urs
Ġce ase
Ġlog o
Ġ3 :
ĠG h
ĠS wit
Ġcred its
Ġc ave
ĠT R
Ġpros per
Ġrepl acing
the less,
Ġreg ion,
Ġinst ances
Ġexpl oring
ĠIraq ,
og a
Ġstrugg les
man âĢĻs
back s
ĠStud io
Ġevol ved
Ġwal let
VER TIS
Ġpost .
Ġpe er
AR T
Ġl ens
Ġ( 20
gg ed
Ġsk et
ĠBloom berg
ww w.
Ġtransp arent
Ġstate 's
Ġpromot ion
em it
Ġmarg inal
ĊĊGo ogle
ĠTennes see
Ġus ers.
n ie
st ar
Ġreal ity.
Ġj o
th al
Ġexplos ion
ĠK r
ĊĊS te
m ak
Ġscr atch
ĠMont real
an e,
Ġnerv ous
Ġinvas ion
ĠOr der
Ġl ad
Ġact ed
c os
Ġregist ration
6 00
om ach
ĠSm art
Ġimpact s
Ġmusic .
ro d
ĠV in
Ġalt ogether
ĠE nt
Ġver ify
Ġfrust rated
ast e
ers hip
Ġcom e.
ul se
ĠR ap
Ġout standing
if e.
Ġpregn ant
Ġer rors
Ġtechn ological
Ġovers ight
-1 5
Ġinquir y
Ġ(w ho
Ġr iot
ot es
Ġelect rical
Ġpsych iat
ĠBen j
Ġsp an
F i
Ġmyster ious
Ġrem embered
Ġfire arm
aint iff
Ġcult ure,
Ġh ub
Ġbre ach
P )
Ġfar mer
Ġwar s
Ġlong -
Ġcomm od
Ġatt ach
ĠT amp
Ġaw kward
Ġreflect ed
ativ es.
Ġc ous
ĠMP s
sh op
ĠR h
Ġposition ,
Ġcateg ories
Ġped est
Ġg reet
Ġfollow ers
Ġview .
Ġrob ber
ĊĊ 7.
ĠAbb ott
Ġhighlight ed
-h and
ĠPer ry
-w inning
Ġincre as
Ġconvert ed
Ġco in
onym ous
Ġbu nd
Ġschool s,
ĠF CC
ĠHis pan
4 %
ĠM itt
ĠâĢľ to
ical ,
Ġwe aken
Ġd irt
Ġconcent ration
ĠL aur
Ġnew s.
Ġappro aches
Ġ"I 'm
3 7
ail ing
Ġintegr ation
Ġrecord ,
ĠLe ad
Ġcust ody
ĠDou g
ĠO m
ĊĊT op
ĠRec ord
Ġattent ion.
unt u
Ġproduct s.
Ġno ,
Ġhun ting
UT ERS
-pro file
Ġroom s
Ġsusp ension
Ġdisapp eared
Ġfor b
Ġforward ,
U C
Ġhost s
Ã ¢
Ġen abled
Ġaccount .
Ġdis pl
Ġsitu ation,
Ġleft .
Ġde let
Ġmus c
Ġpart ially
ĠK as
ag s
Ġl ip
Ġmoment um
Ġincor rect
ĠCanad a.
out ,
ĊĊW ho
Ġcompan ies.
ĠQ ual
Ġmortg age
Ġaccompl ished
Ġguest s
Ġspeak er
Ã ¨
Ġdesign ated
Ġf ut
Ġf urn
Ġexperiment al
ind ed
ĠJap an,
s k
ĠR aid
ĠB uck
Ġviolence ,
ĠM uch
ĠB ear
ĠSt ation
& T
w a
Ġemb edd
Ġpunish ment
3 8
ĠNC AA
ĠBl og
ĊĊP eople
ĠThe at
ĊĊP re
Ġfocus es
uss ian
ar ies,
Ġburn ed
iz er
ĠRed s
Ġcross ed
ĠK y
ð Ł
Ġc rown
Ġimpress ed
Ġl one
ĠIn n
Ġearli er,
ĠRub io
w ind
Ġenjoy ing
Ġr itual
Ġh ug
Ġ 's
Ġequ ipped
Ġcelebr ated
Ġfr ank
ĠCh all
Ġold .
ĠB ah
Ġfriends hip
Ġdepart ure
ar med
ic ide
Ġrank ing
Ġ" in
-st ate
Ġconcept s
Ġi .
ĠSt orm
Ġb its
Ġwitness ed
ĠIsrael ,
Ġstudent s.
Ġcreat ures
Ġcult iv
ĊĊ --
am e,
Ġhol es
Ġcondem n
Ġsh ar
" )
ĠPro duct
omet hing
ĠN a
ĠSeptember ,
ra it
ĠAl t
ĠH ond
Ġfort un
Ġb ands
Ġcrypt ocurren
ĠNovember ,
P ro
Ġsp y
Ġneed ed.
Ġ3 60
ard o
Ġhar vest
Ġeffect .
Ġord er,
- per
ĠRuss ia.
Ġhor iz
Ġcross ing
l ing,
Ġk iss
Ġt um
Ġgreen house
Ġgener ations
Ġprosecut or
Ġ5 7
Ġto ile
Ġaccept able
ag en
Ġhuman itarian
ĠS M
lim inary
Ġtun nel
Ġrecord .
ĠLaw rence
ĠEd ition
Ġspace craft
ĠSmith ,
i ed,
Ġroy al
Ġorgan isation
Ġ$ 3.
Ġanymore .
ĠF ight
Ġg host
om y
Ġcare ,
Ġsupp lement
Ġdev oted
Ġp m
ĠF R
a very
g ency
ĠC ry
Ġassemb ly
al g
ad e,
Ġ$ 9
u j
ĠM ov
i ens
Ġvery ,
ĠCanad ians
ĊĊ 6
Ġappro ve
che ck
ĊĊY our
Ġan th
Ġdis order
T :
Ġfle w
Ġtri als
ĠLeg isl
Ġlegisl ature
Ġperiod s
ĠTod d
Ġconfig uration
Ġbecause ,
ĠS ex
Ġ4 th
Ġ5 8
Ġlead er,
Ġargu ably
bour ne
ire ,
Ġtut orial
Ġg aining
Ġhead ,
str ong
ĠTalib an
Ġsurv ived
Ġro ots
-b l
Ġbeat en
w ing
ĠPr inc
Ġconf used
Ġreview ed
Ġhost ile
Ġ8 00
ĠAm b
Ġproduct ive
Ġfight s
is ode
Ġprot otype
Ġcontrad ict
ĠâĢľ st
ĠB eng
Ġcompe lling
Ġto y
Ġpr ide
- ex
em in
ĠCome y
Ġsh ake
Ġins ur
Ġcomp ass
ows ki
ĠB ra
Ġch ocolate
Ġb ra
ĠK ir
Ġdead line
Ġcondition s.
ĠFin ally,
Ġcon qu
Ġingredient s
ĠCon vention
ĠMOR E
ĠJu ly,
ĠW ales
Ġintegr ity
vious ly,
Ġden ial
Ġfood s
Ġfull -time
Ġp ione
ĠD raft
w ith
Ġbomb ing
Ġve gan
Ġ199 8
Ġ$ 50
ocr acy
Ġdep ression
is ive
p ack
Ġcomp osition
Ġattack s.
ĠSwed en
ĠLibr ary
ĠUniversity .
- line
ĠB ond
Ġshe d
ĠS E
Ġbox .
D C
Ġimportant .
Ġan arch
i ary
-y ard
ĠH end
Ġmos qu
ĠAgain st
Ġwomen 's
el come
Ġcult ure.
Ġvis its
ĊĊ d
Ġne ur
ĠR angers
Ġdevast ating
ĠCong ress,
Ġs od
ĠS ud
os a
Ġimportant ,
ĊĊF urther
Ġplac ing
Ġp ink
L U
ĠCirc uit
ĠD or
Ġin eff
- owned
h ol
à ¤
ĠYork .
ĠAre a
ĠRobin son
ĊĊC ol
t ains
-p age
omm un
Ġpap er,
Ġmis le
Ġwho 's
Ġcomb ine
Ġinvestig ated
Ġch ur
Ġ"A nd
Ġstat ic
hold ers
che st
Ġs ink
Ġ19 2
Ġdet ention
Ġst omach
ĠF arm
is ed.
Ġbu zz
out heast
Ġperform ances
Ġaccus ations
Ġbreak fast
it b
ĠâĢľW hen
Ġrevolution ary
ĠHit ler
Ġpract ice,
Ġpurs uit
Ġsec ured
Ġfl ights
lect ed
ĠTim es.
Ġinterview ,
ĠWay ne
Ġinf ring
Ġ9/ 11
ĠSpe aker
Ġunder w
ari ans
on ing
ĠI V
ĠPl ace
F O
ĠRem ember
Ġproced ures
b ably
Ġsw ord
Ġinterview .
ĠT un
Ġground ,
gu ard
Ġannoun cing
Ġnetwork .
Ġall iance
ĠTr udeau
Ġ15 .
o vers
Ġtravel ed
ĊĊ"I 'm
ĠOther s
ĠRes p
art ed
Ġgrad ually
o s.
ĠSub s
Ġnonpro fit
ic ut
Ġgold en
Ġmiss ions
ĠBr and
ĠR ail
Ġexam ined
Ġsa ke
Ġf est
ĠS ection
Ġcart oon
ĠTe a
-pro fit
Ġapp lying
Ġmand atory
angu age
ĠJ ess
l ,
c ience
Ġm ild
H E
Ġrul es.
Ġa uction
Ġcontribut ing
Ġhy brid
Ġser ial
Ġsil ent
Ġstr ang
ĠW rit
Ġbet a
Ġambit ious
ĠN ichol
al id
Ġcere mon
Ġor ,
est yle
Ġwalk s
Ġquant um
Ġtwo .
ĠBe at
ĠSw iss
inc inn
Ġlong est
Ġin appropri
Ġwork ers.
VERTIS EMENT
ĠTes la
Ġpress ing
b its
Ġtou ched
ĠApril ,
Ġd ign
ore ,
Ġdes erves
ĠCom put
Ġh iding
Ġgu ards
ĠCow boy
Ġl ung
Ġrestrict ed
Ġpled ged
Ġep idem
v ar
ĠM obile
Ġprevent ed
Ġsm ok
Ġp or
Ġviol ations
ĠCh ange
Ġd ate.
ot ,
Ġbr ands
Ġch ap
Ġtreat ing
ĠAmerica 's
Ġcomprom ise
Ġres id
Ġcour age
ĠSwit zer
Ġt ill
ĠR ow
ĊĊ" M
N C
ĠT ig
Ġspeech ,
arg et
Ġide a,
Ġres idence
ĠL ions
Ġunder c
S C
Ġflex ibility
Ġneeded ]
at ile
Ġhosp itals
Ġview ing
z b
Ġqual ify
ru p
it es,
ĠRog er
Ġunf old
Ġmon ster
Ġprovinc ial
ĠG .
ĠS D
ĠLa ure
Ġp ending
Ġcan .
Ġexecut ed
Ġfast est
Ġviol ated
ĠB art
Ġeveryth ing.
Ġ" l
ar at
Ġlangu age,
Ġ$ 30
Ġend less
ĠMod ern
Ġsophistic ated
od ing
Ġspark ed
Ġmon etary
Ġjud icial
Ġofficial s,
ĠR C
Ġnation 's
[ 1]
Ġdist inction
ĠC rit
ĠF if
ĠP a
Ġdef ect
Ġref using
Ġadv ised
Ġport fol
Ġdecision ,
ĠN elson
Ġinvol ved.
ĊĊâĢľW hen
Ġrus hed
Ġsevent h
Ġhealth ,
Ġstud y.
Ġpost er
K E
Ġgrowth .
ĠN eed
Ġdis par
Ġt el
Ġindic ation
Ġcor n
Ġworse .
ch arg
Ġup s
Ġt ar
Ġlevel s.
ier re
ĠL ock
ab ling
ĠEntertain ment
ĠG PU
Ġstr ain
ĠBr ussel
are t
for mer
ĠTherefore ,
Ġr all
ĠP rom
if ier
-m ade
Ã³ n
re qu
Ġoptim istic
Ġmax im
Ġpract ice.
ĠU. N.
ent er
ĠGr ay
Ġbom bs
ĠMor ning
en z
A B
Ġsh orter
ang ,
Ġtherap y
gr aph
Ġunderstand s
Ġdecl are
ĊĊFollow ing
im es,
Ġdoct r
Ġpain ted
ak i
ĊĊCl ick
val id
y ard
Ġg rip
Ġoper ational
ĠD J
Ġconv inc
ĠSte am
Ġlangu age.
Ġprofession als
az i
Ġcourt ,
ĠOctober ,
ĠBr andon
T R
ree k
ĠPl us
ĠEag les
ov a
Ġ14 .
Ġcalcul ated
Ġlog ical
ri ke
Ġw ise
ĠCo hen
u z
ĠPatri ots
Ġridicul ous
- te
8 9
Ġattorne ys
Ġm amm
Ġmyster y
Ġadvoc acy
Ġfood .
ĠHe at
ĠOsc ar
Ġdet ained
-c ons
en ess
ĠW ol
Ġinstead .
Ġamb assador
Ġfil ing
Ġminister ,
Ġexperienc ing
Ġdevelop ments
Ġcom ics
Ġrespond ing
Ġdocument ed
Ġunder min
Ġfound .
Ġrun ,
el le
ĠCh ance
Ġste ep
Ġtrig gered
Ġpled ge
âĢ ³
ĠCor by
ĠN O
Ġind ict
Ġgreat .
Ġhero es
- I
Ġform ally
ĠSnow den
Ġpay s
Ġfr ight
Ġpers ist
ĠI an
M AN
Ġreveal ing
Ġd ate,
Ġp age,
Ġstrong est
ĠMedic are
ate ur
ĠOrland o
ĠR io
out ing
ĠRuss ians
Ġhead lines
Ġagricult ural
Ġdes ired
ĠCaliforn ia.
id al
al og
ĠJ av
ian s,
Ġlot .
ĠCamp aign
ĠPh ys
b ound
Ġcost s.
ort ion
ne red
Ġmathem at
ĠRE UTERS
Ġinc omp
Ġkn ocked
ver ning
e u
Ġhat red
Ġdraft ed
Ġceleb ration
Ã ¥
Ġm ic
Ġeconom ics
s ;
ĊĊ the
ĠCh ap
ĠNetany ahu
Ġthen .
Ġsupp li
w all
Ġcreat or
ĊĊR eg
Ġdev ices.
Ġpack ages
cl ass
ot te
ĠOcc up
v ol
m od
Ġto ken
Ġbed room
Ġmet ers
Ġcon j
Ġs ends
Ġass ured
Ġconstruct ed
Ġhand s.
ip her
Ġide ological
ĠM eg
Ġengage ment
Ġag e.
Ġfan s,
Ġsepar ated
ĊĊ <
-cent ury
ul pt
ĠRe id
Ġparliament ary
Ġdis abled
Ġprov isions
Ġenviron ment,
Ġ7 2
ĠAg ain,
Ġbox es
ĠAd ams
ap .
4 9
Ġclear ,
Ġthey 'll
ĠAll iance
Ġbord ers
Ġdifferent ly
Ġdisp os
Ġfail s
Ġfun .
ĠPu erto
ĠOrle ans
Ġdr ill
ĠT a
Ġp ock
Ġinvest ing
Ġse e.
ĠWiki Le
Ġteam mates
Ġsubt le
Ġal -Q
in ally
Ġd irty
ĠL ie
ĠCommission er
Ġ16 .
Ġtrail er
Ġs heriff
ĠCh uck
ast ed
ĊĊPer haps
ap s,
Ġwitness es
Ġl un
Ġdesign .
Ġinterpret ation
w au
ĠH ide
ĠK yle
Ġquick ly.
ĠTem ple
ri ven
Ġclick ing
Ġacqu ire
fl ow
Ġrad iation
ĠHam as
Ġrece ives
ĠCol leg
ĠOr ange
Ġb one
Ġever .
t ail
Ġanim ated
Ñ ĥ
ob by
ĠLe vel
Ġdec iding
ĠPro gress
Ġafter ward
Ġcontro lling
ative ly
8 7
Ġconst rain
Ġshort -term
ĠF isher
Ġdelay ed
Ġboard .
ĠBl ake
Ġconduct ing
Ġdet ain
ound ing
il ateral
Ġdead .
Ġsing er
b urn
Ġok ay
ĠKent ucky
Ġbl ess
Ġmean while,
ĠN atural
ĠB ird
Ġgar b
ford ,
Ġtempor arily
Ġpos ed
Ġcondem ned
Ġremind ed
t te
ĠL ady
aren thood
ĠF le
ĠFlorid a,
Ġentr ance
Ġguid ance
Ġcal c
ĠB und
ĊĊP ost
Ġfle et
ĠN ix
Ġhistor ically
Ġdon ors
Ġre aches
Ġ( if
Ġdo es.
Ġbab ies
ĠFurther more,
ĠAfric a,
Ġinf ant
Ġimag in
Ġimm ense
ĠAugust ,
Ġsubs cribe
Ġident ifying
ĠS ong
Ġsecurity .
ĠOrgan ization
Ġno .
Ġwra pped
Ġsomething ,
ĠF a
p ace
Ġfun n
Ġwas t
Ġinc ons
st orm
Ġscen e,
ĠEd itor
Ġfill ing
Ġover d
Ġm erc
ĠL en
omm on
Ġsleep ing
ch ron
ĠC L
ĠAdd itionally,
Ġinter rog
Ġ( 7
Ġst un
T E
ĊĊD avid
: :
Ġexp ed
Ġflav or
ar ound
Ġ) ;
ĠFrank lin
Ġchang es.
ifi ed,
ĠP interest
Ġfl ip
Ġinst inct
app er
ĠP ick
roduct ive
Ġscreen .
Ġre hab
Ġtr igg
Ġattribut ed
itb art
ĠR oc
ĠâĢľ we
ĠDV D
Ġconflic ts
N D
Ġche ese
ĠSaf ety
Ġexc it
ĠC orn
Ġple asure
ĊĊP l
Ġkill er
Ġbillion .
Ġneighb ors
Ġsqu ee
Ġnumber s,
Ġenc rypt
Ġn ick
r ane
Ġsc rap
ĠÂ ©
ĊĊE d
Ġv iable
Ġsimultane ously
Ġmand ate
Ġlegend ary
Ġbacter ia
ĠPhil ip
- V
Ġs ess
ot ing
Ġpain ful
Ġpri est
Ġtoday 's
Ġt ub
om er
form ance
Ġreport s,
ak es,
ĠN ame
Ġpresident âĢĻs
r ition
c ed.
Ġgoal .
Ġsl avery
Ġhousehold s
ĠMer kel
uck er
Ġunder mine
aly st
Ġact ress
Ġ18 9
ist ance
Ġres erved
ĠK l
B l
Ġst age.
Ġver dict
Ġegg s
ĠK it
M C
e em
e or
AT ION
ĠF ro
z one
ĠP ur
Ġb io
ĊĊ" P
Ġem ission
Ġrec alled
Ð º
Ġhes it
ĠKe ith
ri es,
Ġrul es,
Ġal .,
Ġ( h
Ġvide o.
Ġt able.
ĠâĢľ pro
Ġthe or
ĠWik ip
Ġkn ife
ĠRussia âĢĻs
ĠA w
ĊĊC omp
Ġy es
umb l
G O
auc us
Ġrespective ly.
Ġ0 .5
Ġvolunte er
ĠB ou
Ġwelcom ed
ĠCol omb
t own
Ġgrab bed
ER E
Ġh ik
ay a
Ġquiet ly
Ġpoor ly
Ġform ula
ĠDep uty
Ġur ge
ĠCh amp
H T
Ġbreak down
ĠInd ia.
p ing
Ġ9 9
Ġgr asp
Ġint ens
rop olitan
ri or
ĠB uild
b ie
Ġz omb
res pect
Ġquestion ing
Ġst ressed
Ġres on
Ġflex ible
Ġpr ice.
Ġbel t
ĠU ntil
ad i
Ġbel oved
Ġor ange
Ġthat .âĢĿ
Ġcod e,
Ġoper ator
Ġdirection .
Ġfan s.
abb ing
Ġanim ation
Ġ5 9
Ġexplos ive
Ġsafe ly
ĠHow ever
Ġrec ount
Ġ$2 5
ĠCon c
Ġbest .
Ġflo ating
Ġuncertain ty
ĠC incinn
id es,
Ġflu id
ĊĊD em
ĠSm all
Ġresearch .
Ġwrot e,
Ġdrop s
Ġ"W hat
Ġbelow ,
Ġaw ful
Ġwor ship
s a
icial s
Ġd ur
an ing
Ġassum ing
ĠBenj amin
ĊĊFor mer
ant e
ĠB os
Ġbuild s
ĠKh an
ĠO d
Ġcharacter istics
ĊĊS everal
port ed
Ġder ived
ĠBe h
L .
Ġform .
F A
Ġmeet ing,
id en
ĠT able
ĠFacebook .
it es.
for ward
âĸ Ī
Ġ20 %
ĠV ar
Ġdis gust
Ġcharacter ,
ĊĊâĢľ That
Ġmult i-
ĠVer mont
Ġafter math
ĠConnect icut
Ġprov ider
ĠRod rig
Ġ199 6
Ġund ers
er, âĢĿ
Ġsl ide
Ġtri ps
Ġbit ter
---------------- ----------------
Ġa est
ĠE arly
ĠFlyn n
Ġgo verning
Ġmut ual
Ġsam pl
Ġmechan ical
ĠT ell
ĊĊâĢľW hat
-friend ly
Ġlay ers
ĠS alt
ĠUK ,
ĠCor p
f ox
A nd
Ġdisplay s
Ġ19 30
- ind
Ġv ibr
L S
Ġspread ing
up s
Ġproject s.
Ġs essions
Ġfre e.
Ġstory :
ĠI ss
Ġdiscl osure
Ġ200 4,
âĢĻ s.
Ġcontent ,
Ġacquis ition
Ġpra ise
Ġparticip ated
Ġsuggest ion
Ġfin e.
ĠK irk
ĠK arl
ĠPe ace
ĠComm ons
Ġt ang
ĠPost s
g ,
Ġtradition ally
ĠO li
ilarly ,
Ġann ually
th ink
ĠR aven
Ġappe als
Ġ200 7.
Ġman y,
Ġi. e.
ĠPol and
Ġmodel ,
Ġdem ographic
Ġnot ably
ic ism
Ġpr icing
Ġtr ains
ur red
Ġt rop
ear chers
ill ary
Ġdon ated
ĠConf eder
Ġearning s
Ġconfirm ation
lam m
il iate
Ġm ice
~ ~
Ġinstru ment
ĠC a
Ġoper ates
ĠProf ile
Ġsure ,
Ġlaw s.
Ġworth y
ĠSh an
Ġph one.
ĠS essions
Ġcook ing
ĠArt icle
Ġindust ries
Ġagree ments
Ġhe d
ĠP AC
ia h
ĠCl ar
Ġwin ners
Ġcop s
Ġwant .
Ġb urg
Ġweek âĢĻs
Ġch ips
ĠMem orial
Ġcas es.
ener al
Ġl ane
Ġdeliber ately
Ġpit cher
ĠTh under
Ġask ed.
ĠC rown
Ġhigh -profile
Ġm igration
Ġsh oes
ĠMan ager
H A
ĠR ain
ĠIslam ist
ast ing
Ġavail ability
ath on
ĊĊP lay
Ġ6 6
Ġcomp osed
ation :
Ġ(1 0
ig hed
Ġh orm
Ġcrim e.
ap ,
Ġhelicop ter
ĠMcCon nell
Ġdist ant
ĠNew s,
ĊĊ 7
ĠA th
ĊĊTh ank
Ġtr ash
Ġus ed.
Ġadopt ion
Ġhor rible
Ġm m
Ġpurs uing
ĠPro du
ĠU S.
Ġphotograph s
pe ction
T O
Ġconf usion
Ġentreprene ur
Ġcr ude
iz ard
arch y
Ġfac e,
Ġdec ides
Ġpre val
Ġgr ain
Ġturn ,
Ġafter no
Ġ1. 0
Ġhe aven
ĠCredit :
un c
itt y
ĠDecember ,
Ġl ady
ers ion
Ġstaff ,
Ġbe ll
G E
Ġsm ugg
Ġwond ered
Ġm elt
red ict
Ġdecad e.
Ġsecurity ,
omet imes
Ġspeak ers
Ġparent s,
ĊĊA ut
ĠE D
ĠF ried
om ed
Ġev angel
Ġins urg
Ġeffect ,
ĠLe af
Ġfriend ,
Ġ199 7
ĊĊY es,
Ġboy friend
Ġfascin ating
Ġdecad e,
Ġdis pro
Ġrout es
Ġh ill
ĠE c
Ġn ons
ĊĊTh ree
Ġass ists
ig e
Ġbillion aire
ĠPy thon
Ġbuild ing.
3 9
ĊĊR em
Ġre un
Ġindic ating
ĠJeff erson
ist ing
Ġur ging
Ġm asc
Ġele ph
Ġdem ol
be it
ĠMarsh all
â Ķ
ĠL t
Ġdistrict s
ĠOtt awa
Ġimmigr ant
ĠB ash
Ġde ce
Ġrespond ents
Ġexp end
ĠH um
Ġcred ibility
Ġpeople 's
ĊĊD r
ĠP ed
Ġgr ateful
ĠUn iverse
Ġproduct s,
ac les
Ġdo ing.
Ġtechn ically
ĠSc ar
B N
ore r
Ġperm itted
Ġcamp s
Ġfemin ist
ĊĊAD VERTISEMENT
pec ial
ĠE li
Ġnumber s.
ĠUlt imate
Ġ Ø
Ġstruct ural
Ġquestion s,
-e lection
- ray
r and
Ġthrough .
Ġemot ions
Ġout right
Ġst age,
ar ies.
ĠK erry
Ġwhist le
Ġh alt
az a
Ġst abil
oc us
ec onom
Ġ3 .5
Ġexcess ive
Ġfire .
ĠWashington .
be at
p ress
Ġsuit able
f ish
Ġw reck
ĠC ut
er b
Ġcris is,
Ġun h
und ed
ace ut
ĠS ox
Ġp enn
Ġcomp aring
ĊĊFirst ,
Ġexist ed
the re
Ġfire f
rif ice
Ġfulf ill
Ġcriter ia
Ġgreat ,
Ġavailable ,
-m aking
ĠK rist
Ġf are
Ġple aded
Ġd rought
sec ond
Ġimper ial
Ġhope ful
Ġh ier
ĠPl at
Ġinvestig ation,
Ġrus hing
Ġfun eral
Ġche er
Ġfe ared
m other
Ġ201 8.
Ġl au
Ġover h
c ar
Ġspons ored
Ġembedd ed
ĠTer ry
Ġsuggest ions
ĠNe il
ĊĊ 8.
berg ,
âĢĶ but
y d
Ġmag ical
n amed
ĠDe an
Ġlif etime
Ġpresid ency
Ġ( "
ad .
Ġsa uce
Ġopin ion,
Ġc ake
um ing
Ġess ay
ud ge
ĠMcC art
Ġfrust ration
Ġanaly t
ĠFebruary ,
Ġpen et
Ġmodel .
ĊĊ" That
Ġwork force
Ġconserv ation
-st ar
ĠExp ress
ut es
Ġpref erence
f r
ĠC elt
ĠM om
Ġbet ray
Ġpure ly
Ġ10 th
Ġarticle .
Ġab ol
Ġaw a
ĠHere 's
Ġmyself ,
ĠTr ue
Ġf ont
Ġrefere n
C .,
ble m
ĠB es
Ġcomment ary
ĠN ap
Ġunf ortunate
ĠHun ter
[ 2]
Ġtow er
ĠM urd
ĠAll -St
ĠM erc
Ġfight .
ĠR oom
ĠT reat
r ong
Ġjournal ism
Ġa ired
y es
ĠH unt
ĠE mb
Ġoper ators
are r
ĠWar ,
Ġag greg
Ġfing ers
ĠN ort
ĠFeder ation
ĠU I
Ġinterf erence
w estern
ĠV ery
Ġout break
ĠBar ry
Ġr ate,
ĠMor ris
g .,
r ative
Ġshock ing
Ġpre liminary
ous ing
Ġdisc our
Ġprepar ation
8 4
Ġroutine ly
Ġdam age.
Ġdream s
Ġparty âĢĻs
Ġpress ed
ne ver
Ġconsid ers
Ġpassion ate
Ġst er
Ġdise ase.
ĠAr ctic
ĠPakist ani
Ġhack ing
Ġdiagn osed
ount ered
Ġintellig ent
Ġall y
ĊĊE ach
Ġtransparen cy
Ġas h
Ġgr ants
ik i
Ġbe ings
-and -
Ġincident .
upp ort
ne y.
u ilt
Ġintrodu cing
Ġsa il
Ġmed ian
ĠFor mer
Ġ6 7
Ġtr apped
Ġsupp ose
Ġt une
ig u
Ġdem o
Ġun rest
ĠCoal ition
ac o
ĠSen ior
Ġ20 2
Ġdam aging
Ġro le.
Ġt ale
Ġeng ines
e e,
ĊĊT r
ord able
ter y
Ġfr action
ĠSing h
ĠLet 's
Ġbuild ing,
Ġspec ul
Ġdestro ying
Ġhealth .
ĠIsrael âĢĻs
Ġcan cel
ol er
Ġmet h
le ton
field ,
Ġret reat
Ġrepl ied
Ġfacult y
Ġanti- S
-b acked
Ġdeleg ates
Ġ vel
ĠWat son
Ġ7 6
Ġexplain ed.
ĠSubs cribe
aceut ical
Ġn an
Ġdep os
ĠCh o
ĠAmerican s,
ad vant
ĠB ak
Ġball s
? ?
ĠY ang
ĠB h
,000 ,
Ġcustom ers.
Ġdiv ide
Ġout er
Ġdem on
ĠMit chell
ĠU RL
Ġt ong
Ġbad .
Ġyourself .
Ġen ables
- way
Ġcoordin ator
Ġunve iled
Ġenc ountered
itte e.
ES S
C E
Ġmotor cy
Ġstat s
ĠStud ies
-c ol
Ġnegot iate
Ġdub bed
Ġtrans cript
ĠAl b
Ġshif ted
ĠG a
Ġang le
Ġr ib
Ġme g
Ġfrom .
Ġbenef icial
Ġbreat hing
ĊĊS ource:
s. com
are st
ĠCorby n
ak es.
ess ional
Ġtaxpay ers
Ġdise ases
Ġliv es,
Ġd umb
Ġlicens ed
ĊĊSh are
Ġsc ulpt
Ġearli est
0. 0
Ġh ors
ile ,
is es.
Ġinst antly
Ġneed s.
Ġstat istic
ĊĊâĢľ D
Ġoxy gen
ĠSte in
ĠR T
Ġworld w
Ġlobb ying
g ate
Ġterm ,
ĠMil wau
im ens
Ġf ierce
let t
ĊĊ :
Ġmovie ,
ĠWe 've
ĠPhotos :
Ġprint ing
ot ion
Ġoption s.
Ġconst itut
Ġv ague
Ġinevit able
Ġoff set
n an
st op
Ġc ub
v o
Ġg ard
Ġlast ed
Ġappoint ment
Ġsl ip
l ed,
Ġchild ,
ĠC u
ĠAr ts
ĠP arenthood
Ġaver aged
ĠE ss
Ġrob ots
Ġphys ics
ĊĊ1 9
ĠT ob
Ġey es.
f ound
st ock
Ġgent le
Ġre wards
Ġnation wide
-s ized
Ġtob acco
if act
uss ia
E X
ĠGar c
op ard
ĠJohn son,
r ons
Ġarri ving
ĠC z
is ing,
Ġinstall ation
ĠW ATCH
Ġcrim inals
Ġ3 ,000
p ot
Ġinv ite
ĠDe vil
-l aw
Ġtend ency
al if
Ġout -of
Ġpresum ably
r ics
Ġstart .
ĠWe âĢĻll
Ġprivile ge
Ġal ph
ĠSe ah
Ġsing ing
ĠFant asy
umb led
og g
Ġcast ing
Ġbroad band
ĠF el
Ġattack s,
ĠCal g
in cess
Ġover look
Ġres igned
ov es
ĠMr s.
Ġd iox
Ġam pl
Ġ0 x
Ġtri ple
ĠMc L
ab ul
Ġwilling ness
Ġd ang
Ġperspect ive,
ĠK am
r ament
ĠAriz on
ab y
ere r
Ġprotect ions
ĠM ason
Ġwa ited
b y,
Ġsignific ance
Ġcle ver
Ġsecond ,
U M
-b orn
Ġcomp iled
ĠPart y,
Ġm akers
iff erent
ĊĊQ :
Ġeth ical
ĠCommun ist
Ġreven ues
Ġscience ,
Ġconnect ing
ĠC ass
Ġnothing .
ra pe
ĠK ind
end er,
Ġcapital ism
Ġsu ed
Ġbas is.
full y,
Ġuncomfort able
he ll
Ġinteract ions
k ind
Ġrisk .
pr ising
ĠG onz
Ġp upp
Ġ 't
ĠW ard
agh d
ar o
ĠG arden
-C h
Ġdraw s
Ġlaw s,
ĠDN C
Ġreason .
Ġcontinu ous
ĠF DA
Ġvert ical
un a
Ġg re
ad e.
Ġrom antic
Ġ( at
ĠGl enn
Ġcentur ies
Ġpro x
Ġbe ars
ĠJ ake
Ġrum ors
Ġn ation.
ĠBud get
Ġshe er
Ġd ys
Ġn ull
Ġbal anced
Ġcha os
Ġaward s
d am
Ġdi abet
ĊĊP r
Ġsuper hero
Ġadministr ation,
Ġtransm ission
c a
Ġref lection
Ġrec onst
Ġsurprising ly
Ġb ind
Ġtrad em
Ġvacc ine
Ġb rave
Ġdev ice.
ĠB uy
ĠYah oo
4 7
Ġcharacter .
ĠC ann
Ġcan ,
Ġafterno on,
Ġd ock
Ġsh ops
ĊĊTh anks
os aur
ĠMod i
per ial
Ġdirect or,
ĠHe b
ĠL ED
se .
ĊĊT witter
Ġproduction .
m are
ĊĊâĢľ C
Ġsp awn
is ed,
Ġperform ance,
Ġland mark
Ġsumm ary
Ġcont ents
Ġresponse ,
her ic
et s,
Ġ199 5
ĊĊSec ond
ĠCh ang
Ġremind er
ack ,
3 1
Ġult ra
sh ot
eng u
ĠF un
Ġenerg y,
ĠS ep
Ġk ern
Ġoff shore
Ġsiz e,
Ġteam s.
Ġm all
Ġteen age
ur ities
ĠIR S
Ġm ixture
Ġadministr ation.
ĠMar co
Ġilleg ally
y on
Ġal -A
Ġendors ed
Ġt att
Ġdr um
Ġspot light
Ġroad .
ĠCon n
Ġsusp icious
re .
ĠT ru
Ġhe al
ĠSh ar
Ġc ord
Ġstre ak
Ġun ch
Ġharm ful
Ġbas es
ĠAd vent
Ġlike lihood
or ate
Ġcar rier
Ġavoid ing
ĠAr thur
Ġfound ing
Ġl aser
Ġimplement ing
Ġco-found er
ĠFor ces
Ġthere by
ĠPhot ograph
Ġwill ,
Ġlead ers,
Ġscholars hip
Ġalbum ,
ĠN eb
Ġlif estyle
iam ond
ĠSus an
ĠG host
Ġair .
Ġrad ar
Ġlight ing
ĠL uck
ĠSer ge
e velop
Ġtens ions
ĠâĢľ J
Ġj ew
Ġbag s
i pt
Ġc ab
W ith
ĠD anny
Ġrespect ed
con nect
ĠTai wan
Ġord in
ĠColl ins
h ttp
e âĢĻs
erv ice
Ġincident ,
Ġrhy th
Ġsympt om
ĠState .
Ġcondition s,
Ġmar ine
Ġwhile ,
id a
Ġpro c
Ġcorrect ly
or âĢĻs
Ġeduc ation.
Ġprogram s.
C L
ĠNev ada
Ġofficial s.
10 ]
ĠD R
Ġmon op
ici ary
eb ook
Ġinstitution al
Ġ( )
ĠA ve
Ġsh ore
Ġreason s,
ĠDou gl
ĠEff ect
Ġre w
t witter
ull iv
ĠH orn
Ġdetail s.
k es
Ġchang ed.
ĊĊ"W hen
Ġon line,
re aking
Ġhigh .
Ġgener ating
Ġking dom
Ġhead line
Ġpart ial
Ġhappen ,
Ġfro zen
Ġcontain er
ĠComm ittee,
ĠC and
ank ed
ĠBrazil ian
ĠN ex
form ed
Ġcr ashed
Ġbelie ving
Ġproblem atic
Ġconf us
ust ral
force ment
ĠEngland ,
Ġ5 ,000
Ġspeed s
-b it
G A
Ġbip art
ĠD est
re ated
Ġestabl ishing
ĠAct .
Ġeth ics
ĠM ust
-d ef
Ġpan els
Ġresponse .
Ġeconom ist
Ġaccept ance
Ġevalu ate
ro ,
tr ans
7 00
ĠIsrael .
Ġph one,
Ġart work
Ġin sect
Ġarrest s
ĠCamp bell
Ġworse ,
Ġtr agic
Ġevery one.
ĠWW E
m all
Ġopt ion.
le ments
il ation
Ġun anim
st er,
or i
ĊĊAs ked
ĠD om
Ġf ires
Ġsw ift
Ġlight .
Ġlength y
ĠSol ar
ING TON
or ph
ĠKore a,
Ġcont amin
EC T
le ft
Ġunnecess ary
Ġhigh way
ĠT ill
Ġide ology
ades h
l arge
ĠWith in
Ġpe op
Ġapp .
Ġfor ces.
Ġquot es
roc ery
Ġstatist ical
Ġconvers ion
Ġrecru iting
ank ing
Ġf iber
ĠR ome
Ġpl aintiff
Ġinfect ed
op ular
ĠN in
Ġm ales
Ġaudience .
Ġrub ber
Ġfirm ly
ig m
ĠMil itary
Ġdeclar ation
Ġbo ards
ĊĊ 8
ĠCong ress.
st all
Ġdeb ate.
Ġchang es,
ous es
ĠAT &T
ĠC her
Ġdepart ments
Ġh ij
n atural
Ġdise ase,
Ġdo or.
Ġflo or.
ĠJ ets
r idge
Ġpopul ation,
ry ption
ĊĊC heck
Ġanticip ated
Ġexp os
h ard
rem lin
Ġthe ory,
N G
Ġdocument ation
Ġplay back
Ġent ity
Ġbench mark
Ġincent ive
am ine
ne ath
Ġse iz
j s
Ġ(s uch
Ġcomplex ity
Ġaffect ing
Ġexp enses
Ġun accept
Ġexpl oration
ĠPok Ã©
Ġsl ave
ĠAlex and
Ġadm its
Ġopp ress
us lim
ĠK och
ĠPl anned
Ġexec ute
Ġ18 6
Ġaccur acy
ĠDown load
iz ations
Ġwood en
Ġschool s.
Ġmyself .
Ġmiss iles
Ġtrust ed
ĊĊN e
Ġco ins
Ġle ather
ol i
ĠCent er.
ĠâĢľ not
Ġauthor ized
-p erson
enc er
ĠIr an,
Ġinf amous
Ġcomp ly
ĠMu ham
Ġlicens ing
Ġequ ity
Ġform ,
ĠE dd
Ġenh anced
iet y,
ĠCo ach
Ġ18 .
Ġmove .
ĊĊA re
Ġchemical s
Ġ(2 )
ĠM ue
ĠBern ard
Ġun le
Ġfeed ing
Ġsens it
Ġsp ill
h ill
Ġtaxpay er
4 8
Ġ200 1,
ĠI ,
Ġsur re
ĠHom eland
it ative
ĠM ember
Ġ199 4
ĠCor ps
Ġcorrespond ing
Ġproduct ivity
ĠAM D
Ġaccount ,
res a
ĠManhatt an
ĠInt erest
ay er
ĠM ort
Ġhad n't
it âĢĻs
ĠYou 're
ĠSomet hing
Ġlight ,
Ġfire arms
ie g
ĠLond on.
ĠChrist ie
is es,
âĢĻ âĢĻ
st on,
Ġhe nce
Ġbest ,
ĠChr on
ĠâĢľ Y
iv ic
Ġvari ables
Ġenthus ias
ĠB aker
ĠN DP
ĊĊI âĢĻve
ruct ive
/ 1
ĊĊâĢľ H
Ġobs erve
W .
Ã £
ĠS ide
ĠIn valid
Ġwork s,
Ġexp ose
ĠG ear
Ġd ivers
Ġbuy ers
Ġswit ched
Ġind igenous
Ġcru el
Ġstraight forward
Ġi T
Ġ$1 ,
Ġmagn etic
ĠT ory
Ġad min
Ġsupp ress
Ġr ate.
im s
Ġforce .
Ġpl ag
Ġthrow s
Ġgener ous
Ġsl ower
ĠNovember .
Ġf u
ĠTamp a
Ġjump ing
r ained
Ġabs ent
Ġcomm ands
r ab
ĠDub lin
Ġl az
ĠâĢľ no
Ġrel atives
Ġm ph
ĠS ad
Ġd y
Ġsevere ly
7 2
ĠG er
- ins
-h alf
ĠJ oy
fe ld
ĠM agn
Ġcre ep
ĠR ah
Ġlove ,
Ġadd ress.
Ġclin ic
ĠTy ler
Ġ17 .
Ġcrowd s
G o
7 6
Ġvot ers.
Ġfl ower
Ġmother s
-1 6
- end
Ġcharacter istic
Ġcomput ing
Ġn aked
Ġtransform ed
ing ly,
Ġelder ly
Ġins ure
Ġlect ure
ĠT ry
oub ted
l ar
Ġl ake
Ġwhere ver
ĊĊA g
ot ton
Ġlarg e,
ĠCh arg
Ġcount ing
Ġ7 00
ĊĊ"W hat
i op
ĠN PR
-w orld
Ġaud it
Ġtem ple
Ġless er
ĠMexic o,
Ġrep rodu
Ġpre st
Ġwor n
Ġlove .
ĠHoll and
Ġt ire
Ġpray er
a :
Ġwh is
ig nt
Ġpurch asing
h u
Ġapproach ing
ĠJ oh
ĠB ears
ĠO h,
is ing.
Ġdiscl ose
Ġbas e.
ĠVictor ia
ĠPol ish
in 's
Ġseed s
l as
Ġ( though
Ġoutdo or
Ġ(e. g.
Ġeru pt
ĠL oad
ĠB Y
Ġaver age,
ĠW R
Ġoccup ation
oc aly
ĠSil icon
Ġf oul
ĠPart ners
ĠF ab
Ġmet ab
ĠMel bourne
Ġus ers,
Ġthem es
Ġdivor ce
Ħ ¢
Ġne ed.
Ġl yr
Ġven ue
ĠConserv atives
N ET
eg ree
ed ed
Ġdeb ate,
ĠHind u
- week
i ors
ww .
ĠHot el
Ġin hib
ĠM ission
ĠBJ P
Ġinteract ive
Ġdev ices,
ĠV eter
Ġmob il
Ġshut down
Ġarch ae
ĠS aints
abl es,
ĠOx ford
ĠPlay ers
b es
Ġ= =
ĠBr un
ible ,
Ġspectac ular
vert ed
Ġpre season
Ġcontro ller
Ġun st
Ġcharacter s,
Ġbl end
Ġt anks
ut ed
Ġbehavior .
Ġcap ability
Ġadequ ate
Ġpar ag
Ġcompet itor
Ġes p
Ġtiss ue
ĠS ay
er ver
Ġd ash
Ġob es
ĠAfrican -American
ĠBre itbart
Ġdis advant
Ġoverh aul
Ġstere oty
Ġmatch ing
sel ess
Ġ4 :
IS T
Ġ200 3,
Ġemp ire
2 :
Ġmat ched
ĠUb untu
/ 4
Ġoccas ion
Ġpenalt ies
Ġint u
Ġaccommod ate
Ġcalend ar
Ġactiv ity.
Ġfree ly
Ġnew est
Ġprec ious
Ġsac rifice
ĠR u
Ġcompar able
Ġreg ards
ac ent
Ġle af
ĠCorpor ation
Ġdr ones
Ġhe 'll
Ġrid ers
Ġreact ions
am ents
O ne
Ġcities ,
Ġlegit im
Ġpo vert
ĠH ockey
uro pe
am ily
ĠS in
Ġoffic er,
Ġsh aped
Ġteam s,
Ġland .
oll ah
Ġclub .
al ia
c ed,
ĠBenn ett
ĠWarri ors
Ġb ass
re ach
Ġgr at
ar b
Ġresult s,
man 's
Ġcompl iance
Ġconclud e
Ġenter prise
ĠClinton .
Ġamm un
/ S
/ M
ĠL C
ĠK le
Ġbro k
ĊĊ 9
Ġobserv ations
ĠH P
ĊĊThe ir
ri ber
amp ;
Ġ ic
-s peed
Ġc her
in son
Ġland ,
ĊĊA ct
Ġproduct .
ĠF igure
ĠWal ter
Ġmotiv ation
Ġh ood
ĠT an
h al
Ġf itness
Ġter m.
Ġclean ing
ard ed
Ġâ ĪĴ
Ġsaf er
Ġ19 20
Ġelection s.
AL L
" >
o ons
Ġdisp ens
Ġrel ating
ist a
) |
M ,
Ġr ated
Ġind irect
Ġoper ations.
ight ,
ĠR ice
Ġprob ability
Ġcar s,
Ġgoal s.
Ġpred omin
ĊĊHere 's
Ġper cept
ĠAmerican s.
ĠBl air
ov ,
Ġgen et
ĠCh amber
Ġlibert arian
et ter
ĠLuc as
Ġshif ting
Ġmid st
ĠM oney
Ġwin ,
st er.
Ġorganiz ation,
ĠM ans
pl us
Ġrenew ed
ĠII ,
Ġautonom ous
lic t
Ġmem orial
vers ion
Ġmisc onduct
Ġhttp s://
Ġdep ut
Ġportfol io
x .
U D
Ġconsol id
Ġdeploy ment
Ġm ature
Ġdo se
Ġplayoff s
ĠE X
Ġtransl ated
Ġed ited
i ating
ĊĊOb ama
ĠM C
Ġter rib
Ġpract ically
Ġplan es
ĠB uilding
Ġca us
Ġlibr aries
Ġboard ,
man uel
Ġr ivals
ĊĊ 9.
od ge
Ġ6 2
b ul
pe ople
ĠInvest ig
Ġ ðŁ
Ġrel ies
Ġdesper ately
Ġword s.
Ġinf ection
Ġmet ric
Ġsucc ess,
Ġsuch ,
Ġfamil ies.
Ġdoub led
ĠT on
Ġfollow -up
oll y
al s,
Ġwh ilst
ont in
ĠL ess
ĠDen mark
Ġeconom ists
Ġug ly
Ġim pe
Ġth umb
[ 3
Ġor g
ĠUnivers al
ĊĊ and
ĠLiber ty
Ġche f
ĠImages )
ad o,
Ġinc umb
Ġleag ue.
ĠB uzz
Ġmem o
ĊĊWhat âĢĻs
ĠBr ady
ort s
Ġnetwork ,
Ġdo ?
ĠBet ween
et e
[ 3]
Ġdo es,
ĊĊO ut
Ġpro st
n ik
Ġdisturb ing
ĠP ast
Ġrespons ibilities
Ġmal ware
Ġpartic les
ĠLib y
ell o
Ġback lash
ĠPolit ical
Ġexcept ional
Ġint ensity
Ġwill .
Ġcours es
ĊĊP aul
Ġenerg y.
Ġinterest .
us k
P s
Ġtown .
Ġexpress ing
ĠFound ation,
Ġment ally
EL ATED
Ġmad e,
Ġliter ary
ĠAn ne
Ġ2000 ,
Ġle verage
W S
ĠToky o
Ġlim iting
Ġmechanism s
ĠEb ola
st an
â Ħ¢
ĠR osen
ĠBr id
ĠIs a
ĠChina 's
ĠAr men
ĠTO DAY
Ġset .
ĠH ud
ĠInd ians
Ġcred ential
resp ons
Ġinv is
Ġ20 .
Ġmid night
Ġclear .
Ġlif ted
Ġd ensity
ĠH BO
Ġf ib
ĠAl f
Ġdetect ed
ĠG PS
o ided
Ġl ib
ĠB ased
m o
Ġreb uild
Ġaltern ate
Ġchild .
Ġcontinu ed.
ĠL iving
ĠR ams
ĊĊC o
Ġ6 8
Ġhelp ,
ĊĊM ar
Ġformer ly
ĊĊD ef
oca ust
Ġ: :
ĠâĢľWe âĢĻre
ĊĊ 20
Ġemer ge
ter ior
Ġmidfield er
anc hes
ĠBang l
Ġincl usion
I O
-d egree
ĠH em
Ġgrowth ,
pe red
Ġex agger
Ġcomplet ion
Ġmole c
ĠR ou
ĠP ere
ĠB B
est one
Ġp ipe
Ġproduction ,
j an
Ġrep ublic
r ation.
Ġign oring
ol ved
I )
Ġreb ound
Ġprogram s,
Ġ( to
ĠMichel le
Ġfundra ising
Ġvir al
ĠLouis iana
-d riven
Ġsc ram
Ġexcite ment
Ġsuspic ion
ĠB. C.
Ġste pping
ĠG it
- v
Ġth irty
Ġcelebr ating
ĠEm ploy
b ,
at ched
ĠAd vis
upp orted
Ġcharg es.
ĠShe l
Ġr ice
Ġpro claim
Ġman ages
ĊĊUs ing
Ġdaughter ,
Ġoutcom es
ell ar
Ġtreat ment.
Ġnight s
ĠJohn ny
us iness
Ġscreen ing
Ġo l
Ġinter section
ĊĊH ist
? )
ĠSt ill
ĊĊW hich
ĊĊâĢľWe âĢĻre
Ġsp ends
twitter .com/
Ġexpert ise
Ġhonest ly
ĠYou âĢĻll
Ġvig il
Ġcolle ague
Ġav oided
Ġ6 3
Ġsub urb
m id
z es
-m inded
1 :
Ġden ying
ĠP as
11 ]
Ġinjur y.
ĠSp ider
Ġthird -party
Ġtw in
Ġdut ies
Ġinvest or
Ġdial og
Ġcolon ial
Ġse am
ĠF at
ĠJ ar
Ġsocial ist
â Ĥ¬
ĠOli ver
Ġn it
ĠA qu
Ġdeb ates
Ġauthent ic
Ġresult .
ĠTh or
ĠLib ya
Ġsound ed
an ium
ĊĊW h
ĠC ond
se mble
ue z
Ġey es,
ĠContin ued
ĠA ld
Ġinv ented
Ġtrib al
Ġadvant ages
ĠLeg end
se ud
ĠShe âĢĻs
Ġemploy er
Ġ5 th
ather ine
Ġfun ,
Ġprison .
ĠP D
Ġrein for
Ġeas y.
k m
Ġfre e,
Ġdefense .
ĠGu ide
ĠMississipp i
oc ate
ast ically
ĠS W
se y,
ĠRich mond
Ġearthqu ake
-sh irt
ĠPet ers
ĠK el
Ġorgan izing
f ortunately
Ġsc ary
Ġsubstant ially
Ġafternoon .
Ġg rocery
Ġl ined
ĊĊâĢľ L
Ġastron aut
ĠMich ig
Ġpret end
ĠAn im
ĠCommun ications
ĊĊS ub
w atch
Ġplatform .
Ġch unk
Ġscrut iny
c aster
ĠChicag o,
Ġsan ct
ri pp
ĊĊS en
Ġsuper vis
U s
Ġve t
ĠFin ance
Ġcapital ,
Ġs lic
Ġsk ull
sc reen
ĊĊG iven
Ġsn aps
Ġpre jud
Ġspe ec
ĠMorm on
ing âĢĿ
ĠA B
Ġfamil ies,
Ġtransl ation
Ġv on
ugg ed
ect ed
h ou
ow ers
ĠT D
umb ling
Ġt ears
ĠCarl os
w orld
Ġst yl
Ġhon our
us hing
Ġreb ell
Ġbug s
S D
Ġw are
ÂĴ s
ĠSoft ware
Ġwid th
ult s
Ġsp are
Ġe ighth
olog ies
Ġgenuine ly
ĠY eah,
Ġedit ors
ASH INGTON
Ġproject s,
Ġbrother ,
bor ough
ĠBerke ley
Ġen cl
Ġpip el
ĠC M
Ġp iv
Ġemp ower
ĠSpe ed
Ġsac red
Ġskill ed
ĊĊB el
Ġparam eters
Ġins ists
Ġsatisf ied
ĊĊTod ay,
Ġqu ad
ocu mented
Ġdirect ors
Ġcelebr ity
Ġhowever .
ĠP ence
Ġbarri ers
ĠCar son
keep er
Ġtruck s
Ġsport ing
Ġpart isan
ĠBrad ley
Ġaccount ing
ip h
Ġf art
Ġunder neath
Ġair line
Ġab oard
ĠA gr
ĊĊE l
Ġlock er
Ġform ing
Ġy e
I nt
ĠJon es,
Ġs ie
Ġdon ation
ĠAg ree
ĠBron cos
ĠLyn ch
Ġcon vey
-third s
ĠV irt
Ġstay s
Ġ(f rom
Ġl uc
id th
-on ly
Ġ1980 s
Ġsimple ,
ĠB E
Ġrec ession
Ġval ue,
Ġcoast al
ĠF er
Ġwere ,
ul ent
tr ack
ĊĊM an
Ġtraged y
-1 1
Ġ1 30
ant h
Ġtr act
Ġin ability
Ġh oly
un ct
ĠF itz
Ġorganiz ation.
Ġnecessary .
Ġcompetition .
ĠUr ban
ĠI v
Ġhack ers
ing ing
ĊĊâĢľ T
Ġst ab
Ġweapon s,
air y
Ġredu ces
ĠElect ric
let ter
T )
ĠTh ail
Ġemail .
Ġw ip
Ġnomin ated
ĊĊOn ly
ĠG ra
-h anded
Ġmilit ant
Ġp ile
us c
ĊĊM e
idd ing
or ical
Ġlimit ations
Ġwr ap
ĠR at
ĠCount ry
âĶ Ģ
Ġce iling
Ġac res
Ġ" un
Ġtr ace
ĠGu y
Ġcor rid
Ġmove ,
irm ingham
-s chool
ĠPr int
9. 99
Ġ< /
Ġve to
ĠHigh way
ro ots
ĠP L
ĠP i
ĠAr n
Ġunc ons
ĠPri ze
Ġhusband ,
Ġconfident ial
ĠIraq .
Ġregul ate
Ġw ww.
Ġsubsid ies
Ġdefin ing
Ġinter vent
ĠE van
Ġaud iences
ĠAren a
R O
Ġsubscript ion
ah l
ĠHur ricane
Ġovert urn
ĠW onder
qu al
Ġal tered
olog ically
Ġansw er.
Ġcompat ible
Ġlast ing
Ġheart s
' s,
ĠC BC
ĠâĢľM y
ĊĊC urrent
i oc
Ġbound aries
ĠG and
Ġincom ing
Ġmount ed
Ġall -time
Ġdesign ers
Ġregul ators
ĠHall ow
ian .
u cc
Ġsto pp
ĠCent ury
ĠJ S
Ġnegoti ating
Ġdisc on
Ġsubm ar
ĠMagaz ine
Ġ" to
Ġhappen ed,
ĠMar ia
ĠK .
Ġphilos opher
ĠR AM
Ġstaff .
ĠJoin ed
Ġlevel s,
Ġv owed
Ġ( ex
Ġsovere ignt
Ġearli er.
Ġsays :
ac ity
Ġpropert y.
-w ide
ĠPh one
act ic
Ġstart ,
ĠOlymp ics
ĠSt ars
ĠGall ery
Ġm ans
ĠPhilipp ines
in f
Ġaccident ally
Ġc ats
ĠSt re
ĠWikiLe aks
ĠB att
-cont rolled
5 5
d em
Ġout lined
Ġtransform ation
Ġd uration
Ġun limited
Ġmeet ing.
Ġad vers
ĠF ly
Ġaff iliate
ĠAll-St ar
Ġshot .
Ġw ishes
Ġext ends
b led
Ġmovie .
Ġmain tains
Ġsty les
Ġin ch
ĠCz ech
Ġ199 2
Ġgo al,
Ġbipart isan
ĠSh adow
Ġprot ester
ur ring
Ġs ons
m outh
Ġwarning s
ĠAl aska
Ġrest ored
em pl
ĠD E
Ġrel ent
Ġg one.
y pe
Ġbond s
Ġattitud es
ĠSh ield
Ġstrict ly
Ġedit ing
Ġbad ,
ĊĊ1 0.
ĠMad ison
ush room
Ġp uck
Ġdefend ers
ĠReg ional
d ,
od ay
Ġgr ay
Ġo x
ĠS oul
Ġsepar ation
Ġ6 9
Ġadv ances
Ġdig it
ĠGod .
âĢĿ )
Ġfinanc ing
od es
Ġw and
ĠBuff alo
ĠM atter
Ġspeech .
ĠâĢľ an
Ġliber als
ĠG ay
ĠCh rome
Ġwind s
ĠEarth .
Ġd ense
Ġthat ."
ĊĊD r.
Ġdrink s
an a.
ĠP un
an e.
Ġ( 9
Ġfundament ally
Ġbl own
Ġskept ical
Ġstore .
Ġinappropri ate
Ġlabel ed
Ġfall .
Ġvill ain
Ġ( 8
ĊĊTod ay
Ġind ef
Ġ6 1
Ġaff irm
Ġn ode
Ġre iter
ĠBet ter
Ġcr icket
Ġattend ance
ĠJ a
Ñ ı
s. )
ĠM itch
Ġvis a
ĠMur phy
Ġthorough ly
ĠQ B
Ġc u
ĠTransport ation
ĠâĢľ sh
ĠAssoci ation,
Ġtruth .
Ġha ul
Ġcon cess
ĠM A
ĠC art
ĠBe yond
P ost
Ġmort ality
Ġtrain ing,
ĠW inn
we alth
ĠEv ans
Ġl anes
Ġswe at
Ġfinanc ially
Ġent ities
Ġair pl
Ġquestion :
Ġshoot er
ĠGl ass
ĠJenn ifer
o :
ĠG erm
Ġrev ised
port ion
b ase
ĠAff ordable
Ġbit .
AC K
Ġ3. 0
ĠI l
Ġst ark
Ġcomple ting
Ġhigh ,
Ġste am
Ġreason ably
Ġl ighter
Ġne at
ĠR ush
ĠF inn
ĠR achel
im ,
Ġinhab it
ĠE S
Ġf isher
Ġlack ing
ĠS el
Ġh orn
Ġn ort
l ing.
ĊĊD own
us er
b .
ap or
ĠD ennis
Ġcigare tt
ĠDr ag
Ġexist .
ĠBe ast
ĠN umber
Ġbillion ,
ab e
B ook
Ġclass ical
Ġfor ces,
Ġp .
Ġ200 6.
Ġnewspap ers
Ġneighborhood s
Ġcommunities .
Ġanti-S emit
Ġen roll
ĠClinton 's
Ġorgan ize
acc ur
Ġcompet itors
ie val
ĠDak ota
Ġren ov
Ġclimb ing
ĠK remlin
Ġsubject ed
ĊĊG e
Ġclos ure
am a,
Ġprivate ly
O G
Ġ18 th
Ġpart .
âĢ¦ âĢ¦
ĠTer ror
Ġacc using
Ġanalys is,
ĠV P
Ġsell s
Ġperm its
Ġdifficult ies
Ġwrest ling
ou st
ĠSt op
as es.
Ġblood y
Ġconscious ness
Ġbar rier
f unction
Ġapproach .
Ġhome own
R ep
Ġdef ic
Ġnot orious
Ġreleas ed.
Ġd ated
ĠC abin
Ġair ,
Ġsh ipped
Ġso on,
ĊĊâĢľ B
Ġfacilit ate
Ġ0. 00
if ting
bor ne
ĠJanuary .
ĠRe form
-d ep
ĠT ol
tern ative
Ġpr ices.
Ġ( on
ĠE rd
ĠS ent
Ġadm ission
ĠStreet .
Ġf ond
Ġbr ains
Ġen abling
Ġcolleg es
Ġbr ick
Ġprop ri
Ġcount ies
ĠTr uth
Ġsupport ive
Ġspecial ist
p in
ĠBl ues
Ġinevit ably
h uman
Ġred ist
ĊĊM ark
ay ed
Ġresour ces.
Ġlin es.
Ġare :
ĠHar vey
Ġviol ating
ĠAngel es,
Ġdi ed.
Ġtour ists
Ġsecond s.
Ġdecre ased
ĠBoe h
lud e
Ġsource .
Ġsens or
ĠV ent
ĠAle pp
Ġesc aped
Ġcont end
ĊĊAdvertisement :
Ġiniti atives
Ġliber ty
ĠP ad
Ġvot ers,
Ġcrim e,
Ġpolic ies.
Ġund oubted
Ġoblig ation
ĠSh i
Ġbe aring
Ġadjust ed
ĠH at
ĠCl ose
Ġterm s,
-M an
Ġover see
Ġbureauc rat
ĠK ill
Ġdiscipl ine
Ġmeant ime,
Ġresour ces,
ri es.
Ġo ce
ĠSe ven
Ġche es
Ġfilm ing
Ġmagn itude
ÂŃ t
Ġpan ic
Ġ14 0
Ġ1 )
Ġbr ack
Ġal umin
Ġ199 3
Ġcatch ing
Ġfire ,
Ġv ag
ĠJ ong
ou g
Ġforce ,
H C
ĠB aghd
ster oid
Ġrel ate
ĊĊU .S.
Ġl oot
Ġdr ain
Ġeven ing,
Ġl iability
Ġbook s.
ay be
Ġswim ming
ĊĊâĢľ F
ĊĊTh rough
Ġtest .
7 9
Ġswe eping
ĊĊBut ,
ĠAustral ia.
Ġthem .âĢĿ
Ġreview ing
Ġvari ation
Ġsequ el
an ia
Ġst raw
ĠSun ni
ĠSn ap
oth y
Ġpredec ess
Ġsucceed ed
ĠMc D
Ġhe ter
ĠâĢľ ex
Ġconsum ed
ĊĊH ave
ĠTwitter :
Ġexhib ition
ĠAnt i-
ĠâĢľH ow
il .
ĠGerman y.
ism s
ĠD olph
Ġident ification
ĠS earch
en 's
c ill
ock s
Ġeduc ated
ĠYan ke
Ġrent al
Ġcost s,
Ġtrave lling
Ġdifference .
Ġdifferent ,
Ġachieve ment
ĠCub an
Ġrecre ational
ĠD awn
Ġcl ust
Ġmess age.
ic les
ĠS F
Ġconsider ably
ĠG B
Ġreluct ant
ier ra
Ġmed al
Ġa ston
aff e
ple x
N S
Ġare na
Ġsur pass
port ant
Ġdep osit
ĠL ater
arm a
ĊĊ c
-l ooking
Ġtown ,
Ġseason s.
ĠM ul
Ġchildren âĢĻs
Ġins ane
ĠT ib
ĠTheat re
Ġins ide.
Ġcur s
Ġbig ,
ĠTit le
Ġ( that
ĠAcc ount
Ġpred iction
Ġr isen
ĠD iamond
Ġaccount able
Ġconfront ed
ĠRet urn
Ġag g
Ġnot es,
Ġinf er
d on
ĠCanad aâĢĻs
ĊĊ â
Ġarr anged
Ġgrow s
Ġbreak through
Ġext ending
Ġban ning
- eff
Ġlist ing
Ġmist aken
Ġcont rary
et ween
Ġteen ager
Ġsp ite
ĠH alf
Ġcreat ors
Ġcapital ist
Ġ( but
12 ]
Ġantib iot
ick en
raw l
IT Y
Ġthought .
Ġsent ences
Ġlack s
ĠT C
Ġviol ate
Ġo d
Ġtransl ate
Ġtact ical
ĠJ e
old s
son .
r ation,
ĠSeptember .
Ġret rie
Ġhour .
ĠB ishop
Ġfil med
Ġshif ts
omet own
ĠC ant
Ġmatch .
ac ies
ke y.
Ġmar ry
Ġseen .
ch air
est ing
Ġsh ark
N e
Ġmanag er,
ĠPict ure
ĠM ack
Ġtermin al
Ġkill s
Ġinsp ire
ĠC li
Ġag ing
Ġp izza
ĠCharl ott
ĠM IT
ĠC ab
iss a
w ords
ĠSoc cer
Ġh ind
Ġpap er.
ĠF ast
ĠF err
Ġt ribute
IC E
Ġachie ving
Ġutter ly
Ġever ,
Ġc ache
ĠO wn
ĠV A
Ġlov ing
in itely
ugg ing
ĠJun e.
n ut
Ġthink .
Ġstuff ,
ok er
Ġlay out
Ġcl uster
omm y
ĠDougl as
Ġappeal ing
Ġapp ,
A l
ĠV iol
Ġch ampions
Ġtest ified
Ġe leg
Ġag re
Ġconference ,
Ġart istic
al ph
Ġelsewhere .
N T
ort ex
Ġincent ives
ĠâĢľ St
ĠD aw
os c
Ġpro ving
Ġle ver
Ġmob ility
Ġembr aced
Ġread ily
ar cer
Ġpat ience
Ġaction s.
Ġbott les
Ġvac u
ĊĊM ichael
ĊĊ" C
Ġinclude :
ic ers
Ġdemonstr ates
Ġret ro
ĠCol on
Ġb inary
ĠWar .
ĠL ost
ĠRead ing
Ġcomm itting
Ġdetermin ing
Ġrif le
Ġmarri age.
ĊĊ" H
ĠSeah awks
Ġan ime
Ġunf ortunately
Ġend e
Ġd ive
Ġsh y
Ġmechan ics
aug hed
Ġsolution .
Ġuncon stitution
ĠBrown ,
ĠBob by
Ġadd iction
Ġexhib it
ĠMinnes ot
pe lled
-m illion
Ġdon ate
IV E
ĠS ure,
ĠG ate
Ġprem ier
Ġinc on
Ġnewslet ters
ĠR oth
Ġmit ig
Ġfresh man
Ġwoman .
ĠWikip edia
yn c
Ġl as
Ġb atch
Ġstock s
Ġshow s,
7 3
Ġref usal
Ġautom ated
Ġ16 0
ĠML B
Ġr am
-c l
Ġhard .
âĢ¦ .
Ġa qu
Ġcomm itt
es ign
Ġrot ation
ĠCarol ina,
Ġse al
Ġgu y.
ag ging
Ġpro -
Ġp add
Ġastron om
ĠPr im
Ġle ap
Ġdes cend
Ġ200 2,
ro lling
ĊĊI 'm
ĠL L
ĠS ource
ĠFire fox
Ġtherefore ,
ĠL isa
Ġad verse
ĠN A
ĠTo o
Ġlabor atory
Ġlin ear
l ie
Ġpregn ancy
aw k
in s.
Ġcyc ling
we ll,
Ñ ĭ
Ġrel ied
Ġd rown
Ġ20 ,000
w ed
ĠK ath
-p owered
Ġdefin itive
Ġp istol
Ġtradem ark
il es,
ĠSt ra
Ġc ents
Ġp etro
ĠC ape
op ing
ĊĊT ake
Ġst arring
ich ,
Ġre lying
ĠLiber als
ĠJu an
4 6
Ġbelong s
Ġsour ces,
Ġ1970 s
Ġsn ap
ĠG as
Ġstor ies,
Ġp up
Ġsteal ing
ch arge
an s.
Ġm ant
a fter
Ġexchang es
Ġp ond
Ġlay ing
Ġd angers
Ġpil ots
Ġl aughed
Ġwild life
Ġdrug s,
G ,
Ġtri umph
ham ,
ĊĊArt icle
Ġsoon er
ĠAfghanist an,
Ġcho ice,
Ġr ab
ĊĊF l
Ġl y
ew s
Ġreserv es
-2 00
Ġbes ides
pp y
Ġprotect ive
Ġpres cription
a qu
ĠVik ings
Ġdeter ior
Ġentreprene urs
Ġd iver
-1 7
ange red
Ġtour ist
ĠÂ£ 1
ĠQu inn
est abl
F S
Ġsurviv ors
Ġgam ers
Ġcoll ision
out ed
as ant
ĠNob ody
ĠDou ble
ĊĊThere 's
Ġconsum e
art ing
ĠB irmingham
ĠBill y
war f
ĠBre ak
Ġv ib
in ces
ĠI BM
Ġprohib ited
Ġcontem pl
ĠUn ion,
uff icient
Ġcommission er
ul u
Ġbenefit s.
Ġsolid arity
ĠTra vel
ish .
ro b
Ġreal m
Ġple a
ĠD ay,
as es,
ĠSp ot
IF A
Ġconsequ ence
Ġca ut
ĠB order
/ 10
ĠH ait
ĠAn imal
r ide
Ġirre lev
ĠSac rament
burg ,
ĊĊNew s
qu ality
Ġal beit
Ġweapon s.
Ġdec lining
ĠV ide
Ġ11 0
Ġgoal s,
Ġonce ,
Ġuns uccess
Ġdefense ,
Ġsear ched
ĠN ag
Ġd read
âĢĶ that
ĠZ ion
ĠC oin
Ġ" st
ir able
Ġaccur ately
7 8
Ġswitch ing
Ġex ports
ĠPark .
ĠJam ie
Ġl oses
ĠN EW
Ġstat ue
ĠOper ation
ĠV atic
erv ation
Ġcred ited
ĊĊC opyright
Ġstick ing
Ġment ions
Ġadministration âĢĻs
Ġrock s
Ġres ume
ĊĊRef erences
Ġplan s.
ĠGroup ,
ĠE ither
Ġmal icious
-h igh
Ġe .
Ġto k
Ġretail ers
ĊĊH aving
Ġsomet ime
L ,
eter min
Ġj okes
ĠM all
Ġhospital .
ĠAl ong
augh ters
Ġfrom ,
âĸĪ âĸĪ
ĠWh atever
Ġelabor ate
Ġagricult ure
ol ine
Ġ$ 40
ĠNe ither
ĠOr thodox
ĠBase ball
Ġtroub led
Ġb ones
Ġs izes
Ġte ens
Ġhard ,
Ġwh y,
ra vel
Ġm aker
Ġp ub
om e.
Ġ$2 00
ĠInd ex
Ġdiam ond
S E
ĠQu est
Ġneighbour hood
Ġaim ing
Ġun he
-up s
ĠNob el
Ġkill ed.
Ġman eu
Ġrun ner
ĊĊ" But
Ġemb assy
Ġ18 5
p ,
Ġgrand father
ĊĊA ss
ĠE le
Ġconclus ions
t le
ĠGold man
ĠC op
Ġfurther .
Ġ" n
Ġtable ,
ĊĊâĢľA s
Ġcharacter s.
Ġter rain
mark et
ĠTV ,
v iol
Ġhe m
ĠMay .
ĊĊAlso ,
ĠT ar
we g
Ġmarri age,
? âĢĻ
Ġevidence ,
Ġhappen s,
ĠW a
Ġf ancy
Ġfac ial
enc es,
ĠL uther
Ġf oster
- gr
Ġwh ite,
uss ion
Ġunc overed
Ġpass port
Ġstrik er
Ġart ,
ĠDef ence
ĠMuham mad
ĠSam uel
Ġart ifact
ĠAgr icult
Ġ19 40
ics :
d iction
Ġlow- income
Ġfall ,
Ġenter pr
Ġdecl aring
Ġcontract .
ĠB ed
ĠP il
Ġrad i
Ġ1 /2
Ġa uster
he astern
Ġc argo
Ġan k
ĠAss istant
ĠPark er
Ġsour ces.
Ġevent ual
Ġtwo -thirds
am an
u h
Ġfight ,
Ġro d
ĠVer izon
ĠM D
ade qu
ane ous
Ġen v
ĊĊ" D
Ġinter im
ĠCowboy s
Ġcar b
Ã£ o
n esty
Ġsiz e.
- j
Ġtempl ate
ĊĊRelated :
ily ,
âĢĶâĢĶâĢĶâĢĶ âĢĶâĢĶâĢĶâĢĶ
ĠArk ansas
Ġg au
es p
ĠD ra
ĠÂ ±
Ġpresent ,
Ġins pection
Ġag rees
Ġsafet y.
Ġfict ional
Ġconsult ant
X X
Ġagenc y.
Ġfam ously
ĠL ang
row th
Ġsw ept
ĠJul ian
Ġcl ause
ro v
Ġactivities .
ative ,
te ch
Ġchar ter
ĠEd mont
Ġam ateur
Ġprior ities
[ 4]
ĠA x
Ġw ings
Ġyoung ,
Ġmet res
Ġscrut in
Ġcl ash
ĠCh apter
Ġw it
Ġundoubted ly
Ġconven ience
ĊĊD is
ĠCh and
Ġgener ic
Ġmount ains
Ġdetermin ation
Ġemot ion
Ġsp oil
ĠAfric a.
Ġre ct
ĠAm y
Ġvary ing
_ t
Ġkid s,
Ġwhat ?
Ġcharacter ized
ĠIm perial
Ð ²
ĠChron icle
Ġcount ed
ĠUK .
Ġ7 4
Ġgrand mother
Ġw ard
ĠMS NBC
Ġmis under
ol o
Ġbutt ons
ĠS ach
on s,
ic he
ĠTe xt
ĠB R
Ġp ause
Ġeconom ies
Ġlin es,
ĠM aine
iv al,
ri el
ĠC ox
Ġnar c
Ġadap ted
Ġ7 8
Ġhard est
ĠP in
Ġtun ed
ĠW oman
ĠEx change
ĊĊ @
Ġcrop s
Ġonce .
ĠâĢľThat âĢĻs
work s
ĠR PG
ott om
Ù Ħ
Ġman âĢĻs
Ġtwo -year
Ġcomment s.
mer ,
Ġtr ump
Ġl end
Ġmarket s.
Ġbudget .
Ġopt ed
p iece
Ġcontact s
ĠBarcel ona
ĠJ ob
Ġkick ing
Ġpurch ases
Ġideas .
Ġwh y.
Ġpremie re
Ġgroup âĢĻs
ish ment
Ġlineback er
bs ite
Ġ" re
Ġcost ly
Ġportray ed
Ġback ward
Ð ¼
-1 8
Ġrep ly
Ġcent er,
Ġc yn
IT H
Ġdisappoint ing
Ġconference .
Ġper ce
Ġtw elve
m aster
Ġeffort .
Ġhand s,
Ġpark s
Ġsoc ially
Ġin mates
âĢĺ s
Ġsk ip
ĠRog ers
Ġlove ly
Ġor al
Ġspec ify
Ġnavig ate
ĠJ oint
Ġwant ,
Ġdis k
ĠCle an
Ġagenc y,
Ġyou !
Ġfe et.
ocu ment
C )
Ġ19 .
Ġnext .
ĠSer ver
s l
ĊĊT HE
Ġs illy
Ġinf lamm
O K
ĠCat al
Ġamb ul
R ,
Ġthey 'd
ĠI .
ĠAl most
ĠâĢľ is
ĠSur v
Ġ7 7
Ġ11 th
Ġy eah,
g er,
Ġchur ches
ĠS elf
ĠLiber t
ĠMarch .
Ġst ation.
Ġelimin ated
-m ile
-p ound
Ġvac ation
-s pecific
Ġdev ice,
ĠG reens
Ġprot agon
m ap
j i
ĠPl us,
ell a
Ġca f
Ġoffic ers,
Ġscreen ,
ĠO t
ĠP DF
ĠIndia âĢĻs
Ġside walk
Ġp seud
Ġread .
Ġmeas uring
Ġorganis ations
ow .
o a
Ġobserv ation
ĠH erald
Ġgif ts
Ġ( g
Ġrec ess
Ġpe pper
ig ma
Ġcl iff
Ġvers ion.
ĠL. A.
Ġrecord s.
Ġrelig ion,
Ġhistor ian
ĠC hen
Ġbes ide
Ġevolution ary
ĠSw ift
ĠZ immer
form ing
Ġsty le.
Ġtr ap
Ġpos es
Ġn ail
ĠTrib une
Ġsatisf y
Ġobser vers
Ġur gent
Ġ201 8,
Ġo ven
i ers,
u v
ĠR ud
Ġscience .
Ġchem istry
qu er
Ġ(e. g.,
ĊĊRep ublic
ul ous
ĠT ool
amp; amp;
ĠB L
ĠD at
Ġinc arcer
ĠR af
A fter
ol k
Ġevol ve
Ġab used
ĠâĢĺ The
Ġse min
ĠMart ine
ĠG ive
Ġ `
st ring
Ġmake up
Ġwithdraw al
Ġgr ace
Ġfollow s:
Ġsum mon
Ġprov es
Ġbas e,
Â ®
per t
ĠO pt
iv ity,
Ġremind s
Ġscream ing
Ġgradu ated
ĠPri or
ĠT rav
Ġ1990 s
at er,
ĠColumb us
ign ific
Ġ[ s
Ġn ost
ĠD ian
Ġinstru ments
arent s
l ed.
Ġadapt ation
Ġcard .
lement ary
Ġmart ial
Ġwe 'd
Ġdispro portion
ĠV i
ĠSe lect
ĠJap an.
Ġyoung est
bel iev
ĠOccup y
l us
ĠMet hod
ĠMilwau kee
Ġse w
ĠSp urs
Ġtel esc
k ill
ĠM umb
Ġtri al.
ĊĊ"We 're
p y
Ġa pt
ult ure
13 ]
es is
Ġreturn .
Ġextrem ist
Ġplan ets
Ġdomin ate
ĠCh ip
rep resent
Ġhor rific
Ġenc ryption
Ġg rey
ĠD ue
Ġqu ery
ro se
ĠM aj
Ġpict ured
re r
âĢ Ĳ
Ġint act
Ġtit le.
Ġsumm ar
l ord
cl usion
Ġcul min
ĊĊU PD
Ġscenari os
ĠSh aw
ian g
Ġide as,
r one
Ġjust ice.
Ġevangel ical
Ġbe ers
ĠAr c
Ġroad ,
Ġint imate
l ink
ĠN ancy
Ġnature ,
I :
Ġo st
p x
ĠG ates
ĠB elt
Ġtre asure
Ġ40 %
Ġperman ently
b ull
off icial
re ate
ĠH ack
ĠPet erson
ib be
ap an
ĊĊV ideo
Ġ" J
Ġf t
Ġvictory .
ĠMin or
Ġlaws uits
Ġcompass ion
Ã Ĺ
Ġnot e,
ĠAth let
meric ans
ĊĊâĢ ¦
read y
Ġa ide
ĠPal m
Ġlab els
work ing
C O
Ġp sy
Ġsne ak
ubs cribe
ĠCl ay
Ġbelow :
Ġout look
ĠChristian ity
Ġthem ?
d iv
Ġover ly
ĠC SS
Ġten ure
Ġpharm aceutical
ed In
Ġcur ric
Ġelection s,
Ġun ity
ĠHol ocaust
Ġwhat so
ĠBrother hood
Ġmis er
Ġahead .
Ġm im
ĠL em
Ġgarb age
Ġdes c
ra .
and al
er ting
Ġfo ll
Ġtoug her
ect or
Ġloc als
ĠSpir it
ĠNex us
Ġfant as
ĠCharl otte
Ġ( 0
ĠS ulliv
l en
ĠAL L
Ġ"W hen
ell y
ĠFl ight
Ġtax i
Ġcost .
ĠD ise
Ġflag s
iv ity.
Ġn erve
Ġelev ated
Ġble w
ĠCincinn ati
Ġplan et.
Ġcomm em
ĠC urt
Ġ2 )
Ġdef ines
Ġvulner ability
gg le
B ER
Ã© s
Ġseason s,
ĊĊO rig
ĠStud ios
Ġbr ush
ĠâĢĺ s
Ġlarge -scale
Ġgen oc
Ġsimple .
Ġnons ense
Ġapp et
z o
Ġdifficult .
ĠMem bers
ĠUS S
ĠPokÃ© mon
ĠN E
ĊĊT rans
ĠN HS
Ġtop .
Ġun iqu
ĠK or
Ġarrange ment
ĠK ash
Ġun aware
Ġdisc ourse
Ġc m
ĠSe att
ĊĊDon âĢĻt
ag ged
Ġgrav ity
Ġprom in
Ġschol ar
ĠSim p
ines s,
Ġtri al,
ir ,
d ing
Ġbo oth
Ġtreat y
Ġelimin ating
Ġtruth ,
Ġca res
Ġb ite
ĠHarr ison
he nd
Ġnew er
u ced
Ġtoile t
Ġhere 's
au x
Ġon es,
Ġintention ally
ĠAngel a
ĠSh ah
Ġun ited
Ġdrug s.
ĠK az
Ġwh ites
Ġhapp iness
Ġbr anches
ĠS pect
D )
Ġmen âĢĻs
Ġstrong ,
Ġc um
ĠCouncil ,
Ġopen ,
Ġmanufact ured
Ġbeh ave
Ġhas ,
ĊĊU p
ĠRes ources
Ġparag raph
Ġsubur ban
Ġbe ast
Ġhand gun
Ġto oth
ose vel
or ig
Ġmatch up
Ġpropert y,
ut ting
ĠOb ject
ĠK ate
Ġsurf ace.
Ġh ike
Ġrender ing
ĠObam a.
-c are
ĊĊF e
Ġclub ,
or ia
is ers
-1 4
rac ept
there um
Ġattack er
he el
ĠI b
abl es.
elt a
Ġnow ?
Ġkn e
ust ain
ĠFO X
s ).
Ġorient ation
ĠW ire
Ġevery one,
Ġor b
Ġeffect s.
ĠW ii
Ġhum ili
ĠW i-
Ġexpect ation
Ġdiox ide
Ġhum or
Ġpresent ing
Ġthr ust
. '
Ġkid s.
ĠSal v
Ġf ence
ĠJu ly.
Ġspec ified
Ġne o
Ġbatter ies
Ġint ends
Ġsu ited
w ick
Ġisland s
ĊĊS uch
B ri
ĠOr d
Ġ( he
Ġc av
Ġoil ,
ache s,
Ġhyd rogen
Ġcomp act
A t
Ġprocess or
ĠÐ ¿
ĠOctober .
ĠRel ations
Ġch ase
Ġm ast
Ġr ack
ĠN ep
ĠHer o
Ġwell -be
ĠF ish
Ġinstead ,
ĠY ears
- go
Ġo un
Ġorganiz ers
ĠNeb r
Ġfel ony
st ep
ĊĊE arly
Ġbre ed
ap hor
Ġone 's
ĊĊ t
amp ed
ĠH TC
ne x
Ġexam ination
Ġac ute
Ġintern ation
Ġopt ional
ĠF ile
Ġvalu es.
Ġ30 %
Ġvers ion,
c itation
Ġjo ins
Ġsaying :
Ġdism ant
d rop
ĠSt ring
Ġflag ship
Ġaltern atives
ĠZ ero
ĠT her
Ð ´
Ġevidence .
Ġpers istent
Ġbord er.
Ġwrit ing,
Ġneighb oring
Ġd un
r c
um a
Ġdoub ts
ĠCalg ary
ĠDemocrat s,
Ġfavor able
ĠâĢľN o
Ġdistingu ish
ĠS ave
Ġanaly ze
c ard
ĠY et,
Ġprec ision
Ġtest ,
Ġseg reg
. âĢĻ
Ġher itage
ĠPart y.
Ġsear ches
econom ic
Ġsaf e.
ah n
om atic
ĊĊW hether
Ġswe ep
ĠWhe el
- U
Ġgame 's
Ġlist ened
ĠN athan
Ġindepend ently
Ġhe ated
ĠLat ino
Ġpl aus
on er
Ġstrateg y.
A ll
Ġdis ast
bo ards
cul us
ĠP ink
Ġrest rain
Ġenthusias m
Ġout fit
Ġsu its
ven ue
Ġunder go
Ġinj ust
ĠD rew
g al
Ġsk i
Ġit âĢĻll
Ġst iff
-in -law
Ġgal ax
Ġ' '
ĠDep art
ĊĊF our
ĠEarth ,
ist ed
Ġinvestig ative
y :
em ail
i :
ĠMer ced
ĠMarc us
ĠWest ,
Ġnot ed,
Ġshort age
Ġl ap
Ġcanc er.
l av
Ġcall .
F .
Ġtrain ing.
ĠRec ords
Ġas c
I E
Ġc it
ĠS O
ank a
Ġt ier
Ġconsult ing
ĠFergus on
Ġblack s
Ġdesign ing
Ġlot ,
Ġworld s
Ġcities .
Ġthink ing,
- play
ĠÐ ²
Ġfar ming
ĠSh in
Ġinterest ing.
Ġball .
n ames
ĠPresident ial
Ġresol ved
iss ance
ĠMin ne
Ġb out
ul k
ĠS em
ĠNether lands
ĠIn side
Ġapplic ations.
Ġnav al
y ang
ĠBry an
ĠâĢľS o
Ġval ued
per or
qu is
Ġpron ounced
Ġsp at
ĠBull s
ĠP T
ĠWork ing
Ġprocess ed
ĠAut o
Ġ7 9
ĠPhotograph :
Ġres ur
Ġprinc ipl
Ġover head
Ġencour ages
Ġlink ing
Ġlegisl ators
Ġj unk
ĠC riminal
Ġnature .
ĠS au
us hed
Ġh ometown
Ġconvinc ing
Ġcrack down
ĠVirgin ia,
Ġpredict ions
Å ¡
ock ,
Ġfunction .
Ġre ception
Ġwho ever
-s ide
Ġfootball .
Ġm old
Ġ2 2.
Ġgu y,
Ġsec rets
Ġdu pl
ĠTexas .
ĠMo z
ĊĊInd eed,
Ġtheoret ical
ĠVis it
ĠM is
ĠBre nd
ĊĊB est
at hetic
Ġdr illing
Ġsal v
add er
ĠM B
ĠAlbert a
ĠR aw
ĠCom ics
ere k
Ġor chest
Ġ199 1
Ġrat es.
Ġcirc les
ĠA round
Ġrep osit
ĠAtt ack
Ġoff s
ĠB ald
Ġoccurred .
Ġus ed,
Ġob v
Ġcomb in
ĠT ask
Ġinvol ved,
ck ,
Ġset ,
iter rane
ĠBro s.
Ġj aw
Ġask ed,
ĠRaid ers
ĠM es
Ġsh ad
Ġconcent rated
Ġdiff er
Ġoccas ions
Ġgl imp
ĠQ aeda
Ġ2 1.
ĊĊA :
ĠRepublican s,
Ġban ner
Ġin accur
Ġcust od
atern al
Ġf itting
ĠRe ed
Ġgame âĢĻs
Ġs ab
terror ism
ob i
ĠGM T
Ġab us
ĠRe qu
Ġsynt hes
Ġn ation,
alk ing
Ġtra its
Ġlyr ics
ĠWhat 's
ĠCh rom
Ġcomple ment
cc a
Ġrend ered
ĠBrew ing
ĠC OM
G .
co ins
Ġvill ages
ĠFour th
Ġkern el
Ġ8 2
Ġanaly zed
Ġsusp end
Ġinterest s.
Ġ( In
ore n
Ġrecon c
Ġp ale
Ġhas h
Ġ( it
- en
ĠLaur a
ĠP ath
Ġref res
Ġpart ies,
ĊĊC or
ct ors
ĠEp isode
Ġprevent s
Ġproduct ,
Ġro le,
Ġcomment ed
val ue
Ġsurre nder
Ġpun ished
Ñ Į
ic an
Ġsince .
ĠS ierra
d ed
Ġp ad
Ġcont ing
. org
col m
ĠBrit ain,
Ġquick ly,
Ġvari ations
ĠP oly
y p
ĊĊ w
ĠBelg ium
Ġcar s.
ĠWe iss
Ġrap ed
Ġmac ro
op es
Ġassemb led
Ġspot .
ĊĊD id
Ġident ity.
at oes
Ġyourself ,
Ġover th
Ġ Ï
ul in
ĠCol lect
Ġassass in
Ġim age.
Ġtim eline
Ġles bian
Ġtext s
Ġwas h
ment ioned
bre aking
Ġinjur y,
Ġtext ure
Ġstead ily
iv a
Ġdo ing,
Ġcontin ent
Ġdetect ion
Ġapproach ,
Ġhaz ard
Ġoccur ring
ri age
ĠCard inals
iz ards
ĠCommer ce
cast le
atch ing
ĠCom cast
Ġun int
ĠPet e
ĊĊA M
F ,
ĠRe act
.5 %
uten ant
v oc
Ġa irst
Ġhom es.
ĠCitiz ens
Ġ200 5.
Ġfl esh
Ġir rit
Ġstore ,
her ,
Ġcorpor ation
Ġjuris diction
ĊĊ" T
ĠBrussel s
b in
Ġsw all
ĠAnt ar
com p
ĠL l
Ġvol um
ĠJes se
Ġdirect ory
Ġ ),
Ġj ok
Ġsens ors
Ġ1 %
Ġfe as
alth ough
Ġdelic ious
ĠâĢľA s
Ġmole cul
Ġcitizen s.
Ġthat :
Ġne ural
Ġsmart ph
Ġun l
ĊĊInstead ,
Ġhed ge
ĠTit an
Ġcor p
Ġb inding
Ġvar iet
Ġsovere ign
Ġmass acre
Ġenviron ments
Ġdiscon nect
X ,
ã ģ
Ġdis gr
Ġpolic ies,
Ġmemor able
Ġdead ,
Ġz ones
Ġthat ,âĢĿ
Ġtra it
ĠRo osevel
Ġind ie
Ġtax es,
ĠGoogle âĢĻs
ĠC ++
ov ic
ĠF ernand
c at
Ġchalleng e.
ch i
ĠN eg
ĠZ ach
Ġnon ethe
uls ion
Ġdisc ret
Ġdam ages
Ġattent ion,
om es
Ġhas ht
ĠCol in
Ġarm or
ĠHer itage
et s.
Ġcent er.
Ġsupp lied
ĠNever theless,
ĠBe er
ll i
ĠJ ared
ĊĊâĢľ But
( s)
ĠD ynam
-f ive
ĠEast ,
ĠA bs
H ub
Ġsecond .
Ġvel oc
ĊĊC ar
head ed
ur p
s ky
Ġp el
Ġ( th
ĠM i
med ia
m ans
Ġpriv at
ĊĊ p
Ġband w
Ġrec yc
on ut
Ġstat us.
Ġop io
Ġ$1 00,000
Ġcommission ed
ar ious
Ġhoriz ont
Ġgall ery
Ġorgan ised
Ġ7 3
ĊĊCh rist
Ġ8 8
Ġopen .
Ġcertific ate
Ġsecret ly
Ġloc ally
Ġglimp se
Ġcollaps ed
Ġorig ins
ĊĊR EAD
Ġl iver
ĠB P
Ġjust ified
Y :
Ġoper ations,
ĠInstitut e,
OR T
Ġperson âĢĻs
Ġkilomet ers
Ġresign ation
ur ,
Ġb er
ĠMedic ine
ĠAr med
v ised
ĠC over
ick ets
ĠGoog le,
Ġhour ,
Ġby pass
Ġres il
-f unded
Ġpost season
ĠProt est
Ġ( US
ĊĊP at
int age
Ġfail ures
Ġcool ing
Ġrang e.
h art
Ġemploye es,
Ġfrust rating
Ġs ack
Ġanth rop
roph ic
Ġpur ple
ĠA ub
Ġj ung
comm un
ĠAny one
Ġboy cott
Ġcor ners
Ġfar ms
Ġfre el
Ġimmediate ly.
Ġmer it
Ġexam ining
Ġconfig ur
o ven
Ġdecent ral
Ġn urse
Ġfeature s,
ĠL G
Ġtreat ments
m el
Ġtrans pl
b ird
ĠIn iti
ĠL ane
Ġgo ing.
Ġnational ist
ĠTra ff
Ġinning s
d is
Ġ ì
OS T
Ġstory te
ĠGod âĢĻs
ially ,
ĠHispan ic
Ġoften ,
Ġ7 th
AR D
Ġcome back
ur i
Ġworry ing
ĠMed iterrane
Ġd uck
Ġiniti ated
[ 5]
Ġham mer
Ġsubm ission
Ġstor ies.
ĊĊPro f
Ġdollar s.
ale y
ĠYouT ub
ific ation.
Ġexpl ored
Ġissu ing
Ġ5 :
Ġflo or,
Ġdim ension
Ġbattle field
ĠC reek
Ġdeli vers
Ġsubst itute
Ġfin es
Ġent ries
Ġcens orship
ĠCh ile
ark et
Ġc ure
Ġloyal ty
Ġ> >
Ġeven ing.
Ġ" not
Ġloc ation.
Ġfinger print
Ġtact ic
Ġprog ress.
ri ver
Ġm ol
Ġspe ed,
Ġdrag ged
Ġprov oc
ss on
-of -the
Ġsc are
ĠC ros
es pecially
Ġcod es
Ġfile .
Ġpeop les
Ġd ot
Ġnumber ,
Ġfollowing :
ĠHawai i
Ġ9 1
ĠN ad
oun cing
a unch
Ġassum ptions
ĠT ogether
Ġprop ose
ĠS old
Ġsam e,
/ t
Ġamb ition
ĠWhat s
Ġbuilt -in
Ġim min
Ġstri pped
Ġepisod e,
Ġin adequ
Ġoper ation.
ain ted
Ġendorse ment
ĠL amb
Ġp.m. ,
Ġfav ored
Ġexpect ed.
Ġcont racept
ĠTh us
et a
ĠM VP
ĠF ac
ĠE sc
out e
ĠCar ibbe
ett a
Ġdo or,
Ġsub way
ĠStud ent
ĠM ong
Ġunw illing
Ġmod ify
ĠM MA
Ġwhe els
ĠLegisl ature
Ġdel ays
Ġco at
isc rim
Ġneg lect
Ġle thal
Ġsl ated
ĠC row
Ġ12 th
Ġlive .
ĠF an
ĠSand y
Ġinfring e
Ġsure .
Ġstandard s.
Ġanimal s,
ĠJr. ,
Ġtraff icking
ut o
Ġ17 th
ĠWal mart
ĠStud ents
Ġinjur ies.
ĠL ives
ĊĊâĢľO ur
M B
9 6
Ġat e
Ġactiv ity,
ic ating
ĊĊ m
Ġsex ,
T ION
Ġmusic ians
ĠA wards
Ġst ole
ĠJo el
Ġprol ong
Ġ198 9
ch a
Ġcover age.
ĠHill s
Ġintegr ate
-or ient
Ġpath s
ord ination
Ġtroub les
ĊĊPh ot
ĠE vil
ur u
ĠG round
ĊĊA tt
Ġme. âĢĿ
Ġsuprem ac
Ġinv alid
Ġadj acent
Ġmet aphor
Ġrecommend ation
Ġcan cell
Ġeffort s.
Ġpart ies.
- pr
Ġe rect
Ġha bits
ous ands
Ġte aches
Ġcred ible
Ġhe aling
Ġa steroid
Ġh urd
ĠW alt
ĊĊ ...
ĠH ig
app ro
Ġqual ifying
Ġres um
Ġp ars
Ġboth .
Ġapplic ation.
Ġmach ine.
Ã¼ r
ĠChance llor
Ġpr ices,
Ġdist ribute
Ġcivil ization
Ġvolunt ary
in ho
ill ery
ĠPlan et
om ,
Ġstro ke
Ġmarket s,
ĠTurn er
Ġbrief ing
ĠFriend s
0 x
in âĢĻ
Ġemploye es.
ĊĊUn fortunately,
Ġz one.
Ġ Ñģ
ĠS um
-r ange
ĠIm agine
Ġtrack ed
A W
Ġpublisher s
um per
Ġd ough
Ġfem ales
ĠF IFA
Ġpromot ional
j e
ĊĊM att
Ġhy pe
ĠMcCart hy
ĠBen gh
Ġcard s,
ĠDam asc
Ġcont empt
Ġpitch ing
Ġcur b
ĠGerm ans
at isf
ĠCom ic
ĊĊ" L
Ġtour ism
ĠC hem
ĠL ooking
Ġ30 .
ĠG P
14 ]
ibl ical
Ġap ology
ĠHe zb
ĠC off
Ġrecord s,
Ġ" Y
Ġcult ures
Ġarbit rary
Ġint ake
Ġad oles
Ġbus es
Ġceleb rit
ĠTe h
Ġcondition .
Ġcontribut or
ĠW or
Ġcrew s
ĠH ope
icro soft
ad get
ad a,
ĠBoe ing
Ġun law
Ġfl ows
b en
Ġ5 %
Ġh ated
Ġ1990 s,
Ġfo lder
Ġphysic ian
ĠBarb ara
Ġoverwhelming ly
Ġbelong ing
Ġ7 1
Ġparent s.
Ġsoftware .
Ġup side
Ġpurpos es.
IC K
ĠL ar
Ġa ug
ĠLeg al
Ġ$ 4.
Ġnight mare
Ġisol ation
Ġsec uring
Ġload ing
Ġneed ing
Ġdeck s
ĠBry ant
Ġweek 's
g iving
Ġbatt ling
ste in,
Ġbarrel s
ĠNew ton
ident s
Ġ1960 s
Ġeffect iveness
Ġst ation,
it ial
Ġaccount ed
ĠY e
undred s
Ġwork place
Ġphilosoph ical
Ġins ights
ĠPriv acy
ĠD w
ant ing
Ġshe ep
Ġbudget ,
Ġcon greg
Ġheart .
Ġle aks
Ġstart ed.
ĠA F
Ġshoot ings
ĠK er
ĠBrown s
ĠFrancisc o,
Ġthreat ens
Ġdownload ed
Ġlost .
ĊĊ ,
-1 3
le ased
Ġa ides
ĠC it
ĠDecember .
ul um
Ġ$ 5.
Ġprohib it
Ġlook .
Ġcommunities ,
Ġs add
ĠApple âĢĻs
Ġt in
- era
Ġpow der
w ise.
et ed
ĠN at
Ġc os
Ġgu ided
Ġcoach ,
ĠG R
ĠDepartment ,
ĠFor um
roll er
Ġlead ers.
Ġdemonstr ations
-d em
Ġrevel ations
Ġme als
ĠO C
- al
Ġl ing
Ġwindow .
Ġkick s
Ġ9 11
Ġcou pled
il m
ĠM ull
Ġ2 3.
om e,
Ġyesterday ,
ĠAct iv
Ġpat ron
cl ip
Ġder iv
ober t
ĠHere ,
ĠÐ ½
ĠIran âĢĻs
Ġcon gr
ilit ary
Ġcrowd ed
a. ,
Ġfast .
ĠF L
ĠWilliam s,
ĠHel p
Ġl i
ĠLu is
Ġlight ning
ĠK um
uc le
or :
Ġreal ise
Ġminor ities
Ġ13 th
Ġdu o
ĠN ar
Ġnam ing
ĊĊIn c
Ġj am
Ġ90 %
ĠI G
Ġthreat .
Ġinstall ing
Ġch ains
Ġm ushroom
/ The
Ġath lete
ĠM ode
ĠD ock
Ġrep et
ĠR ac
ĠH R
Ġment ality
ound ed
Ġ3 50
ĠR ank
Ġst int
Ġen vision
ĠS anche
Ġdefend ants
======== ========
Ġoption s,
Ġarri ves
Ġ25 .
ore .
Ġcritic ised
ĠV M
ĠSuper man
Ġref uses
Ġent ers
ĠT ouch
u art
Ġqual ities
ios ity
ĠLeag ue.
Ġevalu ation
ĊĊ" F
ĠG en.
ĠWe ather
Ġmeasure ments
ĠA G
Ġb os
x x
Ġdecision s.
Ġdocument s,
Ġpresent .
ĠWall ace
Ġsp here
Ġp a
ĊĊR ELATED
ie ve
ĠApp lic
Ġcharg e.
RE E
ĠCreat ive
Ġvo iced
Ġsol ving
N ame
Ġlif ting
Ġaer ial
Ġver b
Ġpuzz le
ĠI de
Ġpo em
ĠâĢľ he
ol an
ĠLight ning
ĠDe al
Ġwh oles
Ġinterpret ed
Ġcalcul ate
i-f i
st yle
Ġaggress ively
ĊĊUn like
ĠImm igration
Ġimag ined
ĠInter ior
ĊĊâĢľ My
Ġ16 th
ĠGl obe
Ġsociet ies
H .
ĠForm ula
k i,
ĠEdd ie
Ġd aughters
Ġmisle ading
Ġbankrupt cy
ĊĊ }
ĠComput er
Ġint ensive
Ġeas iest
Ġsa ves
Ġdiscl osed
Ġpsych ology
Ġphot ograp
Ġcry stal
Ġh oney
ĊĊ" B
ĠUS D
p ath
ĠM aur
ĊĊM in
Ġsem i-
ĠApril .
Ġwor ries
Ġmulti player
Ġattribut es
ac ious
AT E:
Ġcontin ually
Ġl ess.
ĠStr ateg
on ia
Ġletter ,
ĠTig ers
Ġplatform ,
i w
Ġsoftware ,
Ġd awn
Ġexerc ises
Ġcoc aine
ĠO P
Ġread ,
Ġst ap
ĠVin cent
an ne
Ġcry ing
Ġall -
Ġcustom ers,
Ġthr illed
op ic
Ġup ward
ĠREUTERS /
otten ham
Ġc ros
Ġden ies
Ġreal ised
Ġv icious
Ġcontext ,
ID S
Ġ50 ,000
ĠC od
Ġb oring
Ġfeature s.
V .
ĠA &
ĠAugust .
Ġ18 8
Ġnote :
ĠMos ul
Ġtouch ing
Ġfunction ing
Ġ80 %
Ġanch or
Ġshr ink
op oul
i ots
' s.
Ġdeb t.
Ġpit ched
Ġsty le,
Is rael
Ġbehind .
at ility
ĠÂ »
ĠQu ick
ĊĊAut hor
Ġpass ive
Ġassault ed
Ġemot ionally
ĠE arlier
Ġeff icienc
Ġdefend ant
ĠâĢĺ W
ĠN as
ĠPack ers
Ġwork shop
Ġround .
am o
Ġref und
Ġ" pro
ur k
Ġto pped
ĠPal ace
- >
Ġp und
Ġport rait
Ġimag ination
ĊĊW ork
-pl us
ĠMot ors
Ġspecial ized
m ph
ĠSim ilarly,
ug s
Ġpe ers
ĠMajor ity
kin s,
Ġby ,
ĠM ons
Ġ8 6
ĠÃ Ĺ
Ġhom es,
ab el
imens ional
Ġup hold
ĠSchool ,
Ġhigh -r
Ġru in
Ġdes cent
Ġdelet ed
Ġinv itation
Ġrat es,
Ġbl unt
Ġflee ing
in is
ĠCub a
ĠIce land
ight ing
Ġun se
ĠS ure
ĠSen ate,
[ 2
ĠC T
Ġflo at
Ġ9 6
ed e
Ġapolog ize
ĠStr ong
ĠL ic
ĠM aking
ĠW i
Ġprompt ing
ic ians
Ġcard s.
ĠPro s
4 2
Ġcandid ate,
Ġst all
Ġfive -year
Ġhappen ing.
it ated
ĠJeff rey
Ġrecru ited
Ġed ges
Ġdon or
ĠEnviron ment
Ġhospital ,
Ġcompl aining
ell ing
Ġnin th
Ġconcern s.
Ġcorrespond ent
Ġleave .
cl osure
Ġind eed,
ĠG rey
Ġpedest rian
ĠC ertain
Ġcor rection
op ,
Ġcont r
Ġvar ied
ĠEd ge
p her
Ġind ivid
Ġhalf .
Ġsurv iving
Ġwhile .
ol ,
Ġsit es.
Ġintent ions
Ġpar ade
ĠMr s
Ġspons or
Ġche ek
Ġb ored
Ġc aucus
Ġhel met
ĊĊCh ina
ĠEnter prise
ard less
ĠE ight
ĠP red
ĠM ine
Ġstimul us
Ġb arr
ĠAdv anced
Ġeveryth ing,
Ġanalys is.
in o,
Ġtoler ance
au ,
in '
Ġteen agers
ĠG ot
ĠEast .
Ġknowled ge,
Ġfast ,
Ġd ug
ER :
Ä ĩ
mon th
Ġen velop
Ġtrad e,
et âĢĻs
ident ified
Ġmov ies,
ĠRe yn
Â £
er )
Ġtax es.
m ons
Ġsc roll
Ġcance lled
ĠM add
Ġge ograph
Ġnumber .
Ġwe ighed
ĊĊNote :
Ġtw itter
ines s.
Ġoff end
ust ed
Ġ49 ers
Ä ģ
S )
Ġfoot print
er y,
Ġcat alog
ĠC F
il og
Ġpresident s
Ġ6 th
Ġtext book
Ġreport ed,
ĠT u
ĠD rop
Ġflood ing
Ġinter pre
Ġhand y
od ies
OM E
iber al
ĠGO OD
Ġbik es
irl ines
ĠFr ance.
ĊĊM edia
ĠWhy ?
ocrat s
Ġdeliber ate
Ġhad ,
ak u
Ġund ocumented
Ġagend a.
Ġclar ify
ĠApp arent
ĊĊS ign
ĠIs land,
Ġcapital .
Ġneg lig
Ġsl aughter
Ġmathemat ical
ĊĊ"A s
ĠN V
child ren
Ġtit le,
Ġ14 th
Ġfriend .
Ġro oted
Ġalbum s
Ġfe et,
Ġfore ver.
Ġstop .
Ġf eder
ĠGen ev
D B
N o
Ġsmart phones
Ġcomment s,
h aps,
Ġreason ing
k ar
pr ing
Ġalgorith ms
Ġacc laim
ĠNor way
ĠâĢľ K
Ġpreced ent
ĠB ren
Ġ' The
ĠE M
or p
Ġbicy cle
Ġd ancing
Ġcrit ically
ĠObs erv
Ġwall .
Ġstr anger
ĠAb raham
Ġabsor b
Ġg em
ĠK in
Ġagree ment,
V iew
ĠP ic
Ġrandom ly
Ġ" we
or able
Ġhonest ,
enn a
Ġconf using
ĊĊL ink
âĢ¦ âĢĿ
om i
ol ves
Ġ4 ,000
- un
Ġorganization s,
ĠF ur
Ġrelationship .
Ġscal e.
Ġmor ality
ĠThail and
ĠiT unes
Ġhel m
Ġsaf e,
Ġrhyth m
on gh
Ġtraum a
l er.
ĠVal ent
Ġ$ 0.
Ġsurve ys
OR K
Ġle av
- ne
Ġlos s.
Ġtrop ical
Ä į
L D
ĠM ann
ĠRather ,
Ġpost p
-s ize
Ġpregn anc
Ġthrough ,
Ġal ive.
ĠSp encer
Ġnetwork ing
ĠD M
art s
ĊĊSt ate
ĠC ai
ĠJess ica
ĠItal y,
Ġwhatso ever
ĠMoh ammed
re ak
ĠSo on
Ġde lete
Ġhung ry
Ġprec ip
Ġunp redict
Ġaver aging
ĠIm pro
Ġsc attered
Ġaccount ability
em ale
ĊĊE mail
Ġdis reg
Ġdis gu
Ġr ou
Ġcar n
Ġsol ved
ĠL ot
Ġlawy er,
ĠC our
ĠEd wards
Ġby :
Ġvend ors
ing rich
ĠTra il
ĠBrook s
Ġhigh- end
Ġaffili ated
m und
Ġ10 1
Ġlack ed
on est
Ġun believ
ĠB omb
ĠEngland .
ĠF ame
Ġimpl icit
Ġconf irms
ron es
Ġinf ilt
Ġ25 %
ĠC P
Ġcorrel ation
Ġnot ified
ist ically
Ġhero in
Ġvict ories
ĠM ath
ĠC ool
ĠAl ask
Ġshar ply
Ġ" no
Ġlegisl ation.
AN T
Ġvol umes
ĠR ace
Ġgeneral .
Ġclas hes
Ġpain .
ĠGl as
ĠYanke es
ĠUn ion.
el ong
ĠBM W
Ġc ute
c ut
ĠUpd ate
Ġkill ings
ĠK ay
Ġhalf ,
other ap
ĠPres s.
us ions
Ġan the
Ġrel i
Ġcongr at
ĠC ell
on y,
ĠLeag ue,
Ġmon st
ĠM I
Ġrep roductive
ĠNor weg
ĠH az
ĠVill age
Ġrem embers
Ġm ud
ĠAl ice
Ġsafet y,
ĠAlp ha
Ġmon sters
ĠK aren
id ering
Ġse aled
ĠC ash
ĠB iden
Ġsince re
ĠS witch
ĠB apt
ĠCl in
( );
Ġb ann
ĠRussia 's
Ġconflic t.
ĠRod gers
Ġsl ice
ĠY ellow
ĠBe aut
Ġw ield
Ġhun ger
al in
ĠFal con
Ġtrad e.
Ġpain ,
Ġhypothes is
_ c
Ġrein force
Ġluc rative
ĠAC LU
Ġpark ed
g es,
Ġmemory .
Ġcons cience
Ġcamp .
ĠC opyright
ã ĥ
Ġsket ch
Ġmod ules
ĠHT TP
âĢĶw hich
om as
ĠLe ave
er, "
ĠCost a
ĠMove ment
ĠSt rip
0 ,
Ġtra ject
ĠWe 'll
ĠN ok
Ġcompetition ,
ĠG iant
Ġaccord ance
ĠM ade
-gener ation
Ġgot ta
ĠAh mad
ĊĊF igure
Ġord ering
Ġplac es,
Ġfin e,
ĠHallow een
15 ]
Ġat op
ĠP orter
ĠL ower
ĠCons umer
Ġd ent
Ġg orge
hold er
Ġe ars
ĠW ant
ĠM ol
ft y
Ġcent ered
us cript
Ġdisast rous
Ġ8 4
ĠWest min
ĠBelg ian
Ġ30 ,000
Ġmaterial .
ĠMexic o.
son âĢĻs
Ġr ugby
Ġ1. 2
Ġfree ze
F )
i ott
ĊĊJ ames
ĠClass ic
ĠW ade
ĠL av
ĠJ ed
Ġleag ue,
Ġwar fare
ĠCol lection
uk i
Ġanimal s.
ĠBoeh ner
Ġut ilities
ĠInc re
A K
Ġmount ing
Ġquestion able
ĠIr an.
ĠP le
Ġtatt oo
Ġtu ition
Ġcontract ,
Ġsign atures
Ġ15 th
ĠAss ange
ĠD im
-sc reen
it ate
Ġt ube
ĠIsrael is
Ġattack ers
Ġsensit ivity
Ġbusiness es,
3 :
Ġimpl ies
ef e
Ġreal -time
Ġimm ers
ĊĊE m
l on
ĠWind ow
P ress
ĠPost ,
h ole
ĠPy ong
ĠSwitzer land
ber ,
Ġtarget .
ĠMach ine
ĠâĢľO ur
Ġshow s.
Ġunp opular
Ġgest ure
Ġfortun ate
Ġle ase
f ,
ĠW ere
ĠWinn ipe
-sp ons
Ġgl ac
Ġsal aries
Ġcard ,
ĠCO 2
Ġprevent ion
v ing,
Ġ(al so
Ġreal ,
Ġan om
Ġatt ribute
ai res
at on
Ġdest ructive
ĠPal mer
Ġinherent ly
ĠBut ler
Ġoffic ers.
Ġ( y
ĠF 1
r ag
ĠSen ators
Ġg i
ĠCons ider
ĠCabin et
ens ion,
Ġmean s,
ĊĊDown load
ĠWomen âĢĻs
Ġfor k
n e,
ĠÂ °
Ġammun ition
ĠMarg aret
Ġconst itute
et ting
et ooth
a ic
ĠD in
Ġdie .
Ġtransport ed
ĠK os
Ġsit es,
Ġeconom ically
ĠL t.
iz e,
ĠYou th
Ġnew .
ĠSur vey
Ġball ,
ĠO ft
Ġcarri ers
Ġcop e
Ġpro xy
ĠMon th
Ġsect ors
Ġdiagn osis
p ired
Ġhuge ly
b y.
Ġstre et.
Ġcolleg e,
- ag
Ġpract icing
/ F
ĠK end
Ġincumb ent
ĠD ays
Ġm as
Ġ4 .5
ĠBr ig
ri ved
Ġn asty
Ġimport ed
ĠPro cess
Ġtr im
99 /
Ġtack les
leg al
6 7
ĠPr incess
Ġte lev
Ġskill s.
Ġemail ,
ĠHuff ington
Ġroll s
Ġa fore
il es.
ĊĊM s
ĠCanad a's
Ġl en
ĠAfghanist an.
Ġha un
am ation
ang e,
Ġterm s.
ĠHill ,
Ġbusiness man
ach ment
s ki
pt ic
ĊĊ by
Ġgrass roots
Ġdeg re
r ack
Ġwhistle bl
ĠShan gh
ĠTV .
ĠS L
Ġer a,
[ 6]
Ġâ Ĩ
ĠChief s
ad ian
Ġspec ies,
our ,
Ġhabit at
ok o
ĠGriff in
i ological
Ġ" St
g i
Ġaggress ion
ard ing
ĠEnglish ,
Ġincorpor ated
ig a
Ġp ork
ĠRepresent atives
ĠCoun ter
Ġ( although
ĠB ent
Ġsp ike
Ġinstruct ed
Ġhold ers
Ġshe lf
Ġsurf ace,
Ġagree ment.
ĠCath ol
Ġru le.
Ġbl at
Ġtri v
Ġf ame
Ġun pro
atern ity
Ġlic enses
ĠC ald
Ġreb oot
ĊĊA lex
Ġdirect ions
ĠS ter
ĠAs ia,
ĠNix on
v or
Ġp estic
ĠAm end
ĠZ en
Ġclose .
âĶĢ âĶĢ
Ġart .
ress ing
r ime
v als
Ġfu els
ĊĊS ch
ĠStud y
ĠTh ai
5 ,000
Ġju ice
m aking
6 8
Ġsp ik
Ġcampaign ing
Ġb ru
Ġpot ent
Ġ( e
Ġmilitary ,
Ġun av
Ġguy s,
k g
Ġstre ams
Ġju ven
Ġemb ark
ĠPant hers
IM E
ĠKore a.
Ġsoph om
Ġmet eor
Ġremain der
O :
ĊĊ X
Ġincorpor ate
ĠT rip
orth y
ĠArm strong
s is
ĠMus k
epend ent
Ġreal .
Ġoff er.
Ġlaugh ing
Ġclaim s.
ĠMc A
Ġess ence
ĠEs pecially
Ġb ans
Ġwhen ,
Ġcontract ors
Ġjust ice,
ĊĊD ep
re hend
Ġaction s,
Ġcryptocurren cy
- 30
izz ard
ĠCourt ,
ĠAn a
Ġemphas ized
Ġas ide,
ĠMal colm
Ġpr one
ific ation,
im ated
ĠR ico
Ġlead er.
eg a
ĠP ubl
/ c
Ġsynt ax
Ġmed ieval
Ġappl aud
ĠR ivers
u ation
ĠL oc
v ing.
Ġgar age
Ġback ers
un s
Ġrisk y
is y
Ġ24 .
Ġl ending
as cript
Ġunaccept able
Ġto :
Ġfe ather
ĠGreat er
Ġd ining
ĠQ atar
ĠFlorid a.
Ġparty 's
ĠJun ior
Ġ" sh
ch ant
ke ys
Ġmult ip
Ġgr im
Ġeffort ,
Ġlong er.
ĠJ ama
Ġund erest
ĠPot ter
ĠArgent ina
ĠS ny
Ġal ways,
se ll
Ġg ly
2. 5
ĠP etro
ĠPal in
Ġlegisl ation,
ĊĊG ood
Ġsl ammed
Ġfert il
Ġregul ated
Ġbit ,
Ġcare ers
ĠApple 's
Ġdeb ris
ĠNorth west
Ġpick up
Ġmet a
Ġstr ings
ĠR acing
Ġab rupt
ĠS id
Ġcreat ivity
Ġend angered
Ġself -s
Ġelectron ics
Ġprotect s
A b
Ġembarrass ing
ĠOn e,
ĠD yl
ĠO culus
ĠC ou
ĠA FL
Ġspe ed.
ĠSystem s
_ s
Ġadvis ory
ĠPict ures
ĠA irlines
ĠMassachus ett
Ġquality ,
Ġmedic ation
/ 3
ul ates
Ġman ually
ĠH usse
Ġpull s
Ġgl obe
Ġpair s
und ing
Ġfix ing
Ġrelig ion.
Ġinvis ible
ĠCast le
Ġreject ion
Ġmess aging
ud ed
Y .
Ġge omet
Ġsect or.
Ġkilomet res
ur prising
Ġhon ored
Ġr ises
ĠU g
ĠW als
and o
ie âĢĻs
i Ã³n
Ġconce aled
Ġshowc ase
ĠS ri
Ġtri o
Ġr ings
ĠSome one
Ġauthor itarian
Ġcanc er,
Ġr ipped
ĠR ing
ĠDay .
________________ ________________
Ġp ul
Ġdep icted
Ġdest in
Ġmigr ant
Ġfound ,
ĠA K
AS T
osp el
Ġhear ings
ĠErd ogan
ĠC rew
Ġdiss ent
ĠCommon wealth
or 's
ĊĊâĢľ R
Ġ200 4.
Ġprem ise
g t.
Ġposition ed
Ġer a.
ĊĊJ oin
not e
Ġpr ice,
/ m
ing. ..
ĠOh io,
Ġeduc ate
ĊĊN ever
ĠA er
Ġalso ,
Ġjew el
Ġinterest ,
ĠWe lls
ĠTer min
Ġas leep
Ġforg ot
Ġconsum pt
Ġd are
Ġpersu ade
Ġphot ography
Ġpot ato
Ġbl oc
Ġp ants
Ġwatch dog
ĠM ob
Ġmult ipl
Ġre -election
Ġstat ut
Ġrece iv
Ġfr ames
ĠP ew
Ġsup reme
Ġbo ats
a i,
Ġsymb olic
Ġplac es.
ĊĊS and
Ġsmall est
ĊĊ2 00
Ġfurther ,
eah .
ĠUp on
ĠM end
Ġteam mate
ĠP ract
ĠTr ack
Ġm es
ĠTele graph
om o
Ġmo ist
ĠK id
light s
Ġblog ,
Ġtime. âĢĿ
Ġexclud ed
ĠHend erson
ĠBritain âĢĻs
Ġpict ure.
Ġprofit able
ĠU. K.
ĊĊR ich
Ġ"M y
ĠO z
Ġplan s,
Ġany one.
Å į
Ġdam age,
Ġlight weight
- res
Ġbas is,
ĠA V
com pass
Ġbreat he
Ġcul p
Ġsu e
Ġp ixel
Ġproceed s
ĠBash ar
ĠL ate
ĠE t
Ġsh apes
ĠIn g
ĠW es
Ġprem ature
ore st
Ġminim ize
off s
ĊĊV iew
ĠBroad way
h ots
Ġassass ination
ĠId ah
ĠPost .
Ġmin eral
ĠT arget
our ge
Ġuns upported
Ġ" an
ĠH od
ĠS eth
er k
ain .
Ġtouchdown s
ĠG A
Ġcalc ulation
ĠTr aining
Ġwhat ,
L ast
Ġ[ S
ĠP engu
Ġsw ap
ĠâĢľT h
Ġnon -profit
ĠK urt
ĠK ush
rit ical
ĊĊâĢľ E
U I
ĠMerced es
Ġg one,
add af
Ġarrange ments
amp ire
ĠDun can
ĠE RA
ĠTur key,
ĠSc iences
Ġliv est
Ġw ished
ĠS outheast
Ġround ,
Ġg aps
Ġcol or,
ĠW els
Ġsymbol s
U E
ĠG or
ĠG N
Ġserious ly.
og yn
Ġnic he
Ġbrew ery
Ġbehavior ,
Ġver bal
D o
ĠCry stal
Ġd orm
r ill
ĊĊ ***
Ġover view
y ed
Ġdiv isions
bro ok
Ġproceed ings
pl ess
Ġout f
Ġnam es,
Ġl an
Ġch rom
Ġpurpose .
Ġcomm ittee,
ĊĊSt ud
/ L
ĠIn v
Ġlook ,
Ġauster ity
#### ####
if ully
Ġrevel ation
Ġsp o
ĠâĢľ For
iat ric
ĠEm ir
Ġar row
ĠH ass
raw ling
ĠMont g
a a
16 ]
ang o
Ġvari ant
ke ll
ĊĊ"O ur
Ġneutral ity
akes pe
abl o
Ġshot ,
ost ic
Ġwrong do
Ġgovern ance
Ġgenet ically
m i
Ġskill s,
ĠB ach
ĠTr ad
Ġsystem atic
Ġmass es
Ġch asing
ĊĊB en
ĠIntern et.
Ġclim bed
ĠConfeder ate
Ġret ained
Ġloc ation,
6 9
ĠE rik
and em
Ġ( an
50 .
0 5
k h
Ġsymp ath
? '
ap able
Ġmix ing
Ġcup s
Ġcompl iment
- Z
Ġk g
Ġp unk
ĊĊMay be
ĠFred er
Ġfif ty
Ġcause .
ĠTeh ran
ĊĊR ed
Ġext inction
ĠArch itect
Ġchildren 's
orig inal
ns ic
ĠâĢľS he
Ġd ip
im age
Ġhum ble
ĠS add
Ġhack ed
Ġother wise.
Ġcat ches
ĠAh med
ros pect
Ġhand les
or us
er pt
Ġtrave lled
ĠSecond ,
Ġnost alg
Ġrece ivers
Ġtask ed
os i
Ġal -S
Ġru le,
ĠSen ate.
ĠJ obs
ĠBr ight
Ġmos que
ĠSc he
Ø §
ah a
Ġrail way
Ġelement ary
ĠH ag
Ġs isters
S M
ĠPres s,
ck er
r ants
Ġspeec hes
Ġtrick y
ab ad
Ġany time
ĠD j
ĠQueens land
Ġfirst -
Ġsay :
Ġspec ies.
MAN :
Ġres ent
ĠCam bridge
Ġr abb
ĠA ur
Ġexc erpt
Ġu b
ĠE thereum
M e
Ġth rive
al e.
Ġintrig uing
Ġsepar at
Ġmill ennial
ter ing
Ġfore most
Ġecho ed
Ġrequired .
Ġbusiness es.
Ġauthorities .
Ġquality .
ĠWi- Fi
âĢĶ in
Ġsurvey ed
ĠPhill ips
ĠE P
h ire
Ġsex .
d ale
ĊĊL ooking
G M
Ġnod es
f ell
Ġhand ing
ĠArab ic
r ange
Ġbatt le.
Ġdict ators
Ġlaun ches
Ġr ans
Ġnovel s
Ġlow ered
ĠE R
ĊĊM uch
Ġdisput ed
Ġmatter s.
ĠVide os
Ġjust ification
Ġdiscl os
Ġprop osition
Ġtrad itions
Ġcrus hed
ĠInt egr
iment al
Ġsli pped
Ġ8 1
Ġnation ally
Ġfat ig
Ġflow ing
Ġill umin
Ġhalf way
ĠCont ent
op e.
Ġlive ,
Ġ1980 s,
ĠSc reen
Ġincom es
ĠN ine
Ġflow ers
/ h
l ib
= âĢĿ
Ġhor r
Ġcommun ist
Ġun in
Ġpr inter
Ġcoinc idence
Ġobsc ure
Ġsource ,
ret ty
Ġlif et
umbl r
Ġinher it
ĠD. C.,
ĊĊIn vest
Ġnavig ation
Ġaver age.
ĠTe levision
Ġpo ised
Ġvit amin
Ġansw ering
Ġbenefit s,
ĠF ix
as ma
ator ial
C ont
ĠLear n
ĠS A
Ġhad .
Ġe ld
ĠR ut
ĠM ix
ĠFebruary .
Ġassess ed
Ġbl u
Ġr ip
Ġdiv ine
Ġar rog
ov ich
Ġanyway ,
ĠMem ph
ĠK iev
Ġd warf
Ġsal es.
Ġprior it
P al
Ġp oured
ĠDan ish
Ġbank s,
erv ative
Image :
ĠOr ,
ĠD I
ĠR O
Ġpart ner,
Ġst air
Ġthem ."
own ,
Ġpurs ued
ĠMet ropolitan
Ġimp osing
Ġdress ing
ĠGet ting
Ġquant ity
Ġ199 9,
ĠGoogle 's
Ġagg rav
ĠFerr ari
Ġcolumn ist
are z
ew ay
Ġdirection ,
ĊĊR ight
Ġindividual s,
Ã¡ n
ut ton
Ġr age
ĊĊL aw
ĠÃ ł
Ġexample :
Ġawa iting
Ġm aj
Ġdemocr acy.
Ġcompar ison,
Ñ ĩ
ĠH ousing
Ġmy st
Ġen list
ur ry
con st
ĠSe b
Ġdis ability
Ġ0 ,
ĠâĢľThere âĢĻs
Ġcamer a,
ĠIsland s
Ġ198 8
Ġwild ly
Ġob l
Ġto ys
ĠB arr
Ġje opard
olute ly
Ġmess age,
ĠT ommy
Ġrank ings
Ġturn out
Ġst aring
Ġge ek
Ġloc ate
eal ous
Ġint oler
Ġo we
ĠCh ad
ĠPriv ate
Ġ198 4
ĠUs er
ĠAp oll
Ġunder grad
Ġopin ion.
Ġrecall s
ĠE aster
ĊĊN orth
Ġpar as
ĊĊU ntil
Ġ2 -1
Ġcamp ,
Ġlow ,
Ġincom e.
Ġintegr al
Ġonly .
Ġcircumst ances,
ĠN ut
ĠM E
Ġanalys es
Ġeverywhere .
Ġcheck point
Ġsur plus
IG HT
/ 20
Ġcall ,
in ery
Ġmonit ored
land s,
Ġimpro per
Ġschem es
Ġmerch and
Ġrecogn ise
Ġdeput ies
ĊĊ +
Ġhapp y.
Ġvalu es,
f old
Ġshoot ing.
Ġpr iced
ĠTrav is
per m
Ġvol t
ul ator
oid s
ĠII .
Ġbrain .
Ġabuse .
hip ,
Ġheart ,
Ġ"We 're
Ġadminist rators
-orient ed
Ġnot or
ĠPS 4
Ġsynt hetic
Ġstandard s,
Ġch ill
ĠS QL
B L
Ġcitizen s,
Ġim age,
Ġal iens
Ġword ,
Ġpredomin antly
Ġconfront ation
Ġcontinu ously
ĠD erek
Ã º
Ġrecip es
t or
Ġpresident 's
ĠS pl
Ġw itch
Ġdies el
Ġdistinct ive
Ġspr int
Ġcle aring
reg ular
ĠCh ase
o os
ĠVatic an
Ġexpect ed,
Ġdetail s,
-d ollar
Ġ9 00
Ġaccount s,
add y
Ġthat ,"
Ġmanip ulate
ĠA br
Ġrecover ing
ĠComm ander
od er
Ġdoctr ine
ĠGT X
Ġsh ook
ĠWild life
uff ed
Ġ2 6.
ĠM our
Ġprol ifer
Ġbox ,
Ġtroub ling
Ġbig ot
Ġtre as
ĠM atch
E )
Ġr ides
Ġcent .
ĠB eth
Ġdign ity
ĠS ug
ĠTH IS
Ġc ripp
ĠL akers
Ġdelight ed
Ġret al
Ġmark ing
Ġd inn
/ D
Ġchart s
ĠL an
Ġout d
Ġworldw ide.
ia z
Ġl b
ot ive
Ġsom e,
ĠZ h
ĠN ord
Ġdown s
Ġgener ates
Ġunder way
Ġvehic les,
Ġat omic
Ġw oke
Ġ9 8
ant o
Ġgen ius
ĊĊG u
Ġtraff ick
Ġconsist ency
ĠT ab
Ġcar ing
Ġid iot
ĠAbd ul
Ġdomin ance
ĠA j
ĠMumb ai
Ġhapp ily
ĠRepresent ative
/ N
Ġo h
Ġactivities ,
4 3
ĠE sp
Ġstreet s.
Ġ8 9
Ġaston ishing
o at
ĠLe B
Ġmusc les
Ġcandid ate.
Ġthem ,âĢĿ
Ġopportun ity.
Ġport s
ĠRe b
ĊĊD oes
Ġstill ,
Ġsong ,
Ġmatch ,
Ġstud ies,
Ġexp osing
-sh aped
or ies,
ĠCont act
Ġeas y,
ĠS ett
Ġ( of
ĠVis ual
ĠG ingrich
ĠProdu ction
Ġhors es
Ġutil ize
Ġnum er
ĠIsrael 's
Ġbo asts
ers. âĢĿ
ĠB ark
Ġblow ing
is it
Ġch ron
Ġcert ified
ĠWe ap
Ġsound track
Ġinvent ory
Ġspeak ing,
ĠEngine ering
Ġme, âĢĿ
c ase
ĠP ul
Ġdig ging
ĠNY C
Ġinflu ences
Ġspe lls
Ġpl un
Ġ1, 500
ĠChrist m
Ġport ions
Ġchance .
Ġ Å
Ġassist ed
Ġbroad ly
Ġcontract or
Ġpay roll
hy d
Ġmod es
Ġlo oph
-te am
Ġtrick s
ĠNic ol
Ġvessel s
p ic
Ġpost -
Ġman uscript
ĊĊCh ris
Ġl od
Ġexcept ions
Ġentertain ing
Ġinterf ere
ĠLe x
Ġmiss ion.
ĠM O
Ġattract ion
Ġimpact ed
op e,
ĠPar is,
Ġenact ed
Ġo ath
Ġ9 th
Ġz oom
Ġst agn
Ġp iss
Ġapprec iation
ĊĊ" My
id o
Ġinject ion
Ġafore mentioned
Ġs oup
Ġprotest ing
[ 7]
Ġbehavi ors
Ġco pper
ĊĊU S
Ġcrowd .
OS E
Ġcol ored
( "
Ġoblig ations
if iable
Ġpack s
Ġm apping
Ġadv ancing
Ġbook ed
Ġrel iability
ĠSh a
Ġs idel
ĠW ing
Ġfilm s,
ĠAll ah
ĠDepart ment.
alth y
Ġobst acles
Ġ(3 )
ise xual
Ġquarter ,
e 's
Ġinsist ing
-r ich
Ġwho le.
ĠVeter ans
ĠSch ne
ĠCourt .
Ġdirect ing
Ġlead .
Ġforth coming
ick r
Don âĢĻt
Ġreleas ed,
Ġteam m
/ R
- ass
Ġstat us,
Ġt ended
ĠCard inal
ount y
ĠMar in
Ġname ly
Ġfort une
ĠAmb assador
Ġext r
and ing
Ġclar ity
Ġcon gest
Ġgr ind
ob ody
Ġd airy
ĠY am
Ġstrateg y,
ĠAd rian
ĠMov ie
Ġt ense
Ġvast ly
Ġg ren
udd en
ĠâĢľ th
Ġpublic ity
ling ton
Ġgirl ,
Ġto ggle
ĠTex ans
ot hing
Ġguy s.
ĠD ust
ĠI L
ĠStep han
ĊĊThe n,
Ġun m
l .
Ġtravel s
Ġdr agon
ĠS K
Ġb og
Ġ{ \
iz able
qu es
ac erb
ĠT ak
it is
Ġhasht ag
le en
ĠR ust
Ġball oon
ĠPalest ine
ĠC ancer
d ie
ĠFl int
Ġper ipher
Ġin k
Ġbuff er
ogen ic
ef ense
Ġsettle ments
Ġplug in
ĠH off
Ġcru ise
Ġsp ont
ĠC raw
Ġbot hered
Ġwe ed
ĠP ric
7 1
Ġ ^
Ġsl aves
Ġenthusi astic
ĠPortug ues
Ġcomb ining
Ġtreat ment,
I X
Ġtrib es
Ġvot es.
ĠM ut
Ġwe ars
k now
m atic
Ġpress ures
uter te
anth rop
st rom
Ġjail ed
Ġst unt
Ġimpact .
ĠR alph
Ġconvers ation.
ĠTib et
ĠK an
rik es
ĠH appy
im eter
st ,
Ġin -game
Ġne arest
Ġcell s.
ĠEn forcement
Ġare n
ĠPatri ot
ĊĊUpd ated
Ġbom ber
dem ean
ĠâĢľ e
Ã© t
Ġimport s
Ġconsist ing
Ġdi ed,
Ġlow .
Ġpock ets
Ġfootball ,
Ġdispl aced
ĠK ap
Ġc ared
ĊĊH igh
Ġguarant ees
Ġpress ure,
ariju ana
U P
ĠSocial ist
Ġsur g
-p resident
ĠâĢľ very
ĠId ent
ĠâĢľA ll
ĠInc .,
Ġtheat ers
Ġ> >>
Ġsh oe
ĠHy d
Ġpleas ant
Ġwe aker
ĊĊÂ ©
ĠHezb ollah
Ġnew com
Ġprospect ive
Ġequip ment,
IN E
Ġu mb
atter ing
ĠEll iott
ĠOrig inal
Ġload s
Ġc ad
ĠSpec ific
Ġouts ide.
ĠWeek ly
Ġstick s
lud ed
Ġur anium
Ġc ivic
Ġmod e,
ĠArn old
Ġfix es
ĠM ak
Ġrele g
id .
Ġbroad caster
Ġball ots
Ġmem ory,
ĠSqu ad
Ġfront ,
Ġc ra
Ġsufficient ly
qu are
Ġdys function
ĠL ion
Ġmet ro
Ġact .
Ġl ied
Ġdynam ics
op ath
- so
Ġremote ly
Ġleag ues
Ġexplo itation
Ġfoll ower
ter s,
Ġlegal ization
Ġc ater
ĠGu ant
ĠW ITH
!! !
ĠV oice
Ġcloud s
Ġun b
Ġreview .
Ġscreens hot
Ġl over
rodu ced
/ P
am iliar
ĠRoosevel t
Ġenjoy s
ĠâĢľ and
h as
ĠN GO
Ġred irect
Ġg rief
Ġserver .
ĠS ask
Ġmurd ers
ĠTun is
ĠRoad ,
Ġvehic les.
- type
Ġ$3 00
Ġbe ats
ment ation
Ġtong ue
Ġthree -year
ĠLeon ard
Ġ198 6
Ġdocument s.
ĠSh akespe
ĠV II
Ġmusic ian
or age
Ġwas ted
Ġtou ches
Ġinstru mental
Ġrece ipt
Ġpatient s.
ĠC amb
Ġgradu ates
ĠMet al
ĠH ook
ĠToy ota
Ġtar iff
Ġlow -c
Ġ" ex
Ġconsist ed
Ġterrit ory.
Ġatmosp heric
Ġoffense .
i ology
Ġepidem ic
Ġgra pp
Ġplant ed
ĠReds kins
over ing
ec d
Ġforum s
Ġreal izing
aly t
Ġh ipp
ĠEr n
Ġob taining
- all
Ġprox im
ĠEmer gency
Ġshould ers
Ġse ize
ĠChall enge
ĠSch mid
Ġhappen s.
Ġaccompan ying
Ġremark ably
l ation
Ġe B
Ġun named
ot er
Ġnegoti ated
ĠWe bsite
Ġinf inite
ĠM UST
ĊĊCont act
ell ed
Ġl ingu
-cont rol
Ġsubscrib ers
Ġhigh- quality
ĠF uk
Ġop ener
ĠD A
Ġrecogn ised
ĠCre ate
is b
Ġcompan ion
Ġadm ire
Ġcomplex ,
Ġ8 3
y cl
Ġcost ume
ĠA CC
ĠTri ple
Ġindic ator
Ġintu itive
Ġz er
Ġuncons cious
ĠLl oyd
Ġfl own
ĠS ale
Ġdat as
Ġsim ulation
Ġconsequ ences.
Ġcamer a.
Ġreck less
Ġover time
Ġnot ification
Ġc attle
Ġsu g
am ination
ĠSur face
f oot
ĠâĢĺ S
Ġthr ill
4 1
ĠReg ister
B )
ĠWork ers
Ġfour -year
Ġmicro sc
Ġhuman s.
Ġm idd
ĠT ottenham
ĠAs k
ĠPow ell
Ġcook ed
ĠNew castle
ĠG aming
ĠLib yan
ĠW rest
es ome
Ġcorner back
ĠSh oot
Ġ12 5
ĠNorweg ian
Ġveget ables
Ġmod e.
ĠP oke
ĠClar ke
Ġstand point
arg est
ĠIndust ry
Ġupload ed
Ġdec isive
Ġvictim s.
Ġhom ophob
ĠT i
Ġpr ison,
ĠPresident ,
ĠT ree
Ġsc i-fi
in os
Ġwar ri
Ġto pp
Ġvehicle .
Ġfather .
ĠâĢľE very
wood ,
Ġgri ev
Ġlos s,
ant om
Ġsun light
-M obile
ĠR &
ĠSt ream
agg ering
ĠBrother s
ĠF ighter
on i
Ġl amp
Ġbeginning ,
Ġfin als
ĠR id
ĠUkrain e,
Ġbail out
ĠL um
ul ative
Ġcor ps
Ġs on.
Ġex acerb
Ġillust rate
gg ing
Ġ"S o
ĊĊAnd ,
ĠL ope
Ġpl ates
Ġeuro s
l ong
ĠB rett
Ġalert s
N et
Ġrest ruct
h um
du ll
Ġwr ist
ĠH ost
v id
ep rint
R T
Ġadm itting
ĠJ os
ĠPat rol
Ġfart her
Ġword .
ĠCol ts
ol ve
ĠElect ronic
ĠJ agu
Ġunderc over
Ġbehavior al
Ġident ities
Ġapplic able
Ġcon form
Ġ$ 60
ĠF ew
Ġ[ in
Ġobs ess
Ġal igned
ĠIsa ac
Ġpray ers
ĠOper ations
r us
ĠBab y
Ġstruct ure.
Ġterr ifying
/ B
Ġtrack .
ĠSp ain,
occ up
Ġb rib
K K
Ġha w
Ġb ounce
Ġsuc ce
ĠâĢľ se
Ġlate .
Ġshoot ing,
Ġj azz
Ġspe ar
Ġappeal ed
Ġplace ment
le an
ĠSt uart
writ ing
ĊĊS ubscribe
Ġmaterial ,
ill o
Ġfl uct
Ġpract ices.
Ġcharg es,
NN )
Ġfe ud
Ġterrit ories
ĠD ow
af ort
Ġins ufficient
z i
Ġshe ets
ĠUn ity
17 ]
ĠAl z
Ġan ten
ĠCast ro
Ġstre et,
ens ed
Ġscal e,
ĠStar b
Ġsimultane ous
h ort
v i
Ġintern et.
Ġ197 9
ĠF o
Ġdemonstr ating
Ġvacu um
Ġn erd
8 3
Ġexpress ions
ĠW el
Ġperspect ive.
ĠI Q
Ġab usive
Ġfirst -round
writ er
ĠAg ent
ĠIndian apolis
Ġaut ism
Ġunh appy
Ġpract ition
ĠNorm an
Ġve ctor
Ġr ust
Ġens ures
Ġobs essed
ĊĊHist ory
R )
Ġware house
Ġende av
ern ess
ĠKash mir
Ġuniverse .
ĠOff icial
Ġman 's
Ġpus hes
ak y
ress ive
an as
Ġalleg es
Ġfig uring
Ġadvis ers
Ġb ats
Ġkind a
ers, âĢĿ
Ġh ilar
Ġfamily âĢĻs
ĠTr ain
ĠCub s
Ġhit .
Ġ# 2
Ġun related
Ġpo or,
Ġsand wich
ĠCr is
Ġminut e.
ax ,
O b
Ġopt ical
Ġassert ion
ĠS ource:
ex as
ĊĊâĢľThere âĢĻs
ĠHol mes
com ,
ĠRe x
ĠLGBT Q
Ġsub p
Â Ķ
ĠL arge
the ning
O s
Ġ$1 2
Ġshot gun
c al
Ġsp inning
ig el
Ġupgr aded
H :
Ġ200 0.
ethe less,
Ġout reach
Ġat roc
Ġtriv ial
ĠEm ily
o qu
ĠPr ison
lic ted
Ġreflect ing
Ġexpl or
Ġsuccess or
Ġ200 1.
Ġhe ating
t y,
Ġadvant age.
ĠThey âĢĻve
Ġ( left
hip s
Ġ( re
Ġan ecd
Ġvulner abilities
Ġ8 th
EL L
Ġsc am
Ġl amb
ĠIS I
Ġen compass
Ġetc .)
ra pped
Ġlit eral
ĊĊWe âĢĻre
Ġconj unction
omin ated
nd ra
in ate
Ġcrit ique
hed ral
Ġfail ure.
ĠB oot
Ġdisappoint ment
ĠJ ung
ar u
OR E
ĠN uclear
ĠP ierre
ys ical
ĠLe h
ens itive
ĠS B
Ġmind set
ĠH S
Ġout sp
ĠPer formance
Ġcandid ates.
Ġind ul
Ġcoordin ated
un ks
Ġla wn
ing le
ĠDav is,
ĠJ up
âĢĶ to
ir i
Ġsovereignt y
an ut
Ġport able
Ġw ounds
Ġslow ing
Ġno ble
New s
ĠG ore
Ġcontin ue.
Ġcapt uring
ĠBush ,
Ġcool .
ĠW AR
Ġtok ens
Ġarch ive
Ġdraft .
Ġeffort s,
ĠPro per
Ġth ree,
Ġt ennis
Ġoptim al
ason able
Ġcircumst ances.
Ġ8 7
ap ital
Ġprot oty
Ġrem inis
Ġmis demean
ĠInn ov
Ġt s
Ġcomput er.
Ġdis charg
ignific ant
Ġresc ued
Ġdeb t,
Ġpay load
Ġdr astically
Ġillust rated
ĠWest .
Ġoper ation,
Ġwork out
Ġadm ir
Ġdis respect
ĠWels h
Ġg ru
ĠC os
Ġdri ed
ĠG ang
ĠW E
Ġa in
Ġkill ed,
Ġfaith ful
stan bul
Ġnice ly
it ime
ĠM ik
Ġpath .
ĠC ob
ĠRe ut
ĠH im
Ġcommit ments
Ġslow ed
ĠEn c
-- -
Ġblack ,
Ġ6 :
Ġab uses
Ġun equ
.com ,
old en
Ġhighlight ing
Ġp aired
ĠRodrig uez
ĠBr ain
ĠJ in
ĠCar roll
ac cess
ĠNichol as
' S
Ġn est
Ġh arn
ĠU l
g ue
Ġ( even
ĠRand y
ĠP or
ĊĊIs rael
Ġ200 3.
Ġper former
Ġ' S
ĠC V
Ġ$10 ,000
rig er
r ational
ĠImp act
Ġouts ide,
ĠX L
Ġem pir
Ġcance led
ok u
ically .
Ġabuse ,
Ġreview ,
Ġwall ,
het ical
Ġ0 1
Ġbl ond
ĠNo ah
ĠV o
ĠRe lease
f ly
Ġmore :
at ri
Ġgreet ed
ĠHeb rew
Ġleft -wing
Ġindict ment
Ġn ucle
os ph
Ġm g
W ,
Ġc ites
in burgh
Ġdiffere n
n .
ĠMc N
Ġopt ion,
/ AP
sc riber
ple t
Ġdown ward
enn y
ĊĊâĢľ For
Ġparam eter
ĠDise ase
Ġmother .
Ġu seless
Ġ- 1
Ġcell s,
ĠSt ories
Ġfreedom .
u i
Ġtool s,
uck ed
Ġl ament
Ġst akes
Ġsl ogan
Ġshout ing
Ġwork ing.
ĠâĢľW hy
Ġad ul
ĠC inem
Ġab n
che m
Ġbul lets
ens ion.
ĠN early
Ġs way
Ġrail road
Ġant agon
Ġconf isc
Ġass ure
od e.
-3 5
Ġstruct ure,
Ġtreat s
ac ific
Ġfirm ,
Ġv ic
Ġcatast rophic
ĊĊU se
Ġsh am
Ġ17 0
ĠBer g
rop he
Ġsl og
Ġher b
Ġst ew
Ġbord er,
ĊĊ' I
Ġtort ured
ĠMon ster
Ġalumin um
-dep th
ĊĊ1 1
Ġ" it
ĠB ec
ĠR BI
Ġfrag ile
Ġhyd ro
acher s
Ġjer sey
ĠInd igenous
ĠPyong yang
ĠK ing,
Ġmodel s.
Ġpromot es
Ġglass es
Ġhere ?
Ġ2 7.
Ġincom e,
re s,
Ġsatisf action
Ġinc lined
Ġstaff ers
Ġapprec i
ĠSw an
W A
ĊĊD et
Ġreven ge
Ġmolecul es
Ġbas eline
Ġweigh ing
ĠMOR E:
ich t
Ġste ering
ĠR ab
ĠCy ber
ĠPakist an,
Ġemerg ence
Ġtransf ers
Ġmor ph
U .
ar se
it le
od ern
E d
Ġadv ise
Ġtrouble .
- ad
ley âĢĻs
Ġopio id
ĠIre land,
Ġperform s
ott o
ĠY ale
Ġ9 2
ĠNav al
ur as
Ġfact ories
ĠNash ville
Ġwho lly
Ġpromot ions
Ġd os
ĊĊG l
Ġrev ision
Ġhuman s,
Ġobes ity
Ġbrew ing
Ġcontext .
Ġ10 :
ĠVirt ual
Ġoffic er.
ĠX i
ot .
ĊĊ"A nd
ĠSy n
ĠHug hes
ig s
ĠDem ocracy
ĠHond a
ourn aments
Ġpur ported
ĠB uc
Ġdiscret ion
or ies.
iz e.
ĊĊBl ack
ĠDolph ins
ĠM az
ĠTurn bull
Ġbe am
ĠSim ply
Ġst aged
Ġsl im
ĠH app
on al
i ance,
ĠK o
Ġdis abilities
Ġsect or,
ĠGarc ia
off ,
ĠThe resa
Ġnecess ity
Ġm ate
Ġ( by
Ġcoun cill
Ġen rich
ĠW ings
Ġincomp et
Ġbelong ed
ĠMediterrane an
Ġseiz ure
Ġ60 %
Ġencoun ters
ĠGo ing
Ġcrim es.
Ġfin ally,
Ġsle e
ĊĊM ake
r ank
inent al
Ġcock tail
ĠV el
Ġneur ons
Ġp ic
ĠN am
Ġlog ged
f rom
Ġsal es,
Ġcoach .
Ġmean s.
Ġreturn ,
Ġdef er
m en,
ĠPeople âĢĻs
ĠHar b
act or
ĠUn less
pro of
Ġzomb ie
ĠH ob
Ġbat ting
ĠMoh amm
ĠTw in
Ġhigh- level
Ġshe âĢĻd
ĠGlas g
Ġther mal
ĠSt ay
Ġpe ace.
Ġbo y,
ĠEdmont on
Ġachieve ments
Ġanti -c
ach t
Ġinaug ural
-d imensional
Ġdemand .
ĠK il
Ġincon ven
Ġric hest
ĠN y
he tt
Ġrecord ings
_ d
Ġtrad es
Ġdes erved
Ġsu ite
Ġupgr ades
Ġblog s
ash t
ĠB in
Ġvol can
Ġw olf
Ġstud ios
ian ces
Ġmis ogyn
Ġcourt room
ĠMichig an,
ĠM oto
ĠCro at
ĠF ear
Ġb aking
hing s
Ġhead er
Ġterrit orial
Ġmost .
Ġnurs ing
ĠW end
ĠKas ich
Ġconsult ation
Ġsus cept
ĠâĢľ but
Ġapart .
ask et
Ġgod s
Ġposition s.
Ġgroup 's
Ġmem oir
ĠKent uck
Ġforest s
Ġdemonst rators
Ġfunction ,
ab a
- known
ĠMue ller
Ġout law
Ġyesterday .
Ġeffect s,
amm ar
Ġanx ious
Ġprison er
Ġcompr ised
Ġmake .
ĠSch ult
Ġinspir ing
ĠR ot
ĠBou lev
Ġrang e,
Ġ198 7
ĠB rent
Ġfif teen
reat ing
Ġexist ,
ĠB our
ĊĊSh ort
Ġme. "
Ġid ol
ĠSe oul
ĠSpr int
******** ********
Ġmurd er.
Ġeat en
ĠGr an
ĠG oth
ĠR ift
Ġ( one
Ġbase ment
Ġbr on
Ġ( +
Ġfl ies
ĠTill erson
Ġup t
Ġconsum ing
ĊĊW hite
Ġsl ides
ĠD ate
Ġhe els
Ġprest igious
Ġagenc ies,
Ġball istic
Ġcasual ties
ĠL anc
es pite
f .
ĠB O
ĠPr ide
son 's
Ġill usion
Ġpeople .âĢĿ
Ġ( Â£
ĠâĢĺ O
Ġman ner.
Ġansw er,
ĠCup .
Ġalong .
ĊĊ" R
Ġwas hed
Ġbelieve ,
ĠB ody
Ġsp ying
Ġmanage ment,
Ġstret ched
Ġpopul ated
ug ust
am bers
Ġey e.
ĠT roph
Ġpress ure.
ur ally
Ġrecent ly.
Ġwere .
p it
Ġg reed
Ġgl ory
Ġvo ice.
ĊĊâĢľ Y
Ġselect ing
Ġr ats
Ġ( St
Ġsw orn
pe ll
ĠComp et
Ġattend ees
on s.
Ġcraft ed
Ġsyn c
Ġcoc onut
/ 5
d r
ĠBlu etooth
ri ad
Ġexpl oded
Ġrepe ating
ache s.
-to -d
Ġwat ches
Ġo v
ick .
it ous
Ġmolec ular
Ġ9 3
Ġd od
H D
Ġbar red
ĠN FC
ĠD ame
ett ,
e i
Ġsubst itut
ĠUS $
Ġdepart ment.
Ġwoman âĢĻs
Ġhair ,
ĠM ari
Ġcomp ile
Ġl ag
it ational
Ġassoci ations
Ġyou .âĢĿ
Ġub iqu
author ized
Ġmodel s,
8 2
ĠCount y.
ĠSer b
Ġb end
Ġvis ibility
[ 8]
at ers
Ġbl aming
ĠViet names
ĠH ab
Ġs i
Ġj ets
Ġoursel ves.
Ġaudience ,
urope an
I ES
Ġ"That 's
Ġcol or.
ĠPolit ics
Ġstreet s,
cher ,
Ġnar rat
Ġjud ged
Ġclaim s,
__ _
Ġ(C h
ĠE ug
Ġexc av
Ġ2 8.
Ġsuccessful ,
Ġen rolled
Ġshow âĢĻs
ys on
Ġmach ine,
Ġren owned
A :
w ald
Ġsitu ations.
ĠAlz heim
asp berry
Ġcomp iler
Ġ1970 s,
ĠÂ ĵ
Ġtop ,
id av
Ġannoy ing
ĠLabor atory
e ur
Ġg y
/ 11
ĠSu z
bl ack
Ġchurch ,
um my
Ġgar lic
Ġre dd
ĊĊWill iam
Ġboss es
Ġcollect ively
Ġ ..
Ġsimpl er
au er
Ġp ave
Ġhigh -speed
ĠL ed
Ġqu o
ĠNot re
arm ing
ĊĊL eg
ah an
ĠPhill ip
Ġd anc
Ġmotorcy cle
om ery
Ġattorne y,
ĠL ay
asc ular
g ame
ĠGener ation
Ġdisput es
ĠR ule
ĠO ri
ash ,
Ġ( IS
Ġbre eding
Ġsuper f
ch ar
re x
az ing
Ġtight ly
Ġpsychiat ric
Ġlaz y
Ġthese ,
Ġ1. 3
T Y
Ġcompe lled
Ġa kin
Ġmetab ol
/ 7
Ġnut rition
Ġmiss ion,
Ġteen ag
Ġcover age,
ĠS i
Ġcamp us.
ĠâĢľI s
Ġtest s,
Ġt ide
Ġ" K
C :
ĠFa ith
e als
Ġb ay
op .
ĠL iqu
Ġcous in
ĠMartine z
Ġassum es
Ġ( un
Ġvirt ue
ad h
Ã ł
Ġ1. 6
g roup
ĠH ernand
Ġfor ty
r ams
Ġclear :
le âĢĻs
intend ent
Ġmurd er,
Ġback st
ord ,
-he ld
Ġins ide,
t y.
Ġpract iced
C an
hip .
Ġmention ing
Ġcal ories
Ġ(i.e. ,
Ġsh aking
Ġcontinu ed,
Ġsatell ites
y ers
ĠF ace
on y.
r t
Ġpos it
Ġrem ed
Ġbrut ality
ĠMill er,
[ 4
ĠS gt.
Ġmin us
ĠGonz ale
ĠS weet
ĠEl sa
ĠEth iop
Ġanonym ity
ĠColleg e,
ĠIndust rial
os itive
ĠH E
Ġcl ue
Ġbox ing
Ġprogram mer
Ġdetect ive
Ġblog .
Ġdem ocrat
ĠBank ,
Ġpost ers
Ġbackground .
Ġwho le,
Ġmen 's
ens es.
Ġoff enders
ount ry
Ġstruct ured
Ġcomp ounds
Ġview s.
ech an
Ġmin ers
ĠD elta
Ġcounter -
ĠK ids
Ġthink ing.
ĊĊL ook
Ġcro re
ĠAub urn
Ġpres erved
ĠM oss
Ġinher ited
ĠB urg
ĠC oy
Ġflaw ed
Ġfuel ed
Ġcr ush
Ġadminist ered
Ġrequest .
Ġaest hetic
ĠCaribbe an
Ġunder water
U pd
Ġindivid ually
-s ource
Ġra ids
Ġ15 %
-m arket
ash i
ĠSC P
ĠYou 'll
Ġadvoc ating
Ġinfrastruct ure,
I nd
lin ,
Ġpar a
Ġtime, âĢĿ
os ity
Ġd âĢĻ
O )
er y.
Ġdisapp ro
-in f
H ,
Ġextrem ists
ium .
ĠP OL
Ġmeasure ment
ator y,
Ġwhe at
Ġobject ives
ĠB io
Ġnot es.
Ġ( this
at able
ĊĊOff icials
-L e
Ġc el
Ġbreak .
ĠZ one
Ġb ang
ĠIndepend ence
Ġhur ting
ĊĊU lt
Ġpublic ations
aut h
Ġencrypt ed
Ġl av
Ġfil es.
Ġcandid ates,
â ĪĴ
Ġs atur
w al
Ġtw ent
Ġtable ts
-f our
18 ]
B :
.[ 1]
Ġorigin ated
Ġcomprom ised
Ġt urt
Ġco vert
Ġsl am
fore st
Ġstart ed,
Ġdiscover ing
Ġ Ù
Ġrecruit ment
ĊĊ b
Ġafter ,
Ġrisk ,
Ġper secution
Ġemb ry
ĠProp het
ĠI van
Ġro pe
ĠH ood
Ġquarter .
ĠT ournament
ĊĊS outh
Ġturn over
ĊĊT om
ĊĊCl inton
Ġqu arters
Ġprofess ors
Ġsess ion.
Ġc otton
il ight
ĠW ang
he lp
-w hite
Ġwar ns
Ġprohib ition
Ġ[ P
vert ising
ct ober
ĊĊM ike
ĠSacrament o
Ġpropri etary
Ġgam bling
Ġbeen ,
ĠAut om
Ġmanip ulation
Ġtest s.
ĠP and
ĊĊA c
Ġwatch .
Ġd ud
ul ation,
Ġs ore
Ġintent ional
ĠC ele
Ġt a
ĠU T
Ġdifficult ,
Ġar ise
Ġscript s
Ġmaxim ize
Ġ q
ĠFal cons
Ġ199 8,
Ġ$1 ,000
Ġvideo s,
C AR
Ġcr ust
Ġeveryone âĢĻs
Ġstab bed
Ġbi ology
ĠB annon
Ġso y
Ġl ion
Ġadd ress,
ĊĊ" Y
Ġsecond s,
Ġfin est
- over
ĠY em
Ġ9 7
cl ub
ĠD iet
ĠHe aven
Ġconnect s
Ġaccess ed
ĠT ories
ĠPh D
ĠSumm it
Ġtask .
Ġapplic ants
ĠCor p.
EN D
ĊĊ" E
osp here
o an
ĠEurope ans
Ġprote ins
Ġre- ent
ĠU P
Ġnot ebook
Ġen light
Ġcom ing.
ĠI stanbul
ĠShe ll
Ġsimilar ities
ĠTennes se
ĠâĢľ it
en es
Ġseen ,
Ġplant s,
Ġz one,
ĠF oster
Ġsm arter
Ġ(F ig.
Ġdetail ing
Ġcas ino
ĠCom plete
ĠToront o,
ĠK ob
Ġshow er
Ġexplain s.
ĠShe 's
ĊĊ1 2
ĠC AN
Ġd ile
ul a,
Ġpotential .
ĠQ ur
Ġprop osing
/ W
us ic
ĠJosh ua
Ġnovel ,
ĠJ eb
Ġd yn
c ling
Ġin -depth
Ġcontain ers
ĠGu ild
Ġ( now
ĠF est
Ġmet ad
Ġcou pl
-sh aring
in yl
Ġmiddle -class
Ġter rific
ĠL ux
ĠDemocrat s.
Ġsanct uary
he art
Ġdemocr acy,
Ġadop ting
Ġsum s
ĠLear ning
Ġliqu or
Ġdark ness
j oin
Ġturn .
ĠBe gin
M I
Ġsexual ity
Ġproceed ed
Ġrun ners
Ġp ard
Ġdisord ers
ĠE A
Ġreact ed
ĠD ownt
ograph y,
Ġequip ment.
p ent
Ġreg ime.
Ġfather âĢĻs
sc ience
c y.
-n ew
Ġmar ched
/ T
Ġblog ger
ĠNY PD
ĠMalays ia
Ġmaneu ver
Ġfar -right
Ġpaper work
Ġche ss
ĠD h
Ġdebut ed
ur y,
cl usive
Ġdeleg ation
ir s
Ġb ent
ĠFil ip
Ġrep ay
Ġdisrupt ion
Ġ4 K
ĊĊK eep
Ġat .
Ġhand c
f eed
Ġ" is
Ġun just
Ġp ass.
ĠTH AT
P oint
S c
Ġapp le
ĠMe et
ĠBuddh ist
ĠFr an
ĠColor ado,
Ġleadership ,
ĠA pr
Ġdil ig
r ising
ĠGirl s
us p
Ġf itted
Ġpart -time
ĠComm ission,
ton .
ins ula
ri z
ĊĊRem ember
Ġrock ets
Ġdiscuss es
Ġunw anted
ĠFound ation.
ull y,
Ġst aggering
Ġex empl
ĠC osm
ĠCourt esy
d s
Ġcompar isons
Ġir ony
ĊĊJ ack
Ġ' W
ĠChurch ,
ĠD ix
Ġbegan .
Ġrecogn izing
Ġbuilding s,
M ENT
Ġevery bod
.[ 3
ĠB ever
av i
q q
ĠMas ters
Ġextensive ly
ĊĊCon clusion
Ġspons ors
Ġb ubb
ĠEd inburgh
ĠQu arter
g o,
-to -day
Ġsk ate
ĠAgree ment
ut ral
am ount
Ġaff idav
Ġconstitut es
ĠT weet
Ġsubscrib ing
Ġy es.
ĠUS C
Ġconf ined
ĠCult ure
Ġimag es,
Ġr ider
Ġstudent ,
Ġdistingu ished
Ġsophom ore
ĠSanche z
ĠMil an
ĠPar ad
Ġbur ial
Ġcurrenc ies
Ġcommod ity
Ġcolleg e.
Ġ( right
ĊĊS ources
ĠRaven s
Ġ" very
Ġan nex
Ġknown ,
dis play
Ġconcent rate
ĊĊÂ ·
ock ing
Ġsn ake
Ġ1. 4
Ġ198 5
Ġillust ration
Ġident ity,
ĠE arl
ĠPear l
Ġalread y.
in ian
ĠCD C
Ġemphas ize
Ġignor ance
Ġhttp:// www.
B R
Ġbarg aining
Ġsurpr ise,
Ġpr ag
Ġsens ible
Ġpopul ist
ĠN RA
Ġinvestig ator
b e,
Ġ10 80
Ġeach .
Ġtrib e
ĠAn alysis
50 ,
ĠStat istics
ĊĊPhoto :
Ġprov inces
ĠWork s
ĠU A
ĠRep lay
Ġvol atile
ĠW C
Ġany one,
Ġir respons
Ġpositive ly
Ġtal ents
Ġsl ump
b one
Ġout line
ĊĊWith out
Ġv ivid
ĠL az
Ġmathem atic
Ġflood ed
Ġg end
ĠR abb
ĠMan afort
Ġre per
ĠEag le
Ġwh it
Ġit 'll
Ġflaw s
Ġpo le
ĠSeb ast
l ance
Ġ7 :
Ġsyn chron
Ġrest .
at ics
z el
Ġfin ed
Ġprogress ion
Ġforeign ers
ĠPro bably
ĠChe v
Ġgas oline
if le
Ġer ad
ach ,
le um
ong ress
Ġactiv ate
Ġout field
Ġconcent rations
Ġparad ox
Ġglob ally
ĊĊLet 's
Ġco- author
ĠV it
Ġwel coming
ong ,
Ġacc ent
Ġtelevision ,
ĠY u
ĠAlf red
w ill
ĠPh .
Ġreal -world
Ġsepar ately
Ġhear ing,
ĠT ow
Ġsubp oen
Ġactiv ated
c y,
ĠRe ally
Ġgener ation.
ĠShangh ai
Ġpark .
Ġe -c
Ġ9 4
Ñģ ÑĤ
ĠAmaz on.
Ġback drop
ĠBapt ist
Ġexplo ited
Don nell
âĢĶ is
Ġamend ments
ĠHe avy
Ġsp ur
ĊĊWhat 's
Ġelect ro
Ġimmin ent
th ouse
ear n
Ġend ured
Ġst ones
Ġacceler ate
Ġoil .
Ġg adget
u er
Ġreward ed
Ġabroad .
Ġrec ons
Ġhint s
u ated
ĠUC LA
Ġprof iles
ĊĊWe âĢĻll
Ġsection .
es igned
ĊĊA nt
Ġdisplay ing
Ġ20 30
Ġfin ale
Ġmember ,
Ġcolumn s
ĠâĢľI âĢĻve
Ġdec lin
Ġofficial ,
ĠSc ript
Ġch ol
Ġpack age.
Ġex ert
Ġcent res
Ġpropag and
Ġr app
Ġprob able
ĠW izards
Ġdig est
ĊĊM on
ĠGit Hub
ĠMont ana
od el
Ġcelebrit ies
Ġgi ants
N ,
Ġevol ving
Ġcaut ious
Ġmap .
Ġunemploy ed
Ġbutton .
Ġspons orship
ib al
Ġsid es.
Ġpublished ,
p age
ĠGand hi
Ġcomb ines
sec ret
clip se
Ġjuris dict
ĊĊK ey
y âĢĿ
ĠProgress ive
Ġview point
cl osed
Ġcontest ed
ĊĊWe âĢĻve
ĠSpe aking
ortun e
Ġlad ies
ĠD uck
ĠAsh ley
Ġfre ak
Ġobser ver
Ġgo es,
b ra
am on
Ġone -third
b ial
ĊĊAM Y
omet er
Ġcustom s
Ġt ournaments
Ġpack aging
U ,
ag ed.
e ous
Ġacqu iring
/ O
ren ched
ĠD ana
Ġitem s,
ĠD uff
Ġsay ing.
ĠGoogle +
Ġpolic ing
A d
Ġsuper st
Ġresident s.
b les
Ġa ven
ĠUkrain e.
ĠIniti ative
Ġimag ery
Ġproject ions
am pton
ĠâĢľ U
ĠB uch
ĠR apt
Ġfact .
ĠÃ ®
Is lam
ĠAb dull
Ġimpossible .
Ã¶ r
Ġl ining
ĊĊâĢľ G
/ G
Ġstate wide
i u
ĠDar win
Ġcommitt ees
Ġ( no
ĠAl ternative
R es
Ġfaith .
Ġproxim ity
ah .
Ġbeginning .
ĠIntern et,
Ġreg ain
Ġinv ention
Ġrall ies
ĊĊâĢľA nd
Ġseg ments
ĠNov a
om .
Ġunder going
ict ured
US A
s ),
Ġapplic ations,
ĠT S
am ples
am y
are a
ĠNe uro
ĠKenn y
ĠDod gers
ĠVictor ian
ĠSulliv an
Ġday -to-day
a, âĢĿ
Ġaccount s.
s ]
iet h
ĠGOOD MAN:
Ġgal axy
ĠDO J
ĠC ork
st ra
im ination
ed ge
ĠGab riel
Ġfound ers
Ġpartic le
Ġf ren
Ġfair ,
Ġmonu ment
Ġoff ence
Ġconflic t,
Ġfru its
ĠVenezuel a
Ġunderstand .
Ġmarket place
Ġr az
Ġengine ered
est a
Ġvibr ant
Ġpro stitution
Ġrest oration
Ġhit ,
isp here
Ġapprec iated
Ġreporter s.
itt en,
Ġcritic ize
ĠSt rike
ĠSheriff 's
ĠT ap
Ġby .
Ġstartup s
Ġdet r
Ġfact ions
iet y.
ĠSat urn
Ġinter val
AM E
6 2
Ġhe ck
ĠTrans it
Ġphysic ians
Ġcooper ate
Ġreact or
9 00
vent ional
6 3
pl ace.
Ġmilitary .
ri ans
Ġpart s.
Ġpl ural
Ġerupt ed
ĠBro ck
Ġ200 ,000
Ġsh red
Ġyield s
the less
Ġemail ed
Ġcigare tte
ĠStart ing
Ġdiabet es
Ġterror ism.
ar in
Ġpredict able
Ġhard core
Ġshall ow
ĠV ir
im ag
eng ine
Ġdim ensions
Ġme ?
Ġadjust ment
Ġspr ing,
Ġreform .
Ġdesp air
Ġintrodu ces
ĠCharlott es
Ġitem s.
Ġimmun ity
ĠâĢľ be
Ġde cept
ocaly p
ĊĊG reen
ut ing
Ġtime. "
ĠâĢľ v
Ġrec laim
Ġweight .
Ġ"H ow
Ġrequest ing
Ġlif esty
Ġm a
Ġic ons
Ġknow ?
Ġrevers ed
ful ness
on so
ĠNaz is
ĠU FO
Ġfreedom ,
Ġhorizont al
Ġadoles cent
Ġplan n
ort ing
Ġcy l
Ġcell ular
Ġdepos its
Ġattract ing
oint ed
- night
Ġcomed ian
Ġsystem ic
Ġindividual s.
Ġexceed ed
B erry
Ġscar ce
Ġtoler ate
Ġdelic ate
ĠMun ich
Ġcl oth
Ġcl ips
ve ,
ĠÐ ¸
or um
Ġhy ster
Ġrow s
ĠK ane
on ies
ĠApoll o
Ġchair s
[ 9]
Ġup st
Ġsuff ers
ĠR S
10 ,
inn y
Ġc ite
Ġinform al
Ġ12 8
ĠS V
Ġknock ing
Ġinflu x
ĠC el
Ġnecessary ,
Ġnewsletter s.
Ġdepartment ,
up ,
Ġank le
h n
Ġsing ular
Ġrel ates
Ġperce ive
in ated
ig ion
Ġhomosexual ity
Ġhom eland
Ġpun ct
im edia
Ġquant ities
ĠSt ef
Ġde ar
Ġ2020 .
Ġjack et
Ġper haps,
Ġnort heast
Ġpref erences
ĠWhats App
Ġfront .
ĠN um
Ġ"A s
Ġpre y
Ġobs ession
Ġvehic le,
âĢĻ S
Ġlower ing
o ct
Ġprompt ly
Ġinternation ally
opoul os
int egr
ĠL ith
a que
Ġ$ 2,
Ġapolog ized
ĠâĢľ [
ĊĊ"There 's
ĠMcC l
Ġborrow ing
ĠLeB ron
Ġf ost
Ġ5 .5
ĠIS IL
ĠV ince
iction ary
Ġref riger
Ġdin osaur
99/ month
ens on
Ġtest ify
Ġt ant
ĠJ ill
9 8
ĠSe g
ĠJ et
Ġ' f
Ġrecogn izes
Ġmon arch
ĊĊR et
Ġint ric
ept ember
Ġdefe ating
ĊĊR ob
Ġbi ased
Ġsub scriber
ĠSing le
ĠMar ie
Ġ( v
ĠBost on,
ĠInd y
pl an
ĠRoll ing
Ġbackground ,
Ġeleph ant
ĊĊB ased
ĠSur ve
-h ouse
Ġsister ,
Ġ$ 50,000
Ġseason al
Ġcyc les
ĠLeaf s
Ġwip ed
st ant
Ġow ed
Ġ199 6,
Ġhost ility
ĊĊUpd ate
ĠUn fortunately
ĠTay l
ĠSimp son
ĠChamp ion
Ġre ef
Ġsh aping
iz oph
Ġan at
ĠWood s
Ġincons istent
Ġnam es.
Ġchurch .
ĊĊ1 1.
Ġcomput er,
Ġrespect ively
Ġtournament .
it coin
Ġsatisf ying
Ġcr unch
Ġbenef ited
ov o
Ġst ip
Ġg as,
Ġtrack ,
Ġol ive
ĠMurd och
Ġel ites
Ġall ocated
Ġres et
Ġb isexual
ĠAdvent ure
Ġu s.âĢĿ
se min
ik o
Ġaccept s
et on
Ġreiter ated
Ġpurpos es,
un n
ĠPaul ,
Ġbrand ed
Ġshut ting
Ġhot els
im et
ĠT as
Ġtot al,
ĠâĢĺ f
Ġbull sh
e ed.
Ġye ast
Ġque en
Ġmagaz ines
Ġtheat re
Ġwh isk
at s,
Ġumb rell
Ġinstitution s,
- second
ĠN ak
Ġconced ed
im es.
Ġone -year
ĠAustralia 's
âĢĶ or
izoph ren
Ġacc use
ĠI gn
ĊĊInt erest
Ġcould ,
19 ]
ĠR ugby
Ġfor fe
m oil
ĠWestmin ster
ĠM ig
ĠJack son,
Ġtime ly
Ġconstrain ts
Ġcom e,
ĠSky pe
Ġcirc ular
Ġun ified
ished .
Ġgr ams
4 :
Ġcom ment,
Ġy oga
Ġc em
Ġinterest ing,
H P
Ġlike :
id i
ĠHop kins
ĠSud an
ah ar
ĠO mar
Ġpos ing
ĠPost ed
ĠHud son
Ġweek day
ĠBook s
ĠVietnames e
Ġbarg ain
Ġcho oses
Ġbar ,
Ġcontribut ors
ĠPortugues e
S o
ĠPark s
ĠEc u
ĠLeban on
ĠChicag o.
Ġlibert ies
Ġne ed,
Ġ70 %
ad en
Ġcand y
Ġgau ge
Ġ1. 1
ĠApp ro
ĠIndones ia
Ġpercent )
Ġconfirm ing
ĠCh an
er ious
Ġown er,
ĠN R
Ġb ully
Ġident ifies
Ġenthusi ast
ĠB ord
ĠOff ice,
ateg ory
Ġty r
Ġp ix
Ġdef enses
ĠU pper
ĠEgypt ,
Ġcredential s
Ġ40 ,000
Ġback wards
tern ational
Ġact ,
Ġtime :
ĠF D
Ġvo ice,
Ġincl usive
il itation
Ġbeen .
Ġchar itable
-and -a
d i
cient ists
Ġ: )
Ġpres s,
ĠRepublican s.
ĠComm ittee.
Ġexam pl
Ġdet on
Ġpatient s,
Ġ6 ,000
ĠâĢľC h
-c ore
ĠD uterte
ĊĊUpd ate:
Ġsupporter s.
Ġround ed
ĠMan uel
ĠT W
Ġo ct
Ġsequ ences
ĠIns pect
ĠP G
se y.
id y
meric a
Ġcritic izing
Ġlau nd
ek ing
full y.
ĠD ale
Ġj ourn
ĠH orse
Ġsymp athetic
ĠSteel ers
Ġassign ment
ĠT -Mobile
Ġden ounced
Ġsem i
ĠS &
ĊĊW ell
Ġb ore
Ġbo ots
Ġinvest ment.
ĠL ag
N EW
Ġv andal
Ġagree ing
Ġjail .
Ġmet er
Ġdraft ,
ĊĊ //
Ġremov ed.
Ġtax ,
Ġstar red
Ġapp arat
Ġ(A nd
ĊĊS en.
ĠSpace X
ĠV ision
AR E
Ġanaly zing
er ie
ĠK on
Ġar che
ĠSol id
ĠAs ia.
Ġmistake .
Ġde af
ĠHer oes
M )
ĠOw en
Ġpay .
Ġgr an
Ġwond ers
ook ie
at us
Ġaut umn
Ġpat ches
N ot
ht ml
Ġfurn iture
ĠNS W
ĠCle m
Ġt il
th s
ov an
ĠRe ason
Ġrobber y
ĠFl ag
Ġ18 7
un al
ĠCore y
ĠN J
ĠS ite
Ġ[ M
sec ute
ĠE ST
Ġth wart
Ġwrit er,
Ġfile ,
Ġeither ,
Ġunus ually
ĊĊ( Image:
d en,
Ġfact ion
ĠTit ans
Ġcolor ful
e lection
ĠP aper
Ġfe ver
pe ak
Ġlog ging
ĠPortug al
ĠâĢĺ the
ĠBill s
Ġrig id
Ġparticip ant
ash .
Ġp enc
W ASHINGTON
Ġcycl ists
Ġcollect ions
ĠWalk ing
Ġext rad
ĠLat er,
ID E
Ġit ;
Ġhigher .
iz ers
Ġright ly
Ġ"N o
Ġsupporter s,
uff le
z e.
ienc es,
Ġ2 9.
Ġthread s
he ed
z e,
ĠV ersion
Ġleadership .
ov ak
Ġseek ers
c ially
Ġw ipe
ĠR uth
Ġtow ers
Ġsolution ,
Ġt am
Ġfiref ighters
Ġsc out
ĠSask at
ĊĊAl ong
Ġneed ed,
ĠR hod
Ġplan et,
ĠBaghd ad
ĠBr istol
Ġun it.
Ġtake over
Ġr ivers
Ġmariju ana,
Ġadd itions
Ġlegitim acy
Ġunlaw ful
ili ation
Ġfund ing.
ul ation.
ĠPresident -elect
ÃŃ a
Ġ( about
if iers
ĠEx cept
ĠC lear
Bri en
ĠâĢľ V
Ġwas hing
D E
ĠGr ad
ĠExper ience
ĠCar r
Ġtack ling
B E
ĠDra ke
Ã© e
v ance
Ġsafe guard
p ensive
Ġn ud
Ġhack er
g ence
Ġnut r
Ġ( you
Ġexp on
Ġredu ctions
Ġintern et,
Ġmed itation
Ġmor ally
Ġadjust ments
Ġpat ents
ick er
ith ub
Ġback pack
Ġgun s,
Ġex otic
imb ab
ĠLim ited
ĠLet ter
ĠCh a
Ġrunning .
ward ,
m ission
Ġsampl ing
Ġmasc ul
Ġdiplom ats
Ġfemin ism
Ġthere after
keep ing
Ġatt ain
Ġun it,
Ġrobot ic
Ġbe e
Ġemb od
Ġprotect ion.
ĠM ead
Ġupd ating
and y
Ġpiece ,
Ġconcern .
r ance
ĊĊPost ed
Ġconf ess
Ġdist ress
Ġvolunt arily
Ġup held
Ġplaus ible
ĠR ules
Ġb ilateral
Ġcyc le.
-se lling
ol ith
Ġinfrastruct ure.
U G
Ġtelevision .
Ġhom ic
ĊĊO h
Ġc ir
ĠR az
ĠCup ,
g one
Ġbar .
ĊĊRELATED :
ĠSh o
Ġpredict ing
Ġnetwork s.
Ġclose ,
ĠCur ry
-m ember
ĊĊT im
ĊĊIn ter
Ġadminist rator
ĊĊ"S o
Ġhous ed
Ġha iled
Ġoccup y
Ġstrength s
Ġv i
Ġhip -h
ill ions
ou ble
Ġrecomm ends
ow itz
Ġe ternal
Ġintelligence ,
ĠGl en
ĠAustral ians
ĠWin ston
Ġinjured .
Ġcertain ty
Ġprolong ed
ount ain
Ġreform ,
ĠAlepp o
el p
ĠC oc
Ġt ender
Ġwould -be
ĠTim othy
Ġth ree.
ut ic
Ġe ag
vil le.
ĠBrazil ,
Ġprivile ged
ĠRed d
Ġbatt le,
ĊĊâĢľI âĢĻve
ĠMap le
Ġur g
ĠHall ,
Ġgun .
Ġal-Q aeda
Ġbrain ,
Ġwrit es,
ĠH arm
ĠW ake
ll o
Ġfound ations
Ġmariju ana.
Ġmagn et
Ġaccident .
ĠF ocus
ĠThis ,
Ġw ary
ĠC G
ĠAl ban
Ġble eding
Ġ( most
Ġdark er
Ġimpl ied
ĠFR OM
Ġcompet it
ĊĊE vent
Ġtransm itted
Ġgoal t
Ġlim b
ĠSN P
Ġspir its
Ġ11 :
Ġvictim s,
Ġspend ing.
ĠBangl adesh
ĊĊM art
Ġauthor ,
Ġstat ute
run ner
ĠS aw
op ed
ĠT rent
Ġinv iting
Ġreg ener
ar bon
ĠWinnipe g
Ġdescript ions
- action
Ġevalu ated
ĠMinne apolis
ched el
Ġsymp athy
be cca
Ġveloc ity
Ġfore front
F eed
ĠAngel es.
Ġshut tle
ĠAust rian
ash a
in ational
Ġmilit ia
ens en
Ġreminis cent
ĠR F
ĠE gg
Ġ' M
Ġalleg ing
Ġcalcul ations
Ġcounterpart s
g on
Ġinterest s,
Ġcost ing
ĠS tern
ĊĊB rit
ĠIM F
Ġacknowled ges
Ġt outed
Ġwh ale
Ġbull ying
Ġvacc ines
ĠâĢľP eople
ch t
ĠCl iff
el s,
act ory
ĠRob ot
ĠS end
Ġown ing
ĠHy per
Ġinjur ies,
Ġb ast
ĊĊD isc
Ġundert aken
Ġunf amiliar
Ġfigure s,
ĠIndia 's
Ġpres cribed
ĊĊO k
ĠG ir
Ġsubst ances
c o.
l at
Ġunc ommon
Ġsurpr ise.
Ġmonop oly
ĠCai ro
ve t
Ġquarterback s
ig uous
an ic
P resident
ĠX ia
Ġal-A ss
ĠSand ers,
irect or
Ġpr isons
ĊĊApp le
ĠâĢľHe âĢĻs
ĠShakespe are
Ġleave ,
Ġc ables
Ġex terior
ĠAgricult ure
Ġjump s
Ġshout ed
play ed
Ġhier arch
E Y
arly ,
Ġas ,
Ġsupp l
ĠT -shirt
ĠE N
Ġbol ster
ĠC auc
Ġdistrict ,
ĠAdd ed
Ġsess ion,
Ġmanage ment.
ĠI PA
ĠPH P
Ġgo ing,
Ġrest art
Ġl ump
Ġlit igation
ĠSU V
Ġpal m
Ġreally .
Ġp ic.
ess ert
ĠX -M
Ġcont ender
ian n
Ġsound .
Ġpit ches
Ġv om
Ġdanger ous.
ship s
ote :
Ġopp ression
ĠApp eals
Ġalph a
es que
ĠProf essional
ry s
Ġav iation
ad es,
AS S
Ġcl ues
Ġhous ing,
rah im
ĠYou âĢĻve
Ġweight ,
re cy
Ġco ordination
ak ing.
Ġexplan ations
Ġtransl ates
ĠFif th
Ġv inyl
Ġtur moil
Ġahead ,
Ġequ ation
ĠPoint s
Ġ196 7
ĠHop efully
Ġdump ed
/ p
Ġcredit :
Ġinfer ior
ĠF ig.
Ġherself .
ĠS ame
Ġnum b
u ber
Ġrelent less
b ank
ĠS ak
mer ce
Ġneed s,
S p
ĠJud iciary
20 ]
Ġadvent ures
Ġmonit ors
Ġadvis or
ri a,
Ġlau nder
igg s
ire .
Ġpe ace,
Ġtold ,
Ġviol ates
Ġhyp ocr
Ġcomb o
ract ed
Ġsurf aced
Ġ(1 .
Ġabund ance
ĠC ensus
Ġ199 7,
Ġro de
ist ical
ĊĊSc ott
Ġre he
} }
Ġtal es
Ġbudget s
Ġwrit es.
-th an
t able
Ġfund s.
ĠD ad
Ġaltogether .
ĠO .
Ġdro pp
ĠB ert
ĠBrend an
Ġover c
f ax
Ġapart ments
is se
Ġcontract ed
ĠS ales
ĠWord Press
-up .
S QL
ĠNote :
m a,
ĊĊP erson
ĠJ aze
Ġ( st
Ġpo inter
Ġlic ence
Ġm ur
Ġl aughter
ĠH alo
ur bed
Ġe. g.
Ġstem s
ĠW ait
Ġle mon
ĠM aterial
Ġt apped
-up ,
Ġ2 -0
Ġund is
Ġconclud es
ĠBeach ,
Ġcr ashes
Ġ0 2
Ġ3 1.
Ġ( we
Ġpolitician s,
Ġbet ting
Ġ19 00
ĠD ani
Ġv intage
8 1
Ġthro at
Ġtim el
Ġconsum ers.
em p
Ġsport .
The y
Î ±
Ġsoc io
ĠIns urance
ĠGu ine
ĠH erman
Ġpour ing
Ġsecret ary,
Ġgl uc
ĠSouth west
ĠDisc overy
Ġcost ,
ĠLad en
ile .
Ġpo orest
Ġg ently
Ġv ine
Ġhim .âĢĿ
Ġassert ed
Ġanticip ate
ĠA verage
ĠN ike
Ġadvoc ated
Ġconvers ation,
Ġhealth -care
ly )
Ġin ad
Ġsc oop
im en
Ġ8 :
Ġsent encing
Ġ198 2
ĠLe e,
ĠPro secut
Ġque ue
Ġmy riad
r ame
ĠM int
Ġterrib ly
io .
ĠResp ons
Ġd oc
Ġsquee ze
Ġoverwhel med
ĠSt age
Ġknowled ge.
Ġp act
Ġend uring
Ġcod ing
are ndra
Ġrang es
ĠSh ane
Ġwork ?
Ġ200 2.
Ġill icit
Ġremember ,
ĠLe ices
Ġdoub t,
Ġey eb
Ġn urt
ĠâĢľ that
rist ian
ĊĊE ng
ĠArizon a,
ĊĊ >
Ġdeal ers
Ġplant s.
ĠMontg omery
ĠT M
Ġb ed.
Ġrese mble
ĊĊJ on
Ġoverwhel m
ĠCase y
AS E
Ġw ife.
ĠEvery body
Ġâ ĸ
Ġfact o
Ġ} );
Ġmeas ure,
Ä ±
ĠGreg ory
ĠE ye
ass ad
k y,
ĠSteven s
ĊĊRes earchers
Ġordin ance
act iv
Ġal lev
ĠVal ue
Ġfore nsic
Ġbe es
ĠEll is
ĠT aking
ĠEx x
ass ing
ĠKn ights
Ġh oc
ĠSadd am
-2 5
Ġcr ashing
ĠâĢľthe re
Ġim aging
Ġvac ant
Ġway :
Ġall erg
oc y
Ġborrow ed
Ġdi agram
Ġnot ed.
C A
ĠS oph
Ġfollow .
Ġeas ier.
Ġquick er
Ġvar ies
Ġembr acing
ĠIC E
ab ,
ĠDar ren
Ġflav ors
ĠT iger
9 2
AR K
Ġperm ission.
Ġbal ancing
Ġexplain ed,
Ġvers atile
Ġel imination
Ġman kind
Ġprosper ity
ĠSim ple
ĊĊ" For
Ġrecipient s
Ġcoordin ate
Ġoutrage ous
Ġam ended
ĠMir ror
Ġcor ner.
ĠMid west
ĠSh op
is le
Ġhom icide
Ġme ga
ĠC ord
Ġmiddle -
âĢĶ it
ĠR B
ĠCav al
Ġmost ,
ĠDub ai
Ġwar mer
ad ay
Ġg room
et z
l ace
ĠâĢĺ M
ĠC e
Ġcompat ibility
Ġresist ant
Ġcapt ures
ĊĊG erman
Ġte asp
ĠC opy
Ġbl ade
Ġapp s,
ĊĊL ist
Ġcool ,
Ġth under
ĠGr ace
Ġexp ired
-l anguage
ĊĊ1 )
Ġrig orous
.[ 2]
6 1
ĠOl iv
ĠSpider -Man
ĠStr ange
Ġ0. 1
Ġf ra
i ov
Ġh one
Ġtr aces
ĠH ERE
rest rial
ĊĊW ant
ak .
Ġrefres hing
Ġd ull
r on,
ĠEvent ually,
ari ,
Ġcash .
Ġpar an
Ġblock b
Ġ1950 s
Ġcease fire
ĠHe y
Ġaest het
Ġthem ,"
Ġsie ge
Ġtun n
ĠG ul
ĊĊâĢľThe se
ĠÎ ¼
Ġdev il
Ġimp ly
Ġclub âĢĻs
Ġchar m
Ġpast or
Ġoften .
ĠIns ider
Ġreb uilding
h ist
ĠF ixed
osh i
Ġinsure rs
rupt ion
ĠFin land
ĠC rypt
ela ide
ĠC atherine
ĠPre vention
Ġsec urities
r ade
Ġtraff ic.
Ġsubject .
Ġnon -c
Ġtoss ed
Ġart illery
et 's
ĊĊB ar
Ġerror .
g es.
Ġefficient ly
Ġ+ 1
ĠâĢľ all
ĠRe ce
Ġb row
Ġbon uses
Ġacc ess.
Ġimpro ves
-r unning
Ġblast ed
Ġd ens
ĠPennsylvan ia,
ĠâĢľ com
ĠArab ia,
C ol
ĠK ot
que z
ĠHe ath
on ly
Ġpe cul
oun ter
ĠB ened
ĠL iter
Ġcomp uls
-M art
g em
Ġst ellar
Ġdis hes
ĊĊW ashington
id er,
Ġrelationship ,
Ġ198 3
Ġimper ative
AC E
Ġacknowled ging
o o,
Ġexclud e
ĠT roy
Ġsuccessful .
Ġfear ,
Ġgall ons
Ġproud ly
ĠAntar ctic
Ġnetwork s,
Ġreferen ced
Ġwithd rawn
Ġtext ,
Ġp ant
Ġcl aw
st ick
ĠG w
Ġcomp ares
ĠLa unch
Ġun a
ĠInvest ment
Ġd olph
Ġep it
ĠGr ass
Ġoutsp oken
ĠNok ia
ĠC ad
Ġ(S ee
-f ield
ã Ĥ
Ġillust rates
commun ications
oci ated
Ġfil es,
Ġchang ed,
Ġtro phy
Ġnorth west
ĠY es.
Ġtest ing,
Ġ10 5
Ġtheory .
Ġblank et
w ic
Ġresident s,
U p
Ġ 000
Ġp iano
Ġassoci ates
Ġstreng thening
Ġoff line
Ġcommunic ating
ĠAn onymous
ĊĊN one
Ġfaith ,
ud a
ĠCalif .
amer a
am el
Ġconcern s,
Ġaccess ing
Ġfather s
Ġvict ory,
ĠCr ist
Ġapplic ation,
m itt
ĊĊR obert
ustain able
W hile
Ġbound ary
Ġview er
ĠJul ie
Ġ"T h
Ġr uth
Ġbo o
ĠL ogan
ĠT E
Ġle v
Ġa u
Ġvis ually
http ://
ĠNebr aska
ist ry,
Ġwithd rew
Ġread ing,
Ġtrad ers
Ġcondition ,
Ġhair .
att ack
itz er
Ġknown .
Ġp ac
ĊĊT ime
-and-a -half
if y,
Ġhistor ians
Ġexam in
Ġe go
Ġmov ies.
Ġpe pp
as i
o )
Ġle ar
Ġaccident s
-c heck
Ġshare holders
ĠBeh ind
ĠG C
ĠS hip
Ġoffer ings
/ 12
ĠLink edIn
gg ie
ĠScient ists
ĠP V
F T
es ar
gg y
Ġcommer ce
un ,
connect ed
Ġlun ar
c ode
pe ace
Ġele ven
ĊĊB ig
ĊĊB es
oc used
Ġstep .
Ġh ollow
ĠM ets
Ġmagaz ine,
Ġpl umm
ĠV .
Ġneuro log
Ġmap ,
Ġminut e,
Ġ( It
Ġr anged
Ġchalleng e,
ner âĢĻs
Ġacadem ics
c les
Ġind oor
ixt y
Ġmanag er.
Ġinto x
Ġunc le
ĠÐ ¾
ĠBah rain
Ġpeople ,âĢĿ
ĊĊ2 )
Ġaw aken
Ġpret ending
Ġpo pped
Ġstrength ,
Ġdetain ees
Ġchap ters
9 4
Ġinfect ions
ĠThe ater
Ġtax .
Ġdisaster .
ĠBarn es
Ġreserv ed.
Ġreb ounds
ĊĊN EW
ĠD L
ĊĊâĢľ Every
ain st
Ġtro ll
ĠEver ton
Ġf og
Ġbl essed
Ġnonethe less
ĊĊF ull
ĊĊN o,
Ġbe er.
ĠB anks
Ġthere ?
Ġec ological
Ġleast .
ĠN iss
Ġfavor ites
se x
Ġp ine
Ġpract ices,
Ġrespective ly,
Ġto dd
Ġdetail .
chn ology
ĠL il
head s
Ġsp ouse
ĠBur ke
ĠCent ers
ĠDes ert
ĠPant her
ĠGeorg ia,
Ġnurs es
ĠG ent
Ġnot ice.
ĠDel aware
ĠAr row
Ġtwist ed
Ġ( 0.
Ġradio active
l ack
Ġclass ification
Ġconnect ivity
Ġrad ically
Ġcho ices.
ĠAnn ual
ĠThanks giving
Ġtr ilog
al m
om on
Ġvend or
ĊĊDe velop
ĊĊâĢľThat âĢĻs
Ġ95 %
ĠFl oyd
viol ent
ĠTh an
ĠHou ston,
Ġnotice able
Ġexist ence.
ÂŃ ing
h all
ĠCl are
Ġsuper b
Ġret rospect
Ġpres erving
Ġwhere ,
Ġcol ony
Ġdollar s,
ĠTw enty
ĠâĢĺ c
sh adow
Ġwith hold
Ġpres s.
Ġmin er
Ġall ied
ĠE isen
Ġv ault
ĊĊD ec
Ġun real
-spons ored
ĠAl ways
ĠPer l
Ġ"O ur
Ġun ple
- air
ad ers
ĠAndre a
Ġcooper ative
ĊĊL ater
ĠJul ia
Ġamaz ing.
Ġn ice,
Ġcons ens
ĊĊEn large
g s
Ġsong .
ĠJ ays
Ġcrack ed
ĠInst itution
ĠGu j
Ġreposit ory
ĠD y
Ġresp ir
Ġme, "
ĠJS ON
Ġactiv ation
Ġaffect ion
ĊĊW H
ĊĊM ed
Ġredu nd
ĠOff ice.
ĠN an
ĠâĨ Ĵ
Ġset back
ic a,
ire ction
ĠUs ers
Ġargu ment.
Ġfeed s
Ġf ier
in formation
Ġtom ato
Ġsurger y.
Ġemploy s
ĠSeatt le,
ig o
e e.
Ġdetermin es
Ġcontribut es
ĠPers ian
ĊĊTop ics:
alif orn
Ġsynd rome
Ġmarg ins
ors che
c ies
ĠG ene
Ġpark ,
Ġsk in.
Ġcosm ic
ĠC able
ĠBas ic
ĠPer fect
ĠVal ley,
v al,
ĠBritain 's
ĠEl ite
os ion
Ġd well
ĠDis p
Ġstret ches
Ġstretch ing
Ġsc ales
or ie
ĠU nd
Ġplayoff s.
Ġgirl .
Ġambul ance
Ġbe ?
Ġr ise.
a ft
ic ularly
Ġdark ,
ĠM ight
Ã ª
Ġheadqu arter
Ġoverall ,
Ġarri ved,
ĠAustralia âĢĻs
ĊĊS am
Donald Trump
ĠBengh azi
Ġexcl usion
[ 10]
Ġprev ail
Ġarrest .
Ġlif elong
Ġunit s,
Ġelig ibility
Ġspend ing,
Ġgu ides
Ġirrelev ant
ĠM V
ĠAn cient
Ġ* /
Ġaut op
Ġreal ities
em ade
ĠConserv ation
Ġdest abil
Ġelect orate
ĠGe off
ĠA A
w as
Ġimprison ed
Ġnon -d
Ġpun ched
ĠBr anch
ĠSc al
0 1
ĠMic he
Ġpropos al,
Ġw o
Ġtr aced
Ġeleg ant
ĠW orth
in um
Ġconvict ions
ĠAssoci ation.
Ġreserv oir
Ġpow d
/ 16
Ġdiscipl inary
ĠM anc
Ġdrive .
Ġalarm ing
I d
ĊĊI ts
Ġhealth y,
Ġsleep .
ĠD ash
Ġf aint
ĠLind a
Ġgorge ous
Ġchar ism
Ġcollabor ative
Ġunit s.
Ġgen ome
ĠYOU R
ic ian
Ġsomeone âĢĻs
Ġgoal keeper
ard i
Ġmaterial s,
Ġphoto s,
Ġunderw ent
Ġphotograp hed
Ġband ,
i ance.
ĠR oot
Ġrather ,
ĠV illa
on n
Ġpic. twitter.com/
Ġpict ure,
ĠFr ame
ĠN arendra
Ġsh ine
ĠSchool s
ar is
Ġsect arian
ĠZ ucker
Ġyard s,
Ġpreval ence
-st ory
ĠEm peror
at ured
r ine
-le aning
ĠJer sey,
Ġfalse ly
Ġconf erences
Ġhead lin
ĠW ag
red ited
Ġargu ment,
ĊĊDon ald
Ġmir ac
Ġagenc ies.
F rom
Ġrel iance
Ġ( more
Ġdeb ated
Ġ198 1
vas ive
ĠB og
Ġstorm s
ÑĢ Ð°
Ġstrateg ist
Ġg ates
Ġsle pt
Ġco- oper
ĠF ell
Ġtwe ak
ĠAm ster
Ġunconstitution al
Ġmar athon
N )
ed âĢĿ
ĊĊS an
Ġschedu le.
Ġlot tery
OC K
c ock
Ġr h
Ġmet rics
Ġcrypt o
Ġinadequ ate
g irl
Ġpovert y,
Ġ( especially
Ġtour ing
Ġor ph
ient s
ĠâĢľ you
Ġcatast rophe
Ġh id
ĠWil son,
ĠAff air
ĠWashington âĢĻs
ĠF resh
ĠLeban ese
Ġ12 :
Ġch uck
ĠJ azz
ol and
Ġ' b
Ġ2 %
Ġtest ing.
Ġse at.
ĠâĢľT o
Ġobser ving
St ar
ĊĊRep .
Ġmeth ane
Ġded ication
Ġadd s.
ĠR ang
Ġvari ants
ĠV ern
Ġtool s.
Ġv est
ĠL anguage
Ġcar c
rit ing
Ġjud ging
Ġrequire ments.
Ġcontamin ated
ent ric
Ġpit chers
Ġask ,
ĊĊAdd itionally,
Ġ25 th
Ġsubur bs
ĠRes c
Ġnick name
Ġro ster.
ĠDyl an
Ġpy ram
Ġhur ricane
ĠFin als
ĊĊL ong
Ġsound ,
Ġbe ing,
ĠA W
ig ar
Ġre -s
ĠEurope âĢĻs
ĠB ay,
ict ure
-w in
Ġcr ap
Ġrhet or
Ġlast .
Ġread :
AS A
Ġe ject
ĠZ imbab
l ene
ĠM illion
ĠEU .
ĠEm ma
ĠT PP
ĠT ag
-b illion
Ġhear ing.
ĠAud io
am as
Ġins ider
Ġc ant
Ġs outheast
Ġ$1 .5
Ġearly ,
ĠBre aking
cl es,
Ġheight ened
Ġm arsh
Ġnarrow ly
Ġven ues
Ġthreat ,
ĠO val
Ġver ified
Ġcurric ulum
ĊĊCh ar
Ġlobby ists
Ġgrant ing
Ġoffense ,
Ġmult inational
edd it
al s.
Ġdeleg ate
Ġthe rape
Ã© ,
Ġcho pped
Ġr im
Ġle aking
ĊĊAny one
Ġso ap
Ġunp aid
Ġsch izophren
Ġnothing ,
Ġste alth
Ġinterven e
Ġinspect or
real DonaldTrump
ustom ed
Ġkid ney
ĠTh rones
Â Ģ
Ġfail ed.
ĠC raft
Ġchalleng es.
Ġhor rib
ĠâĢľ one
IT IC
Ġstr angers
ĠSny der
our ing
Ġ199 5,
Ġobst acle
ĠF ans
Ġcomment ators
Ġbrid ges
ĊĊ1 2.
Ġmin es
ĠWH O
ĠP it
Ġheard .
ĠH uck
ĠCl aire
ĠFor bes
ĠPere z
Ġwould ,
Ġdiet ary
Ġopt -out
Ġwould âĢĻve
Ġhur ts
Ġneighborhood .
Ġch ao
- app
Ġpr ic
ĠB irth
Re illy
-le ft
Ġbegan ,
ĠAven ue,
Ġstuff ed
Ġrab bit
Ġsuper vision
Ġspec ially
ink s
Ġsimple :
Ġe ch
Ġautom ation
Ġreven ue.
Ġblu eprint
Ġcateg ory.
Ġcontent ious
Ġlong -time
Ġincons ist
Ġgener ation,
Ġporn ography
Ġblood .
ĊĊMc C
Ġdisreg ard
Ġren amed
ĠLouis ian
Ġnight âĢĻs
ĠâĢĺ A
Ġspot ,
ĊĊH ar
Ġplay ground
Ġprog ress,
ĠCathol ics
Ġlate ,
Ġtrip .
ĠRh ode
Ġlean ing
ĠM oy
ĠB orn
Ġ(A P)
Ġdifferent ial
pri v
ĠÂ Ń
ĠT ah
ĠCom ment
Ġcharg e,
Ġcook ies
Ġfirm ware
Ġancest ors
ĠA RE
Ġhead set
Ġgood by
Ġassault .
ĠVal ve
ĠCharl est
Ġassault ,
ĠSp art
Ġtast es
For ce
Ġunique ly
Ġj ugg
as ion
ĠJ ur
Ġhint ed
Ġnow .âĢĿ
Ġ196 8
Don 't
p arent
Ġepisod e.
Ġexpend iture
Ġl ur
Ġ9 :
up .
ĠCoun sel
Ġbroadcast ing
ĠA zer
ĠT SA
Ġoptim ism
Ġd ice
ot ers
Ġwell -d
Ġat om
Ġself-d riving
Ġ18 00
ĠReg ion
ĠScient ific
ĠSp ark
Ġretrie ve
AC T
Ġ9/ 1
AR Y
Ġdest ined
Ġsm iling
Ġspecific ally,
ĠAd obe
Ġbuck et
itness es
Ġpass ed,
ĠN ate
av es,
Ġexperienc es.
iqu es
ĠâĢľThe se
Ġorganization s.
Ġbro ker
Ġh obby
Ġimag es.
Ġcreated .
ĠAn s
âĢĿ :
ĠO ce
im er
Ġalbum .
Ġres h
Ġtime ?
ĠN L
Ġlight ly
Ġapp s.
Ġst acked
open h
ĠEnglish .
Ġfact ors,
Ġfert ility
Ġharn ess
Ġce ment
ĠCamb od
ĠBlack Berry
Ġplag ued
Ġtal ent.
k ov
L ist
ĠP ain
Ġrepl icate
ĠH our
Ġsw ear
Ġclos ed.
OU R
ĠAust in,
r ise
Ġyour s
ĠW S
ĊĊF ixed
ĠEarth 's
Ġmon key
Ġtalk ,
Ġregulation s.
Ġlog in
Ġcompens ate
ĠP TS
ĠD ot
Ġmil estone
Ġunders c
Ġag ent,
ĠK oh
Ġprohib its
Ġbund le
Ġs ock
Ġclin ics
Ġclass es,
-b reaking
Ġpremium s
ĠCh arter
Ġrev ival
ĠThe ory
Ġwrites :
Ġgun man
Ġbe er,
ĠC ort
Ġwrit ing.
li ber
ĠMill s
Ġn ations.
ĊĊ" G
p g
ĠDe M
Ã ¸
Ġrelax ed
ĊĊB r
Ġmitig ate
ĊĊâĢľS o
Ġback -to
book s
Ġveget arian
[...]
