{"version":"1.0","truncation":null,"padding":null,"added_tokens":[{"id":0,"content":"<|endoftext|>","single_word":false,"lstrip":false,"rstrip":false,"normalized":false,"special":true}],"normalizer":null,"pre_tokenizer":{"type":"ByteLevel","add_prefix_space":false,"trim_offsets":true},"post_processor":null,"decoder":{"type":"ByteLevel","add_prefix_space":false,"trim_offsets":true},"model":{"type":"BPE","dropout":null,"unk_token":"<|endoftext|>","continuing_subword_prefix":"","end_of_word_suffix":"","fuse_unk":false,"vocab":{"<|endoftext|>":0,"Ā":1,"ā":2,"Ă":3,"ă":4,"Ą":5,"ą":6,"Ć":7,"ć":8,"Ĉ":9,"ĉ":10,"Ċ":11,"ċ":12,"Č":13,"č":14,"Ď":15,"ď":16,"Đ":17,"đ":18,"Ē":19,"ē":20,"Ĕ":21,"ĕ":22,"Ė":23,"ė":24,"Ę":25,"ę":26,"Ě":27,"ě":28,"Ĝ":29,"ĝ":30,"Ğ":31,"ğ":32,"Ġ":33,"!":34,"\"":35,"#":36,"$":37,"%":38,"&":39,"'":40,"(":41,")":42,"*":43,"+":44,",":45,"-":46,".":47,"/":48,"0":49,"1":50,"2":51,"3":52,"4":53,"5":54,"6":55,"7":56,"8":57,"9":58,":":59,";":60,"<":61,"=":62,">":63,"?":64,"@":65,"A":66,"B":67,"C":68,"D":69,"E":70,"F":71,"G":72,"H":73,"I":74,"J":75,"K":76,"L":77,"M":78,"N":79,"O":80,"P":81,"Q":82,"R":83,"S":84,"T":85,"U":86,"V":87,"W":88,"X":89,"Y":90,"Z":91,"[":92,"\\":93,"]":94,"^":95,"_":96,"`":97,"a":98,"b":99,"c":100,"d":101,"e":102,"f":103,"g":104,"h":105,"i":106,"j":107,"k":108,"l":109,"m":110,"n":111,"o":112,"p":113,"q":114,"r":115,"s":116,"t":117,"u":118,"v":119,"w":120,"x":121,"y":122,"z":123,"{":124,"|":125,"}":126,"~":127,"ġ":128,"Ģ":129,"ģ":130,"Ĥ":131,"ĥ":132,"Ħ":133,"ħ":134,"Ĩ":135,"ĩ":136,"Ī":137,"ī":138,"Ĭ":139,"ĭ":140,"Į":141,"į":142,"İ":143,"ı":144,"Ĳ":145,"ĳ":146,"Ĵ":147,"ĵ":148,"Ķ":149,"ķ":150,"ĸ":151,"Ĺ":152,"ĺ":153,"Ļ":154,"ļ":155,"Ľ":156,"ľ":157,"Ŀ":158,"ŀ":159,"Ł":160,"ł":161,"¡":162,"¢":163,"£":164,"¤":165,"¥":166,"¦":167,"§":168,"¨":169,"©":170,"ª":171,"«":172,"¬":173,"Ń":174,"®":175,"¯":176,"°":177,"±":178,"²":179,"³":180,"´":181,"µ":182,"¶":183,"·":184,"¸":185,"¹":186,"º":187,"»":188,"¼":189,"½":190,"¾":191,"¿":192,"À":193,"Á":194,"Â":195,"Ã":196,"Ä":197,"Å":198,"Æ":199,"Ç":200,"È":201,"É":202,"Ê":203,"Ë":204,"Ì":205,"Í":206,"Î":207,"Ï":208,"Ð":209,"Ñ":210,"Ò":211,"Ó":212,"Ô":213,"Õ":214,"Ö":215,"×":216,"Ø":217,"Ù":218,"Ú":219,"Û":220,"Ü":221,"Ý":222,"Þ":223,"ß":224,"à":225,"á":226,"â":227,"ã":228,"ä":229,"å":230,"æ":231,"ç":232,"è":233,"é":234,"ê":235,"ë":236,"ì":237,"í":238,"î":239,"ï":240,"ð":241,"ñ":242,"ò":243,"ó":244,"ô":245,"õ":246,"ö":247,"÷":248,"ø":249,"ù":250,"ú":251,"û":252,"ü":253,"ý":254,"þ":255,"ÿ":256,"Ġt":257,"Ġa":258,"he":259,"in":260,"re":261,"Ġthe":262,"on":263,"er":264,"Ġs":265,"Ġw":266,"at":267,"Ġo":268,"en":269,"Ġc":270,"it":271,"is":272,"an":273,"or":274,"Ġb":275,"Ġf":276,"es":277,"ed":278,"ing":279,"Ġp":280,"ou":281,"Ġan":282,"Ġto":283,"al":284,"ar":285,"Ġm":286,"Ġin":287,"Ġof":288,"Ġh":289,"Ġd":290,"ĊĊ":291,"as":292,"Ġand":293,"ic":294,"âĢ":295,"Ġth":296,"le":297,"om":298,"ion":299,"ll":300,"ent":301,"Ġn":302,"Ġl":303,"Ġre":304,"st":305,"ve":306,"ly":307,"Ġe":308,"Ġbe":309,"Ġg":310,"ro":311,"id":312,"ut":313,"ot":314,"ac":315,"ĠT":316,"Ġon":317,"Ġthat":318,"ĠI":319,"ay":320,"Ġis":321,"ĠS":322,"im":323,"et":324,"am":325,"ow":326,"ad":327,"Ġfor":328,"âĢĻ":329,"ig":330,"se":331,"ver":332,"ĠA":333,"ld":334,"ur":335,"ct":336,"ĠC":337,"Ġu":338,"Ġst":339,"Ġy":340,"Ġit":341,"Ġhe":342,"ir":343,"ith":344,"Ġwh":345,"ation":346,"ĠM":347,"ce":348,"ter":349,"Ġwe":350,"ol":351,"Ġwith":352,"il":353,"Ġas":354,"ĠB":355,"ill":356,"ch":357,"nd":358,"s,":359,"Ġyou":360,"Ġwas":361,"ke":362,"ĠP":363,"s.":364,"ĠâĢ":365,"Ġcon":366,"Ġde":367,"Ġr":368,"âĢĻs":369,"her":370,"ate":371,"Ġat":372,"if":373,"Ġha":374,"ag":375,"Ġse":376,"ĠW":377,"ore":378,"Ġpro":379,"ĠH":380,"pp":381,"ers":382,"Ġare":383,"ment":384,"ul":385,"ri":386,"Ġcom":387,"est":388,"ĠD":389,"and":390,"ist":391,"op":392,"ain":393,"ĠR":394,"ĠThe":395,"rom":396,"igh":397,"ort":398,"us":399,"Ġne":400,"Ġ1":401,"Ġ2":402,"ĠF":403,"od":404,"Ġex":405,"um":406,"un":407,"Ġnot":408,"Ġhave":409,"Ġv":410,"ab":411,"ĠN":412,"ould":413,"âĢĿ":414,"ity":415,"Ġor":416,"res":417,"em":418,"Ġby":419,"art":420,"Ġ(":421,"ant":422,"Ġfrom":423,"ive":424,"ĠG":425,"Ġal":426,"os":427,"'s":428,"Ġsu":429,"th":430,"el":431,"oc":432,"Ġsh":433,"Ġthis":434,"ĊĊT":435,"nt":436,"ĠL":437,"ess":438,"ight":439,"qu":440,"Ġsa":441,"ust":442,"Ġle":443,"pe":444,"ies":445,"Ġch":446,"end":447,"out":448,"Ġab":449,"ĠE":450,"Ġhas":451,"all":452,"ack":453,"ie":454,"red":455,"Ġpl":456,"ally":457,"ĠâĢľ":458,"Ġgo":459,"ĠJ":460,"e.":461,"Ġhis":462,"e,":463,"ear":464,"ard":465,"ost":466,"gh":467,"iv":468,"Ġtr":469,"our":470,"ast":471,"Ġj":472,"ĠO":473,"ap":474,"ak":475,"00":476,"ome":477,"ud":478,"Ġsaid":479,"Ġdo":480,"Ġthey":481,"Ġbut":482,"Ġwill":483,"Ġwor":484,"Ġcan":485,"rou":486,"Ġwhe":487,"ĠU":488,"Ġall":489,"Ġk":490,"ich":491,"Ġwho":492,"ok":493,"ĊĊThe":494,"Ġint":495,"Ġout":496,"Ġtheir":497,"ther":498,"ial":499,"ure":500,"ong":501,"ff":502,"Ġ\"":503,"ide":504,"Ġmore":505,"ge":506,"Ġup":507,"ep":508,"ect":509,"ike":510,"act":511,"pl":512,"Ġad":513,"Ġabout":514,"ans":515,"ber":516,"ame":517,"Ġso":518,"ated":519,"ous":520,"ra":521,"Ġwere":522,"pt":523,"are":524,"Ġhad":525,"Ġwould":526,"cc":527,"Ġme":528,"ia":529,"one":530,"ĠK":531,"Ġag":532,"Ġcl":533,"ub":534,"og":535,"ake":536,"Ġim":537,"Ġ20":538,"Ġwhich":539,"Ġone":540,"ĊĊA":541,"Ġoff":542,"Ġte":543,"very":544,"ice":545,"Ġcont":546,"Ġus":547,"ind":548,"Ġbeen":549,"Ġcomp":550,"age":551,"iz":552,"Ġun":553,"so":554,"Ġen":555,"Ġyear":556,"ign":557,"ĠSt":558,"au":559,"per":560,"ine":561,"ĠTh":562,"âĢĻt":563,"Ġlike":564,"ew":565,"ary":566,"Ġtim":567,"Ġpe":568,"ven":569,"ip":570,"Ġinc":571,"ook":572,"Ġman":573,"es,":574,"ere":575,"ose":576,"ions":577,"ry":578,"ĊĊI":579,"Ġper":580,"Ġres":581,"Ġsp":582,"mer":583,"able":584,"ord":585,"ire":586,"ue":587,"Ġother":588,"ople":589,"Ġsome":590,"ile":591,"ĠIn":592,"es.":593,"Ġnew":594,"Ġ201":595,"Ġover":596,"ence":597,"Ġthere":598,"ib":599,"Ġthan":600,"Ġalso":601,"Ġdis":602,"ass":603,"Ġbec":604,"own":605,"int":606,"ount":607,"ical":608,"Ġthem":609,"port":610,"ult":611,"ough":612,"Ġar":613,"Ġyour":614,"Ġapp":615,"Ġwork":616,"ite":617,"Ġwhen":618,"Ġpeople":619,"Ġpart":620,"ru":621,"ance":622,"Ġwhat":623,"ail":624,"fter":625,"Ġsc":626,"ond":627,"ace":628,"ick":629,"Ġqu":630,"Ġjust":631,"orm":632,"ĠCh":633,"Ġits":634,"Ġany":635,"av":636,"Ġsay":637,"ress":638,"ree":639,"ach":640,"ĠY":641,"ĠIt":642,"Ġkn":643,"Ġrec":644,"ian":645,"Ġget":646,"ction":647,"Ġmy":648,"Ġher":649,"reat":650,"Ġif":651,"y,":652,"Ġtw":653,"Ġinto":654,"irst":655,"Ġplay":656,"ound":657,"ink":658,"ĠV":659,"vel":660,"ition":661,"ang":662,"Ġno":663,"ark":664,"du":665,"lic":666,"ident":667,"Ġour":668,"Ġ3":669,"ens":670,"Ġpre":671,"ĊĊS":672,"Ġco":673,"ob":674,"wn":675,"ause":676,"hing":677,"Ġpol":678,"ations":679,"itt":680,"Ġ-":681,"ĊĊâĢ":682,"Ġro":683,"Ġafter":684,"Ġshe":685,"ase":686,"ove":687,"Ġfirst":688,"amp":689,"Ġhow":690,"ed.":691,"Ġcould":692,"Ġacc":693,"ory":694,"'t":695,"ck":696,"ĠHe":697,"nder":698,"ild":699,"Ġpo":700,"aw":701,"Ġhim":702,"vers":703,"Ġfe":704,"Ġatt":705,"Ġonly":706,"ning":707,"Ġtwo":708,"ict":709,"ne":710,"hed":711,"ade":712,"Ġpr":713,"Ġcomm":714,"ious":715,"Ġser":716,"Ġspe":717,"ov":718,"Ġ19":719,"Ġbl":720,"form":721,"ish":722,"Ġback":723,"Ġbet":724,"ft":725,"Ġact":726,"ĊĊâĢľ":727,"Ġmost":728,"ĊĊW":729,"Ġtime":730,"we":731,"day":732,"ors":733,"Ġdec":734,"ed,":735,"er,":736,"ĠâĢĵ":737,"ing,":738,"y.":739,"Ġfo":740,"nâĢĻt":741,"ek":742,"Ġam":743,"Ġdid":744,"round":745,"rough":746,"Ġagain":747,"Ġwant":748,"ĠâĢĶ":749,"iff":750,"Ġway":751,"ings":752,"way":753,"ason":754,"Ġunder":755,"Ġdes":756,"Ġnow":757,"ing.":758,"Ġbecause":759,"oy":760,"ublic":761,"ual":762,"ates":763,"ock":764,"Ġcons":765,"lud":766,"rit":767,"ull":768,"Ġeven":769,"ĊĊ\"":770,"sel":771,"Ġinv":772,"anc":773,"Ġneed":774,"Ġadd":775,"tern":776,"Ġknow":777,"man":778,".âĢĿ":779,"Ġ4":780,"ĠWe":781,"ec":782,"Ġsec":783,"iss":784,"ĊĊB":785,"The":786,"Ġevery":787,"te":788,"Ġ$":789,"Ġdon":790,"Ġmake":791,"Ġind":792,"fore":793,"uch":794,"Ġsupp":795,"pect":796,"Ġem":797,"urn":798,"old":799,"ons":800,"ater":801,"Ġwhere":802,"Ġthese":803,"vern":804,"ĠUn":805,"enc":806,"ump":807,"Ġbu":808,"Ġlook":809,"ational":810,"Ġthink":811,"ject":812,"Ġday":813,"vent":814,"ĠAnd":815,"Ġ5":816,"xt":817,"ise":818,"Ġright":819,"ĠTr":820,"Ġbeing":821,"ily":822,"Ġrem":823,"row":824,"Ġcall":825,"Ġpos":826,"ĠBut":827,"Ġmay":828,"Ġinclud":829,"Ġlast":830,"ng":831,"Ġdef":832,"ank":833,"Ġthen":834,"meric":835,"Ġmany":836,"Ġpres":837,"Ġdiff":838,"iew":839,"ood":840,"a,":841,"Ġfl":842,"Ġreg":843,"Ġthrough":844,"Ġrel":845,"Ġimp":846,"Ġsaid.":847,"arg":848,"Ġshould":849,"Ġthose":850,"Ġshow":851,"ont":852,"Ġstate":853,"Ġvery":854,"lect":855,"Ġmuch":856,"aking":857,"rib":858,"other":859,"uring":860,"ating":861,"ĊĊM":862,"Ġsy":863,"Ġbr":864,"ities":865,",âĢĿ":866,"Ġsee":867,"Ġcount":868,"ath":869,"Ġwell":870,"ell":871,"ased":872,"hat":873,"ative":874,"und":875,"Ġdown":876,"Ġown":877,"ific":878,"ĠThis":879,"ĊĊH":880,"ited":881,"Ġbel":882,"Ġph":883,"hen":884,"arly":885,"Ġend":886,"oth":887,"vernment":888,"ĠAmeric":889,"ork":890,"ince":891,"Ġlong":892,"Ġuse":893,"ower":894,"Ġreport":895,"Ġmon":896,"ss":897,"Ġfin":898,"Ġbefore":899,"Ġstart":900,"ting":901,"Ġass":902,"Ġteam":903,"Ġdoes":904,"li":905,"omet":906,"Ġke":907,"ward":908,"ĠNew":909,"ĊĊC":910,"alk":911,"gr":912,"ible":913,"Ġ200":914,"up":915,"ble":916,"Ġweek":917,"lp":918,"oun":919,"ĊĊIn":920,"erson":921,"Ġoffic":922,"Ġworld":923,"ert":924,"ren":925,"Ġsm":926,".\"":927,"Ġsuch":928,"Ġgood":929,"Ġstud":930,"ful":931,"Ġmade":932,"ually":933,"llow":934,"Ġgoing":935,"ĊĊF":936,"olog":937,"Ġac":938,"ener":939,"Ġagainst":940,"ient":941,"ments":942,"ility":943,"Ġsur":944,"illion":945,"les":946,"Ġgovernment":947,"ced":948,"Ġset":949,"Ġpoint":950,"Ġgu":951,"ty":952,"Ġhelp":953,"Ġent":954,"ved":955,"Ġstill":956,"Ġyears":957,"Ġmin":958,"Ġlead":959,"Ġeff":960,"ied":961,"Ġwhile":962,"gan":963,"Ġsub":964,").":965,"Ġ[":966,"roup":967,"n't":968,"ix":969,"..":970,"stem":971,"ism":972,"o,":973,"ĊĊO":974,"Ġprodu":975,"Ġtake":976,"ax":977,"ween":978,"Ġgr":979,"Ġconf":980,"ution":981,"Ġcar":982,"Ġsim":983,"Ġstr":984,"Ġinst":985,"ving":986,"er.":987,"Ġcol":988,"ĊĊP":989,"Ġinter":990,"Ġcr":991,"ange":992,"000":993,"ef":994,"Ġob":995,"Ġlaw":996,"Ġ6":997,"Ġdisc":998,"Ġthough":999,"self":1000,"Ġprov":1001,"Ġop":1002,"Ġhigh":1003,"Ġdiffere":1004,"Ġbetween":1005,"land":1006,"uss":1007,"Ġsign":1008,"read":1009,"ever":1010,"cent":1011,"Ġnum":1012,"arch":1013,"air":1014,"ues":1015,"hip":1016,"Ġrun":1017,"gg":1018,"Ġsomet":1019,"atch":1020,"velop":1021,"Ġter":1022,"Ġaround":1023,"ool":1024,"Ġins":1025,"),":1026,"Ġsame":1027,"Ġref":1028,"ys":1029,"Ġmed":1030,"Ġfound":1031,"Ġret":1032,"Ġhere":1033,"Ġtrans":1034,"Ġmem":1035,"ouse":1036,"Ġcompan":1037,"als":1038,"ĠitâĢĻs":1039,",\"":1040,"Ġgam":1041,"Ġthree":1042,"Ġreal":1043,"ters":1044,"ĠRe":1045,"io":1046,"Ġreally":1047,"ather":1048,"âĢĻre":1049,"ave":1050,"ah":1051,"Ġsupport":1052,"ĠTrump":1053,"Ġcour":1054,"ces":1055,"Ġed":1056,"Ġgroup":1057,"Ġlif":1058,"ĠYou":1059,"Ġsystem":1060,"Ġexp":1061,"Ġpublic":1062,"ly,":1063,"a.":1064,"Ġfam":1065,"ime":1066,"Ġspec":1067,"ĠAr":1068,"led":1069,"Ġhand":1070,"ern":1071,"cept":1072,"az":1073,"Ġmod":1074,"Ġcur":1075,"con":1076,"ts":1077,"ĠLe":1078,"ics":1079,"Ġgreat":1080,"Ġwom":1081,",000":1082,"ĊĊR":1083,"Ġhapp":1084,"ense":1085,"alth":1086,"Ġused":1087,"Ġ10":1088,"Ġext":1089,"ĊĊD":1090,"ision":1091,"Ġrep":1092,"Ġexper":1093,"ton":1094,"ists":1095,"ĠCl":1096,"Ġfr":1097,"Ġfind":1098,"cess":1099,"omm":1100,"ĠIs":1101,"Ġfact":1102,"Ġboth":1103,"--":1104,"Ġmonth":1105,"ience":1106,"Ġbig":1107,"Ġread":1108,"irect":1109,"ĠThey":1110,"Ġcap":1111,"its":1112,"ying":1113,"ner":1114,"Ġtold":1115,"ĠWh":1116,"Ġwar":1117,"ular":1118,"ation.":1119,"Ġdet":1120,"Ġduring":1121,"ents":1122,"Ġsl":1123,"S.":1124,"min":1125,"ered":1126,"Ġsince":1127,"Ġiss":1128,"Ġcre":1129,"Ġdevelop":1130,"Ġ7":1131,"pr":1132,"ĠAl":1133,"Ġaut":1134,"oh":1135,"Ġperson":1136,"ording":1137,"Ġfew":1138,"Ġbo":1139,"ĠAs":1140,"get":1141,"ation,":1142,"Ġleg":1143,"son":1144,"Ġpolit":1145,"ared":1146,"Ġcent":1147,"Ġfollow":1148,"ĠSh":1149,"orth":1150,"ĠIâĢĻ":1151,"Ġlot":1152,"ically":1153,"ines":1154,"ph":1155,"ivers":1156,"Ġbelie":1157,"ures":1158,"aj":1159,"Ġexpl":1160,"Ġplan":1161,"Ġopp":1162,"Ġcontin":1163,"ric":1164,"Ġprot":1165,"Ġask":1166,"Ġgame":1167,"akes":1168,"ms":1169,"rent":1170,"Ġput":1171,"ially":1172,"Ġfil":1173,"his":1174,"ash":1175,"Ġcle":1176,"Ġinvest":1177,"Ġgener":1178,"chool":1179,"Ġmark":1180,"Ġrequ":1181,"Ġanother":1182,"erv":1183,"Ġvot":1184,"hes":1185,"Ġresp":1186,"ĊĊN":1187,"Ġsomething":1188,"ex":1189,"Ġcamp":1190,"Ġ8":1191,"att":1192,"com":1193,"iet":1194,"ĠFr":1195,"ĠIf":1196,"Ġdifferent":1197,"med":1198,"Ġrele":1199,"Ġcommun":1200,"Ġseason":1201,"Ġche":1202,"ale":1203,"Ġfar":1204,"ĠdonâĢĻt":1205,"Ġloc":1206,"Ġart":1207,"Ġhead":1208,"ives":1209,"Ġsays":1210,"Ġcor":1211,"ĠU.":1212,"Ġinf":1213,"Ġnext":1214,"erest":1215,"Ġmight":1216,"ret":1217,"ĠDe":1218,"Ġposs":1219,"Ġchild":1220,"Ġpass":1221,"Ġsoc":1222,"Ġpercent":1223,"Ġnever":1224,"view":1225,"Ġdep":1226,"Ġeach":1227,"Ġbus":1228,"ĠRep":1229,"Ġbest":1230,"Ġgot":1231,"Ġquest":1232,"Ġopen":1233,"Ġsecond":1234,"Ġallow":1235,"ital":1236,"Ġmet":1237,"-b":1238,"Ġtoo":1239,"rat":1240,"Ġ9":1241,"Ġdem":1242,"Ġpower":1243,"ross":1244,"ĠThat":1245,"ield":1246,"ittle":1247,"ĊĊL":1248,"Ġpost":1249,"Ġseem":1250,"Ġfeel":1251,"Ġit.":1252,"ĠFor":1253,"Ġnumber":1254,"Ġchar":1255,"ers,":1256,"Ġmillion":1257,"Ġpri":1258,"nce":1259,"Ġdat":1260,"ars":1261,"gram":1262,"the":1263,"Ġconc":1264,"ĠU.S.":1265,"ple":1266,"ĠAn":1267,"Ġev":1268,"Ġcome":1269,"Ġcare":1270,"Ġwin":1271,"Ġhard":1272,"ĠUS":1273,"ee":1274,"Ġdirect":1275,"ik":1276,"ten":1277,"orn":1278,"ves":1279,"ired":1280,"Ġincre":1281,"Ġincluding":1282,"uc":1283,"ĠPro":1284,"Ġcontro":1285,"Ġdist":1286,"Ġtop":1287,"Ġcountry":1288,"ized":1289,"ug":1290,"Ġevent":1291,"Ġord":1292,"Ġrecent":1293,"Ġimport":1294,"Ġinform":1295,"conom":1296,"Ġav":1297,"Ġwr":1298,"Ġbuild":1299,"Ġcomple":1300,"chn":1301,"Ġwithout":1302,"leg":1303,"We":1304,"Ġresult":1305,"Ġproble":1306,"Ġchang":1307,"Ġide":1308,"Ġfour":1309,"aim":1310,"Ġadv":1311,"bers":1312,"Ġbetter":1313,"Ġhum":1314,"Ġstand":1315,"ĠBl":1316,"uck":1317,"âĢĶ":1318,"ier":1319,"riend":1320,"Ġmov":1321,"ute":1322,"ages":1323,"Ġgl":1324,"Ġlet":1325,"ral":1326,"Ġtalk":1327,"ĠâĢĺ":1328,"ize":1329,"Ġinterest":1330,"Ġlittle":1331,"-s":1332,"Ġpay":1333,"ets":1334,"Ġtri":1335,"uro":1336,"ished":1337,"Ġann":1338,"Ġel":1339,"Ġturn":1340,"ĠAmerican":1341,"Ġmil":1342,"ature":1343,"Ġpartic":1344,"ever,":1345,"Ġbro":1346,"Ġappro":1347,"ead":1348,"ĊĊE":1349,"Ġbeh":1350,"le,":1351,"arn":1352,"Ġkeep":1353,"Ġdr":1354,"Ġattack":1355,"inal":1356,"Ġcalled":1357,"Ġserv":1358,"ract":1359,"ĠInd":1360,"Ġleft":1361,"thing":1362,"Ġrest":1363,"Ġmove":1364,"Ġfull":1365,"Ġ.":1366,"ajor":1367,"Ġthings":1368,"Ġpop":1369,"ody":1370,"ĠSc":1371,"ling":1372,"ices":1373,"Ġ0":1374,"ers.":1375,"Ġless":1376,"imate":1377,"ably":1378,"Ġprogram":1379,"osed":1380,"iness":1381,"Ġmain":1382,"ion.":1383,"Ġ'":1384,"ĠThere":1385,"ins":1386,"ways":1387,"Ġtest":1388,"rem":1389,"app":1390,"Ġeconom":1391,"Ġusing":1392,"ertain":1393,"ama":1394,"Ġform":1395,"Ġlist":1396,"-c":1397,"-f":1398,"Ġpresident":1399,"Ġschool":1400,"ional":1401,"Ġfun":1402,"lection":1403,"Ġeas":1404,"ott":1405,"ering":1406,"vious":1407,"Ġsmall":1408,"It":1409,"ĠZ":1410,"hor":1411,"Ġwomen":1412,"Ġeffect":1413,"ann":1414,"Ġcurrent":1415,"Ġval":1416,"'re":1417,"work":1418,"reen":1419,"Ġpolic":1420,"Ġdri":1421,"ised":1422,"Ġsit":1423,"Ġgiv":1424,"Ġprom":1425,"ion,":1426,"Ġlevel":1427,"Ġit's":1428,"-t":1429,"ĠOb":1430,"Ġalread":1431,"o.":1432,"Ġrece":1433,"ird":1434,"Ġofficial":1435,"oss":1436,"ploy":1437,"Ġexpect":1438,"aign":1439,"atter":1440,"Ġhappen":1441,"Ġhist":1442,"Ġmone":1443,"ĠAt":1444,"Ġjob":1445,"Ġbre":1446,"less":1447,"ator":1448,"eng":1449,"Ġproject":1450,"Ġreason":1451,"ants":1452,"gy":1453,"Ġnews":1454,"oin":1455,"ohn":1456,"Ġtechn":1457,"Ġsol":1458,"ained":1459,"Ġpolice":1460,"Ġunt":1461,"Ġhome":1462,"Ġclaim":1463,"Ġthing":1464,"Ġalready":1465,"ness":1466,"Ġhealth":1467,"Ġpast":1468,"ĠUnited":1469,"Ġmajor":1470,"arge":1471,"ration":1472,"iversity":1473,"Ġorgan":1474,"Ġty":1475,"Ġrese":1476,"ided":1477,"Ġbook":1478,"-p":1479,"Ġdesign":1480,"Ġprof":1481,"20":1482,"Ġable":1483,"aff":1484,"Ġcity":1485,"stand":1486,"nes":1487,"ĊĊBut":1488,"ĊĊIt":1489,"Ġvis":1490,"Ġalways":1491,"ĠHow":1492,"ĠPh":1493,"on,":1494,"ior":1495,"Ġbas":1496,"Ġaway":1497,"Ġcampaign":1498,"rap":1499,"urity":1500,"ĠPres":1501,"ruct":1502,"Ġ--":1503,"outh":1504,"Ġwhy":1505,"ĠShe":1506,"eral":1507,"ains":1508,"Ġgrow":1509,"used":1510,"Ġoper":1511,"oot":1512,"Ġimportant":1513,"ĠQ":1514,"lin":1515,"Ġleast":1516,"Ġhop":1517,"here":1518,"Ġcost":1519,"ĠChr":1520,"Ġplace":1521,"Ġkill":1522,"ox":1523,"ured":1524,"Ġold":1525,"-y":1526,"ĠAd":1527,"Ġcas":1528,"line":1529,"Ġsk":1530,"urs":1531,"Ġtax":1532,"Ġfac":1533,"Ġtell":1534,"Ġstre":1535,"ĠBe":1536,"Ġmust":1537,"Ġenough":1538,"Ġdeal":1539,"ĠGo":1540,"let":1541,"Ġest":1542,"Ġfamily":1543,"wit":1544,"ural":1545,"vert":1546,"Ġrecord":1547,"Ġvide":1548,"Ġaff":1549,"ari":1550,"Ġpat":1551,"Ġcame":1552,"Ġmen":1553,"ĠRepublic":1554,"r.":1555,"ĠCan":1556,"gin":1557,"ment.":1558,"Ġfriend":1559,"ies,":1560,"Ġmaking":1561,"ister":1562,"Ġkind":1563,"Ġview":1564,"ror":1565,"__":1566,"Ġconst":1567,"Ġmarket":1568,"Ġmean":1569,"Ġstory":1570,"ĊĊG":1571,"Ġdeb":1572,"Ġfree":1573,"ocrat":1574,"Ġcompany":1575,"Ġlife":1576,"Ġpolitical":1577,"Ġuntil":1578,"ĠSp":1579,"ency":1580,"ush":1581,"Ġdata":1582,"ron":1583,"Ġve":1584,"aining":1585,"Ġtook":1586,"Ġaccording":1587,"ending":1588,"arent":1589,"Ġproblem":1590,"Ġformer":1591,"Ġintern":1592,"Ġhuman":1593,"alf":1594,"oad":1595,"Ġfund":1596,"ĠJohn":1597,"augh":1598,"be":1599,"ention":1600,"Ġfore":1601,"Ġactually":1602,"ĠI'":1603,"Ġ18":1604,"ality":1605,"inc":1606,"Ġair":1607,"Ġmiss":1608,"ĊĊThis":1609,"Ġ12":1610,"iol":1611,"ĠSo":1612,"ĠDem":1613,"ĠComm":1614,"Ġes":1615,"ware":1616,"Ġgive":1617,"Ġwon":1618,"ode":1619,"Ġbecome":1620,"-year":1621,"ĠEuro":1622,"Ġworking":1623,"Ġoften":1624,"Ġbit":1625,"ember":1626,"Ġlarge":1627,"Ġever":1628,"Ġ15":1629,"Ġclass":1630,"Ġbusiness":1631,"ĠMar":1632,"crib":1633,"ĠRuss":1634,"ider":1635,"Ġelect":1636,"most":1637,"ĠPl":1638,"ies.":1639,"ina":1640,"-d":1641,"uture":1642,"Ġopt":1643,"ĠMc":1644,"oint":1645,"cl":1646,"Ġdev":1647,"Ġtoday":1648,"pped":1649,"Ġsever":1650,"Ġchange":1651,"ĠPresident":1652,"Ġnight":1653,"Ġedit":1654,"Ġmedia":1655,"ĠSy":1656,"Ġreturn":1657,"pec":1658,"Ġra":1659,"Ġ$1":1660,"Ġword":1661,"side":1662,"arli":1663,"Ġdon't":1664,"imes":1665,"Ġla":1666,"ney":1667,"ising":1668,"gu":1669,"Ġinformation":1670,"ĠMay":1671,"Ġseen":1672,"aken":1673,"ived":1674,"Ġappear":1675,"raft":1676,"ither":1677,"Ġfive":1678,"Ġmeet":1679,"Ġperform":1680,"ĠSe":1681,"Ġ=":1682,"idd":1683,"Ġearly":1684,"Ġsing":1685,"Ġwhether":1686,"ccess":1687,"ĠMan":1688,"Ġyoung":1689,"Ġpot":1690,"Ġcharac":1691,"Ġhaving":1692,"Ġchildren":1693,"Ġsure":1694,"ĠYork":1695,"mber":1696,"Ġseveral":1697,"empt":1698,"ched":1699,"Ġwent":1700,"ĠOr":1701,"Ġprocess":1702,"ides":1703,"Ġmilit":1704,"Ġcrit":1705,"ly.":1706,"bs":1707,"ĠCon":1708,"ortun":1709,"ĠAll":1710,"iqu":1711,"Ġcase":1712,"Ġmoney":1713,"an,":1714,"aring":1715,"Ġprop":1716,"Ġsocial":1717,"idence":1718,"iate":1719,"rop":1720,"Ġcontrol":1721,"artment":1722,"Ġhour":1723,"Ġlikely":1724,"Ġalong":1725,"Ġcertain":1726,"Ġinvol":1727,"ĠBr":1728,"Ġshort":1729,"ĠEurope":1730,"enn":1731,"Ġequ":1732,"Ġlater":1733,"Ġinvestig":1734,"ands":1735,"Ġvers":1736,"ified":1737,"iver":1738,"ĠCol":1739,"Ġ11":1740,"ĠItâĢĻs":1741,"Ġhom":1742,"Ġfuture":1743,"Ġfight":1744,"Ġocc":1745,"Ġstat":1746,"aps":1747,"ger":1748,"ential":1749,"Ġben":1750,"Ġpress":1751,"Ġsex":1752,"-1":1753,"Ġcourse":1754,"ball":1755,"Ġthought":1756,"Ġauthor":1757,"ĠCar":1758,"Ġexamp":1759,"Ġquestion":1760,"Ġwrit":1761,"âĢĻve":1762,"ium":1763,"Ġant":1764,"ourn":1765,"Ġplac":1766,"Ġamong":1767,"-m":1768,"Ġcho":1769,"Ġonce":1770,"ĠOn":1771,"Ġlocal":1772,"ames":1773,"Ġcommunity":1774,"isc":1775,"ison":1776,"Ġviol":1777,"ology":1778,"Ġpriv":1779,"rew":1780,"Ġ199":1781,"ony":1782,"Ġunderstand":1783,"Ġproduct":1784,"Ġyet":1785,"Ġavail":1786,"ederal":1787,"Ġprotect":1788,"Ġpossible":1789,"ald":1790,"Ġwithin":1791,"ĠIâĢĻm":1792,"Ġdoing":1793,"urch":1794,"Ġhold":1795,"ggest":1796,"Ġknown":1797,"ians":1798,"Ġacross":1799,"ĠâĢľI":1800,"nect":1801,"oll":1802,"Ġactiv":1803,"ĠState":1804,"Ġannoun":1805,"ĠHouse":1806,"uff":1807,"Ġmakes":1808,"icle":1809,"Ġeng":1810,"Ġfail":1811,"Ġ2016":1812,"ensive":1813,"ivid":1814,"ards":1815,"Ġsuggest":1816,"lf":1817,"eb":1818,"Ġcut":1819,"Ġsaid,":1820,"itive":1821,"Ġwater":1822,"Ġgetting":1823,"ĊĊJ":1824,"Ġbelieve":1825,"Ġprob":1826,"Ġorig":1827,"ĠObama":1828,"acy":1829,"ĠWhen":1830,"Ġstrong":1831,"ment,":1832,"for":1833,"Ġgiven":1834,"by":1835,"ane":1836,"Ġline":1837,"You":1838,"ĠDemocrat":1839,"ubl":1840,"iber":1841,"Ġmus":1842,"ley":1843,"ended":1844,"Ġtrad":1845,"Ġnon":1846,"isk":1847,"iting":1848,"Ġorder":1849,"arm":1850,"ia,":1851,"por":1852,"ĠAm":1853,"Ġfre":1854,"Ġsent":1855,"ĠUniversity":1856,"Ġlight":1857,"orld":1858,"ament":1859,"ored":1860,"ashing":1861,"Ġsaf":1862,"iron":1863,"ĠSen":1864,"ĠTe":1865,"ober":1866,"ay,":1867,"Ġfilm":1868,"Ġident":1869,"Ġit,":1870,"Ġsour":1871,"Ġnet":1872,"Ġnational":1873,"Ġlim":1874,"ER":1875,"Ġmeans":1876,"Ġcreat":1877,"Ġplayers":1878,"Ġindust":1879,"Ġ&":1880,"Ġmembers":1881,"rest":1882,"Ġi":1883,"Ġclose":1884,"ĠChrist":1885,"ted":1886,"els":1887,"ization":1888,"Ġavailable":1889,"ĠMin":1890,"Ġ30":1891,"Ġca":1892,"Ġlove":1893,"urther":1894,"Ġcond":1895,"Ġ2015":1896,"iving":1897,"Ġemploy":1898,"Ġlow":1899,"br":1900,"Ġaccount":1901,"ĠCent":1902,"aster":1903,"over":1904,"Ġvideo":1905,"Ġcomes":1906,"Ġ,":1907,"not":1908,"Ġhig":1909,"gress":1910,"Ġfoc":1911,"ĠFl":1912,"Ġsuccess":1913,"Ġcourt":1914,"Ġdays":1915,"lement":1916,"book":1917,"ĠWhat":1918,"Ġdeath":1919,"ĊĊ1":1920,"Ġmom":1921,"Ġalmost":1922,"Ġtrying":1923,"Ġname":1924,"50":1925,"ury":1926,"Ġtoget":1927,"Ġtogether":1928,"ief":1929,"aged":1930,"Ġclear":1931,"ĠdidnâĢĻt":1932,"Ġbased":1933,"ĠCom":1934,"âĢĻll":1935,"2.":1936,"use":1937,"Ġasked":1938,"Ġfollowing":1939,"ĊĊHe":1940,"Ġexperience":1941,"Ġimpro":1942,"ĊĊAs":1943,"Ġsix":1944,"Ġrul":1945,"ript":1946,"Ġbill":1947,"ustom":1948,"unch":1949,"resent":1950,"ĠX":1951,"al,":1952,"Ġhalf":1953,"Ġlive":1954,"urd":1955,"Ġlooking":1956,"ĠBro":1957,"ability":1958,"...":1959,"ĠCanad":1960,"rict":1961,"erence":1962,"Ġstarted":1963,"minist":1964,"ster":1965,"ission":1966,"ilar":1967,"Ġ2014":1968,"itional":1969,"Ġ/":1970,"ued":1971,"Ġpract":1972,"rael":1973,"Ġeffort":1974,"oci":1975,"cher":1976,"ries":1977,"Ġvict":1978,"Ġphot":1979,"ĊĊU":1980,"Ġfav":1981,"Ġreported":1982,"ulation":1983,"----":1984,"Ġdecision":1985,"âĢ¦":1986,"sh":1987,"Ġpick":1988,"Ġcompet":1989,"Ġsecurity":1990,"ague":1991,"Ġaccess":1992,"Ġvar":1993,"Ġbad":1994,"though":1995,"aid":1996,"Ġmor":1997,"i,":1998,"Ġtaken":1999,"Ġbehind":2000,"ream":2001,"Ġ]":2002,"rodu":2003,"3.":2004,"ots":2005,"ograp":2006,"hile":2007,"Ġnear":2008,"ĠClint":2009,"ĠDon":2010,"Ġtime,":2011,"or,":2012,"erman":2013,"Ġsal":2014,"Ġentire":2015,"Ġlat":2016,"Ġanal":2017,"Ġthreat":2018,"ocu":2019,"off":2020,"Ġmar":2021,"Ġmilitary":2022,"Ġconcern":2023,"ividual":2024,"une":2025,"back":2026,"osp":2027,"Ġquick":2028,"rug":2029,"ĠPol":2030,"le.":2031,"Ġpar":2032,"raw":2033,"Ġpresent":2034,"Ġdone":2035,"ĠNorth":2036,"ĠDep":2037,"Ġtry":2038,"ories":2039,"ĠEx":2040,"Ġside":2041,"Ġpubl":2042,"ĠEng":2043,"Ġmult":2044,"uge":2045,"of":2046,"ler":2047,"Ġdiscuss":2048,"ĠPr":2049,"Ġtimes":2050,"ev":2051,"Ġtot":2052,"ĠAf":2053,"-l":2054,"Ġprevious":2055,"Ġfall":2056,"Ġfood":2057,"Ġland":2058,"Ġproper":2059,"Ġgames":2060,"af":2061,"verage":2062,"Ġbring":2063,"Ġrather":2064,"Ġsum":2065,"Ġcomplete":2066,"Ġ16":2067,"ĠTo":2068,"ĠOne":2069,"ĠthatâĢĻs":2070,"Ġspecial":2071,"Ġpret":2072,"ged":2073,"Ġfoot":2074,"Ġthem.":2075,"ĠSec":2076,"Ġsw":2077,"Ġer":2078,"ĠWar":2079,"Ġmind":2080,"Ġblack":2081,"ask":2082,"ashington":2083,"ept":2084,"ĠNational":2085,"Ġtaking":2086,"Ġindividual":2087,"Ġmess":2088,"Ġattempt":2089,"ĠdoesnâĢĻt":2090,"Ġz":2091,"Ġcou":2092,"Ġtime.":2093,"Ġcharacter":2094,"hy":2095,"uly":2096,"Ġcomb":2097,"Ġhit":2098,"abl":2099,"Ġsingle":2100,"Ġaction":2101,"-old":2102,"Ġsomeone":2103,"ĠGr":2104,"witter":2105,"ĠBrit":2106,"ĠCity":2107,"viron":2108,"Ġcult":2109,"Ġfront":2110,"elt":2111,"Ġresearch":2112,"Ġthat,":2113,"Ġwanted":2114,"Ġredu":2115,"irm":2116,"ĠIsrael":2117,"Ġprobably":2118,"AT":2119,"Ġdetail":2120,"Ġkey":2121,"Ġ(1":2122,"arter":2123,"Ġbank":2124,"Ġexist":2125,"Ġsus":2126,"Ġlearn":2127,"Ġmatter":2128,"Ġnothing":2129,"ĠCal":2130,"Ġbenef":2131,"Ġelse":2132,"icult":2133,"ĠIm":2134,"ĠWorld":2135,"Ġtoward":2136,"arr":2137,"Ġlarg":2138,"Ġposition":2139,"ĊĊâĢľI":2140,"ĠAust":2141,"Ġconnect":2142,"Ġyear,":2143,"irc":2144,"Ġidea":2145,"ply":2146,"Ġchall":2147,"Ġargu":2148,"Ġbegin":2149,"Ġenc":2150,"Ġhistory":2151,"ĠâĢľThe":2152,"Ġfederal":2153,"Ġ14":2154,"Ġtre":2155,"Ġrepl":2156,"ote":2157,"Ġimm":2158,"Ġcand":2159,"Ġdi":2160,"i-":2161,"Ġcoun":2162,"Ġsimilar":2163,"Ġfire":2164,"Ġcreate":2165,"oid":2166,"Ġrisk":2167,"Ġdescrib":2168,"Ġblock":2169,"Ġcompl":2170,"Ġelection":2171,"Ġwro":2172,"Ġtarg":2173,"Ġhouse":2174,"Ġthird":2175,"Ġstop":2176,"Ġeither":2177,"Ġwa":2178,"ĠWashington":2179,"age.":2180,"ones":2181,"Ġrac":2182,"olution":2183,"Ġstep":2184,"ify":2185,"ilt":2186,"Ġfig":2187,"reme":2188,"ĊĊAnd":2189,"dd":2190,"sw":2191,"ĠCo":2192,"yn":2193,"ĠClinton":2194,"to":2195,"Ġwatch":2196,"par":2197,"Ġfurther":2198,"Ġexec":2199,"ribut":2200,"lling":2201,"ault":2202,"Ġcustom":2203,"irl":2204,"Ġparty":2205,"Ġsignific":2206,"my":2207,"pite":2208,"Ġcoming":2209,"ĠWith":2210,"Ġcharg":2211,"m.":2212,"ai":2213,"Ġfinal":2214,"Ġmonths":2215,"Ġfield":2216,"Ġsaying":2217,"Ġtra":2218,"Ġmass":2219,"ene":2220,"s:":2221,"ĠJan":2222,"now":2223,"pecially":2224,"ĠyouâĢĻre":2225,"Ġmeas":2226,"Ġcheck":2227,"ĠSu":2228,"amed":2229,"ung":2230,"30":2231,"Ġ17":2232,"Ġstri":2233,"atic":2234,"che":2235,"Ġ#":2236,"aul":2237,"Ġsuper":2238,"ife":2239,"acebook":2240,"ĠSouth":2241,"ĠDav":2242,"ĠApp":2243,"ĠGe":2244,"oke":2245,"omin":2246,"Ġ2017":2247,"ĠInst":2248,"Ġgun":2249,"Ġbreak":2250,"Ġsound":2251,"asing":2252,"Ġener":2253,"ape":2254,"Ġseems":2255,"Ġbegan":2256,"Ġdocu":2257,"Ġseries":2258,"ivil":2259,"ĠGu":2260,"Ġexc":2261,"Ġfinanc":2262,"Ġdue":2263,"ĊĊWe":2264,"eal":2265,"ibility":2266,"Ġemail":2267,"Ġdam":2268,"head":2269,"-year-old":2270,"lam":2271,"Ġlab":2272,"Ġdou":2273,"sy":2274,"Ġey":2275,"Ġamount":2276,"obal":2277,"Ġinterview":2278,"mb":2279,"Ġroom":2280,"Ġinit":2281,"Ġrunning":2282,"Ġtreat":2283,"ĠIntern":2284,"play":2285,"ĊĊIf":2286,"Ġlate":2287,"Ġrepresent":2288,"Ġprovide":2289,"ĠAss":2290,"ĠPart":2291,"Ġadminist":2292,"Ġhimself":2293,"Ġfeat":2294,"Ġthemsel":2295,"Ġprofess":2296,"-w":2297,"3,":2298,"Ġ\"I":2299,"Ġneg":2300,"pping":2301,"ĠJust":2302,"ĠIr":2303,"Ġinj":2304,"aut":2305,"sec":2306,".5":2307,"Ġsitu":2308,"Ġanything":2309,"Ġitself":2310,"lim":2311,"lu":2312,"Ġball":2313,"ats":2314,"Ġabove":2315,"Ġrelations":2316,"Ġspecific":2317,"arth":2318,"ined":2319,"BC":2320,"Ġissue":2321,"ĠStates":2322,"Ġdrug":2323,"Ġself":2324,"ĠÂ":2325,"ĊĊ\"I":2326,"Ġforward":2327,"Ġyear.":2328,"Ġcandid":2329,"Ġground":2330,"Ġbelow":2331,"Ġdifficult":2332,"Ġbecame":2333,"IN":2334,"ĠRepublican":2335,"Ġcop":2336,"Ġnetwork":2337,"go":2338,"itted":2339,"amer":2340,"oon":2341,"Ġ100":2342,"ity.":2343,"istic":2344,"Ġindustry":2345,"Ġalleg":2346,"Ġwalk":2347,"Ġgoal":2348,"atur":2349,"Ġbillion":2350,"Ġsimply":2351,"umb":2352,"ances":2353,"age,":2354,"iod":2355,"Ġcontinue":2356,"Ġsignificant":2357,"en,":2358,"ĊĊFor":2359,"ĠEd":2360,"Ġmusic":2361,"Ġrespons":2362,"ĠTwitter":2363,"Ġminut":2364,"iam":2365,"Ġcapt":2366,"Ġevidence":2367,"ators":2368,"Ġplayer":2369,"Ġtyp":2370,"ĠRes":2371,"Ġwhole":2372,"Ġrad":2373,"Ġface":2374,"1,":2375,"Ġpretty":2376,"ows":2377,"Ġdeep":2378,"Ġ25":2379,"right":2380,"irt":2381,"ĠBar":2382,"Ġsaw":2383,"ON":2384,"ried":2385,"iety":2386,"Ġreleased":2387,"ĠGerman":2388,"ienc":2389,"Ġoutside":2390,"reg":2391,"Ġquite":2392,"ĠMed":2393,"ogn":2394,"2,":2395,"Ġmember":2396,"Ġlegal":2397,"Ġap":2398,"Ġstay":2399,"Ġagree":2400,"Ġmoment":2401,"Ġinclude":2402,"-h":2403,"Ġtem":2404,"Ġenviron":2405,"ance,":2406,"Ġleaders":2407,"IS":2408,"ĠcanâĢĻt":2409,"Ġdest":2410,"iday":2411,"Ġearli":2412,"Ġopportun":2413,"Ġhost":2414,"ĠWest":2415,"angu":2416,"Ġstudy":2417,"Ġlost":2418,"Ġtrack":2419,"Ġeconomic":2420,"0.":2421,"ateg":2422,"ccording":2423,"Ġespecially":2424,"ring":2425,"ully":2426,"light":2427,"Ġsense":2428,"ournal":2429,"itions":2430,"Ġinstead":2431,"Ġshoot":2432,"Ġkid":2433,"ĠHis":2434,"Ġshare":2435,"Ġofficials":2436,"Ġplayed":2437,"ks":2438,"ĠMus":2439,"This":2440,"Ġanim":2441,"Ġcommon":2442,"iddle":2443,"ĠHowever,":2444,"ĠAmerica":2445,"s.âĢĿ":2446,"ity,":2447,"Ġgen":2448,"Ġphys":2449,"Ġothers":2450,"Ġplaying":2451,"itution":2452,"Ġple":2453,"sc":2454,"ĠAb":2455,"where":2456,"Ġ198":2457,"ĠAfter":2458,"Ġmag":2459,"Ġyears,":2460,"ĠCong":2461,"Ġjud":2462,"Ġ:":2463,"Ġmot":2464,"Ġred":2465,"Ġpolicy":2466,"Ġbar":2467,"aper":2468,"Ġabs":2469,"Ġrole":2470,"'ve":2471,"ĊĊThere":2472,"Ġtarget":2473,"Ġpain":2474,"ĊĊOn":2475,"Ġbuilding":2476,"Ġwebs":2477,"Ġprivate":2478,"Ġjoin":2479,"Ġversion":2480,"Ġaddress":2481,"Ġshot":2482,"ĠSyri":2483,"Ġpie":2484,"Ġeverything":2485,"ival":2486,"Ġconsum":2487,"ĠOct":2488,"Ġlink":2489,"1.":2490,"Ġsuff":2491,"Ġadded":2492,"Ġwrong":2493,"ift":2494,"ĠNot":2495,"epend":2496,"lev":2497,"Ġcred":2498,"ached":2499,"Ġcompanies":2500,"ĠWhite":2501,"Ġdeter":2502,"Ġpotential":2503,"Ġport":2504,"Ġaccept":2505,"Ã©":2506,"osing":2507,"ĠWill":2508,"Ġwoman":2509,"Ġ50":2510,"Ġgeneral":2511,"Ġlo":2512,"ili":2513,"ogle":2514,"Ġtit":2515,"ice.":2516,"Ġreve":2517,"Ġperiod":2518,"Ġparent":2519,"Ġeduc":2520,"Ġcontract":2521,"ery":2522,"ĠSept":2523,"ĠMarch":2524,"Ġheld":2525,"ination":2526,"Ġep":2527,"ĠMond":2528,"AN":2529,"Ġled":2530,"lt":2531,"OR":2532,"ularly":2533,"Ġhigher":2534,"Ġneeds":2535,"Ġ|":2536,"or.":2537,"uesday":2538,"Ġstru":2539,"Ġshows":2540,"ĊĊSt":2541,"ate,":2542,"Ġreview":2543,"ĠMich":2544,"Ġrelig":2545,"Ġce":2546,"ĠDepartment":2547,"Ġobject":2548,"Ġmodel":2549,"ana":2550,"Ġspeak":2551,"attle":2552,"Ġfunction":2553,"Ġupd":2554,"Ġeveryone":2555,"Ġfocus":2556,"ĠI'm":2557,"AR":2558,"Ġaud":2559,"onse":2560,"put":2561,"Ġarea":2562,"Ġpoints":2563,"Ġbody":2564,"Ġsold":2565,"Ġconsider":2566,"ĊĊâĢľThe":2567,"ĠFacebook":2568,"ham":2569,"ĠNo":2570,"itting":2571,"Ġ)":2572,"Ġpred":2573,"ender":2574,"Ġspace":2575,"Ġwind":2576,"Ġrights":2577,"Ġserious":2578,"Ġpopular":2579,"**":2580,"Ġstudents":2581,"uel":2582,"ĠMy":2583,"mediate":2584,"Ġapplic":2585,"fect":2586,"Ġsurpr":2587,"isl":2588,"lear":2589,"oard":2590,"Ġprim":2591,"Ġhope":2592,"Ġsoon":2593,"Ġdead":2594,"Ġansw":2595,"uary":2596,"iding":2597,"val":2598,"ally,":2599,"ĠSte":2600,"Ġpersonal":2601,"ĠAug":2602,"hod":2603,"Ġwhite":2604,"Ġyears.":2605,"oring":2606,"ĠThese":2607,"ĠTuesday":2608,"Ġden":2609,"Ġcomput":2610,"ilities":2611,"reet":2612,"cing":2613,"Ġwrote":2614,"ently":2615,"icro":2616,"Ġcreated":2617,"ned":2618,"Ġscient":2619,"Ġcirc":2620,"pril":2621,"Ġexecut":2622,"ĠDo":2623,"Ġ24":2624,"ively":2625,"is,":2626,"Ġcrim":2627,"apt":2628,"ĊĊAn":2629,"Ġimpact":2630,"Ġsen":2631,"ĠIt's":2632,"Ġpack":2633,"ches":2634,"ĠHill":2635,"Ġservice":2636,"Ġstaff":2637,"Ġnearly":2638,"ate.":2639,"Ġdidn't":2640,"omb":2641,"ĠHar":2642,"Ġterror":2643,"ĠPe":2644,"Ġcontent":2645,"Ġrespect":2646,"Ġneeded":2647,"ue.":2648,"AS":2649,"Ġrev":2650,"ĠSm":2651,"ĠAustral":2652,"Ġtotal":2653,"Ġlonger":2654,"Ġ13":2655,"Ġhowever,":2656,"as,":2657,"ech":2658,"hern":2659,"ĊĊK":2660,"itiz":2661,"Ġnecess":2662,"Ġfavor":2663,"ice,":2664,"Ġdevelopment":2665,"body":2666,"Ġforce":2667,"ourt":2668,"ming":2669,"lex":2670,"cil":2671,"tt":2672,"Ġarrest":2673,"Ġexact":2674,"ia.":2675,"ednes":2676,"Ġclub":2677,"Ġexpress":2678,"ations.":2679,"Ġbecom":2680,"Ġspok":2681,"ĠEn":2682,"Ġcover":2683,"Ġcomment":2684,"Ġvol":2685,"oe":2686,"Ġrecently":2687,"Ġenergy":2688,"hood":2689,"ĠisnâĢĻt":2690,"Ġcannot":2691,"Ġinternational":2692,"Ġannounced":2693,"rupt":2694,"ett":2695,"ednesday":2696,"s,âĢĿ":2697,"Ġleave":2698,"Ġcivil":2699,"unt":2700,"ray":2701,"ĠCount":2702,"ursday":2703,"Ġreceived":2704,"Ġhy":2705,"Ġlangu":2706,"Ġpur":2707,"ĠheâĢĻs":2708,"Ġoriginal":2709,"'ll":2710,"Ġworth":2711,"aterial":2712,"Ġbroad":2713,"Ġrelationship":2714,"rain":2715,"ĠMr.":2716,"Ġoil":2717,"Ġrespond":2718,"Ġur":2719,"load":2720,"ĠApril":2721,"Ġcoll":2722,"Ġresponse":2723,"aving":2724,"Ġhistor":2725,"cast":2726,"in,":2727,"onst":2728,"ES":2729,"Ġhours":2730,"Ġsoft":2731,"ĠRed":2732,"eg":2733,"fer":2734,"Ġglobal":2735,"Ġanyone":2736,"duct":2737,"Ġstatement":2738,"Ġheart":2739,"haps":2740,"Ġfinancial":2741,"Ġsource":2742,"Ġroad":2743,"Ġdefin":2744,"Ġrequest":2745,"vertise":2746,"Ġstates":2747,"ĠSund":2748,"Ġtype":2749,"rought":2750,"ager":2751,"cer":2752,"Ġstore":2753,"Ġimmediate":2754,"ĠAct":2755,"ĠWednesday":2756,"ĠPal":2757,"Ġdiv":2758,"oto":2759,"aging":2760,"ael":2761,"hic":2762,"ellig":2763,"Ġtou":2764,"Ġincrease":2765,"ĊĊWhat":2766,"Ġmid":2767,"Ġpublished":2768,"ĠCalif":2769,"iter":2770,"Ġability":2771,"ĠThursday":2772,"Ġchance":2773,"Ġrelease":2774,"Ġ\"The":2775,"Ġadm":2776,"ĠNews":2777,"ĠWhile":2778,"ĠJap":2779,"anger":2780,"Ġstudent":2781,"Ġweap":2782,"ĊĊWhen":2783,"Ġtakes":2784,"an.":2785,"alt":2786,"Ġemer":2787,"ĠSan":2788,"Ġsqu":2789,"Ġcurrently":2790,"Ġexpected":2791,"atural":2792,"ighb":2793,"Ġlack":2794,"Ġarticle":2795,"ĠGod":2796,"Ġdecided":2797,"Ġforeign":2798,"Ġgirl":2799,"ĠEm":2800,"iple":2801,"any":2802,"Ġissues":2803,"Ġpoll":2804,"Ġcal":2805,"ique":2806,"ends":2807,"Ġmother":2808,"osition":2809,"Ġbuy":2810,"ĊĊAd":2811,"joy":2812,"Ġestabl":2813,"itten":2814,"ovember":2815,"ĊĊ\"The":2816,"like":2817,"Ġmat":2818,"Ġcolle":2819,"Ġdel":2820,"ĠNow":2821,"Ġgave":2822,"Ġchanges":2823,"Ġrequire":2824,"cript":2825,"action":2826,"ĠPer":2827,"ĠOff":2828,"ure,":2829,"Ġsort":2830,"ations,":2831,"Ġcell":2832,"Ġcollect":2833,"ruction":2834,"Ġpict":2835,"hel":2836,"Ġcouple":2837,"5.":2838,"Ġwhose":2839,"Ġboard":2840,"4.":2841,"uth":2842,"ĠTV":2843,"He":2844,"Ġarri":2845,"ĊĊTh":2846,"ĠGeor":2847,"____":2848,"ought":2849,"Ġsubject":2850,"Ġfem":2851,"9.":2852,"ĠthereâĢĻs":2853,"Ġonline":2854,"Ġlog":2855,"eter":2856,"ĠSome":2857,"ĠIslam":2858,"Ġcard":2859,"ĠGoogle":2860,"ole":2861,"St":2862,"Ġsimple":2863,"Ġobs":2864,"Ġvisit":2865,"Ġ197":2866,"10":2867,"Ġaffect":2868,"Ġworked":2869,"ĊĊHow":2870,"oud":2871,"Ġdirector":2872,"Ġsecret":2873,"rown":2874,"Ġsays.":2875,"Ġprevent":2876,"Ġvalue":2877,"ĠJanuary":2878,"Ġintrodu":2879,"Ġdeli":2880,"ĠChina":2881,"yle":2882,"Ġinflu":2883,"Ġseek":2884,"Ġvote":2885,"Ġvictim":2886,"icated":2887,"Ġcapital":2888,"Ġtool":2889,"ging":2890,"Ġeasy":2891,"Ġvia":2892,"Ġmaterial":2893,"iment":2894,"ĠFeb":2895,"Ġturned":2896,"Ġrecogn":2897,"aily":2898,"-st":2899,"Ġill":2900,"Ġconv":2901,"Ġmis":2902,"Ġ{":2903,"Ġliving":2904,"Ġparticip":2905,"Ġapproach":2906,"Ġimprove":2907,"aur":2908,"Ġgroups":2909,"ĠBy":2910,"Ġthat's":2911,"ĠDavid":2912,"Ġthemselves":2913,"ĠSeptember":2914,"Ġlaws":2915,"Ġround":2916,"Ġcy":2917,"ĠEuropean":2918,"Ġunc":2919,"Ġexample,":2920,"ext":2921,"Ġlegisl":2922,"ĠNovember":2923,"ĠAfric":2924,"bit":2925,"Ġspent":2926,"Ġbuilt":2927,"Ġdig":2928,"ĠCourt":2929,"Ġregard":2930,"ĠPaul":2931,"Ġoffice":2932,"ological":2933,"Ġhon":2934,"ĠAg":2935,"Ġpull":2936,"Ġreveal":2937,"Ġthous":2938,"gest":2939,"Ġmorning":2940,"rel":2941,"Ġfelt":2942,"Ġnorm":2943,"ĠAng":2944,"ĠGl":2945,"Ġearlier":2946,"Ġtravel":2947,"Ġneighb":2948,"ĠCaliforn":2949,"Ġ40":2950,"key":2951,"igr":2952,"Ġheard":2953,"âĢĻd":2954,"izing":2955,"ĠCor":2956,"ades":2957,"Ġdemand":2958,"Ġrepe":2959,"ases":2960,"ĠMr":2961,"Ġrate":2962,"Ġmatch":2963,"Ġbase":2964,"Ġhuge":2965,"Ġmethod":2966,"Ġinside":2967,"Ġ0.":2968,"Ġcountries":2969,"lled":2970,"Ġenvironment":2971,"Ġ1.":2972,"Ġfather":2973,"8.":2974,"Ġtrue":2975,"chie":2976,"Ġtext":2977,"ĠPark":2978,"Ġtown":2979,"ĠRussian":2980,"on.":2981,"rect":2982,"ĠIâĢĻve":2983,"ĠJune":2984,"ĠKore":2985,"Ġproduction":2986,"ue,":2987,"Ġbud":2988,"Ġhim.":2989,"Ġfriends":2990,"hem":2991,"ctor":2992,"ĊĊThat":2993,"Ġste":2994,"Ġlatest":2995,"ĠJuly":2996,"Ġet":2997,"Ġperfect":2998,"-based":2999,"ĠUK":3000,"Ġenjoy":3001,"Ġgoes":3002,"ĠOctober":3003,"-up":3004,"Ġens":3005,"Ġ+":3006,"aturday":3007,"ĠAugust":3008,"Ġinvolved":3009,"cember":3010,"Ġchalleng":3011,"ĠMe":3012,"ners":3013,"Ġhear":3014,"Ġwants":3015,"Ġknew":3016,"-in":3017,"Ġoffer":3018,"Ġaverage":3019,"Ġcoach":3020,"Ġfear":3021,"ude":3022,"Ġkilled":3023,"ĠCongress":3024,"ĠweâĢĻre":3025,"estern":3026,"reed":3027,"8,":3028,"Ġreach":3029,"ishing":3030,"Ġgets":3031,"ĠEl":3032,"Ġsepar":3033,".,":3034,"Ġnation":3035,"ance.":3036,"Ġheav":3037,"Ġis,":3038,"Ġcode":3039,"ises":3040,"ees":3041,"Ġgrowth":3042,"Ġlower":3043,"EN":3044,"Ġthat.":3045,"ĠBritish":3046,"ires":3047,"Ġbrought":3048,"Ġcritic":3049,"ĠStreet":3050,"raz":3051,"Ġdoesn't":3052,"Ġcause":3053,"urning":3054,"Ġallowed":3055,"Ġfair":3056,".m.":3057,"Ġpatient":3058,"Ġhot":3059,"Ġbehav":3060,"cy":3061,"ĊĊV":3062,"\".":3063,"force":3064,"Ġparticular":3065,"Ġcontact":3066,"us,":3067,"Ġsite":3068,"Ġtried":3069,"ĊĊ(":3070,"Ġspokes":3071,"undred":3072,"Ġquestions":3073,"Ġvarious":3074,"ĠPost":3075,"et,":3076,"Ġmeeting":3077,"Ġsett":3078,"Ġfans":3079,"ule":3080,"Ġcitiz":3081,"Ġprep":3082,"Ġresident":3083,"Ġwide":3084,"Ġpers":3085,"ĠSch":3086,"6.":3087,"Ġprice":3088,"Ġsearch":3089,"Ġplans":3090,"uit":3091,"yond":3092,"9,":3093,"oph":3094,"Ġdocument":3095,"Ġweeks":3096,"Ġlooks":3097,"Ġvo":3098,"arily":3099,"ĠFriday":3100,"Ġme.":3101,"ure.":3102,"Ġengine":3103,"Ġbi":3104,"Ġexam":3105,"Ġremain":3106,"Ġage":3107,"unk":3108,"Ġmedical":3109,"ĠSw":3110,"Ġresults":3111,"Ġusers":3112,"ĠDecember":3113,"ĠBlack":3114,"Ġfast":3115,"Ġreb":3116,"Ġclos":3117,"idered":3118,"Ġstandard":3119,"Ġstruct":3120,"Ġimag":3121,"Ġaddition":3122,"Ġsong":3123,"oved":3124,"na":3125,"Ġmention":3126,"Ġwond":3127,"ĠCont":3128,"raq":3129,"ĠtheyâĢĻre":3130,"Ġstrugg":3131,"ĠMonday":3132,"ĊĊSo":3133,"Ġhere.":3134,"ĠSaturday":3135,"ĠAmericans":3136,"ples":3137,"Ġliber":3138,"Ġdoll":3139,"Ġterms":3140,"Ġhor":3141,"Ġsport":3142,"Ġindepend":3143,"ground":3144,"âĢĿ.":3145,"Ġareas":3146,"Ġplat":3147,"ani":3148,"ened":3149,"Ġess":3150,"Ġscreen":3151,"Ġtechnology":3152,"ĠTex":3153,"Ġstar":3154,"Ġincluded":3155,"ĠPat":3156,"ittee":3157,"ibly":3158,"ospital":3159,"Ġslow":3160,"atory":3161,"elligence":3162,"en.":3163,"Ġprotest":3164,"Ġphone":3165,"ese":3166,"ĠIS":3167,"Ġquarter":3168,"vertisement":3169,"hold":3170,"Ġboy":3171,"ecause":3172,"aâĢĻs":3173,"ĠDonald":3174,"Ġseven":3175,"atives":3176,"Ġconserv":3177,"sequ":3178,"ĠMark":3179,"Ġbox":3180,"7.":3181,"Ġconduct":3182,"ĠRom":3183,"ams":3184,"ĊĊYou":3185,"Ġme,":3186,"Ġbiggest":3187,"Ġachie":3188,"Ġsexual":3189,"Ġterm":3190,"al.":3191,"Ġund":3192,"Ġconsidered":3193,"Ġsurve":3194,"Ġsn":3195,"ĠQu":3196,"ĠMuslim":3197,"ĠHer":3198,"Ġworks":3199,"rim":3200,"Ġmach":3201,"Ġincident":3202,"Ġ2010":3203,"pro":3204,"Ġpark":3205,"ine,":3206,"Ġclimate":3207,"one.":3208,"het":3209,"Ġtalking":3210,"Ġeight":3211,"Ġdespite":3212,"60":3213,"Ġdraw":3214,"field":3215,"ĠIraq":3216,"ĠJapan":3217,"Ġjournal":3218,"Ġviolence":3219,"Ġteams":3220,"eared":3221,"ino":3222,"ĊĊAl":3223,"Ġminutes":3224,"Ġ<":3225,"Ġassoci":3226,"Ġaw":3227,"Ġ21":3228,"ED":3229,"usion":3230,"Ġ1,":3231,"ĠJew":3232,"Ġbott":3233,"omp":3234,"et.":3235,"add":3236,"fully":3237,"room":3238,"Ġextra":3239,"ĠSand":3240,"arning":3241,"Ġloss":3242,"cial":3243,"Ġsummer":3244,"Ġexample":3245,"Ġdefense":3246,"Ġ(w":3247,"Ġyou're":3248,"uf":3249,"ĠLond":3250,"?âĢĿ":3251,"able.":3252,"Ġdoub":3253,"Ġlay":3254,"rast":3255,"Ġincreasing":3256,"Ġways":3257,"chers":3258,"Ġprior":3259,"Ġscen":3260,"ĠBill":3261,"Ġpaid":3262,"orter":3263,"Ġinstall":3264,"Ġadministration":3265,"-A":3266,"Ġcarry":3267,"Ġparticularly":3268,"urt":3269,"ruary":3270,"Ġresour":3271,"Ġsens":3272,"entially":3273,"ĠMcC":3274,"itch":3275,"Ġtrade":3276,"Ġfeature":3277,"erc":3278,".com":3279,"Ġrock":3280,"Ġnow,":3281,"ening":3282,"âĢĵ":3283,"Ġmanage":3284,"Ġ@":3285,"hest":3286,"ips":3287,"Ġflo":3288,"Ġskill":3289,"coin":3290,"Ġassist":3291,"Ġmovie":3292,"ceed":3293,"pir":3294,"-2":3295,"ĠwasnâĢĻt":3296,"oo":3297,"Ġ2013":3298,"11":3299,".[":3300,"ĊĊAt":3301,"Ġpolitic":3302,"Ġhundred":3303,"uclear":3304,"ide,":3305,"Ġ}":3306,"Ġchief":3307,"Ġextreme":3308,"ĠEast":3309,"ide.":3310,"Ġexperienc":3311,"one,":3312,"Ġthem,":3313,"Ġresear":3314,"Ġworkers":3315,"ĠNet":3316,"ĠMore":3317,"Ġcourse,":3318,"Ġquickly":3319,"vil":3320,"ĠStat":3321,"iant":3322,"co":3323,"Ġdro":3324,"99":3325,"Ġbudget":3326,"erve":3327,"Ġfill":3328,"OP":3329,"ĠDemocratic":3330,"ume":3331,"Ġreports":3332,"it,":3333,"Ġscience":3334,"Ġrout":3335,"Ġcertainly":3336,"ety":3337,"Ġleading":3338,"7,":3339,"ĠSunday":3340,"abor":3341,"Ġconvers":3342,"Ġoccur":3343,"tain":3344,"Ġwritten":3345,"sych":3346,"Ġstarting":3347,"Ġavoid":3348,"eff":3349,"ĠChar":3350,"Ġservices":3351,"rench":3352,"Ġrequired":3353,"Ġquality":3354,"Ġstuff":3355,"Ġupon":3356,"Ġmodern":3357,"Ġproblems":3358,"s.\"":3359,"ops":3360,"ĠRussia":3361,"Ġmob":3362,"Ġexactly":3363,"Ġnatural":3364,"Ġsurv":3365,"ic,":3366,"ibr":3367,"Ġcan't":3368,"ĊĊWhile":3369,"Ġult":3370,"orters":3371,"Ġ2012":3372,"==":3373,"ĠSenate":3374,"aught":3375,"Ġgiving":3376,"wo":3377,"Ġregul":3378,"Ġguy":3379,"ately":3380,"6,":3381,"ollow":3382,"Ġment":3383,"Ġcompletely":3384,"Ġexcept":3385,"anch":3386,"inn":3387,"-g":3388,"eed":3389,"Ġpurch":3390,"Ġgas":3391,"down":3392,"Ġfootball":3393,"ky":3394,"acher":3395,"ĠKe":3396,"ĠFebruary":3397,"Ġletter":3398,"Ġcamer":3399,"order":3400,"Ġprogress":3401,"Ġlooked":3402,"Ġemb":3403,"iction":3404,"Ġcross":3405,"ĠâĢľA":3406,"OS":3407,"Ġshowed":3408,"ites":3409,"it.":3410,"Ġ(A":3411,"rowd":3412,"ession":3413,"Ġmill":3414,"overed":3415,"ĊĊAfter":3416,"ine.":3417,"ĠPar":3418,"Ġhous":3419,"Ġblood":3420,"Ġcele":3421,"Ġrank":3422,"Ġplatform":3423,"ÂŃ":3424,"Ġ...":3425,"inese":3426,"Ġpan":3427,"ĠMor":3428,"Ġdemonst":3429,"Ġindic":3430,"Ġcommunic":3431,"ĠEven":3432,"Ġanalys":3433,"Ġunf":3434,"Ġ(and":3435,"lying":3436,"ĠKing":3437,"Ġnumbers":3438,"-r":3439,"Ġmajority":3440,"Ġmultiple":3441,"mp":3442,"lish":3443,"FL":3444,"eth":3445,"ĠCoun":3446,"Ġspeech":3447,"fort":3448,"Ġperformance":3449,"Ġdescribed":3450,"Ġ2.":3451,"Ġimage":3452,"hib":3453,"uk":3454,"Ġrob":3455,"ĠIndian":3456,"Ġfan":3457,"Ġhappened":3458,"Ġfix":3459,"Ġprison":3460,"is.":3461,"Ġnamed":3462,"ĠMichael":3463,"ĊĊTo":3464,"Ġobvious":3465,"ĠMinister":3466,"Ġmiddle":3467,"Ġanti-":3468,"arian":3469,"ays":3470,"Ġremains":3471,"Ġwell.":3472,"inary":3473,"Ph":3474,"Ġpen":3475,"Ġsell":3476,"Ġdecl":3477,"ha":3478,"Ġopportunity":3479,"ĊĊOne":3480,"Ġpath":3481,"aint":3482,"Ġincludes":3483,"Ġahead":3484,"Ġand,":3485,"itor":3486,"Ġbeyond":3487,"aker":3488,"Ġil":3489,"Ġfile":3490,"Ġpurp":3491,"aced":3492,"Ġ$2":3493,"Ġfigure":3494,"ĠDes":3495,"Ġtwe":3496,"Ġthroughout":3497,"Ġblog":3498,"ĠSoc":3499,"Ġsituation":3500,"Ġlaunch":3501,"ĠTur":3502,"Ġperm":3503,"i.":3504,"Ġimplement":3505,"Ġfeatures":3506,"ĠGener":3507,"Ġusually":3508,"Ġgrowing":3509,"Ġfinally":3510,"IT":3511,"Ġitem":3512,"Ġleader":3513,"Ġrecomm":3514,"ights":3515,"Ġout.":3516,"Ġtraining":3517,"urg":3518,"Ġhands":3519,"s,\"":3520,"ĠInt":3521,"Ġprovided":3522,"ĠFirst":3523,"ban":3524,"Ġsoftware":3525,"imately":3526,"ester":3527,"Ġdisplay":3528,"Ġcris":3529,"Ġcorpor":3530,"Ġfirm":3531,"come":3532,"Ġpiece":3533,"Ġalthough":3534,"Ġtrain":3535,"Ġselect":3536,"AC":3537,"Ġremember":3538,"Ġspeed":3539,"uses":3540,"asc":3541,"aughter":3542,"Ġreceive":3543,"Ġexplain":3544,"Ġattention":3545,"Ġconsist":3546,"Ġfact,":3547,"ĠCons":3548,"Ġtowards":3549,"ĠâĢľWe":3550,"ze":3551,"Ġinn":3552,"Ġforces":3553,"Ġarm":3554,"bl":3555,"Ġadditional":3556,"Ġcomplex":3557,"Ġago":3558,"yl":3559,"Ġopin":3560,"Ġbrain":3561,"Ġcondition":3562,"Ġsuspect":3563,"Ġsometimes":3564,"Ġtro":3565,"Ġdanger":3566,"AL":3567,"ĠGreen":3568,"ĠJack":3569,"ĠThatâĢĻs":3570,"Ġpopulation":3571,"Ġepis":3572,"egr":3573,"Ġcontinu":3574,"Ġalleged":3575,"IC":3576,"Ġgame.":3577,"ford":3578,"Ġsubst":3579,"Ġspend":3580,"ension":3581,"Ġmurd":3582,"onent":3583,"ux":3584,"Ġsle":3585,"Ġbeginning":3586,"Ġlives":3587,"Ġcontribut":3588,"Ġdesigned":3589,"Ġcast":3590,"Ġgrad":3591,"-M":3592,"Ġhe's":3593,"Ġdog":3594,"Ġdrive":3595,"Ġmovement":3596,"Ġcareer":3597,"ĠâĢ¦":3598,"Ġtour":3599,"ĊĊY":3600,"ĊĊâĢľWe":3601,"Ġevents":3602,"zz":3603,"ĠSer":3604,"ĠChinese":3605,"Ġthousands":3606,"ĠIran":3607,"Ġcounter":3608,"Ġworld.":3609,"Ġ(C":3610,"ledge":3611,"ĠTim":3612,"Ġpresidential":3613,"ĠPlay":3614,"Ġuser":3615,"5,":3616,"Ġ(S":3617,"Ġsubs":3618,"Ġconcept":3619,"Ġdisapp":3620,"Ġband":3621,"anced":3622,"-to":3623,"Ġpow":3624,"Ġclaims":3625,"BI":3626,"Ġconference":3627,"using":3628,"Ġwat":3629,"Ġtouch":3630,"Ġcases":3631,"Ġhelped":3632,"exic":3633,"Ġ(R":3634,"oul":3635,"Ġencour":3636,"ĠJames":3637,"Ġnuclear":3638,"Ġver":3639,"Ġdom":3640,"irth":3641,"Ġstor":3642,"Ġready":3643,"ĠStar":3644,"adem":3645,"--------":3646,"ĊĊWith":3647,"Ġprec":3648,"h,":3649,"Ġsize":3650,"icient":3651,"Ġexecutive":3652,"Ġaim":3653,"imum":3654,"ĠTH":3655,"Ġscore":3656,"Ġten":3657,"Ġsil":3658,"atever":3659,"ĠRich":3660,"Ġrelative":3661,"ĠWilliam":3662,"Ġpage":3663,"ampions":3664,"Ġfamil":3665,"ctions":3666,"Ġplant":3667,"ĠwonâĢĻt":3668,"Ġut":3669,"Ġcommand":3670,"Ġperhaps":3671,"rief":3672,"Ġsafe":3673,"Ġinteresting":3674,"Ġban":3675,"ĠCounty":3676,"Ġorganiz":3677,"Ġmessage":3678,"Ġmyself":3679,"Ġmoved":3680,"Ġofficers":3681,"berg":3682,"Ġsenior":3683,"Ġspot":3684,"ĠServ":3685,"Ġign":3686,"ju":3687,"t.":3688,"Ġdark":3689,"Ġcat":3690,"201":3691,"olute":3692,"Ġbod":3693,"Ġtable":3694,"ĠAssoci":3695,"Ġlargest":3696,"Ġincreased":3697,"US":3698,"Ġwrite":3699,"oper":3700,"ĠSuper":3701,"mon":3702,"Ġappears":3703,"Ġdifference":3704,"ĠMon":3705,"Ġwall":3706,"Ġ(2":3707,"Ġstra":3708,"ĠTor":3709,"ĠMart":3710,"Ġilleg":3711,"ĠParty":3712,"ĠRepublicans":3713,"ufact":3714,"Ġrange":3715,"ĠThen":3716,"Ġcalls":3717,"Ġdraft":3718,"Ġpowerful":3719,"Ġcompared":3720,"Ġdeg":3721,"ĠHere":3722,"Ġcriminal":3723,"Ġcrowd":3724,"Ġrace":3725,"Ġestim":3726,"Ġbal":3727,"a's":3728,"ll,":3729,"Ġparents":3730,"Ġsat":3731,"Ġsmart":3732,"pper":3733,"Ġtrust":3734,"astic":3735,"Ġforced":3736,"ĠVal":3737,"ram":3738,"Ġpoor":3739,"ĠApple":3740,"wood":3741,"Ġdirectly":3742,"ean":3743,"Ġreading":3744,"Ġpositive":3745,"ĠSim":3746,"Ġcopy":3747,"Ġanswer":3748,"Ġoption":3749,"ĊĊAdvertisement":3750,"Ġsaid:":3751,"Ġthrow":3752,"ification":3753,"Ġup.":3754,"Ġmeant":3755,"Ġpus":3756,"Ġrules":3757,"Ġson":3758,"Ġ60":3759,"Ġaware":3760,"C.":3761,"ges":3762,"Ġcool":3763,"Ġeventually":3764,"Ġdrink":3765,"Ġrefer":3766,"40":3767,"Ġwords":3768,"Ġmix":3769,"ĠRober":3770,"Ġstories":3771,"-se":3772,"just":3773,"Ġsusp":3774,"ĠEnglish":3775,"aud":3776,"ĠWind":3777,"Ġarch":3778,"Ġthis,":3779,"\",":3780,"Ġ22":3781,"ously":3782,"Ġparts":3783,"ĠAir":3784,"ps":3785,"Ġautom":3786,"ĠFrench":3787,"Ġmoving":3788,"ĠII":3789,"Ġsurf":3790,"Ġnature":3791,"Ġshown":3792,"Ġallows":3793,"ope":3794,"Ġeasily":3795,"Ġoverall":3796,"Ġrat":3797,"ny":3798,"ĊĊ\"We":3799,"Ġyourself":3800,"Ġang":3801,"Ġclean":3802,"ĠOf":3803,"Ġtal":3804,"Ġtask":3805,"ĠChristian":3806,"Ġwriting":3807,"ĠEU":3808,"akers":3809,"Ġreligious":3810,"Ġinvestigation":3811,"Ġgives":3812,"ĠChe":3813,"ItâĢĻs":3814,"ĠBen":3815,"Ġpaper":3816,"Ġanaly":3817,"Ġpromot":3818,"ĠMexic":3819,"Ġnecessary":3820,"etro":3821,"4,":3822,"secut":3823,"rec":3824,"ĠHam":3825,"Ġstreng":3826,"ĠAngel":3827,"omen":3828,"ĠCenter":3829,".)":3830,"Ġmaybe":3831,"Ġpeople,":3832,"ĠBel":3833,"ĠTimes":3834,"Ġhospital":3835,"Ġappeared":3836,"Ġorganization":3837,"roy":3838,"ho":3839,"ĠLeague":3840,"orid":3841,"Ġimpress":3842,"Ġcomments":3843,"more":3844,"Ġmeaning":3845,"lease":3846,"Ġphysical":3847,"enty":3848,"In":3849,"Ġmarri":3850,"Ġesc":3851,"band":3852,"ĠTexas":3853,"Ġorigin":3854,"board":3855,"craft":3856,"Ġcentral":3857,"Ġpropos":3858,"Ġswe":3859,"ĠJer":3860,"Ġwebsite":3861,"Ġsigned":3862,"itness":3863,"yan":3864,"Ġdrop":3865,"ĠâĢľW":3866,"Ġbenefit":3867,"Ġdetails":3868,"ĠSchool":3869,"Ġweek,":3870,"itut":3871,"Ġexpand":3872,"Ġmist":3873,"Ġcorrect":3874,"ĠFranc":3875,"Ġbeaut":3876,"Ġlife.":3877,"ors,":3878,"cle":3879,"Ġlic":3880,"Ġout,":3881,"iers":3882,"Ġapparent":3883,"enge":3884,"Ġefforts":3885,"Ġlevels":3886,"Ġchanged":3887,"Ġsto":3888,"ocked":3889,"ĠInternational":3890,"agon":3891,"bum":3892,"ograph":3893,"Ġtraff":3894,"Ġpassed":3895,"Ġintelligence":3896,"Ġ*":3897,"ive,":3898,"Ġdise":3899,"Ġregular":3900,"Ġrap":3901,"Ġminister":3902,"Ġday,":3903,"aves":3904,"Ġvoters":3905,"OT":3906,"Ġconflic":3907,"Ġstraight":3908,"Ġimmediately":3909,"Ġthinking":3910,"Ġfreed":3911,"Ġaltern":3912,"Ġsuccessful":3913,"ĠArab":3914,"orney":3915,"Ġprinc":3916,"ow,":3917,"Ġisn't":3918,"Ġprem":3919,"Ġâ":3920,"ĠDay":3921,"ĠDr":3922,"Ġfrequ":3923,"ĠIndia":3924,"Ġreform":3925,"Ġvari":3926,"Ġren":3927,"Ġcontinued":3928,"ĠSmith":3929,"Ġpressure":3930,"ĠEarth":3931,"Ġadvant":3932,"Ġseason.":3933,"Ġattract":3934,"Ġfeed":3935,"Ġlaun":3936,"Ġweb":3937,"Ġweekend":3938,"ĠCr":3939,"Ġclearly":3940,"ĊĊAccording":3941,"Ġsend":3942,"Ġlanguage":3943,"Ġprimary":3944,"Ġspread":3945,"resh":3946,"Ġearn":3947,"Ġmeasure":3948,"Ġguys":3949,"bed":3950,"ĠCouncil":3951,"Ġbrother":3952,"Ġmanufact":3953,"Ġpredict":3954,"Ġsave":3955,"ĠPolice":3956,"idge":3957,"Ġrelated":3958,"Ġfailed":3959,"Ġreached":3960,"Ġall,":3961,"Ġhighly":3962,"ĠBrown":3963,"ĠCalifornia":3964,"Ġago,":3965,"ism,":3966,"Ġexch":3967,"Ġtruth":3968,"Ġuns":3969,"ma":3970,"Ġthere's":3971,"Ġdied":3972,"cul":3973,"Ġfully":3974,"Ġyou.":3975,"Ġrare":3976,"ĠÂ£":3977,"Ġlimited":3978,"aries":3979,"Ġkick":3980,"'d":3981,"Ġeconomy":3982,"Ġkept":3983,"Ġthere.":3984,"IA":3985,"Ġpsych":3986,"EO":3987,"levision":3988,"ĊĊCh":3989,"Ġpeople.":3990,"Ġminor":3991,"Ġsolution":3992,"Ġchair":3993,"Ġcities":3994,"ĠComp":3995,"nces":3996,"Ġ2011":3997,"iring":3998,"Ġcredit":3999,"Ġ196":4000,"Ġhaven":4001,"Ġlimit":4002,"isions":4003,"Ġshut":4004,"ĠNe":4005,"Ġfa":4006,"itely":4007,"ĠFlorid":4008,"rated":4009,"ĠDemocrats":4010,"ĠHigh":4011,"Ġattacks":4012,"Ġspending":4013,"Ġbeat":4014,"term":4015,"Ġ(@":4016,"Ġdetermin":4017,"Ġseemed":4018,"Ġofficer":4019,"Ġemot":4020,"Ġfollowed":4021,"Ġstrateg":4022,"ago":4023,"ribution":4024,"ston":4025,"-time":4026,"Ġuses":4027,"Ġauthorities":4028,"Ġx":4029,"Ġpreviously":4030,"istan":4031,"ĠFin":4032,"Ġcenter":4033,"Ġagency":4034,"ĠHillary":4035,"Ġ>":4036,"agn":4037,"ĠDef":4038,"ĠMac":4039,"Ġjobs":4040,"80":4041,"ĠUp":4042,"itute":4043,"Ġ23":4044,"Ġcosts":4045,"Ġcalling":4046,"ĠBer":4047,"ĠEngland":4048,"ĠGold":4049,"ĠGeorge":4050,"ĠRob":4051,"chan":4052,"box":4053,"Ġunique":4054,"Ġkids":4055,"Ġtrou":4056,"Ġhim,":4057,"ĠBre":4058,"anks":4059,"ĠÐ":4060,"ĠChic":4061,"aly":4062,"Ġbrand":4063,"ĠScott":4064,"Ġdire":4065,"-C":4066,"Ġwilling":4067,"Ġhappy":4068,"Ġspac":4069,"Ġpros":4070,"Ġpun":4071,"Ġbasic":4072,"ariju":4073,"ĠAnt":4074,"Ġsay,":4075,"ĠEvery":4076,"Ġgreen":4077,"Ġdeveloped":4078,"Ġintegr":4079,"Ġlik":4080,"Ġspir":4081,"Ġjump":4082,"roid":4083,"Ġsupposed":4084,"ĠRec":4085,"Ġsafety":4086,"Ġgone":4087,"Ġnam":4088,"Ġnow.":4089,"Ġregion":4090,"ports":4091,"aches":4092,"Ġgrand":4093,"Ġcaused":4094,"Ġpush":4095,"Ġensure":4096,"Ġcreating":4097,"EC":4098,"ales":4099,"ain,":4100,"igration":4101,"Ġvirt":4102,"Ġcollege":4103,"Ġreflect":4104,"Ġcomputer":4105,"Ġliter":4106,"Ġdefend":4107,"Ġlarger":4108,"Ġadding":4109,"Ġhar":4110,"Ġalbum":4111,"ĠFrom":4112,"Ġcandidate":4113,"Ġgreater":4114,"Ġbehavior":4115,"Ġcommer":4116,"ĠLondon":4117,"alled":4118,"iven":4119,"Ġproducts":4120,"Ġones":4121,"Ġproces":4122,"Ġcontinues":4123,"Ġoffered":4124,"irmed":4125,"ences":4126,"ar,":4127,"bon":4128,"while":4129,"Ġpractice":4130,"able,":4131,"Ġtraditional":4132,"Ġfreedom":4133,"Ġslight":4134,"son,":4135,"ĠLa":4136,"set":4137,"Ġdamage":4138,"Ġacqu":4139,"?\"":4140,"Ġday.":4141,"ĠMo":4142,"Ġposted":4143,"Ġlawy":4144,"icit":4145,"Ġstock":4146,"iverse":4147,"Ġenforce":4148,"uty":4149,"-S":4150,"Ġfavorite":4151,"Ġweight":4152,"Ġabsolute":4153,"ĠGeneral":4154,"Ġnice":4155,"ET":4156,"Ġgovern":4157,"Ġseeing":4158,"Ġprint":4159,"Ġbirth":4160,"Ġ(the":4161,"ĠPort":4162,"vere":4163,"ĠAP":4164,"Ġresearchers":4165,"Ġassault":4166,"ry,":4167,"ic.":4168,"Ġactual":4169,"ken":4170,"ata":4171,"Ġtick":4172,"Ġbattle":4173,"Ġideas":4174,"rad":4175,"Ġvac":4176,"EL":4177,"Ġgame,":4178,"Ġchoose":4179,"Ġ\"A":4180,"Ġdebate":4181,"Ġstreet":4182,"rian":4183,"Ġclaimed":4184,"Ġagenc":4185,"Ġenem":4186,"AM":4187,"ĠMil":4188,"pre":4189,"Ġbrief":4190,"Ġp.m.":4191,"t,":4192,"roll":4193,"ĠMost":4194,"ĊĊ2":4195,"Ġnegot":4196,"Ġleague":4197,"Ġdisp":4198,"ront":4199,"Ġindependent":4200,"Ġtechnolog":4201,"Ġreven":4202,"kn":4203,"Ġculture":4204,"Ġclient":4205,"mark":4206,"ĠAlex":4207,"Ġcelebr":4208,"Ġraised":4209,"rol":4210,"soft":4211,"Ġdomin":4212,"ices.":4213,"Ġadop":4214,"Ġnon-":4215,"arliament":4216,"ength":4217,"Ġsubm":4218,"Ġadult":4219,"Ġsystems":4220,"Ġgold":4221,");":4222,"SA":4223,"ive.":4224,"ables":4225,"-0":4226,"Ġmostly":4227,"Ġcry":4228,"Ġwild":4229,"Ġdistrict":4230,"Ġ3.":4231,"Ġeffects":4232,"Ġtend":4233,"Ġknows":4234,"ĠSun":4235,"Ġleaving":4236,"Ġqual":4237,"Ġlose":4238,"ĠAccording":4239,"ĠâĢľS":4240,"Ġimpl":4241,"Ġprofessional":4242,"ĠâĢľthe":4243,"Ġwe're":4244,"Ġwait":4245,"Ġseason,":4246,"Ġopposition":4247,"ocr":4248,"Ġir":4249,"Ġway.":4250,"Ġdriver":4251,"c.":4252,"Ġeth":4253,"olic":4254,"ĠBush":4255,"Ġbab":4256,"ist,":4257,"ĠTom":4258,"Ġdigital":4259,"osh":4260,"Ġfighting":4261,"ĠLet":4262,"Ġmap":4263,"hich":4264,"ĠSecret":4265,"earch":4266,"Ġcommit":4267,"oom":4268,"Ġrid":4269,"ĠLaw":4270,"But":4271,"Ġadvoc":4272,"Ġeducation":4273,"Ġship":4274,"Ġwhatever":4275,"ĠMatt":4276,"Ġmassive":4277,"Ġmount":4278,"ĠWall":4279,"Ġmechan":4280,"Ġwonder":4281,"ĠPeople":4282,"Ġteacher":4283,"ID":4284,"ara":4285,"at,":4286,"Ġcritical":4287,"Ġtemper":4288,"ĠLou":4289,"iled":4290,"Ġfeeling":4291,"Ġaward":4292,"Ġshowing":4293,"ĠCup":4294,"Ġup,":4295,"ism.":4296,"ĠBit":4297,"Ġyou,":4298,"Ġtitle":4299,"ĠBay":4300,"urb":4301,"ise,":4302,"ĠTrans":4303,"iced":4304,"alse":4305,"Ġway,":4306,"ors.":4307,"ĠPhil":4308,"Ġwhom":4309,"etic":4310,"ĠNFL":4311,"Ġfemale":4312,"uman":4313,"Ġdevice":4314,"ifying":4315,"Ġele":4316,"Ġ(D":4317,"Ġmer":4318,"urance":4319,"ĠHealth":4320,"cell":4321,"Ġcru":4322,"ĊĊShe":4323,"Ġshooting":4324,"men":4325,"Ġthey're":4326,"Ġproduce":4327,"Ġcitizens":4328,"Ġannounce":4329,"rav":4330,"Ġended":4331,"ĠDis":4332,"Ġphoto":4333,"Ġdream":4334,"Ġworse":4335,"Ġdaily":4336,"Ġsales":4337,"Ġcore":4338,"Ġasking":4339,"OM":4340,"orial":4341,"Ġenter":4342,"500":4343,"estic":4344,"ĠLab":4345,"Ġone.":4346,"-term":4347,"amb":4348,"ipp":4349,"Ġinfluence":4350,"aph":4351,"Ġhighest":4352,"Ġresponsible":4353,"man,":4354,"rick":4355,"Ġprovides":4356,"ĠMike":4357,"antly":4358,"ĠLiber":4359,"Ġtelevision":4360,"overy":4361,"Ġincome":4362,"Ġcase,":4363,"ipe":4364,"Ġon.":4365,"Ġproperty":4366,"Ġlearning":4367,"ares":4368,"ĠPalest":4369,"Ġsection":4370,"vention":4371,"ĊĊ[":4372,"icial":4373,"ij":4374,"Ġowners":4375,"ero":4376,"Ġbelieved":4377,"ĠMod":4378,"Ġhero":4379,"ĠCanada":4380,"ĠCanadian":4381,"12":4382,"ĠMicro":4383,"Ġchoice":4384,"Ġtreatment":4385,"udd":4386,"Ġ27":4387,"Ġrise":4388,"That":4389,"Ġvill":4390,"Ġmariju":4391,"ĠStud":4392,"Ġmanager":4393,"ĠGet":4394,"Ġreplace":4395,"Ġwinning":4396,"Ġ\"We":4397,"Ġrevealed":4398,"Ġrestrict":4399,"Ġchem":4400,"Ġworld,":4401,"Ġbomb":4402,"ĠI've":4403,"It's":4404,"Ġwork.":4405,"dom":4406,"Ġstick":4407,"Ġcontrovers":4408,"Ġlater,":4409,"BA":4410,"Ġsam":4411,"ING":4412,"do":4413,"ugg":4414,"Ġtoo.":4415,"ĠTrumpâĢĻs":4416,"Ġcharge":4417,"ĠDel":4418,"Ġissu":4419,"Ġoccas":4420,"ĠMal":4421,"Ġfinding":4422,"Ġbeg":4423,"Ġpeace":4424,"Ġnoted":4425,"ĠWestern":4426,"lined":4427,"Ġlearned":4428,"iny":4429,"ĠSecurity":4430,"Ġcharacters":4431,"ĠâĢľs":4432,"outhern":4433,"rog":4434,"ĠSam":4435,"Ġchallenge":4436,"Ġpicture":4437,"Ġelectric":4438,"Ġdirection":4439,"-e":4440,"no":4441,"ĠUk":4442,"Ġpattern":4443,"rig":4444,"s)":4445,"Ġsurround":4446,"el,":4447,"ĠOur":4448,"Ġamaz":4449,"ĠReg":4450,"Ġcompetition":4451,"Ġfat":4452,"Ġhundreds":4453,"coming":4454,"Ġonto":4455,"Ġwasn't":4456,"Ġopening":4457,"Ġachieve":4458,"ĠFound":4459,"Ġreality":4460,"ĠInternet":4461,"ĠWhy":4462,"Ġreject":4463,"Ġpopul":4464,"mine":4465,"Ġoffers":4466,"Ġdaughter":4467,"vest":4468,"Ġstrik":4469,"Ġunlike":4470,"ĠBank":4471,"Ġmobile":4472,"Ġmillions":4473,"ĠOp":4474,"uild":4475,"ated.":4476,"Ġstage":4477,"Ġincred":4478,"Ġborn":4479,"ros":4480,"Ġaccused":4481,"Ġcomfort":4482,"mage":4483,"icip":4484,"in.":4485,"ĠBecause":4486,"Ġemerg":4487,"Ġdetect":4488,"istry":4489,"orthern":4490,"Ġnormal":4491,"ĠIslamic":4492,"Ġshared":4493,"Ġwife":4494,"Ġconfirmed":4495,"Ġbecoming":4496,"Ġscene":4497,"Ġharm":4498,"Ġdefe":4499,"Ġsolid":4500,"Ġproposed":4501,"Ġserve":4502,"ĠBig":4503,"ĠAut":4504,"ent,":4505,"me":4506,"erâĢĻs":4507,"umn":4508,"Ġfamilies":4509,"Ġsleep":4510,"Ġknow,":4511,"âĢĻm":4512,"Ġassum":4513,"ption":4514,"Ġaudience":4515,"ghan":4516,"lant":4517,"Ġbur":4518,"Ġremark":4519,"ĠOther":4520,"Ġwealth":4521,"Ġfunding":4522,"Ġconservative":4523,"Ġagain.":4524,"ĠarenâĢĻt":4525,"Ġbenefits":4526,"Ġputting":4527,"ase.":4528,"Ġweek.":4529,"GB":4530,"Ġextremely":4531,"Ġbottom":4532,"Ġload":4533,"Ġnote":4534,"Ġlaunched":4535,"pri":4536,"ĠAtt":4537,"irgin":4538,"Ġ2,":4539,"Ġ(M":4540,"Ġcommunities":4541,"Ġleadership":4542,"Ġinitial":4543,"Ġartic":4544,"ĠMill":4545,"Ġreduce":4546,"Ġ26":4547,"Ġcustomers":4548,"Ġinterested":4549,"Ġactions":4550,"ĠNo.":4551,"Ġexperiment":4552,"orrow":4553,"Ġfuel":4554,"ĠJon":4555,"oses":4556,"Ġspl":4557,"ĠDist":4558,"Ġ28":4559,"rial":4560,"Ġdouble":4561,"Ġflag":4562,"aked":4563,"Ġseparate":4564,"Ġindividuals":4565,"Ġneighbor":4566,"Ġcoal":4567,"Ġanalysis":4568,"ĠHall":4569,"ĊĊHere":4570,"ĊĊ-":4571,"igned":4572,"Ġ(or":4573,"Ġamb":4574,"âĢĿ,":4575,"Ġfit":4576,"Ġdism":4577,"Ġrule":4578,"Ġdepartment":4579,"Ġarrested":4580,"Ġder":4581,"Ġproduced":4582,"Ġnine":4583,"iful":4584,"Ġjudge":4585,"Ġbecomes":4586,"ĠFox":4587,"ĊĊItâĢĻs":4588,"Ġheavy":4589,"Ġthis.":4590,"Ġtrend":4591,"Ġcolor":4592,"ĠMany":4593,"witch":4594,"Ġdefinitely":4595,"PA":4596,"15":4597,"ris":4598,"ighter":4599,"known":4600,"ists,":4601,"ĠGreat":4602,"Ġrestaur":4603,"Ġruns":4604,"Ġrates":4605,"isher":4606,"Ġchurch":4607,"Ġmission":4608,"Ġinvestment":4609,"Ġthough,":4610,"ĠFBI":4611,"Ġexisting":4612,"ste":4613,"Ġnegative":4614,"Ġhack":4615,"ivity":4616,"Ġreact":4617,"ĠYour":4618,"Ġbelief":4619,"ĠMad":4620,"ĠCarol":4621,"Ġdestroy":4622,"onents":4623,"Ġattend":4624,"us.":4625,"Ġworst":4626,"Ġspoke":4627,"ented":4628,"Ġcontain":4629,"25":4630,"Ġeffective":4631,"ĠCap":4632,"Ġbackground":4633,"Ġserved":4634,"ĠAdd":4635,"ĠTer":4636,"olf":4637,"lay":4638,"Ġanimal":4639,"Ġagreement":4640,"de":4641,"Ġcod":4642,"Ġgoals":4643,"ĠUnion":4644,"ampionship":4645,"Ġinjur":4646,"ĠSt.":4647,"Ġpurs":4648,"Ġran":4649,"Ġpurpose":4650,"ĠLos":4651,"at.":4652,"Ġteach":4653,"iles":4654,"hicle":4655,"Ġafford":4656,"Ġcash":4657,"ĠGOP":4658,"level":4659,"ĠJustice":4660,"rows":4661,"Ġ(P":4662,"FC":4663,"Ġpair":4664,"Ġ80":4665,"Ġdate":4666,"iation":4667,"Ġfaith":4668,"iou":4669,"ado":4670,"que":4671,"ĠTre":4672,"Ġfresh":4673,"Ġassociated":4674,"ĠArt":4675,"Ġvoice":4676,"OU":4677,"Ġgenerally":4678,"Ġcommercial":4679,"Ġdecad":4680,"les,":4681,"Ġnorth":4682,"ĠCommun":4683,"Ġthere,":4684,"Ġagreed":4685,"Ġrefere":4686,"kin":4687,"Ġhol":4688,"ĠWil":4689,"see":4690,"Ġresist":4691,"Ġdie":4692,"ĠDr.":4693,"Ġwel":4694,"Ġsociety":4695,"Ġhus":4696,"Ġappeal":4697,"Ġdiscovered":4698,"ĠweâĢĻve":4699,"Ġded":4700,"RE":4701,"Ġplaces":4702,"Ġopened":4703,"ipl":4704,"Ġgrant":4705,"erved":4706,"Ġexcl":4707,"imin":4708,"Ġmiles":4709,"edd":4710,"Ġannual":4711,"ĊĊThey":4712,"Ġrepeated":4713,"ĠUkrain":4714,"ube":4715,"ĠRead":4716,"ĠRobert":4717,"Ġdoz":4718,"Ġconcerns":4719,"atically":4720,"Ġweapons":4721,"Ġknowledge":4722,"Ġwell,":4723,"Ġ(N":4724,"Ġimmigr":4725,"iance":4726,"ĠMag":4727,"Ġtransport":4728,"Ġissued":4729,"Ġstudies":4730,"Ġhighlight":4731,"IL":4732,"ĠLike":4733,"Ġclick":4734,"Ġsun":4735,"ĠTod":4736,"ĠSup":4737,"ĠOver":4738,"ĠSince":4739,"Ġcaught":4740,"ĠWindows":4741,"ĠDirect":4742,"Ġrecommend":4743,"annel":4744,"Ġ90":4745,"Ġallowing":4746,"Ġnames":4747,"ki":4748,"itation":4749,"Ġconsid":4750,"upp":4751,"sey":4752,"z,":4753,"inger":4754,"NN":4755,"Ġmicro":4756,"iliar":4757,"Ġinterf":4758,"Ġdoor":4759,"owl":4760,"Ġliv":4761,"-3":4762,"Ġtelling":4763,"Ġwatching":4764,"ĠChris":4765,"ĠAfghan":4766,"rs":4767,"Ġtrip":4768,"Ġdeliver":4769,"Ġeye":4770,"Ġnovel":4771,"Ġlargely":4772,"Ġall.":4773,"Ġcountry.":4774,"ĊĊSome":4775,"ase,":4776,"ĠPak":4777,"BS":4778,"Ġplanning":4779,"inct":4780,"ices,":4781,"Ġsan":4782,"ategy":4783,"land,":4784,"ĠCEO":4785,"arant":4786,"Ġconstruction":4787,"Ġstream":4788,"ĊĊHowever,":4789,"Ġmale":4790,"Ġfeet":4791,"Ġgay":4792,"Ġagain,":4793,"ĠPri":4794,"Ġemployees":4795,"Ġprices":4796,"Ġbooks":4797,"ions,":4798,"ĠUN":4799,"AP":4800,"Ġfarm":4801,"Ġsays,":4802,"Ġfalse":4803,"AD":4804,"Ġholding":4805,"Ġarg":4806,"semb":4807,"Ġrough":4808,"night":4809,"ĠQue":4810,"Ġge":4811,"Ġraise":4812,"ĠAre":4813,"Ġconditions":4814,"ĠThom":4815,"Ġexerc":4816,"how":4817,"Ġillegal":4818,"Ġresidents":4819,"Ġcharged":4820,"Ġbelieves":4821,"Ġrefuge":4822,"ining":4823,"ronic":4824,"Ġstatus":4825,"Ġmax":4826,"ingly":4827,"Ġschools":4828,"Ġcateg":4829,"ulf":4830,"Ġcharges":4831,"ary,":4832,"Ġoffensive":4833,"Ġstrength":4834,"Ġtruly":4835,"Ġaspect":4836,"Ġ2008":4837,"Ġactivities":4838,"Ġradio":4839,"ĠCommission":4840,"Ġvictory":4841,"ĠJim":4842,"Ġunderstanding":4843,"Ġcompar":4844,"ĠMicrosoft":4845,"-and":4846,"Ġeyes":4847,"Ġcatch":4848,"ĠAfrican":4849,"Ġsystem.":4850,"van":4851,"Ġimages":4852,"Ġnor":4853,"bert":4854,"Ġresources":4855,"Ġunit":4856,"Ġdebt":4857,"ĠwouldnâĢĻt":4858,"ess.":4859,"ĠOh":4860,"ise.":4861,"Ġtells":4862,"Ġserver":4863,"ipped":4864,"Ġhere,":4865,"Ġreasons":4866,"Ġveter":4867,"Ġlines":4868,"Ġ(s":4869,"resp":4870,"Ġthen,":4871,"cknow":4872,"andom":4873,"Ġpatients":4874,"ota":4875,"Ġdownload":4876,"ossible":4877,"Ġrequires":4878,"ĠSil":4879,"ĠChurch":4880,"Ġcrime":4881,"ĠSanders":4882,"Ġconsequ":4883,"ĠyouâĢĻll":4884,"der":4885,"Ġaccur":4886,"ĠAndroid":4887,"tered":4888,"Ġactive":4889,"A.":4890,"Ġjoined":4891,"ĊĊâĢ¢":4892,"andon":4893,"equ":4894,"ĠInstead":4895,"Ġproviding":4896,"Ġwon't":4897,"Ġscientists":4898,"Ġsources":4899,"Ġabuse":4900,"Ġcook":4901,"Ġapplication":4902,"Ġtrail":4903,"usive":4904,"Ġprojects":4905,"Ġsuggested":4906,"Ġtough":4907,"ĠAustralia":4908,"rump":4909,"Ġtransfer":4910,"Ġfant":4911,"Ġestablish":4912,"ĠMiss":4913,"ĠJeff":4914,"ated,":4915,"Ġpresence":4916,"Ġfourth":4917,"Ġnewsp":4918,"Ġweapon":4919,"ĠIsraeli":4920,"Ġhappens":4921,"Ġtypes":4922,"ĠJewish":4923,"Ġcentur":4924,"Ġmemory":4925,"CC":4926,"ĠSl":4927,"Ġvehicle":4928,"ions.":4929,"Ġvehic":4930,"Ġeasier":4931,"ĠGree":4932,"Ġtweet":4933,"ĠAM":4934,"Ġspokesman":4935,"ario":4936,"ĊĊ'":4937,"For":4938,"Ġpolicies":4939,"going":4940,"ĠIâĢĻd":4941,"Ġmore.":4942,"Ġreturned":4943,"Ġthus":4944,"ĠStep":4945,"ĠPalestin":4946,"Ġpartners":4947,"ĠVer":4948,"ĠFrank":4949,"Ġguard":4950,"ĠAc":4951,"ĠUs":4952,":00":4953,"oes":4954,"Ġgain":4955,"Ġcontext":4956,"oly":4957,"Ġbatt":4958,"ĠSupreme":4959,"ĠRock":4960,"ource":4961,"ĠVirgin":4962,"Ġsouth":4963,"while,":4964,"ander":4965,"ĠFore":4966,"Ġ4.":4967,"Ġfinished":4968,"ĠOffice":4969,"house":4970,"Ġ$3":4971,"Ġfellow":4972,"Ġlength":4973,"Ġhusband":4974,"Don":4975,"Ġacknow":4976,"Ġsupported":4977,"ressed":4978,"Ġoptions":4979,"ĠAmaz":4980,"Ġsetting":4981,"Ġkeeping":4982,"anging":4983,"Ġplaced":4984,"ĠHoll":4985,"Ġbul":4986,"Ġdefensive":4987,"Ġcollection":4988,"ache":4989,"ĠMer":4990,"ĠâĢľc":4991,"Ġargument":4992,"Ġalone":4993,"Ġdriving":4994,"Ġice":4995,"itude":4996,"wise":4997,"Ġdo.":4998,"time":4999,"ĠConf":5000,"ĠJud":5001,"Ġstation":5002,"ordin":5003,"ih":5004,"ent.":5005,"ĠGovernment":5006,"ĠRichard":5007,"ĠGame":5008,"Ġsequ":5009,"Ġ70":5010,"ĠChicago":5011,"Ġpartner":5012,"Ġ\"W":5013,"Ġlife,":5014,"ĠcouldnâĢĻt":5015,"Ġnar":5016,"oyal":5017,"Ġadvantage":5018,"Ġwitness":5019,"Ġcrisis":5020,"Ġconfirm":5021,"Ġstyle":5022,"ĠGroup":5023,"Ġdoubt":5024,"Ġwaiting":5025,"ĊĊBy":5026,"oted":5027,"Ġflow":5028,"Ġ\"S":5029,"ae":5030,"Ġoccup":5031,"ĠJohnson":5032,"imb":5033,"Ġvalu":5034,"Ġcapac":5035,"Ġuseful":5036,"Ġassess":5037,"Ġlibr":5038,"Ġmarijuana":5039,"Ġhearing":5040,"cient":5041,"________":5042,"ĠLeg":5043,"ĠMont":5044,"Ġfell":5045,"Ġframe":5046,"vered":5047,"vant":5048,"Ġnegoti":5049,"ĠProf":5050,"Ġhair":5051,"Ġestablished":5052,"ĠPM":5053,"ĠTy":5054,"Ġroll":5055,"Ġborder":5056,"//":5057,"Ġconclud":5058,"Ġin.":5059,"ounds":5060,"Ġprograms":5061,"ov.":5062,"as.":5063,"Ġmanaged":5064,"stitution":5065,"Ġfocused":5066,"Ġfeels":5067,"ĠPC":5068,"ĠSal":5069,"):":5070,"70":5071,"ah,":5072,"adium":5073,"Ġsmaller":5074,"Ġnotice":5075,"ĠSyrian":5076,"Ġrelatively":5077,"ancy":5078,"ĊĊâĢľA":5079,"ribute":5080,"Ġappropri":5081,"Ġremind":5082,"ĠÃ":5083,"Ġphil":5084,"Ġwork,":5085,"lig":5086,"Ġstrike":5087,"ĠMP":5088,"sp":5089,"Ð¾":5090,"Ġregist":5091,"icy":5092,"Ġaggress":5093,"Ġ2009":5094,"Ġpropert":5095,"Ġplease":5096,"Ġsust":5097,"-pro":5098,"ĊĊAll":5099,"uct":5100,"Ġflight":5101,"Ġtack":5102,"Ġdollars":5103,"ĠBern":5104,"Ġstrategy":5105,"A,":5106,"Ġprefer":5107,"Ġeat":5108,"Ġweak":5109,"Ġ(I":5110,"Ġpet":5111,"Ġaccident":5112,"EM":5113,"ite,":5114,"Ġbatter":5115,"rate":5116,"Ġactivity":5117,"ĊĊBe":5118,"ĠPet":5119,"Ġdepend":5120,"icon":5121,"Ġsociet":5122,"rastruct":5123,"ĠThat's":5124,"Ġparties":5125,"hedul":5126,"Ġtrial":5127,"Ġkilling":5128,"ien":5129,"Ġ29":5130,"Ġintroduced":5131,"HL":5132,"onym":5133,"Ġcommitted":5134,"oman":5135,"ortunate":5136,"Ġremov":5137,"ĠâĢľf":5138,"ĠDN":5139,"ĠTeam":5140,"Ġfle":5141,"Ġfine":5142,"Ġhelping":5143,"Ġexpert":5144,"ym":5145,"Ġrecords":5146,"Ġpap":5147,"Ġcrew":5148,"Ġappoint":5149,"Ġwindow":5150,"Ġ;":5151,"Ġprospect":5152,"ant,":5153,"izz":5154,"Ġdoct":5155,"ĠMos":5156,"nel":5157,"ĠâĢľM":5158,"Ġneighborhood":5159,"ill,":5160,"Ġiniti":5161,"erous":5162,"Ġentirely":5163,"Ġbusines":5164,"Ġbag":5165,"Ġdram":5166,"edy":5167,"Ġus.":5168,"ĠMet":5169,"Ġmanagement":5170,"amm":5171,"ĠBritain":5172,"Ġspect":5173,"Ġerror":5174,"âĢĶâĢĶ":5175,"Ġmedic":5176,"Ġlabor":5177,"ĠToront":5178,"ona":5179,"rd":5180,"ĠImages":5181,"Ġplays":5182,"ĠAtlant":5183,"Ġearth":5184,"Ġwish":5185,"Ġtransl":5186,"Ġtraffic":5187,"ĠâĢľw":5188,"Ġschedul":5189,"ĠGood":5190,"alu":5191,"Ġmere":5192,"Ġdomestic":5193,"rey":5194,"Ġcircum":5195,"ĠJose":5196,"Ġsudd":5197,"Ġ35":5198,"Ġpil":5199,"Ġenvironmental":5200,"ĠLat":5201,"ĠNor":5202,"Ġinternet":5203,"ĠInter":5204,"ĠFire":5205,"Ġcars":5206,"isf":5207,"ĠBitcoin":5208,"iot":5209,"Ġtransform":5210,"OL":5211,"Ġstructure":5212,"asy":5213,"Ġvul":5214,"ĠTheir":5215,"ĠSur":5216,"ica":5217,"Ġath":5218,"ite.":5219,"Ġsupporters":5220,"ĠWeb":5221,"Ġmental":5222,"ĠSpe":5223,"Ġtherefore":5224,"Ġteen":5225,"ids":5226,"ĠFrancisc":5227,"Ġmal":5228,"Ġcarried":5229,"Ġthanks":5230,"aren":5231,"Ġacadem":5232,"Ġlegislation":5233,"Ġfiled":5234,"Ġinnov":5235,"Ġscientific":5236,"Ġcommission":5237,"Ġfamiliar":5238,"Ġblue":5239,"gypt":5240,"SP":5241,"Ġself-":5242,"iable":5243,"Ġjail":5244,"ĠJoe":5245,"Ġhonest":5246,"ĠResearch":5247,"ĠCommittee":5248,"-th":5249,"ĠOut":5250,"ĠLast":5251,"Ġexpensive":5252,"Ġscript":5253,"Ġspirit":5254,"Ġinteract":5255,"Ġapart":5256,"Ġprosecut":5257,"Ġplace.":5258,"izes":5259,"Ġrich":5260,"Ġolder":5261,"Ġone,":5262,"ĠJapanese":5263,"Ġdangerous":5264,"Ġwarning":5265,"Ġincreasingly":5266,"uke":5267,"Ġclosed":5268,"ocol":5269,"Ġago.":5270,"verse":5271,"Ġcommittee":5272,"itz":5273,"ory,":5274,"roud":5275,"!âĢĿ":5276,"ĠPrime":5277,"ĠKh":5278,"Ġpaying":5279,"Ġimpossible":5280,"ĠAlthough":5281,"acing":5282,"stream":5283,"ĠRyan":5284,"Ġtoday.":5285,"ĠSecretary":5286,"Ġcold":5287,"Ġ(F":5288,"vis":5289,"ĠDistrict":5290,"Ġgradu":5291,"Ġdecide":5292,"Ġterrit":5293,"well":5294,"Ġenforcement":5295,"abb":5296,"Ġton":5297,"Ġcorporate":5298,"Ġ194":5299,"ĠGermany":5300,"-day":5301,"ĠDec":5302,"Ġalternative":5303,"ĠIsland":5304,"ĠDen":5305,"Ġoperating":5306,"Ġon,":5307,"ship":5308,"inter":5309,"Ġseeking":5310,"ynam":5311,"wards":5312,"Ġvast":5313,"Ġslightly":5314,"Ġbeautiful":5315,"ios":5316,"ĠAlso":5317,"itect":5318,"Ġconcerned":5319,"ĠSub":5320,"ge,":5321,"aks":5322,"Ġstanding":5323,"Ġlock":5324,"Ġpolitics":5325,"Ġsurvey":5326,"Ġvalues":5327,"ĠFlorida":5328,"Ġtast":5329,"Ġadvis":5330,"16":5331,"Ġidentified":5332,"ĠLouis":5333,"ĠBost":5334,"Ġque":5335,"Ġequip":5336,"Ġvictims":5337,"Ġtheory":5338,"Ġinsurance":5339,"ĠMary":5340,"ĠTHE":5341,"PS":5342,"Ġsolar":5343,"Ġpossibly":5344,"Ġuniversity":5345,"Ġdeploy":5346,"ĠâĢľd":5347,"Ġvision":5348,"Ġstopped":5349,"apped":5350,"Ġcamera":5351,"ĠWork":5352,"esterday":5353,"ĠAri":5354,"eline":5355,"ĠPut":5356,"Ġhate":5357,"ocal":5358,"ĠPre":5359,"Ġlob":5360,"ĊĊSh":5361,"Ġlosing":5362,"tr":5363,"phone":5364,"ears":5365,"lege":5366,"osure":5367,"Ġguess":5368,"Ġoptim":5369,"och":5370,"ashed":5371,"ruit":5372,"ĠCentral":5373,"gn":5374,"Ġprofessor":5375,"Ġmentioned":5376,"Ġunivers":5377,"ĊĊMore":5378,"Ġpossibility":5379,"Ġsuit":5380,"Ġbed":5381,"tained":5382,"Ġinfrastruct":5383,"Ġregarding":5384,"ates,":5385,"Ġfundament":5386,"Ġpit":5387,"Ġsudden":5388,"Ġupdate":5389,"olit":5390,"ĠInstitute":5391,"Ġabsolutely":5392,"coh":5393,"th,":5394,"Ġbigger":5395,"Ġcountri":5396,"anned":5397,"Ġsystem,":5398,"bor":5399,"Ġdecades":5400,"Ġsumm":5401,"Ġexplained":5402,"Ġmissing":5403,"Ġdeveloping":5404,"Ġresponsibility":5405,"Ġcovered":5406,"Ġdocuments":5407,"fl":5408,"Ġviews":5409,"DA":5410,"14":5411,"Ġtight":5412,"Ġ32":5413,"Ġadjust":5414,"ĠMiddle":5415,"ection":5416,"Ġstated":5417,"Ġguarant":5418,"airs":5419,"Ġfol":5420,"ĊĊâĢľW":5421,"amin":5422,"Ġturns":5423,"Ġodd":5424,"ait":5425,"-T":5426,"Ġfired":5427,"Ġconsult":5428,"lock":5429,"Ġmad":5430,"Ġretail":5431,"Ġhome.":5432,"Ġshift":5433,"arsh":5434,"Ġvariety":5435,"awn":5436,"ĠCamp":5437,"Ġoperations":5438,"Ġcandidates":5439,"Ġmagaz":5440,"Ġmaintain":5441,"les.":5442,"ĠUnder":5443,"Ġboost":5444,"13":5445,"Ġcoverage":5446,"ĠChief":5447,"....":5448,"Ġluck":5449,"ĠJun":5450,"Ġinternal":5451,"ville":5452,"aven":5453,"ĠwhatâĢĻs":5454,"anche":5455,"ces.":5456,"ulate":5457,"Ġnone":5458,"Ġbringing":5459,"rist":5460,"Ġsch":5461,"Ġcouncil":5462,"ically,":5463,"ĊĊ\"A":5464,"Ġmonth,":5465,"Ġschem":5466,"Ġsitting":5467,"Ġpotentially":5468,"ĠAustralian":5469,"ĠPress":5470,"Ġdevices":5471,"lass":5472,"Ġoffering":5473,"Ġrevolution":5474,"ĠThose":5475,"rid":5476,"Ġsuggests":5477,"lied":5478,"cel":5479,"Ġhurt":5480,"Ġinsp":5481,"Ġmarriage":5482,"Ġplenty":5483,"Ġlocation":5484,"ace.":5485,"ĠD.":5486,"Ġunless":5487,"ĠBur":5488,"ĊĊUn":5489,"Ġshock":5490,"ici":5491,"Ġplanned":5492,"Ġtesting":5493,"-of":5494,"Ġprove":5495,"Ġcurren":5496,"iling":5497,"Ġepisode":5498,"Ġmachine":5499,"Ġphilos":5500,"ence,":5501,"Ġoccurred":5502,"Ġworry":5503,"Ġperspect":5504,"illing":5505,"Ġvulner":5506,"ĊĊNot":5507,"Ġthank":5508,"ace,":5509,"ournament":5510,"Ġapparently":5511,"ces,":5512,"ĠEgypt":5513,"ĠGal":5514,"gar":5515,"mm":5516,"ĠSyria":5517,"Ġprepared":5518,"Ġgeneration":5519,"ĠCru":5520,"igg":5521,"road":5522,"ĠPeter":5523,"Ġdropped":5524,"Ġfaster":5525,"ĠMedic":5526,"ĠPublic":5527,"ina,":5528,"-sh":5529,"Ġisland":5530,"Ġhousing":5531,"ĠyouâĢĻve":5532,"Ġspecies":5533,"-P":5534,"Ġestimated":5535,"real":5536,"ĠBob":5537,"ady":5538,"Ġgar":5539,"istics":5540,"ĠGuard":5541,"Ġfif":5542,"ĠRiver":5543,"hens":5544,"Ġbroke":5545,"Ġexpans":5546,"ĠRo":5547,"ĠMartin":5548,"Ġdepart":5549,"Ġhelps":5550,"Ġdetermine":5551,"Ġtools":5552,"Ġtalks":5553,"Ġrapid":5554,"Ġtruck":5555,"Ġexchange":5556,"uters":5557,"ics,":5558,"Ġaid":5559,"Ġphotos":5560,"Ġfamous":5561,"ĠSant":5562,"Ġlived":5563,"Ġsports":5564,"Ġitems":5565,"ava":5566,"ves.":5567,"ĠSaud":5568,"uzz":5569,"Ġinsist":5570,"ĠTwo":5571,"Ġmut":5572,"Ġpoint,":5573,"but":5574,"Ġabort":5575,"Ġselling":5576,"Ġcloser":5577,"Ġcorrupt":5578,"useum":5579,"Ġapply":5580,"Ġopinion":5581,"Ġultimately":5582,"Ġvoted":5583,"Ġengage":5584,"ĠOnce":5585,"ĠItal":5586,"Ġcorner":5587,"cious":5588,"ĠSing":5589,"ĠJes":5590,"Ġnomin":5591,"lymp":5592,"ĠPhoto":5593,"part":5594,"Ġstarts":5595,"Ġstret":5596,"Ġfinish":5597,"18":5598,"Ġsteps":5599,"arp":5600,"Ġsymb":5601,"Ġremove":5602,"ulated":5603,"90":5604,"ression":5605,"Ġcrack":5606,"Ġpointed":5607,"Ġdiscussion":5608,"Ġlin":5609,"Ġconnection":5610,"ĠFederal":5611,"ell,":5612,"Ġclot":5613,"ureau":5614,"bre":5615,"Ġ2014,":5616,"ĠObam":5617,"Ġ2015,":5618,"Ġelement":5619,"00,000":5620,"Ġtradition":5621,"Ġbought":5622,"Ġconflict":5623,"lyn":5624,"ĠJones":5625,"Ġco-":5626,"Ġconcl":5627,"ress.":5628,"'m":5629,"ST":5630,"ĠWal":5631,"ĠNav":5632,"ĠCath":5633,"Ġprime":5634,"Ġmaster":5635,"under":5636,"Ġ\"the":5637,"ĠIâĢĻll":5638,"ĠAny":5639,"Ġoriginally":5640,"Ġnotes":5641,"Ġmotiv":5642,"Ġdown.":5643,"Ġchemical":5644,"what":5645,"Ġrent":5646,"rant":5647,"ĠFe":5648,"ĊĊNow":5649,"lor":5650,"ĠSpr":5651,"ano":5652,"Ġso,":5653,"Ġshop":5654,"Ġfacing":5655,"Ġchanging":5656,"Ġremoved":5657,"Ġgender":5658,"icted":5659,"Ġgrew":5660,"ĠJ.":5661,"ownt":5662,"ĠMel":5663,"ĠConserv":5664,"ĠPlease":5665,"ading":5666,"Ġtrick":5667,"ĠDaily":5668,"Ġhigh-":5669,"ĊĊQ":5670,"ĠSteve":5671,"Ġshape":5672,"ĠFrance":5673,"Ġexpressed":5674,"Ġterrorist":5675,"Ġcarbon":5676,"ĠJu":5677,"17":5678,"ĠGar":5679,"oty":5680,"ĠRub":5681,"E:":5682,"Ġbasis":5683,"Ġbreat":5684,"Ġsites":5685,"phas":5686,"ĠColor":5687,"Ġsupply":5688,"ĠThomas":5689,"Ġimmigration":5690,"Ġowner":5691,"Ġopportunities":5692,"aded":5693,"ĠCharl":5694,"Ġminimum":5695,"Ġcontest":5696,"Ġinvolve":5697,"Ġbusinesses":5698,"TC":5699,"ĠProt":5700,"Ġvir":5701,"Ġmeasures":5702,"Ġarrived":5703,"ĠiPh":5704,"Ġrandom":5705,"Ġpresented":5706,"osen":5707,"Ġpanel":5708,"porary":5709,"-B":5710,"Ġadded.":5711,"Ġgreatest":5712,"ĠDan":5713,"Ġmarg":5714,"Ġwarm":5715,"ya":5716,"ĠSol":5717,"ĠHeâĢĻs":5718,"Ã¡":5719,"ords":5720,"ĠSocial":5721,"Ġhand,":5722,"Ġ3,":5723,"wide":5724,"Ġ(B":5725,"Ġus,":5726,"Ġcopyright":5727,"Ġfigures":5728,":30":5729,"Ġ\"s":5730,"Ġopponent":5731,"ess,":5732,"Ġgirls":5733,"Ġcultural":5734,"Ġfailure":5735,"ĠBBC":5736,"Ġsupporting":5737,"Ġlands":5738,"Ġturning":5739,"eder":5740,"ception":5741,"Ġapprec":5742,"Ġcards":5743,"Ġconsidering":5744,"enced":5745,"ĠArmy":5746,"ĠBoth":5747,"ĠOlymp":5748,"Ġ(T":5749,"Ġgiant":5750,"inent":5751,"-4":5752,"ĠST":5753,"Ġseat":5754,"DP":5755,"la":5756,"Ġtun":5757,"Ġemp":5758,"Ġbound":5759,"Ġamazing":5760,"19":5761,"Ġteam.":5762,"Ġconducted":5763,"Ġexplos":5764,"Ġsounds":5765,"-the":5766,"idel":5767,"makers":5768,"Ġtele":5769,"Ġspeaking":5770,"Ġcaption":5771,"Ġintended":5772,"Ġswitch":5773,"cohol":5774,"Ġwearing":5775,"ter,":5776,"Ġtact":5777,"pret":5778,"Ġconversation":5779,"ĠForce":5780,"Ġwood":5781,"Ġrail":5782,"Ġin,":5783,"ĠPac":5784,"er's":5785,"Ġcentury":5786,"Ġfunds":5787,"Ġher.":5788,"Ġbanks":5789,"oney":5790,"Ġclin":5791,"cription":5792,"point":5793,"1]":5794,"ivered":5795,"eless":5796,"ĠMur":5797,"related":5798,"issions":5799,"Ġdiscl":5800,"ĠHaw":5801,"Ġhyp":5802,"Ġdeck":5803,"Ġunion":5804,"Ġfrust":5805,"ĠDuring":5806,"Ġlong-term":5807,"Ġdisappoint":5808,"ĠBo":5809,"ĠWho":5810,"Ġ2000":5811,"ĠAN":5812,"ĠRoad":5813,"raud":5814,"ĠStr":5815,"Ġdollar":5816,"ttp":5817,"Ġattorney":5818,"====":5819,"hered":5820,"Ġherself":5821,"hab":5822,"ius":5823,"Ġcolumn":5824,"ĊĊRead":5825,"Ġmagn":5826,"Ġupgr":5827,"ĊĊ*":5828,"Ġhopes":5829,"ĠRad":5830,"Ġlike,":5831,"Ġlocated":5832,"Ġimagine":5833,"Ġdecisions":5834,"igan":5835,"Ġreportedly":5836,"Ġaver":5837,"Ġpulled":5838,"ĠCur":5839,"Ġ45":5840,"Ġchamp":5841,"Ġast":5842,"Ġexperts":5843,"Ðµ":5844,"Ġbelong":5845,"Ġru":5846,"IV":5847,"Ġstorm":5848,"ĊĊThese":5849,"ĠTime":5850,"ĊĊPh":5851,"Ġrenew":5852,"Ġdismiss":5853,"Ġcollabor":5854,"Ġprotection":5855,"Ġproced":5856,"ipping":5857,"Ġback.":5858,"Ġtrouble":5859,"Ġrefused":5860,"/2":5861,"ĠOpen":5862,"ĠNAS":5863,"Ġdebut":5864,"Ġadvert":5865,"Ġis.":5866,"Ġaircraft":5867,"Ġcontrast":5868,"ĠâĢľB":5869,"Ġcentre":5870,"Ġcountry,":5871,"CH":5872,"Ġ195":5873,"idden":5874,"Ġidentify":5875,"ates.":5876,"ĊĊDes":5877,"ĊĊLast":5878,"Ġentertain":5879,"ĠLabour":5880,"Ġ5.":5881,"****":5882,"Ġplus":5883,"ĠâĢľO":5884,"ĠMass":5885,"Ġathlet":5886,"Ġvisual":5887,"ĠâĢľC":5888,"Ġconfident":5889,"Ġpitch":5890,"Ġdevelopers":5891,"RA":5892,"ompl":5893,"ĠRem":5894,"Ġremained":5895,"Ġtransition":5896,"abilities":5897,"ĠAssociation":5898,"onom":5899,"Ġtalked":5900,"Ġclas":5901,"Ġliberal":5902,"rave":5903,"Ġpercentage":5904,"Ġnom":5905,"Ġconstitution":5906,"Ġsuic":5907,"Ġlisten":5908,"Ġagent":5909,"Ġproposal":5910,"Ġforget":5911,"Ġcart":5912,"ĠHol":5913,"Ġlots":5914,"isation":5915,"Ġtoday,":5916,"ĠSpec":5917,"Ġnot.":5918,"Ġweather":5919,"Ġconfidence":5920,"ence.":5921,"Ġlawsuit":5922,"ENT":5923,"Ġelimin":5924,"sen":5925,"Ġprompt":5926,"mosp":5927,"Ġequal":5928,"Ġfiles":5929,"Ġproud":5930,"Ġinjured":5931,"Ġsecure":5932,"adow":5933,"ĠProject":5934,"Ġnav":5935,"Ġelements":5936,"Ġmand":5937,"Ġbalance":5938,"Ġcoff":5939,"ĊĊ\"W":5940,"Ġquiet":5941,"bur":5942,"Ġmort":5943,"Ġhowever":5944,"Ġburn":5945,"k,":5946,"rawn":5947,"ĠCollege":5948,"ĠFree":5949,"Ġthr":5950,"Ġtypically":5951,"mas":5952,"ĠPenn":5953,"Ġ$4":5954,"Ġdelay":5955,"ĠâĢľT":5956,"ran":5957,"Ġcuts":5958,"Ġcoast":5959,"Ġleads":5960,"Ġdiss":5961,"ww":5962,"Ġtwice":5963,"Ġ(which":5964,"Ġbeer":5965,"mond":5966,"Ġsurface":5967,"Ġyouth":5968,"ĠFollow":5969,"-on":5970,"ĠThereâĢĻs":5971,"Ġincom":5972,"Ġcraz":5973,"Ġbroadcast":5974,"Ġsides":5975,"Ġdelivered":5976,"ĠScot":5977,"Ġwords,":5978,"ĠAndrew":5979,"ĠAngeles":5980,"Ġsuffered":5981,"Ġcraft":5982,"Ġinstitution":5983,"ours":5984,"unte":5985,"Ġremaining":5986,"Get":5987,"Ġbasically":5988,"ĠhavenâĢĻt":5989,"Ġtemperature":5990,"Ġquarterback":5991,"hi":5992,"ada":5993,"ography":5994,"Ġheat":5995,"Ġ2013,":5996,"ample":5997,"Ġcloud":5998,"Ġfloor":5999,"Ġsho":6000,"Ġvoting":6001,"ĠML":6002,"ket":6003,"Ġwidely":6004,"Ġrestaurant":6005,"Ġspecifically":6006,"arl":6007,"Ġjustice":6008,"Ġfuture.":6009,"Ġbrows":6010,"Ġdefault":6011,"Ġvs.":6012,"Ġtechnical":6013,"aniel":6014,"Ġepisod":6015,"Ġprofit":6016,"erg":6017,"ĠJournal":6018,"\\x":6019,"Ġsevere":6020,"Ġdiscrim":6021,"ĠService":6022,"oms":6023,"Ġconcent":6024,"oral":6025,"abin":6026,"Ġbroken":6027,"Ġunable":6028,"e.âĢĿ":6029,"Ġexperienced":6030,"Ġsea":6031,"Ġexcited":6032,"ĠBet":6033,"Ġgather":6034,"ĠSpace":6035,"Ġ2012,":6036,"ĠRod":6037,"Ġtreated":6038,"employ":6039,"Ġanimals":6040,"ula":6041,"ĠKorea":6042,"pm":6043,"ĠâĢľIt":6044,"oles":6045,"Ġsigns":6046,"ress,":6047,"Ġconstruct":6048,"ĠWeek":6049,"anda":6050,"Ġexcell":6051,"Ġdrugs":6052,"ĠSen.":6053,"Ġplanet":6054,"Ġtech":6055,"AA":6056,"Ġexplo":6057,"Ġarr":6058,"Ġelected":6059,"Ġbutton":6060,"Ġopposed":6061,"Ġdeclared":6062,"Ġordered":6063,"Ġreference":6064,"Ġdesire":6065,"ĠPower":6066,"ĠBook":6067,"ĠSqu":6068,"ness,":6069,"Ġscale":6070,"Ġhandle":6071,"razil":6072,"Ġotherwise":6073,"Ġstress":6074,"Ġcolleag":6075,"ĠIN":6076,"Ġcann":6077,"fit":6078,"Ġpicked":6079,"Ð°":6080,"Ġguest":6081,"Ġvalid":6082,"ĠSo,":6083,"Ġhealthy":6084,"Ġarmy":6085,"Ġscr":6086,"ilit":6087,"Ġdetermined":6088,"ĠMem":6089,"illed":6090,"IP":6091,"kins":6092,"ĠToronto":6093,"Ġsem":6094,"Ġcalcul":6095,"Ġpassing":6096,"Ġyesterday":6097,"evin":6098,"ĠRel":6099,"Ġfranch":6100,"rible":6101,"ĠLin":6102,"Ġruling":6103,"Ġreporter":6104,"Ġaccompl":6105,"OW":6106,"ĠSign":6107,"Ġgames.":6108,"Ġemergency":6109,"Ġrecorded":6110,"Ġcapable":6111,"Ġoperation":6112,"Ġcooper":6113,"ĠSher":6114,"astern":6115,"Ġplayoff":6116,"cean":6117,"Ġnumerous":6118,"ĊĊNew":6119,"##":6120,"Ġquant":6121,"ĠPhot":6122,"Ġarchitect":6123,"Ġdipl":6124,"Ġdemocr":6125,"ĠPalestinian":6126,"hew":6127,"ĊĊPro":6128,"ĠâĢľm":6129,"ĠweâĢĻll":6130,"ĊĊAnother":6131,"Ġsatisf":6132,"Ġmodels":6133,"Ġobserv":6134,"ĠHuman":6135,"ĠAT":6136,"ĠShow":6137,"ĠGrand":6138,"ĠBarack":6139,"Ġresolution":6140,"ĠIre":6141,"xual":6142,"ĠCNN":6143,"Ġwear":6144,"IM":6145,"Ġanti":6146,"ias":6147,"Ġsac":6148,"Ġdegree":6149,"Ġoppos":6150,"ĠScience":6151,"Ġperman":6152,"ist.":6153,"Ġdiplom":6154,"Ġlit":6155,"Ġa.m.":6156,"iest":6157,"Ġhomes":6158,"standing":6159,"Ġ500":6160,"Ġbull":6161,"Ġapprox":6162,"Ġshall":6163,"Ġ31":6164,"Ġsubstant":6165,"aine":6166,"ĠRon":6167,"uster":6168,"ĠUSA":6169,"ĊĊCl":6170,"Ġreaction":6171,"Ġnut":6172,"Ġnight,":6173,"Ġbrew":6174,"Ġoursel":6175,"ortunately,":6176,"Ġlabel":6177,"rees":6178,"Ġcircumst":6179,"endment":6180,"ĠMa":6181,"ĠWood":6182,"Ġvotes":6183,"Ġ(3":6184,"Ġtournament":6185,"Ġpray":6186,"âĢĶand":6187,"Ġoffense":6188,"Ġdenied":6189,"-R":6190,"Ġdin":6191,"pet":6192,"Ġre-":6193,"respond":6194,"Ġsoldiers":6195,"ato":6196,"ION":6197,"Ġpool":6198,"Ġrecall":6199,"imal":6200,"aces":6201,"ĠGM":6202,"apter":6203,"ications":6204,"ores":6205,"ola":6206,"Ġemphas":6207,"Ġ\"M":6208,"outs":6209,"Ġessentially":6210,"Ġforg":6211,"hedu":6212,"Ġproceed":6213,"Ġsignificantly":6214,"Ġyards":6215,"Ġbond":6216,"ĠAmazon":6217,"Ġanalyst":6218,"Ġinitially":6219,"ĠCapt":6220,"Ġpasseng":6221,"ĠBack":6222,"Ġ2016,":6223,"ĠAC":6224,"Ġresol":6225,"Ġsad":6226,"Ġagencies":6227,"-sc":6228,"Ġfly":6229,"Ġadministr":6230,"Ġcheap":6231,"unning":6232,"less,":6233,"lies":6234,"Ġlegit":6235,"Ġaway.":6236,"ĠInc":6237,"Ġreduced":6238,"Ġfish":6239,"Ġsurprising":6240,"Ġdays,":6241,"UT":6242,"eed,":6243,"Ġpurchase":6244,"Ġobviously":6245,"ĊĊ3":6246,"Ġidentity":6247,"ĠNBA":6248,"Ġ(19":6249,"org":6250,"2]":6251,"Ġscheduled":6252,"Ġto.":6253,"Ġcells":6254,"Ġbon":6255,"ĠGeorg":6256,"Ġargued":6257,"-n":6258,"ĠSystem":6259,"Ġdeclined":6260,"Ġtoo,":6261,"Ġwound":6262,"Ġ(a":6263,"Ġcancer":6264,"Ġspons":6265,"Ġrot":6266,"Ġ1990":6267,"Ġaffected":6268,"ĠTra":6269,"ĠDou":6270,"ails":6271,"Ġid":6272,"Ġcombat":6273,"Ġdatab":6274,"ifi":6275,"rie":6276,"Ġbord":6277,"Ġ\"c":6278,"ĠVict":6279,"Ġloved":6280,"Ġadmitted":6281,"ĠPrem":6282,"iat":6283,"Ġscored":6284,"estival":6285,"Ġhappening":6286,"Ġing":6287,"Ġtroops":6288,"ĠBus":6289,"Ġhall":6290,"ĠDirector":6291,"ĠHou":6292,"Ġjour":6293,"Ġjoint":6294,"ĠKell":6295,"ĠBoston":6296,"Ġcriticism":6297,"Ġflood":6298,"illa":6299,"erry":6300,"ĠLake":6301,"Ġrow":6302,"Ġmyster":6303,"Ġinterests":6304,"ĠStan":6305,"season":6306,"Ġbaby":6307,"Ġdoctor":6308,"Ġauthority":6309,"Ġouts":6310,"Ġcapacity":6311,"Ġpieces":6312,"Ġdial":6313,"Ġ$5":6314,"Ġprocess.":6315,"ĠTw":6316,"ĠKim":6317,"ĠWell,":6318,"Ġmonth.":6319,"ĠTechn":6320,"Ġnecessarily":6321,"Ġchart":6322,"Ġske":6323,"Ġsquare":6324,"acked":6325,"Ġapproved":6326,"Ġmurder":6327,"merican":6328,"Ġthis:":6329,"sâĢĻ":6330,"Ġdynam":6331,"Ġparliament":6332,"ĠAriz":6333,"!\"":6334,"Ġatmosp":6335,"Ġattempts":6336,"Ġpushed":6337,"n,":6338,"Ġbike":6339,"Ġdistribut":6340,"Ġskills":6341,"asp":6342,"ĠâĢľa":6343,"ĠIll":6344,"ĠYouT":6345,"u,":6346,"Ġfort":6347,"Ġbare":6348,"umm":6349,"Ġpref":6350,"ĠColumb":6351,"Ġagend":6352,"place":6353,"Ġorganizations":6354,"oviet":6355,"Ġec":6356,"Ġinjury":6357,"whel":6358,"Ġgames,":6359,"Ġevalu":6360,"ĠKorean":6361,"Ġothers.":6362,"ĠMount":6363,"ĠSaudi":6364,"Ġarmed":6365,"75":6366,"Ġspr":6367,"ĠID":6368,"Ġmoral":6369,"Ġfilled":6370,"Ġcup":6371,"Ġalcohol":6372,"unction":6373,"ĊĊEx":6374,"apping":6375,"aped":6376,"Ġrealize":6377,"Ġyell":6378,"Ġteam,":6379,"yr":6380,"Ġwriter":6381,"lder":6382,"ka":6383,"ĠAff":6384,"Ġvan":6385,"ĠâĢľN":6386,"Ġ3D":6387,"ywood":6388,"Ġrain":6389,"ĠBoard":6390,"Ġviolent":6391,"ĠRight":6392,"45":6393,"Ġroughly":6394,"Ġcontains":6395,"Ġallegedly":6396,"Ġthing.":6397,"ĠDevelop":6398,"Ġpra":6399,"Ġthinks":6400,"Ġhun":6401,"nell":6402,"Ġlinked":6403,"pay":6404,"Ġmigr":6405,"Ġdivision":6406,"Ġ2007":6407,"itte":6408,"ader":6409,"Ġsought":6410,"ĠLib":6411,"ĠSwed":6412,"resents":6413,"ĠWalk":6414,"Ġsuc":6415,"Ġfactor":6416,"Ġongoing":6417,"ĠCub":6418,"ĠJul":6419,"ĠLee":6420,"Ġsubsequ":6421,"ĠBrazil":6422,"ĠMedia":6423,"ĊĊSince":6424,"ĠAven":6425,"-called":6426,"Ġsav":6427,"ĊĊEven":6428,"Ġradical":6429,"Ġdistribution":6430,"Ġnative":6431,"ley,":6432,"Ġbrings":6433,"Ġetc.":6434,"Ġforms":6435,"Ġcombined":6436,"Ġsucc":6437,"ness.":6438,"Ġsignal":6439,"ĠâĢľH":6440,"ĊĊMy":6441,"ternal":6442,"ĠKenn":6443,"Ġincor":6444,"Ġaf":6445,"Ġnot,":6446,"reens":6447,"rip":6448,"Ġpublicly":6449,"ie,":6450,"ĠâĢľb":6451,"stein":6452,"Ġmanufacture":6453,"Ġabandon":6454,"Ġfaced":6455,"-D":6456,"PD":6457,"Ġresc":6458,"Ġmotor":6459,"Ġneither":6460,"Ġtotally":6461,"Ġwell-":6462,"ĠGen":6463,"Ġexplan":6464,"ĠTen":6465,"Ġglass":6466,"atures":6467,"Ġdo,":6468,"Ġwrot":6469,"Ġanywhere":6470,"Ġrein":6471,"Ġfraud":6472,"Ġbright":6473,"Ġinstruct":6474,"Ġwalking":6475,"LE":6476,"ĠHen":6477,"ages.":6478,"Ġtow":6479,"y.âĢĿ":6480,"ĠworldâĢĻs":6481,"ĠCard":6482,"ĠClub":6483,"Ġstands":6484,"Ġstood":6485,"ĠAnn":6486,"Ġmir":6487,"ĠTO":6488,"Ġaccounts":6489,"ooth":6490,"cribe":6491,"Ġhousehold":6492,"Ġbe.":6493,"Ġfavour":6494,"Ġfacility":6495,"ĠYear":6496,"Ġwe've":6497,"Ġsurrounding":6498,"Ġheavily":6499,"Ġunderst":6500,"uls":6501,"Ġwithd":6502,"Ġdownt":6503,"Ġconnected":6504,"Ġnight.":6505,"ĠAv":6506,"enses":6507,"Ġ//":6508,"ages,":6509,"ĠBrook":6510,"ar.":6511,"Ġdecade":6512,"Ġwouldn't":6513,"Ġreceiving":6514,"Ġentered":6515,"Ġanyth":6516,"ĠStates.":6517,"acter":6518,"ĠHy":6519,"Ġlisted":6520,"ĠStates,":6521,"Ġsnow":6522,"Ġsector":6523,"den":6524,"Ġacknowled":6525,"ĊĊMr":6526,"ĠJackson":6527,"Ġsurprise":6528,"Ġhardware":6529,"-L":6530,"Ġenh":6531,"ĠWhe":6532,"ey":6533,"ĠSecond":6534,"Ġgrab":6535,"ists.":6536,"Ġchannel":6537,"Ġdays.":6538,"gers":6539,"ĠFrancisco":6540,"e,âĢĿ":6541,"ĠRam":6542,"Ġdecre":6543,"Ġblow":6544,"Ġhoping":6545,"Ġcitizen":6546,"Ġcomplain":6547,"ĊĊFirst":6548,"Ġinstance,":6549,"ooking":6550,"Ġseg":6551,"IG":6552,"Ġrepresents":6553,"lo":6554,"Ġgod":6555,"icious":6556,"Ġdiet":6557,"fe":6558,"Ġvice":6559,"ĠEner":6560,"Ġconfig":6561,"ĠImage":6562,"Ġprohib":6563,"Ġmissed":6564,"ĊĊFollow":6565,"Ġ4,":6566,"Ġ2015.":6567,"Ġfash":6568,"Ġcase.":6569,"Ġnewslet":6570,"duc":6571,"Ġtaxes":6572,"Ġsister":6573,"Ġargue":6574,"Ġsquad":6575,"Ġstate.":6576,"that":6577,"Ġgovernments":6578,"Ġchange.":6579,"ĠMexico":6580,"Ġ36":6581,"rum":6582,"ĠIts":6583,"Ġvolunte":6584,"ĠRev":6585,"Ġreporting":6586,"Ġappropriate":6587,"Ġaren't":6588,"Ġwire":6589,"ge.":6590,"-N":6591,"Ġchallenges":6592,"Ġbreaking":6593,"Ġbird":6594,"Ġ2016.":6595,"Ġunits":6596,"Ġupcoming":6597,"Ġtom":6598,"Ġresponded":6599,"ĠRE":6600,"athan":6601,"Ġadvance":6602,"Ġcombination":6603,"PR":6604,"Ġsale":6605,"esters":6606,"Ġreward":6607,"Ġoutput":6608,"Ġarms":6609,"Ġconfront":6610,"Ġtests":6611,"Ġso-called":6612,"Ġadvanced":6613,"Ġmanag":6614,"Ġwarned":6615,"ativ":6616,"âĢľ":6617,"Ġgovernment.":6618,"Ġfairly":6619,"Ġcouldn't":6620,"Ġrum":6621,"Ġpoliticians":6622,"ighters":6623,"Ġbuying":6624,"iders":6625,"Ġcoordin":6626,"Ġrevenue":6627,"Ġgrown":6628,"Ġscal":6629,"Ġalt":6630,"Ġsymbol":6631,"chen":6632,"ĠEach":6633,"ĠOnly":6634,"anged":6635,"ĠCarolina":6636,"burg":6637,"Ġunus":6638,"Ġcontroversial":6639,"Ġencourage":6640,"ĠFam":6641,"formation":6642,"Ġfewer":6643,"Ġprivacy":6644,"Ġhistory.":6645,"resident":6646,"and,":6647,"-off":6648,"Ġpip":6649,"ĠAnother":6650,"Ġcompleted":6651,"Ġpushing":6652,"ĠHarr":6653,"ils":6654,"ionally":6655,"Ġhistorical":6656,"ancing":6657,"noon":6658,"Ġphen":6659,"oking":6660,"ĊĊOther":6661,"Ġcompetitive":6662,"ĊĊAr":6663,"Ġappearance":6664,"acc":6665,":0":6666,"Ġsick":6667,"Ġlaugh":6668,"Ġleaves":6669,"ary.":6670,"uy":6671,"Ġpure":6672,"orse":6673,"ard,":6674,"nam":6675,"Ġsomewhat":6676,"Ġcere":6677,"ĠSoviet":6678,"person":6679,"Ġ(L":6680,"Ġright.":6681,"ments.":6682,"Ġpled":6683,"Ġapolog":6684,"Ġinterpret":6685,"ĠOk":6686,"y,âĢĿ":6687,"Ġtimes,":6688,"Ġbug":6689,"esh":6690,"ĠEll":6691,"Ġdisease":6692,"ves,":6693,"Ġsigning":6694,"ilty":6695,"ĠBlue":6696,"Ġstars":6697,"Ġessential":6698,"atell":6699,"Ġchain":6700,"Ġillust":6701,"yâĢĻs":6702,"Ġsubsid":6703,"usal":6704,"Ġsees":6705,"ton,":6706,"ĊĊâĢľIt":6707,"Ġ\"d":6708,"Ġskin":6709,"bo":6710,"ĠBrad":6711,"Ġinput":6712,"Ġschedu":6713,"Ġrally":6714,"Ġtrib":6715,"Ġgap":6716,"Ġeffectively":6717,"Ġ1980":6718,"Ġcreative":6719,"Ġinfrastructure":6720,"utions":6721,"Ġ33":6722,"ĊĊIt's":6723,"Ġempt":6724,"Ġembr":6725,"Ġfeatured":6726,"ĊĊDuring":6727,"Ġemotional":6728,"ĠNetwork":6729,"Ġfaces":6730,"ERS":6731,"ĠDie":6732,"Ġdown,":6733,"Ġsets":6734,"io,":6735,"Ġ2014.":6736,"Ġcorrespond":6737,"lets":6738,"Ġrobot":6739,"Ġsurveill":6740,"ĠEv":6741,"ographic":6742,"Ġregional":6743,"ics.":6744,"ĊĊOf":6745,"Ġalongside":6746,"Ġintent":6747,"ĠWik":6748,"ĠWatch":6749,"3]":6750,"PU":6751,"ĠOhio":6752,"Ġrising":6753,"Ġmoney.":6754,"ĠâĢľItâĢĻs":6755,"ĠSky":6756,"Ġinstitut":6757,"Ġmonit":6758,"Ġstatement.":6759,"top":6760,"Ġ(f":6761,"Ġadvent":6762,"ĠâĢľP":6763,"Ġconsumer":6764,"Ġhotel":6765,"ner,":6766,"Ġstruck":6767,"Ġdedicated":6768,"ĠPlan":6769,"ĠElect":6770,"Ġreporters":6771,"Ġhell":6772,"mental":6773,"Ġentry":6774,"ĠExp":6775,"eople":6776,"ĠIns":6777,"Ġcert":6778,"Ġmainstream":6779,"ĠParis":6780,"Ġgraph":6781,"-ch":6782,"Ġrelevant":6783,"Ġhome,":6784,"Ġefficient":6785,"Ġcarrying":6786,"ĊĊFrom":6787,"Ġcomplaint":6788,"ĠWild":6789,"ĠDiv":6790,"ĠFar":6791,"Ġtank":6792,"Ġplot":6793,"weight":6794,"edia":6795,"orne":6796,"Ġwave":6797,"Ġsurprised":6798,"Ġinspired":6799,"ĠletâĢĻs":6800,"Ġisol":6801,"iday,":6802,"Ġpictures":6803,"aming":6804,"Ġegg":6805,"Ġpregn":6806,"anish":6807,"Ġlov":6808,"ĠâĢľh":6809,"Ġ2011,":6810,"Ġschol":6811,"Ġearned":6812,"Ġstruggle":6813,"lines":6814,"ĠMot":6815,"Ġindustrial":6816,"ĠConstitution":6817,"onna":6818,"Ġvideos":6819,"Ġstandards":6820,"ĊĊImage":6821,"Ġconsistent":6822,"ĠhasnâĢĻt":6823,"Ġ(in":6824,"rier":6825,"Ġfundamental":6826,"24":6827,"ĊĊ\"It":6828,"Ġvehicles":6829,"Ġancient":6830,"Ġapplications":6831,"Ġconsumers":6832,"Ġtalent":6833,"Ġholds":6834,"ĠISIS":6835,"ĊĊHis":6836,"Ġperformed":6837,"Ġvirtual":6838,"ĠCIA":6839,"uration":6840,"ĠStephen":6841,"ocratic":6842,"Ġdifferences":6843,"Ġinfl":6844,"Ġevolution":6845,"Ġreput":6846,"Ġoverwhel":6847,"Ġhumans":6848,"oz":6849,"m,":6850,"ĠRomney":6851,"-out":6852,"Ġgovernment,":6853,"----------------":6854,"Ġtransp":6855,"Ġinfect":6856,"aug":6857,"Ġrape":6858,"Ġtermin":6859,"Ġoff.":6860,"ĠLong":6861,"Ġlos":6862,"Ġcomplet":6863,"ĠVol":6864,"kel":6865,"Ġends":6866,"Ġafternoon":6867,"Ġreserv":6868,"ĠSar":6869,"ideo":6870,"utch":6871,"Ġsty":6872,"Ġclassic":6873,"Ġliqu":6874,"gent":6875,"ĠRog":6876,"Ġstring":6877,"olice":6878,"Ġheight":6879,"ĠChristmas":6880,"rac":6881,"Ġanyway":6882,"ĠSports":6883,"Ġtens":6884,"ĠIP":6885,"ĠSee":6886,"Ġsustain":6887,"Ġnomine":6888,"Ġsplit":6889,"Ġusual":6890,"ĠNY":6891,"ĠPR":6892,"Ġevol":6893,"Ġwatched":6894,"ĠMaybe":6895,"Ġfactors":6896,"ĠDefense":6897,"Ġloan":6898,"vey":6899,"ĊĊRe":6900,"Ġfemin":6901,"ÑĤ":6902,"ĠHel":6903,"Ġlaw,":6904,"Ġmonths,":6905,"ĠCle":6906,"ĠTay":6907,"Ġexplore":6908,"Ġsending":6909,"ĠEr":6910,"ĠA.":6911,"zer":6912,"Ġreferred":6913,"Ġtag":6914,"Ġcreation":6915,"Ġ193":6916,"Ġlie":6917,"Ġdescribe":6918,"pd":6919,"ĠiPhone":6920,"Ġstreets":6921,"Ġwake":6922,"Ġurban":6923,"ved.":6924,"ĠAdam":6925,"Ġdealing":6926,"Ġauth":6927,"Ġtechniqu":6928,"Ġnarr":6929,"Ġcausing":6930,"essor":6931,"Ġunlikely":6932,"ĠFoundation":6933,"ĠEric":6934,"Ġback,":6935,"Ġcongress":6936,"Ġattempted":6937,"-like":6938,"ĠBoy":6939,"FP":6940,"gl":6941,"Ġsyn":6942,"Ġcrash":6943,"Ġ(b":6944,"Ġdetailed":6945,"Ġunemploy":6946,"Ġsession":6947,"ĠTop":6948,"icing":6949,"Ġpossible.":6950,"abled":6951,"Ġallegations":6952,"Ġselection":6953,"irty":6954,"ĠRoman":6955,"ĠArm":6956,"Ġtort":6957,"ĊĊNo":6958,"ĠCatholic":6959,"ĠDetro":6960,"Ġserving":6961,"Ġsecretary":6962,"Ġwas,":6963,"Ġapplied":6964,"all,":6965,"ĠHist":6966,"ĠKen":6967,"Ġeditor":6968,"ĠEconom":6969,"GBT":6970,"asure":6971,"ĠYoung":6972,"pass":6973,"ĠEnter":6974,"Ġ\"f":6975,"hus":6976,"Ġbehavi":6977,"Ġsand":6978,"Ġmarried":6979,"Ġinstru":6980,"Ġconvent":6981,"Ġretire":6982,"Ġfasc":6983,"adel":6984,"Ġspring":6985,"ĠCy":6986,"Ġmarkets":6987,"ĠJord":6988,"roc":6989,"Ġapps":6990,"Ġdrivers":6991,"ĠInstead,":6992,"Ġreaders":6993,"ishes":6994,"rive":6995,"Ð¸":6996,"Ġputs":6997,"ication":6998,"Ġadopt":6999,"Photo":7000,"ĊĊAlthough":7001,"Ġguilty":7002,"Ġkinds":7003,"Ġowned":7004,"Ġemails":7005,"word":7006,"Ġmistake":7007,"Ġmouth":7008,"vin":7009,"Ġnorthern":7010,"Ġso.":7011,"Ġmethods":7012,"Ġhur":7013,"ansas":7014,"line.":7015,"Ġimproved":7016,"gen":7017,"Ġuniverse":7018,"Ġinvolving":7019,"ĠNHL":7020,"Ġlater.":7021,"ĊĊ2.":7022,"Ġaccepted":7023,"Ġwalked":7024,"Ġmonths.":7025,"Ġhabit":7026,"Ġstudio":7027,"Ġmetal":7028,"ellect":7029,"angers":7030,"es.âĢĿ":7031,"Ġshel":7032,"Ġcauses":7033,"Ġsimpl":7034,"ĠThank":7035,"Ġrepeatedly":7036,"Ġmoves":7037,"Ġgang":7038,"ini":7039,"Ġrival":7040,"Ġhat":7041,"Ġequipment":7042,"ĠCamer":7043,"Ġchose":7044,"Ġtiny":7045,"ita":7046,"Ġcommitment":7047,"Ĥ¬":7048,"ĠVirginia":7049,"Ġit?":7050,"ĠWilliams":7051,"ĊĊTrump":7052,"Ġlaw.":7053,"Ġupdates":7054,"Ġregime":7055,"Ġexcellent":7056,"ĠHollywood":7057,"Ġactivists":7058,"ĠKevin":7059,"Ġ\"C":7060,"Ġpackage":7061,"Ġkit":7062,"Ġextrem":7063,"Ġyounger":7064,"ĠDown":7065,"acks":7066,"Ġannouncement":7067,"Ġpal":7068,"Ġdiscussed":7069,"Ġpositions":7070,"Ġbegins":7071,"ĠBat":7072,"ĠVan":7073,"erm":7074,"itud":7075,"ĠDC":7076,"Ġgovernor":7077,"ĠJo":7078,"Ġdiscover":7079,"Ġdesk":7080,"ĊĊâĢĵ":7081,"ĠTal":7082,"nic":7083,"Ġnearby":7084,"ian,":7085,"raham":7086,"Ġbasket":7087,"Ġroot":7088,"Ġ(G":7089,"Ġwest":7090,"Ġneut":7091,"Ġreplaced":7092,"Ġknowing":7093,"ĠWay":7094,"Ġcomponent":7095,"Ġ6.":7096,"ĠTrump's":7097,"Ġapproval":7098,"ether":7099,"ĠPy":7100,"Ġadvice":7101,"Ġexamples":7102,"ĠFil":7103,"ĊĊ1.":7104,"Ġlicense":7105,"irms":7106,"Ġare,":7107,"Ġflu":7108,"Ġexhib":7109,"Ġmessages":7110,"Ġsurger":7111,"Ġtypical":7112,"Ġtrig":7113,"Ġthoughts":7114,"uing":7115,"redit":7116,"opy":7117,"inning":7118,"ĠSomet":7119,"Ġend,":7120,"Ġsharing":7121,"ugh":7122,"ĠâĢľD":7123,"rehens":7124,"ĠMiam":7125,"Ġbefore.":7126,"Ġforest":7127,"ĠFord":7128,"essions":7129,"Ġdrag":7130,"Ġacting":7131,"TA":7132,"Ġdu":7133,"Ġ\"w":7134,"Ġdeeply":7135,"Ġdefined":7136,"ĠPakistan":7137,"Ġclosely":7138,"isters":7139,"Ġ\"B":7140,"Ġwid":7141,"ĠFriday,":7142,"ador":7143,"ĠTit":7144,"Ġshif":7145,"ĠChild":7146,"Ġdisag":7147,"Ġmore,":7148,"Ġproblem.":7149,"ĠHome":7150,"Ġartist":7151,"Ġfacilities":7152,"ant.":7153,"IR":7154,"Ġseconds":7155,"OD":7156,"ÃŃ":7157,"Ġedge":7158,"Ġyou'll":7159,"ĠLord":7160,"ĠDam":7161,"Ġproof":7162,"Ġlatter":7163,"ĠNow,":7164,"Ġeast":7165,"Ġdistance":7166,"ĠInf":7167,"Ġheads":7168,"Ġbunch":7169,"Ġfindings":7170,"!!":7171,"Ġunknown":7172,"Ġanonym":7173,"pool":7174,"Ġtargeted":7175,"Ġmoder":7176,"Ġdiagn":7177,"Ġnarrow":7178,"Ġexpansion":7179,"Ġpromote":7180,"Ġapproximately":7181,"ĠAdminist":7182,"Ġstatements":7183,"ĠSupp":7184,"ns":7185,"ĠReport":7186,"ous,":7187,"Ġimportance":7188,"ĠYet":7189,"ĠKn":7190,"ing.âĢĿ":7191,"Ġeverybody":7192,"Ġped":7193,"intend":7194,"Ġpowers":7195,"Ġpages":7196,"ing,âĢĿ":7197,"Ġseed":7198,"ixt":7199,"Ġmarketing":7200,"ĠPolit":7201,"Ġadapt":7202,"Ġtimes.":7203,"arden":7204,"ĠâĢľp":7205,"Ġbat":7206,"ĠMic":7207,"Ġcondem":7208,"Ġ300":7209,"Ġdefinition":7210,"ĠTuesday,":7211,"Ġstory.":7212,"rific":7213,"Ġassemb":7214,"Ġveteran":7215,"umber":7216,"care":7217,"Ġharass":7218,"Ġawes":7219,"Ġflav":7220,"ĠWat":7221,"Ġindeed":7222,"Ġbitcoin":7223,"rence":7224,"TS":7225,"ĠIreland":7226,"imp":7227,"raid":7228,"Ġbench":7229,"Ġreligion":7230,"Ġliterally":7231,"apse":7232,"ĠBest":7233,"itarian":7234,"Ġstate,":7235,"ĠSeattle":7236,"Ġroute":7237,"ao":7238,"Ġtransm":7239,"Ġupdated":7240,"ĠOld":7241,"Ġproduc":7242,"gor":7243,"Ġdepth":7244,"Ġremote":7245,"Ġchairman":7246,"Ġflat":7247,"Ġharder":7248,"west":7249,"obile":7250,":3":7251,"Ġmaximum":7252,"ockey":7253,"Ġstretch":7254,"Ġphenomen":7255,"Ġright,":7256,"ad,":7257,"Ġsouthern":7258,"Ġbid":7259,"Ġofficially":7260,"ĠMonday,":7261,"Ġoblig":7262,"ĠMat":7263,"Ġincreases":7264,"Ġ2006":7265,"Ġnewspaper":7266,"Ġgotten":7267,"Ġsomewhere":7268,"ĠSk":7269,"ĠMax":7270,"ĠCast":7271,"Ġ2018":7272,"Ġpoint.":7273,"ĠDaniel":7274,"iro":7275,"Ġseriously":7276,"ĠRights":7277,"oked":7278,"Ġholiday":7279,"ĠCharles":7280,"Ġbodies":7281,"Ġdesper":7282,"ĠTurk":7283,"Ġ\"T":7284,"On":7285,"Ġcomprom":7286,"Ġ2010,":7287,"Ġintention":7288,"onic":7289,"Ġpilot":7290,"ĠAsian":7291,"celer":7292,"Ġflex":7293,"ĊĊâĢľItâĢĻs":7294,"ĠPS":7295,"Ġ$10":7296,"iâĢĻs":7297,"Ġarea.":7298,"ĠAmerica,":7299,"4)":7300,"Ġagents":7301,"Ġride":7302,"ĠCarl":7303,"Ġlikes":7304,"ĠJava":7305,"Ġboss":7306,"er:":7307,"Ġrub":7308,"ĠLife":7309,"ĊĊMany":7310,"ĠDall":7311,"Ġassert":7312,"ĠAL":7313,"Ġ7.":7314,"han":7315,"host":7316,"ĠâĢľYou":7317,"Ġclaiming":7318,"Ġcoalition":7319,"II":7320,"ĠGaz":7321,"ocket":7322,"ĠStand":7323,"Ġunw":7324,"ĠAttorney":7325,"ĠNight":7326,"Ġpromise":7327,"Ġthings.":7328,"Ġprovince":7329,"Ġmerely":7330,"Ġinqu":7331,"Ġrealized":7332,"Ġsight":7333,"ments,":7334,"otal":7335,"opher":7336,"ĠWashington,":7337,"ĠArch":7338,"Ġdeleg":7339,"Ġvacc":7340,"Ġenemy":7341,"ĠB.":7342,"ĠEnergy":7343,"ĠDar":7344,"Ġvent":7345,"ĠPan":7346,"hetic":7347,"Ġdoctors":7348,"ĠIrish":7349,"Ġto,":7350,"Ġ(c":7351,"ĠOF":7352,"Ġpunish":7353,"ĊĊDespite":7354,"Ġsole":7355,"Ġcutting":7356,"ĠFour":7357,"Ġminute":7358,"ĊĊAb":7359,"Ġfilms":7360,"mpt":7361,"icul":7362,"Ġexplains":7363,"Ġ34":7364,"Ġpromised":7365,"Ġcomfortable":7366,"Ġequival":7367,"IF":7368,"ĠCruz":7369,"Ġdriven":7370,"Ġsupports":7371,"ingu":7372,"ĠBowl":7373,"Ġticket":7374,"aire":7375,"Ġloud":7376,"luding":7377,"Ġdisrupt":7378,"Ġextended":7379,"Ġdisaster":7380,"ĠsheâĢĻs":7381,"Ġunp":7382,"Ġcommunity.":7383,"Ġregularly":7384,"Ġbaseball":7385,"Ġunderstood":7386,"ĊĊLet":7387,"Ġrecognize":7388,"ills":7389,"ĠSpanish":7390,"usse":7391,"Ġconstant":7392,"Ġconvert":7393,"Ġlinks":7394,"ĠTest":7395,"Ġexercise":7396,"Ã³":7397,"-G":7398,"ife,":7399,"Ġweird":7400,"ĠDun":7401,"Ġ2013.":7402,"ĠMinnes":7403,"ĠUt":7404,"Ġprecise":7405,"Ġevil":7406,"s'":7407,"Ġincredible":7408,"Ġsect":7409,"Ġwaste":7410,"-5":7411,"ette":7412,"ĠcountryâĢĻs":7413,"ĠMen":7414,"-re":7415,"ĠMoore":7416,"Ġcustomer":7417,"ĠGall":7418,"Ġdrawn":7419,"âĢĶthe":7420,"Ġmulti":7421,"Ġclar":7422,"look":7423,"Ġassume":7424,"ry.":7425,"Ġcolleagues":7426,"Ġfrequently":7427,"Ġanx":7428,"Ġicon":7429,"ĠDespite":7430,"Ġfifth":7431,"ĠReal":7432,"Ġ(W":7433,"ĠAfrica":7434,"Ġescape":7435,"Donald":7436,"Ġpod":7437,"agram":7438,"Ġrespective":7439,":5":7440,"Ġextensive":7441,"efully":7442,"Ġscand":7443,"Ġwrites":7444,"Ġfuck":7445,"Ġenthus":7446,"ter.":7447,"Ġformed":7448,"oen":7449,"ĠLove":7450,"Ġzero":7451,"Ġtogether.":7452,"ĠWomen":7453,"Ġregistered":7454,"Ġble":7455,"Ġruled":7456,"Ġplants":7457,"Ġkeeps":7458,"Ġnarrative":7459,"Ġnoticed":7460,"Ġatmosphere":7461,"ings,":7462,"Ġbelow.":7463,"Ġera":7464,"VER":7465,"Ġversions":7466,"Ġcaptured":7467,"Ġ5,":7468,"lls":7469,"Ġpassion":7470,"ĠContin":7471,"ĠMichigan":7472,"ga":7473,"ĠIT":7474,"Ġelsewhere":7475,"Ġdozen":7476,"um,":7477,"Ġaddition,":7478,"Ġprofile":7479,"Ġexperiences":7480,"ĊĊâĢľS":7481,"ĠChampionship":7482,"iger":7483,"iscons":7484,"ants,":7485,"ĠLuc":7486,"Ġthread":7487,"Ġ\"It":7488,"ĠSouthern":7489,"Ġhistory,":7490,"ĠWars":7491,"Ġencoun":7492,"ĠtheyâĢĻve":7493,"D.":7494,"Ġcolon":7495,"Ġanymore":7496,"ĠPutin":7497,"alle":7498,"ico":7499,"Ġkil":7500,"ĊĊWhy":7501,"Ġopposite":7502,"Ġstrongly":7503,"ĠI'd":7504,"Ġairport":7505,"Ġhyd":7506,"ĊĊ3.":7507,"Ġcases,":7508,"xy":7509,"ĠBru":7510,"-related":7511,"Ġacts":7512,"Ġcrucial":7513,"Ġprotected":7514,"Ġlies":7515,"ĠLew":7516,"Ġincredibly":7517,"Ġforth":7518,"Ã¤":7519,"ĠThough":7520,"gender":7521,"Ġprote":7522,"2)":7523,"Ġsuddenly":7524,"Ġleag":7525,"otten":7526,"Ġbook,":7527,"Ġeating":7528,"ĠSteven":7529,"ĠLight":7530,"ĠSenator":7531,"Ġlawyer":7532,"ceived":7533,"isan":7534,"ĊĊOver":7535,"Ġstorage":7536,"Ġprimarily":7537,"agan":7538,"Ġstuck":7539,"1)":7540,"ĠLGBT":7541,"-a":7542,"war":7543,"ĠJr.":7544,"ĠLabor":7545,"ĠView":7546,"Ġfeedback":7547,"Ġraising":7548,"Ġissue.":7549,"ous.":7550,"met":7551,"Ġrus":7552,"iscal":7553,"Ġstrange":7554,"Ġdirected":7555,"Ġreturning":7556,"Ġobtained":7557,"Ġ1970":7558,"Ġthings,":7559,"iform":7560,"ĠRep.":7561,"Ġworried":7562,"Ġcolleg":7563,"Ġdecent":7564,"Ġinvestors":7565,"Ġsweet":7566,"ĠBrian":7567,"Ġcontributed":7568,"ĠNBC":7569,"ĠWednesday,":7570,"ĠAcadem":7571,"ĠTurn":7572,"Ġsatell":7573,"Ġbear":7574,"Ġnewly":7575,"ogue":7576,"cho":7577,"ĠIow":7578,"ĠAuthor":7579,"Ġstead":7580,"water":7581,"Ġ(J":7582,"ĊĊJust":7583,"adelph":7584,"ĠNASA":7585,"ed.âĢĿ":7586,"Ġplane":7587,"ĠCam":7588,"ĠâĢľHe":7589,"Ġconven":7590,"Ġchick":7591,"acy.":7592,"ĠHom":7593,"Ġearning":7594,"Ġfinds":7595,"Ġsucceed":7596,"LA":7597,"Ġitself.":7598,"Ġsurveillance":7599,"Ġgift":7600,"Ġmechanism":7601,"Ġenerg":7602,"Ġarticles":7603,"Ġpenal":7604,"Ġrecovery":7605,"ĠTurkey":7606,"ĠOâĢĻ":7607,"ĠNaz":7608,"ĠDark":7609,"ĠRos":7610,"Ġsuffering":7611,"Ġguide":7612,"ĠWater":7613,"-F":7614,"Ġapartment":7615,"eah,":7616,"ĠVictor":7617,"Ġdress":7618,"ĊĊGo":7619,"ĠClass":7620,"Ġshots":7621,"ller":7622,"Ġ49":7623,"ĠEnd":7624,"Ġblame":7625,"ĠOrgan":7626,"Ġparking":7627,"Ġselected":7628,"ĠI'll":7629,"Ġdistinct":7630,"Ġoverse":7631,"ĊĊâĢľThis":7632,"ĠNick":7633,"ĠDi":7634,"Ġprotests":7635,"can":7636,"ĠâĢľThis":7637,"ĠCall":7638,"ĠMuslims":7639,"Ġfalling":7640,"Ġher,":7641,"SS":7642,"Ġdowntown":7643,"ĠCat":7644,"ory.":7645,"Ġgood.":7646,"Ġcomplicated":7647,"keep":7648,"ĠMosc":7649,"ĠHe's":7650,"ĠCD":7651,"ensus":7652,"Ġphotograph":7653,"Ġbattery":7654,"Ġtied":7655,"aed":7656,"Ġresulting":7657,"woman":7658,"ĠBas":7659,"obe":7660,"Ġaimed":7661,"Ġho":7662,"Ġsomehow":7663,"Ġattacked":7664,"Ġ2012.":7665,"MA":7666,"Ġsiz":7667,"ĠThursday,":7668,"ĊĊ\"It's":7669,"Ġtree":7670,"illy":7671,"26":7672,"Ġstim":7673,"pread":7674,"Ġamounts":7675,"ĠZeal":7676,"Ġ75":7677,"Ġchampionship":7678,"ĠWhere":7679,"Ġnobody":7680,"Ġintellect":7681,"Ġanticip":7682,"za":7683,"Ġman,":7684,"Ġspark":7685,"Ġbefore,":7686,"I.":7687,"Ġauthors":7688,"Ġ48":7689,"Ã¶":7690,"Ġmoney,":7691,"arters":7692,"Ġrig":7693,"Ġ(p":7694,"ĠMS":7695,"Ġ(H":7696,"ĠYouTube":7697,"Ġdeaths":7698,"()":7699,"ĠBell":7700,"Ġconspir":7701,"Ġplace,":7702,"Ġpartnership":7703,"over,":7704,"ĠParliament":7705,"Ġcompens":7706,"ĠHun":7707,"Ġideal":7708,"Ġdemonstr":7709,"Ġ(E":7710,"oor":7711,"ĠCivil":7712,"Ġfake":7713,"Ġtaxpay":7714,"Ġthousand":7715,"].":7716,"Ġwelcome":7717,"ĠPacific":7718,"ĠâĢľL":7719,"ĠCare":7720,"Ġcrimes":7721,"Ġparticipants":7722,"Ġtested":7723,"Ġchildren.":7724,"ĠOreg":7725,"Ġgenerate":7726,"Ġmoments":7727,"ĠLand":7728,"Ġupper":7729,"ĊĊIs":7730,"Ġcontinuing":7731,"Ġcontrolled":7732,"ĠEduc":7733,"Ġchildren,":7734,"Ġsolve":7735,"acking":7736,"Ġdefeat":7737,"Ġ\"a":7738,"Ġalert":7739,"Ġgroup,":7740,"Ġbetter.":7741,"abis":7742,"ĠForeign":7743,"esy":7744,"es,âĢĿ":7745,"Ġautomatically":7746,"ĠDisney":7747,"ĠColl":7748,"ĠLinux":7749,"ĠCoast":7750,"Ġthreats":7751,"rypt":7752,"ĠyearâĢĻs":7753,"ĠOs":7754,"Ġcontem":7755,"ĠBull":7756,"Ġ38":7757,"Ġproved":7758,"onâĢĻs":7759,"ĊĊMost":7760,"Ġconstantly":7761,"Ġplastic":7762,"Ġinstitutions":7763,"Ġinspir":7764,"Ġelections":7765,"ime,":7766,"Ġzone":7767,"Ġreturns":7768,"Ġmotion":7769,"redient":7770,"ologist":7771,"Ġmatters":7772,"Ġconscious":7773,"Ġwinner":7774,"Ġ2005":7775,"arry":7776,"ĠKurd":7777,"Ġmode":7778,"Ġimpressive":7779,"ĠHot":7780,"ĠW.":7781,"lix":7782,"Ġchosen":7783,"Ġthreatened":7784,"oâĢĻs":7785,"Ġcampus":7786,"inals":7787,"Ġparam":7788,"acle":7789,"Ġring":7790,"ĠOS":7791,"Ġmanip":7792,"mont":7793,"Ġframework":7794,"Ġmarket.":7795,"shire":7796,"ĠProgram":7797,"OC":7798,"Ġregulation":7799,"Ġbrut":7800,"EW":7801,"Ġexciting":7802,"Ġexposed":7803,"Ġmeat":7804,"Ġsharp":7805,"list":7806,"Ġpower.":7807,"aled":7808,"Ġwestern":7809,"Ġiron":7810,"Ġsoul":7811,"Ã¼":7812,"ilarly":7813,"Ġpaint":7814,"Ġseasons":7815,"Ġblind":7816,"Ġenable":7817,"ĠRick":7818,"Ġprotesters":7819,"ĠFre":7820,"ĊĊAm":7821,"Ġuncertain":7822,"Ġpossess":7823,"rich":7824,"ĠWiscons":7825,"Ġunusual":7826,"Ġtaught":7827,"lan":7828,"ĠColorado":7829,"Is":7830,"ĠSC":7831,"Ġreport.":7832,"evit":7833,"Ġother.":7834,"ogan":7835,"Ġties":7836,"ĠAlab":7837,"Ġgall":7838,"Ġ6,":7839,"pected":7840,"Ġriver":7841,"amber":7842,"Ġphr":7843,"ĠVeg":7844,"fall":7845,"Ġjudg":7846,"Ġcurrency":7847,"ĠTake":7848,"ĠJosh":7849,"-8":7850,"Ġourselves":7851,"Ġcrypt":7852,"Ġdepending":7853,"ĠItalian":7854,"Ġ8.":7855,"Ġoutr":7856,"Ġtrading":7857,"ities,":7858,"Ġ37":7859,"Ġsympt":7860,"ĠAnth":7861,"Ġassistant":7862,"Ġsomebody":7863,"Ġmovies":7864,"otic":7865,"Ġafraid":7866,"Ġflying":7867,"ĊĊ\"S":7868,"65":7869,"Ġ(d":7870,"Ġpersonally":7871,"27":7872,"TV":7873,"ĠCome":7874,"Ġintense":7875,"Ġhel":7876,"Ġ\"N":7877,"Ġexcess":7878,"Ġwomen,":7879,"Ġtherap":7880,"Ġgear":7881,"ĠOak":7882,"ĠâĢľt":7883,"=\"":7884,"ĠInvest":7885,"Ġfolks":7886,"Ġprivile":7887,"ĠESP":7888,"Ġguns":7889,"Ġ\"m":7890,"Ġdiscipl":7891,"Ġextent":7892,"Ġhonor":7893,"ĠBalt":7894,"ĠWeâĢĻre":7895,"Ġpercent.":7896,"Ġtip":7897,"Ġracial":7898,"/or":7899,"Ġhttp":7900,"everal":7901,"ĊĊRel":7902,"Ġbuildings":7903,"Ġaccomp":7904,"Ġinformed":7905,"Ġextract":7906,"ĠFall":7907,"ĠMcG":7908,"ĠwerenâĢĻt":7909,"Ġ\"H":7910,"Ġsongs":7911,"ibilities":7912,"gorith":7913,"ĠPhiladelph":7914,"Ġmixed":7915,"umin":7916,"Ġmagazine":7917,"Ġdry":7918,"Ġfounder":7919,"Ġelectronic":7920,"Ġwith.":7921,"ĠGames":7922,"ĠJoseph":7923,"Ġobjects":7924,"Ġpermanent":7925,"Ġdecline":7926,"ities.":7927,"Ñģ":7928,"Ġultimate":7929,"Ġdict":7930,"uts":7931,"Ġlegend":7932,"Ġlibrary":7933,"Ġexperience.":7934,"ĊĊLike":7935,"Ġprominent":7936,"ĠHouston":7937,"Ġline.":7938,"ĠTony":7939,"Ġeverywhere":7940,"ĠObamaâĢĻs":7941,"ĠSpecial":7942,"oster":7943,"Ġnod":7944,"ĠSn":7945,"ĠMarc":7946,"ved,":7947,"ĠOper":7948,"-H":7949,"Ġboys":7950,"hent":7951,"Ġwheel":7952,"ĠFood":7953,"Ġprincip":7954,"ĠId":7955,"ĠNorthern":7956,"Ġmaterials":7957,"Ġking":7958,"Ġentit":7959,"Ġcampaign.":7960,"Ġ\"O":7961,"Ġrating":7962,"ĊĊAdd":7963,"inem":7964,"ious,":7965,"Ġmail":7966,"Ġthick":7967,"ĊĊRep":7968,"ĠEp":7969,"Ġsample":7970,"Ġaudio":7971,"Ġfought":7972,"ĠS.":7973,"Ġ1,000":7974,"err":7975,"Ġbasketball":7976,"line,":7977,"ĠFC":7978,"Ġimper":7979,"Ġenjoyed":7980,"Ġsor":7981,"Ġfar,":7982,"28":7983,"ĠEastern":7984,"Ġacademic":7985,"ĠPremier":7986,"Ġmarked":7987,"Ġending":7988,"Ġaspects":7989,"Ġcoffee":7990,"E.":7991,"Ġquot":7992,"Ġfamily,":7993,"taining":7994,"ĠThanks":7995,"ographer":7996,"ĊĊMean":7997,"%.":7998,"Ġrejected":7999,"etary":8000,"Ġattended":8001,"Getty":8002,"ĠâĢľF":8003,"mates":8004,"ĠâĢľIf":8005,"Ġjourney":8006,"Ġrecip":8007,"ĠFort":8008,"fortunately,":8009,"igure":8010,"Ġstadium":8011,"Ġreasonable":8012,"ĠAR":8013,"Ġenorm":8014,"ĠJesus":8015,"Ġcyc":8016,"Ġdozens":8017,"ce,":8018,"rett":8019,"axy":8020,"Ġperfectly":8021,"Ġven":8022,"Ġfirst,":8023,"pan":8024,"Ġplug":8025,"Ġwage":8026,"esc":8027,"Ġlawmakers":8028,"orough":8029,"%)":8030,"reedom":8031,"Ġchampion":8032,"auc":8033,"print":8034,"Ġfixed":8035,"ĠSaf":8036,"Ġinevit":8037,"Ġfighter":8038,"Ġinnoc":8039,"rik":8040,"ĠTem":8041,"ĠBut,":8042,"Ġcompany,":8043,"Ġnations":8044,"ĠHas":8045,"Ġbes":8046,"Ġmainly":8047,"Ġindex":8048,"ĊĊPolice":8049,"Ġaggressive":8050,"ĠFoot":8051,"Ġhang":8052,"Ġrepresented":8053,"Ġwins":8054,"Ġadds":8055,"Ġresulted":8056,"owed":8057,"aser":8058,"Ġacceler":8059,"olt":8060,"Ġstrict":8061,"Ġmedium":8062,"Ġpayment":8063,"Ġdescribes":8064,"ĠMajor":8065,"aron":8066,"uilding":8067,"ĠWilson":8068,"mail":8069,"athered":8070,"ĠTrump,":8071,"Ġrang":8072,"Ġconsequences":8073,"Ġcounsel":8074,"upid":8075,"Ġ(The":8076,"Ġmyth":8077,"acy,":8078,"ĠValley":8079,"Ġwhat's":8080,"Ġand/or":8081,"Ġlicens":8082,"Ġedition":8083,"Ġcyber":8084,"Ġbehalf":8085,"Ġcapture":8086,"ĠRay":8087,"ĠBefore":8088,"aling":8089,"ĠVR":8090,"ĠAp":8091,"Ġtap":8092,"Ġfacts":8093,"Ġhistoric":8094,"ĠPay":8095,"Ġpump":8096,"Ġvisited":8097,"Ġothers,":8098,"Ġwonderful":8099,"ver,":8100,"Ġbacked":8101,"Ġ(as":8102,"hite":8103,"way,":8104,"ĠViet":8105,"ystem":8106,"Ġportion":8107,"ĠAli":8108,"ĠSnow":8109,"Ġobst":8110,"Ġpractices":8111,"ked":8112,"Ġcited":8113,"Ġemployee":8114,"Ġjur":8115,"35":8116,"lvan":8117,"Ġrequests":8118,"Ġartists":8119,"Ġsuccessfully":8120,"Ġlaid":8121,"Ġvisible":8122,"boy":8123,"Ġveget":8124,"ht":8125,"Ġcivilian":8126,"ually,":8127,"Ġcommunication":8128,"Ġ150":8129,"-cont":8130,"anchester":8131,"oil":8132,"Ġlandsc":8133,"Ġsup":8134,"UR":8135,"Ġ$1.":8136,"ĊĊAlso":8137,"Ġtheme":8138,"ĠGreg":8139,"Ġplay.":8140,"Ġresult,":8141,"Ġsuffer":8142,"Ġequivalent":8143,"Ġthemselves.":8144,"g.":8145,"win":8146,"ĠOl":8147,"roph":8148,"Ġ\"P":8149,"Ġovert":8150,"Ġstory,":8151,"ĠUkraine":8152,"ĠDavis":8153,"Ġattribut":8154,"Ġvolume":8155,"Ġtargets":8156,"Ġslowly":8157,"Ġsubt":8158,"Ġpropag":8159,"ĠDetroit":8160,"Ġdim":8161,"rep":8162,"-class":8163,"ĠGreek":8164,"ricult":8165,"Ġinjuries":8166,"Ġborrow":8167,"ĠRobin":8168,"ogether":8169,"ĠScotland":8170,"ĠJam":8171,"Ġgenu":8172,"Ġobserved":8173,"Ġinvent":8174,"22":8175,"ez":8176,"ina.":8177,"Ġdeals":8178,"Ġstores":8179,"Ġ2017.":8180,"Ġcrop":8181,"Ġorganized":8182,"Ġcommunications":8183,"Ġrarely":8184,"Ġ7,":8185,"ĠJason":8186,"ĠGlobal":8187,"-part":8188,"Ġdata.":8189,"Ġrelief":8190,"Ġsufficient":8191,"ed,âĢĿ":8192,"Ġfault":8193,"Ġlevel.":8194,"Ġeuro":8195,"Ġregardless":8196,"herent":8197,"ĊĊCon":8198,"Ġrely":8199,"Ġscenario":8200,"ĠCentre":8201,"Ġ10,":8202,"Ġadults":8203,"ĠVis":8204,"ĠRen":8205,"amsung":8206,"Ġok":8207,"ĠGi":8208,"ensity":8209,"fast":8210,"Ġdone.":8211,"oma":8212,"ĠBusiness":8213,"Ġtoler":8214,"Ġhired":8215,"idespread":8216,"Ġcity.":8217,"Ġimmigrants":8218,"fire":8219,"Ġrecording":8220,"Ġaccus":8221,"Ġ2009,":8222,"Ġlibert":8223,"64":8224,"Ġrefugees":8225,"ĠRoyal":8226,"Ġju":8227,"Ġorders":8228,"Ġsupporter":8229,"Ġcreates":8230,"ifer":8231,"Ġtor":8232,"Ġopponents":8233,"ants.":8234,"Ġflaw":8235,"Ġtear":8236,"Ġabortion":8237,"osexual":8238,"Ġyou've":8239,"Ġwrong.":8240,"ĠMoh":8241,"Ġexpression":8242,"Ġcomic":8243,"Ġservices.":8244,"ilipp":8245,"Ġbath":8246,"ĠAmerica.":8247,"E,":8248,"ĠKent":8249,"Ġagricult":8250,"Ġengaged":8251,"-to-":8252,"Ġsuicide":8253,"ĠDead":8254,"Ġdrinking":8255,"Ġposts":8256,"ummer":8257,"Ġforum":8258,"stone":8259,"ĠRand":8260,"Ġdeveloper":8261,"iously":8262,"Ġinformation.":8263,"ĠDNA":8264,"ĠJews":8265,"Ġfamily.":8266,"Ġcampaign,":8267,"ĠHT":8268,"Ġhidden":8269,"Ġmayor":8270,"Ġproven":8271,"Ġpin":8272,"50,000":8273,"ĠâĢľE":8274,"ĠLu":8275,"Ġwarrant":8276,"Ġhaven't":8277,"oration":8278,"Ġalgorith":8279,"Ġrisks":8280,"Ġarea,":8281,"Ġelection.":8282,"Ġreduction":8283,"Ch":8284,"ĠMu":8285,"am,":8286,"ĠNC":8287,"sylvan":8288,"burgh":8289,"str":8290,"Ġevening":8291,"Ġprocess,":8292,"Ġyield":8293,"Ġchances":8294,"Ġreport,":8295,"ĠAh":8296,"chain":8297,"Ġ\"b":8298,"Ġetc":8299,"ĠAlso,":8300,"Ġarray":8301,"Ġneutral":8302,"-level":8303,"Ġgained":8304,"ĠAsh":8305,"ĠTurkish":8306,"Ġshares":8307,"ĊĊ\"This":8308,"Ġcritics":8309,"ala":8310,"s.[":8311,"otted":8312,"Ġexistence":8313,"Ġcompete":8314,"alo":8315,"Ġdelivery":8316,"Ġcollected":8317,"ancou":8318,"Ġhits":8319,"ĠConference":8320,"ĠIndepend":8321,"Ġwithdraw":8322,"ĠMid":8323,"interest":8324,"Ġpower,":8325,"Ġuniform":8326,"Ġsettle":8327,"Ġthing,":8328,"mar":8329,"Ġincent":8330,"Ġregulations":8331,"net":8332,"imore":8333,":4":8334,"Ġelev":8335,"y's":8336,"Ġgenerated":8337,"200":8338,"erences":8339,"Ġgaming":8340,"osm":8341,"ĠESPN":8342,"Ġoperate":8343,"greg":8344,"95":8345,"are,":8346,"Ġprogramm":8347,"Ġroutine":8348,"Ġentering":8349,"Ġworld's":8350,".com/":8351,"Ġempty":8352,"isp":8353,"Ġretired":8354,"Ġstem":8355,"Ġteaching":8356,"Ġwinter":8357,"irk":8358,"Ġoff,":8359,"-W":8360,"Ġstronger":8361,"Ġknock":8362,"orted":8363,"Ġdeliber":8364,"Ġprogram.":8365,"ĠAgency":8366,"ĠshouldnâĢĻt":8367,"Ġshortly":8368,"Ġbail":8369,"Ġvaluable":8370,"Ġown.":8371,"Ġbusiness.":8372,"Ð¾Ð":8373,"state":8374,"ĠWin":8375,"Ġfunctions":8376,"Ġscoring":8377,"icer":8378,"Ġclimb":8379,"ĠUFC":8380,"Ġexplicit":8381,"Ġcontaining":8382,"Ġballot":8383,"Ġconclusion":8384,"ĠYes,":8385,"iy":8386,"awa":8387,"Ġissues.":8388,"Ġfashion":8389,"ĠâĢľG":8390,"ĠMayor":8391,"ĠOnt":8392,"ĠJac":8393,"Ġschedule":8394,"Ġextend":8395,"Ġdata,":8396,"oured":8397,"Ġrecru":8398,"ner.":8399,"4]":8400,"ocation":8401,"Ġfollows":8402,"ĠJordan":8403,"ĠUC":8404,"ĠM.":8405,"Ġcable":8406,"Ġnavig":8407,"Ġrose":8408,"oric":8409,"ĠBry":8410,"Ġtox":8411,"Ġunclear":8412,"Ġunex":8413,"ĠFund":8414,"ĠToday":8415,"ĠLo":8416,"As":8417,"Ġblast":8418,"ĠC.":8419,"Ġ(Photo":8420,"Ġfranchise":8421,"wan":8422,"ĠFred":8423,"ĠNations":8424,"Ġ\\":8425,"Ġformal":8426,"3)":8427,"Ġheaded":8428,"ubb":8429,"Ġestate":8430,"ĊĊSc":8431,"ĠPack":8432,"aus":8433,"Ġresign":8434,"Ġ2008,":8435,"ifies":8436,"ĠâĢľR":8437,"Ġbusy":8438,"Ġclasses":8439,"ĠO'":8440,"âĢĻ.":8441,"Ġgrap":8442,"ĠNob":8443,"ĠAbout":8444,"Ġit.âĢĿ":8445,"Ġtail":8446,"Ġactor":8447,"Ġjournalists":8448,"law":8449,"ATO":8450,"ĠFair":8451,"Ġsentence":8452,"Ġmillion.":8453,"Ġ8,":8454,"D,":8455,"Ġbarely":8456,"Ġsmooth":8457,"ĊĊTwo":8458,"Ġhitting":8459,"Ġinitiative":8460,"Ġclock":8461,"Ġmo":8462,"Ġarrange":8463,"ĠABC":8464,"ĠBernie":8465,"ĠâĢľThere":8466,"HS":8467,"Ġstruggling":8468,"rient":8469,"Ġestimates":8470,"Ġyet,":8471,"Ġterrible":8472,"Ġneuro":8473,"ĊĊNow,":8474,"Ġwidespread":8475,"mented":8476,"Ġmountain":8477,"Ġpublisher":8478,"eland":8479,"Ġabout.":8480,"Ġbegun":8481,"Ġpersonnel":8482,"Ġelectricity":8483,"Ġdrawing":8484,"Ġtall":8485,"Ġwe'll":8486,"Ġpeak":8487,"ĠNSA":8488,"ĠJay":8489,"emen":8490,"aun":8491,"ML":8492,"ology,":8493,"Ġfounded":8494,"ĠReview":8495,"ĠAfghanistan":8496,"Ġarguments":8497,"ĊĊSo,":8498,"Ġfiscal":8499,"Ġcomparison":8500,"ĠPoint":8501,"Ġcrazy":8502,"Ġdevast":8503,"Ġside,":8504,"ĠField":8505,"Ġwing":8506,"ĠKingdom":8507,"Ġmatches":8508,"Ġlevel,":8509,"anny":8510,"Ġelig":8511,"-be":8512,"ora":8513,"Ġwrote.":8514,"weet":8515,"arrass":8516,"ĠFed":8517,"ĠXbox":8518,"antic":8519,"ĠHard":8520,"ĠBeach":8521,"achus":8522,"-E":8523,"Ġexclusive":8524,"ĠPennsylvan":8525,"Ġshow.":8526,"Ġ\"D":8527,"Th":8528,"Ġproject.":8529,"Ġ10.":8530,"ĠKey":8531,"aze":8532,"Ġgonna":8533,"Ġburd":8534,"Ġself-d":8535,"ĠJudge":8536,"you":8537,"Ġoffice.":8538,"Ġrepresentative":8539,"Ġdestruction":8540,"Ġfeaturing":8541,"ÑĢ":8542,"ĊĊ4":8543,"Ġemerged":8544,"Ġreaching":8545,"Ġ(U":8546,"Ġassets":8547,"away":8548,"ĠMoscow":8549,"Ġteachers":8550,"ĠBrew":8551,"Ġadopted":8552,"iples":8553,"Ġproperly":8554,"Ġmagic":8555,"Ġvulnerable":8556,"Ġchange,":8557,"ĠNext":8558,"Ġfighters":8559,"Ġtogether,":8560,"Ġformat":8561,"Ġvillage":8562,"ĠL.":8563,"Ġutil":8564,"icks":8565,"Ġflash":8566,"ĠLind":8567,"imm":8568,"emb":8569,"ances,":8570,"ĠDid":8571,"Ġsteal":8572,"ĠSunday,":8573,"ĊĊCont":8574,"Ġperpet":8575,"Ġregister":8576,"iated":8577,"Ġsensitive":8578,"Ġalien":8579,"Ġhardly":8580,"Ġwelf":8581,"Ġthrown":8582,"ĠMean":8583,"ĠOK":8584,"Ġvital":8585,"Ġmorning,":8586,"Ġbehaviour":8587,"igen":8588,"Ġsuggesting":8589,"],":8590,"Ġbranch":8591,"ĊĊâĢĶ":8592,"Ġhandful":8593,"ĠHay":8594,"Ġsky":8595,"Ġjob.":8596,"Ġ\"h":8597,"ĠSeason":8598,"MP":8599,"Ġreducing":8600,"os,":8601,"Ġneck":8602,"ĠCirc":8603,"ĠâĢľThey":8604,"Ġfor.":8605,"-foot":8606,"azz":8607,"Ġrecognition":8608,"anes":8609,"Ġnetworks":8610,"ĠN.":8611,"Ġlimits":8612,"Ġindicated":8613,"ounced":8614,"/A":8615,"ĠAward":8616,"lad":8617,"Ġprepare":8618,"ĠChina,":8619,"ĠRose":8620,"Ġcollapse":8621,"Ġmel":8622,"Ġ55":8623,"Le":8624,"ĠEs":8625,"Ġrelationships":8626,"ĠArizona":8627,"ĠiP":8628,"Ġgenuine":8629,"itar":8630,"Ġjoining":8631,"arlier":8632,"ati":8633,"Ġ$6":8634,"ĠDonâĢĻt":8635,"Ġsenator":8636,"ĊĊ4.":8637,"Ġattent":8638,"Ġ64":8639,"Ġmonitor":8640,"ĠHit":8641,"Ġproport":8642,"inding":8643,"ĊĊâĢľThere":8644,"Ġtopic":8645,"agg":8646,"Ġpossession":8647,"Ġindicate":8648,"rete":8649,"Ġdefence":8650,"29":8651,"Ġscream":8652,"Ġaccurate":8653,"Ġemissions":8654,"icate":8655,"lete":8656,"Ġgathered":8657,"Ġphysic":8658,"Ġ11,":8659,"Ġ(5":8660,"Ġschool,":8661,"Ġrook":8662,"Ġsynt":8663,"ĠLive":8664,"ĠIC":8665,"Ġsmoke":8666,"heast":8667,"Ġingredient":8668,"Ġcycle":8669,"Ġprogram,":8670,"iverpool":8671,"ĠIranian":8672,"6)":8673,"ĠAnton":8674,"Ġrecover":8675,"Ġmine":8676,"vy":8677,"Ġproducing":8678,"ĠDig":8679,"ifest":8680,"Ġtouchdown":8681,"Ġfinance":8682,"Ġpetition":8683,"Ġportray":8684,"ĠSP":8685,"Ġpre-":8686,"Ġconcert":8687,"Ġtroub":8688,"Ġexceed":8689,"New":8690,"ĠZealand":8691,"Ġinformation,":8692,"Ġobtain":8693,"Ġ=>":8694,"Ġallies":8695,"Ġmean,":8696,"Ġbe,":8697,"itu":8698,"ĊĊInd":8699,"Ġover.":8700,"Ġproperties":8701,"ĊĊâĢľO":8702,"urrent":8703,"Ġdemands":8704,"ĠCheck":8705,"ĠThree":8706,"I,":8707,"Ġ\"It's":8708,"iser":8709,"bel":8710,"ĠNic":8711,"Ġtrue.":8712,"Ġbom":8713,"Ġdiscovery":8714,"eman":8715,"Ġsurviv":8716,"Ġpart,":8717,"ĠMir":8718,"ĠThere's":8719,"Ġownership":8720,"log":8721,"Ġridicul":8722,"Ġ44":8723,"SL":8724,"Ġasset":8725,"ĠPatrick":8726,"Ġexport":8727,"100":8728,"Ġreferend":8729,"ines,":8730,"Ġsubscrib":8731,"Ġsoph":8732,"Ġminority":8733,"Ġreferring":8734,"ecut":8735,"/Getty":8736,"ĠTown":8737,"p.":8738,"Ġ65":8739,"Ġ2004":8740,"Ġamid":8741,"iences":8742,"Ġdeputy":8743,"ĠPen":8744,"Ġangry":8745,"rical":8746,"pire":8747,"Ġparticipate":8748,"C,":8749,"active":8750,"ĠRadio":8751,"Ġpractical":8752,"Ġgranted":8753,"Ġpayments":8754,"Ġheadqu":8755,"ĠHor":8756,"iaâĢĻs":8757,"ommod":8758,"sea":8759,"Ġliked":8760,"-cent":8761,"-free":8762,"Ġconvin":8763,"ĊĊâĢĺ":8764,"ĠMedical":8765,"Ġrural":8766,"secution":8767,"Ġinstalled":8768,"-wing":8769,"Ġpresum":8770,"Ġliquid":8771,"Ġbanned":8772,"Ġ400":8773,"ĊĊOur":8774,"ĠServices":8775,"Ġeveryth":8776,"Ġnormally":8777,"iciency":8778,"rell":8779,"23":8780,"Ġfab":8781,"Ġdestroyed":8782,"Ġelite":8783,"Ġreceiver":8784,"Ġconstitutional":8785,"ĠPolicy":8786,"Ġintellectual":8787,"ĠVancou":8788,"iveness":8789,"-min":8790,"ĊĊ#":8791,"Ġuse.":8792,"Ġcommunity,":8793,"ĠLink":8794,"ĠStadium":8795,"ĠAmericaâĢĻs":8796,"ĠLittle":8797,"Ġconcluded":8798,"Ġattempting":8799,"ĠDallas":8800,"ĠAction":8801,"ras":8802,"Ġgood,":8803,"Ġcomprehens":8804,"umer":8805,"ĠCore":8806,"Ġfrag":8807,"Ġexclus":8808,"Ġphase":8809,"Ġtackle":8810,"ĠManchester":8811,"ua":8812,"ĠâĢĻ":8813,"ĊĊRes":8814,"ĠDivision":8815,"Ġside.":8816,"brid":8817,"ĠConservative":8818,"-mail":8819,"ĠDisc":8820,"Ġshow,":8821,"Ġpenalty":8822,"Ġeastern":8823,"ĠGovern":8824,"era":8825,"anded":8826,"ĊĊMeanwhile,":8827,"Ġknow.":8828,"ĠLy":8829,"ĠIce":8830,"Ġextension":8831,"Ġtrem":8832,"ĠRet":8833,"Ġletters":8834,"roduct":8835,"Ġstake":8836,"ĠMatthew":8837,"ĠHenry":8838,"Ġequally":8839,"ĠGov.":8840,"Ġignore":8841,"Ġrecognized":8842,"Ġlocations":8843,"Ġstrategic":8844,"osit":8845,"Ġresistance":8846,"ison,":8847,"rans":8848,"ĠBrother":8849,"Ġaway,":8850,"Ġnewspap":8851,"Ġgenetic":8852,"Ġlegitimate":8853,"ĠChair":8854,"Ġare.":8855,"Ġpound":8856,"ĠIR":8857,"ĠPent":8858,"bar":8859,"abil":8860,"stead":8861,"Ġgroup.":8862,"Ġinject":8863,"Ġ2017,":8864,"ĠMake":8865,"Ġwater,":8866,"Ġtransgender":8867,"ĠPhilipp":8868,"Ġ1960":8869,"Ġaside":8870,"Ġreputation":8871,"Ġdramatic":8872,"-10":8873,"-American":8874,"Ġwomen.":8875,"Ġinvited":8876,"ime.":8877,"ĠMassachus":8878,"flix":8879,"ulating":8880,"Ġelse.":8881,"Ġproject,":8882,"ĠNation":8883,"Ġaccompan":8884,"Image":8885,"repre":8886,"ilton":8887,"Ġemployment":8888,"Ġethnic":8889,"Ġbrill":8890,">>":8891,"BO":8892,"ĠCO":8893,"Ġ2011.":8894,"Ġpolls":8895,"Ġspokesperson":8896,"ances.":8897,"Ġprogressive":8898,"Ġinvas":8899,"ogen":8900,"Ġdatabase":8901,"ĠMiami":8902,"lah":8903,"ĠBall":8904,"Ġhook":8905,"ĠPerhaps":8906,"ĠJersey":8907,"Ġcasual":8908,"k.":8909,"Ġembarrass":8910,"r,":8911,"Ġpresident,":8912,"Ġstupid":8913,"ĠSociety":8914,"ĠCalifornia,":8915,"ĠMuseum":8916,"iments":8917,"Ġtomorrow":8918,"Ġtur":8919,"Ġhasn't":8920,"Ġseemingly":8921,"ye":8922,"Ġtestim":8923,"Ġheading":8924,"Ġ(see":8925,"Ġserves":8926,"ĠShare":8927,"ii":8928,"Ġexternal":8929,"reprene":8930,"Ġsaving":8931,"rors":8932,"ĠKat":8933,"ĠEnviron":8934,"Ġcollective":8935,"ĠUlt":8936,"ĠHead":8937,"Ġinquir":8938,"Ġcontribute":8939,"Ġcontained":8940,"DS":8941,"ĠSaturday,":8942,"ĠAlbert":8943,"ĊĊOnce":8944,"uction":8945,"ĠMinistry":8946,"gun":8947,"Ġ($":8948,"Ġmanufacturing":8949,"Ġcountries,":8950,"zen":8951,"Ġfoss":8952,"Ġ(4":8953,"ious.":8954,"Ġranked":8955,"Ġ(O":8956,"Ġmeetings":8957,"ĊĊThen":8958,"Ġincorpor":8959,"Ġmissile":8960,"Ġestimate":8961,"Ġtheat":8962,"Ġattached":8963,"ersâĢĻ":8964,"Ġdeath.":8965,"ĠHospital":8966,"Ġsaved":8967,"ĠClevel":8968,"Ġfailing":8969,"inity":8970,"Ġ%":8971,"ĠSir":8972,"Ġversus":8973,"Ġoutcom":8974,"Ġpasses":8975,"ihad":8976,"Ġ(m":8977,"Ġconvicted":8978,"el.":8979,"ing.\"":8980,"ĠGetty":8981,"Ġcity,":8982,"Ġcabin":8983,"Ġraw":8984,"Ð½":8985,"Ġrequirements":8986,"bal":8987,"Ġpolitician":8988,"Ġmos":8989,"Ġhorror":8990,"ier,":8991,"My":8992,"Ġtaste":8993,"Ġporn":8994,"Ġhouses":8995,"ĠMas":8996,"ĠCross":8997,"Ġmidfield":8998,"Ġnewsletter":8999,"Ġdefine":9000,"Ġdiversity":9001,"Ġceleb":9002,"ĠAcc":9003,"Ġhung":9004,"Ġ9,":9005,"Ġexplanation":9006,"Ġcountries.":9007,"essel":9008,"ĠHarry":9009,"Ġtemporary":9010,"Ġyes,":9011,"Ġfootage":9012,"ĠBaltimore":9013,"Ġprogramming":9014,"Ġastron":9015,"Ġcounty":9016,"Ġattacking":9017,"Ġresearcher":9018,"ĠAnderson":9019,"Ġnotion":9020,"Ġmedia,":9021,"Ġpremium":9022,"ĠPitt":9023,"ĠYork,":9024,"ver.":9025,"EA":9026,"ĊĊÂ":9027,"ĠNever":9028,"allel":9029,"Ġsuspected":9030,"Ġconvinced":9031,"are.":9032,"sters":9033,"ĠSamsung":9034,"Ġsettlement":9035,"Ġfinger":9036,"ĠLas":9037,"ociate":9038,"-sex":9039,"Ġcannabis":9040,"essed":9041,"ĠON":9042,"Ġbureau":9043,"Ġawesome":9044,"Ġlawyers":9045,"inking":9046,"ĠMarket":9047,"ĠTaylor":9048,"Ġlobby":9049,"Ġinvolves":9050,"Ġcontribution":9051,"Ġmanner":9052,"Ġsaying,":9053,"peaking":9054,"ĠAle":9055,"een":9056,"Ġham":9057,"Ġ42":9058,"ĠGam":9059,"ĠOtt":9060,"Ġblocks":9061,"ĠMcCain":9062,"%,":9063,"ĠcompanyâĢĻs":9064,"Ġovers":9065,"Ġoffice,":9066,"-game":9067,"Ġshr":9068,"Ġ->":9069,"Ġmask":9070,"Ġthrowing":9071,"Ġrhet":9072,"rolled":9073,"Ġpast,":9074,"',":9075,"lands":9076,"Ġ(200":9077,"ĠRef":9078,"dit":9079,"Ġfees":9080,"y.\"":9081,"ĠIllino":9082,"ĠQueen":9083,"Ġdid.":9084,"Ġscheme":9085,"Ġelection,":9086,"Ġocean":9087,"ful,":9088,"Ġsanctions":9089,"ouch":9090,"Ġlowest":9091,"ĠGolden":9092,"Ġvirtually":9093,"enders":9094,"Ġhanded":9095,"ophy":9096,"aching":9097,"ĠCBS":9098,"ĠTheyâĢĻre":9099,"e.\"":9100,"iner":9101,"Ġappreciate":9102,"ĠCity,":9103,"Ġexposure":9104,"ĊĊSee":9105,"Ġviewed":9106,"Ġfulf":9107,"Ġconce":9108,"then":9109,"arc":9110,"ĠE.":9111,"Ġyet.":9112,"ĊĊThatâĢĻs":9113,"Ġhorse":9114,"Ġgrav":9115,"Ġaccommod":9116,"ĠPakist":9117,"Ġperspective":9118,"Ġsubstantial":9119,"Ġthin":9120,"Ġother,":9121,"Ġhint":9122,"-hour":9123,"Ġstartup":9124,"Ġ20,":9125,"ĠDub":9126,"teen":9127,"ĠNote":9128,"ĠDevelopment":9129,"ĠAnthony":9130,"ĠiOS":9131,"Ġgoods":9132,"bec":9133,"ĠHD":9134,"ĠâĢľBut":9135,"Ġwrest":9136,"Ġ43":9137,"Ġmemor":9138,"Ġbuck":9139,"ĠAnd,":9140,"ĠBang":9141,"Ġauthent":9142,"Ġ\"He":9143,"ĠBab":9144,"Ġgo.":9145,"ĊĊRelated":9146,"ĠâĢľg":9147,"ĊĊDon":9148,"Ġcust":9149,"Ġshout":9150,"Ġsoil":9151,"ĠSept.":9152,"Ġseries,":9153,"Ġsay.":9154,"angel":9155,"Ġdrew":9156,"front":9157,"ĠAsia":9158,"ĠSea":9159,"Ġoverwhelming":9160,"Ġenough,":9161,"apol":9162,"EP":9163,"ĠWW":9164,"-6":9165,"Ġ39":9166,"ĠheâĢĻd":9167,"Ġcountry's":9168,"Ġseats":9169,"ĠCook":9170,"Ġyard":9171,"Ġwriters":9172,"Ġhide":9173,"ĠProfessor":9174,"ali":9175,"o's":9176,"Ġ$7":9177,"Ġ(for":9178,"Script":9179,"comm":9180,"PG":9181,"Ġoutcome":9182,"ĠMOR":9183,"Ġadvertising":9184,"ĠGeorgia":9185,"rome":9186,"sâĢĿ":9187,"owned":9188,"ĠAbb":9189,"ĠFurther":9190,"Ġchallenging":9191,"wered":9192,"ĠBroad":9193,"Ġstol":9194,"Ġpurchased":9195,"ĠFreedom":9196,"Ġindustry.":9197,"Ġcoc":9198,"TH":9199,"uce":9200,"Ġstudy,":9201,"Ġsolutions":9202,"uous":9203,"ĠMexican":9204,"ĠSpain":9205,"Ġdemocracy":9206,"Ġfold":9207,"Ġcomponents":9208,"Ġ15,":9209,"Ġtrained":9210,"Ġengineering":9211,"Ġnerv":9212,"rot":9213,"Ġinvestigating":9214,"ĠSanta":9215,"ĠCommunity":9216,"Ġright?":9217,"Ġjoke":9218,"eping":9219,"Ġjournalist":9220,"ĠEvent":9221,"Ġtechnologies":9222,"ĠÎ":9223,"Ġadmit":9224,"ĠFamily":9225,"Ġcontrols":9226,"Ġnoting":9227,"ortunately":9228,"Ġsugar":9229,"Ġwar.":9230,"unicip":9231,"Ġthrew":9232,"Ġpresid":9233,"ione":9234,"ed.\"":9235,"Ġgrid":9236,"Ġterrorism":9237,"agement":9238,"ing,\"":9239,"igare":9240,"Ġissue,":9241,"Ġbrown":9242,"Ġpersonality":9243,"Ġfoundation":9244,"iel":9245,"ĊĊEn":9246,"ĠFootball":9247,"ropri":9248,"ĠTuesday.":9249,"Ġdemocratic":9250,"uper":9251,"Ġlets":9252,"Ġ\"You":9253,"Ġspin":9254,"ĠRa":9255,"ĠâĤ¬":9256,"ĠIntelligence":9257,"Ġnatur":9258,"Ġstayed":9259,"Ġemploye":9260,"ĠSeries":9261,"ĠMah":9262,"://":9263,"ĊĊ\"There":9264,"itter":9265,"âĢĶâĢĶâĢĶâĢĶ":9266,"Ġpreced":9267,"ura":9268,"ĠPatri":9269,"Ġassistance":9270,"rary":9271,"icket":9272,"ĠSat":9273,"ĠNev":9274,"ĠNATO":9275,"ĊĊ\"O":9276,"Ġbarrel":9277,"Ġ12,":9278,"Ġline,":9279,"rous":9280,"Ġrevel":9281,"ĠInformation":9282,"Ġupset":9283,"Ġprotecting":9284,"ĠyouâĢĻd":9285,"ĠTour":9286,"script":9287,"Ġentr":9288,"ĠIraqi":9289,"Ġprovision":9290,"Ġwater.":9291,"ĠMusic":9292,"Ġdump":9293,"Ġconso":9294,"Ġreleas":9295,"âĸ":9296,"ĠControl":9297,"ĠAssociated":9298,"ucks":9299,"Ġanswers":9300,"Ġinvestigate":9301,"Ġcovering":9302,"Ġminutes.":9303,"Ġloyal":9304,"ĠAmendment":9305,"Ġ\"p":9306,"-le":9307,"Ġimplementation":9308,"h.":9309,"aired":9310,"verty":9311,"Ġplayers.":9312,"Ġfirms":9313,"Ġagenda":9314,"ĊĊBefore":9315,"ĠEag":9316,"Ġspeaks":9317,"ĠCompany":9318,"ĠAND":9319,"ĠAD":9320,"Ġworker":9321,"ĠEdward":9322,"ĠWhich":9323,"Ġwebsite.":9324,"Ġbacter":9325,"ĠLatin":9326,"Ġprotocol":9327,"ĠPot":9328,"bell":9329,"Ġexpanded":9330,"ĊĊGet":9331,"ifications":9332,"ĠMiller":9333,"i's":9334,"appy":9335,"Ġgal":9336,"Ġachieved":9337,"Ġalter":9338,"ĠTri":9339,"S,":9340,"ucky":9341,"ĠMarvel":9342,"Ġdogs":9343,"ĊĊDo":9344,"ĠHop":9345,"Ġwar,":9346,"Ġcourts":9347,"Ġissues,":9348,"Ġ2020":9349,"7)":9350,"Ġrational":9351,"Ġgrass":9352,"Ġpoverty":9353,"break":9354,"Ġexchang":9355,"Ġname,":9356,"Ġfallen":9357,"ĠLiberal":9358,"ĠPop":9359,"otype":9360,"ĠSpring":9361,"Ġregions":9362,"ni":9363,"life":9364,"Ġgra":9365,"Ġads":9366,"Ġdiverse":9367,"abeth":9368,"ensions":9369,"Ġmembership":9370,"ĠWithout":9371,"Ġlistening":9372,"Ġfing":9373,"rint":9374,"ĠKong":9375,"Ġdegrees":9376,"ĊĊPer":9377,"Ġsubsequent":9378,"________________":9379,"Ġconvention":9380,"Ġend.":9381,"ĠData":9382,"Ġresource":9383,"Ġ20th":9384,"ĠConnect":9385,"ctic":9386,"0000":9387,"Ġbills":9388,"Ġcongressional":9389,"Ġestablishment":9390,"ĠChel":9391,"ĠMain":9392,"Ġvoter":9393,"ĠBron":9394,"iability":9395,"Ġshadow":9396,"um.":9397,"Ġcompany.":9398,"Ġfantastic":9399,"elf":9400,"Ġroster":9401,"Ġles":9402,"Ġpace":9403,"Ġboot":9404,"Ġpoly":9405,"Ġfears":9406,"Ġeither.":9407,"-mon":9408,"rison":9409,"ĠCommon":9410,"ĠLyn":9411,"Ġarrive":9412,"ĠStart":9413,"ource:":9414,"Ġenormous":9415,"ĠSuch":9416,"Ġstrikes":9417,"writ":9418,"Ġmusical":9419,"Ġsom":9420,"on's":9421,"Ġinner":9422,"ĠgovernmentâĢĻs":9423,"Ġcompe":9424,"Ġtrave":9425,"ĠOlympic":9426,"istent":9427,"Ġmarch":9428,"ĠBuff":9429,"ĠRoy":9430,"ĠHo":9431,"mann":9432,"Ġrecommended":9433,"Ġcapabilities":9434,"Ġchapter":9435,"ĠVill":9436,"ourse":9437,"Ġmedia.":9438,"ington":9439,"Ġmenu":9440,"ĠBattle":9441,"enth":9442,"ĠMonday.":9443,"Ġboom":9444,"21":9445,"Ġtape":9446,"Ġwarming":9447,"ĊĊâĢľIf":9448,"lessly":9449,"ĠcityâĢĻs":9450,"ĠCre":9451,"Ġskept":9452,"Ġconsistently":9453,"ĠLiverpool":9454,"Ġignored":9455,"Ġschool.":9456,"ĠKelly":9457,"bn":9458,"ĠNov":9459,"Ġalarm":9460,"ta":9461,"ĠDave":9462,"Ġbridge":9463,"ĊĊDe":9464,"Ġplayers,":9465,"6]":9466,"ĠMars":9467,".S.":9468,"Sh":9469,"Ġramp":9470,"Ġfestival":9471,"Ġ9/":9472,"Ġabst":9473,"Ġduty":9474,"Ġrom":9475,"iversary":9476,"Ġtransact":9477,"Ġscenes":9478,"ĠBa":9479,"Ġtries":9480,"Ġstable":9481,"ĠCost":9482,"ĠRevolution":9483,"ĠNintend":9484,"ko":9485,"ĠObamac":9486,"Ġ9.":9487,"Ġmen,":9488,"ĠAcademy":9489,"ĠDev":9490,"Ġdust":9491,"Ġurged":9492,"Ġwelcom":9493,"ĠAS":9494,"iana":9495,"ĠClark":9496,"Ġabroad":9497,"Ġ\"This":9498,"Ġwith,":9499,"Ġacquired":9500,"ĠSH":9501,"ĠKansas":9502,"Ġwelfare":9503,"Ġdistract":9504,"Ġaction.":9505,"Ġlong,":9506,"Ġrepresenting":9507,"rators":9508,"EG":9509,"Ġlandscape":9510,"ammed":9511,"Ġdeeper":9512,"ĠBureau":9513,"avid":9514,"Ġequality":9515,"ĠMinnesota":9516,"icking":9517,"ima":9518,"Ġchoices":9519,"ĠFull":9520,"Ġdut":9521,"Ġletting":9522,"Ġinvolvement":9523,"Ġobser":9524,"e,\"":9525,"ins,":9526,"Ġproblems.":9527,"âĢĶw":9528,"Ġaccomplish":9529,"Ġdepends":9530,"ĠBad":9531,"Ġrapidly":9532,"Ġproducer":9533,"including":9534,"J.":9535,"dict":9536,"Ġrif":9537,"ĠMs.":9538,"re,":9539,"ntil":9540,"Ġconsumption":9541,"Ġclosing":9542,"Ġhypot":9543,"Ġguarantee":9544,"Ġdad":9545,"heim":9546,"ĠCapit":9547,"new":9548,"Ġsite.":9549,"ĊĊ\"He":9550,"ĠGuardian":9551,"ĠDoes":9552,"Ġfeelings":9553,"ĠwomenâĢĻs":9554,"ĊĊâĢľHe":9555,"Ġreported.":9556,"ĠEurope,":9557,"ay.":9558,"Ġfriendly":9559,"ĠtodayâĢĻs":9560,"Ġmarket,":9561,"Ġcareful":9562,"EST":9563,"Ġtracks":9564,"Ġordinary":9565,"ĠNavy":9566,"ĠGun":9567,"Ġ18,":9568,"inction":9569,"low":9570,"Ġtransaction":9571,"Ġvary":9572,"Ġhappen.":9573,"Ġ30,":9574,"ĊĊTod":9575,"ĠOct.":9576,"Ġartific":9577,"Ġnegotiations":9578,"prise":9579,"Ġfuture,":9580,"Ġencouraged":9581,"Ġinequ":9582,"ĠMaster":9583,"Ġservice.":9584,"Ġprol":9585,"Ġdrove":9586,"okes":9587,"ĠTrib":9588,"ate:":9589,"Ġconventional":9590,"Ġintroduction":9591,"asts":9592,"ĊĊPhoto":9593,"ĠBeij":9594,"Ġrecruit":9595,"Ġdisput":9596,"Ġsurvive":9597,"Ġtitles":9598,"Ġattorne":9599,"pes":9600,"ĠBudd":9601,"Ġforecast":9602,"ĠExt":9603,"Ġdisappear":9604,"Ġspace.":9605,"bour":9606,"Ġtrees":9607,"ĠHarv":9608,"ĠFriday.":9609,"Ġspoken":9610,"Ġsignature":9611,"ĠWisconsin":9612,"Ġenough.":9613,"Ġ\"F":9614,"Ġ2003":9615,"Ġdiscrimin":9616,"Ġsuspended":9617,"Ġmuseum":9618,"Ġbrowser":9619,"Ġpermission":9620,"ed:":9621,"Ġjury":9622,"ĠEducation":9623,"Ġspiritual":9624,"ed,\"":9625,"ĠAdministration":9626,"Ġpriority":9627,"ubs":9628,"Ġtab":9629,"ĠAst":9630,"olph":9631,"haust":9632,"Ġweeks,":9633,"ĠOklah":9634,"ĠLetâĢĻs":9635,"ounce":9636,"Ġcovers":9637,"Ġlocked":9638,"ĠDet":9639,"Ġeconomy.":9640,"Ġfee":9641,"ĠSony":9642,"Ġboat":9643,"Ġfilm,":9644,"ĠHind":9645,"Ġrocket":9646,"ĠTrump.":9647,"Ġtechniques":9648,"Ġcycl":9649,"Ġlights":9650,"Ġsymp":9651,"Ġclim":9652,"Ġlives.":9653,"Ġvisiting":9654,"Ġincl":9655,"ĠPrince":9656,"idelines":9657,"Ġhandling":9658,"Ġdemonstrated":9659,"Ġ\"L":9660,"ĠNov.":9661,"ĊĊ5.":9662,"Ġentreprene":9663,"ĠEngine":9664,"col":9665,"DF":9666,"ĠWednesday.":9667,"Ġscholars":9668,"lers":9669,"Ġdynamic":9670,"Ġsear":9671,"Ġalone.":9672,"Ġbread":9673,"ĠAud":9674,"Ġ0.0":9675,"Ġvs":9676,"Ġattack.":9677,"Ġdeem":9678,"ing:":9679,"ï¿":9680,"ources":9681,"file":9682,"Ġsupport.":9683,"encies":9684,"ĠBrex":9685,"Ġclients":9686,"Ġthough.":9687,"Ġlineup":9688,"Ġexists":9689,"ĠReuters":9690,"Ġbuff":9691,"Ġfro":9692,"Ġhealthcare":9693,"Ġunpre":9694,"8)":9695,"inder":9696,"Ġdisturb":9697,"Ġintroduce":9698,"Ġapproached":9699,"ĠUse":9700,"Ġhole":9701,"usalem":9702,"ouri":9703,"enez":9704,"Ġassign":9705,"ĠJustin":9706,"PM":9707,"Ġrender":9708,"-7":9709,"ĠNOT":9710,"Ġchest":9711,"Ġwedd":9712,"Ġcomplaints":9713,"Ġfantasy":9714,"Ġplain":9715,"Ġweigh":9716,"Ġmeasured":9717,"Ġpatch":9718,"ĠstateâĢĻs":9719,"Ġterritory":9720,"Ġimproving":9721,"ĠNetflix":9722,"P.":9723,"ĠBon":9724,"ĊĊFin":9725,"Ġexperience,":9726,"Un":9727,"85":9728,"itors":9729,"Ġcameras":9730,"Ġ\"t":9731,"Ġcommonly":9732,"Ġje":9733,"orship":9734,"Ġacknowledged":9735,"Ġfur":9736,"Ġproblem,":9737,"ules":9738,"ĠTok":9739,"ĠDiego":9740,"Ġbrilliant":9741,"ĠSom":9742,"Ġcarefully":9743,"hes,":9744,"ĠScient":9745,"ecutive":9746,"ordinary":9747,"P,":9748,"Ġjun":9749,"Ġ190":9750,"Ġprinciples":9751,"est,":9752,"Ġcow":9753,"Ġtickets":9754,"Ġaround.":9755,"Ġunemployment":9756,"Ġpleas":9757,"ĠSyd":9758,"Ġ16,":9759,"ines.":9760,"Ġlegislative":9761,"Ġcriticized":9762,"Ġrush":9763,"athy":9764,"eries":9765,"Ġstates,":9766,"this":9767,"Re":9768,"esty":9769,"ĠAgain":9770,"ĠProv":9771,"-point":9772,"Ġfarmers":9773,"iti":9774,"y,\"":9775,"Ġfocusing":9776,"Ġpercent,":9777,"hatt":9778,"man.":9779,"-he":9780,"Ġitself,":9781,"Ġweeks.":9782,"Ġmachines":9783,"Ġrestrictions":9784,"ĠpeopleâĢĻs":9785,"Ġacid":9786,"isen":9787,"ĠWell":9788,"UL":9789,"ĠwhoâĢĻs":9790,"Ġtrillion":9791,"Ġadvocates":9792,"Ġchip":9793,"Ġpage.":9794,"erald":9795,"Ġ47":9796,"Ġwhenever":9797,"Ġcanc":9798,"geon":9799,"ĠDream":9800,"izabeth":9801,"Ġpreparing":9802,"ĠGirl":9803,"Ġdescription":9804,"Ġsame-sex":9805,"ĠUniversity,":9806,"ĠClick":9807,"Ġbullet":9808,"ĠMarsh":9809,"ĠFront":9810,"Ġmortg":9811,"full":9812,"Ġswing":9813,"ĠHur":9814,"ree,":9815,"ĠFinal":9816,"bro":9817,"Ġevent,":9818,"anted":9819,"Ġabsor":9820,"Ġmorning.":9821,"Ġmoment,":9822,"Ġscreens":9823,"Ġaffair":9824,"Ġcul":9825,"Ġdomain":9826,"Ġbusiness,":9827,"AF":9828,"Ġalive":9829,"Ġauto":9830,"ator,":9831,"Ġdisagree":9832,"Ġtonight":9833,"Ġinvestigators":9834,"Ġforcing":9835,"Ġencounter":9836,"-St":9837,"ĠPo":9838,"ĠAlabama":9839,"Ġplate":9840,"arring":9841,"Ġtargeting":9842,"heck":9843,"ubble":9844,"ĠThursday.":9845,"UST":9846,"Ġpolicy.":9847,"Ġexecution":9848,"Ġ2010.":9849,"mad":9850,"osis":9851,"ĊĊUpd":9852,"ï¿½":9853,"ĠCorpor":9854,"Ġliterature":9855,"Ġlunch":9856,"Ġthorough":9857,"Ġtie":9858,"ĠCH":9859,"Ġcorruption":9860,"ĠTed":9861,"ĠAk":9862,"ĠGord":9863,"ass,":9864,"anna":9865,"Ġprocessing":9866,"Ġactivist":9867,"ĠCow":9868,"Ġperforming":9869,"ĠâĢľIn":9870,"Ġstates.":9871,"Ġ21,":9872,"Ġclubs":9873,"rection":9874,"ishop":9875,"Ġmonthly":9876,"Ġfrequent":9877,"Ġfossil":9878,"Ġcogn":9879,"ĠOregon":9880,"Ġactively":9881,"Ġ14,":9882,"Ġneighbour":9883,"Ġ17,":9884,"Ġbowl":9885,"Ġfruit":9886,"ĠOrig":9887,"Ġwhich,":9888,"Ġviewers":9889,"Ġmarks":9890,"Ġmind,":9891,"Ġparallel":9892,"Ġdelic":9893,"ĠAPI":9894,"Ġpig":9895,"irlf":9896,"-run":9897,"Ġfunded":9898,"ultane":9899,"Ġsafet":9900,"Ġname.":9901,"Ġappointed":9902,"Ġenemies":9903,"roduction":9904,"ĠWarren":9905,"Ġnominee":9906,"ably,":9907,"Ġfields":9908,"Ġ(with":9909,"Ġstability":9910,"Ġprepar":9911,"Ġmatter.":9912,"irlfriend":9913,"ĠBloom":9914,"Ġorganis":9915,"Ġdivided":9916,"ĠGulf":9917,"ĠDesign":9918,"ĊĊ5":9919,"If":9920,"ĠJerusalem":9921,"Ġcircumstances":9922,"Ġman.":9923,"Ġloose":9924,"Ġsalary":9925,"Ġdeserve":9926,"Ġspokeswoman":9927,"++":9928,"Ġkilomet":9929,"Ġdeal.":9930,"Ġwra":9931,"Ġpursue":9932,"Ġmathem":9933,"Ġ19,":9934,"ree.":9935,"ĠGalaxy":9936,"Ġwider":9937,"ĠGT":9938,"more,":9939,"Ġlist.":9940,"Ġmining":9941,"Ġdiscussions":9942,"ĠIowa":9943,"Ġchildhood":9944,"Ġcategory":9945,"Ġwife,":9946,"cend":9947,"ĠScottish":9948,"ĠForm":9949,"ĠGraham":9950,"Ġglob":9951,"ĊĊBoth":9952,"ĠHoward":9953,",000.":9954,"eds":9955,"Ġleak":9956,"Ġvisitors":9957,"Ġdistributed":9958,"utt":9959,"Ġdinner":9960,"Ġkm":9961,"1%":9962,"ĠBelg":9963,"ĠStore":9964,"ĊĊBl":9965,"-J":9966,"Ġrear":9967,"ĠnationâĢĻs":9968,"Ġcontracts":9969,"ĠEmpire":9970,"ĠBeck":9971,"Ġpatterns":9972,"Ġlow-":9973,"Ġhip":9974,"ĠInstagram":9975,"Ġchat":9976,"Ġcompare":9977,"ille":9978,"ĊĊZ":9979,"ĠTech":9980,"anâĢĻs":9981,"Ġroom.":9982,"Ġlosses":9983,"Ġevent.":9984,"ĠDeath":9985,"Ġ2001":9986,"Ġ22,":9987,"ĠDutch":9988,"ĠHave":9989,"Ġyellow":9990,"Ġasks":9991,"Ġphones":9992,"ught":9993,"âĢĺ":9994,"ful.":9995,"Ġ13,":9996,"Ġgent":9997,"assador":9998,"Ġvessel":9999,"ency.":10000,"iev":10001,"Ġlift":10002,"Ġsetup":10003,"erd":10004,"fol":10005,"ĊĊJohn":10006,"Ġpolitically":10007,"Ġanybody":10008,"Ġrelax":10009,"Ġintim":10010,"Ġrecipe":10011,"-style":10012,"ĠD.C.":10013,"ĠCleveland":10014,"ective":10015,"ennis":10016,"Ġtremend":10017,"ĠBible":10018,"walk":10019,"Ġroof":10020,"Ġ1st":10021,"Ġswim":10022,"Ġconspiracy":10023,"33":10024,"7]":10025,"obs":10026,"Ġexit":10027,"itionally,":10028,"Ġsuck":10029,"ĠUber":10030,"ĠJan.":10031,"ĠAdv":10032,"Ġdemanding":10033,"orge":10034,"Ġawareness":10035,"ives,":10036,"hr":10037,"ĠTennes":10038,"Ġclassified":10039,"Ġaer":10040,"Ġdub":10041,"jud":10042,"Ġmilk":10043,"Ġsmell":10044,"Ġfriends,":10045,"Ġ\"G":10046,"oj":10047,"Ġ(201":10048,"Ġracist":10049,"ĠAmong":10050,"Ġinning":10051,"hot":10052,"Ġmanifest":10053,"Ġmole":10054,"-right":10055,"Ġbroader":10056,"RI":10057,"Ġassociation":10058,"izon":10059,"-minute":10060,"Ġ\"E":10061,"Con":10062,"Ġ46":10063,"Ġtracking":10064,"ĠDO":10065,"Ġyear's":10066,"ville,":10067,"ĠMach":10068,"riv":10069,"ĊĊOff":10070,"Ġpuzz":10071,"Ġmind.":10072,"ĠKar":10073,"ĠLook":10074,"ĊĊEvery":10075,"ĠClintonâĢĻs":10076,"ĠLow":10077,"Ġratio":10078,"conf":10079,"Ġ(e.":10080,"ĠTes":10081,"ĠAssemb":10082,"N.":10083,"Ġfool":10084,"ches,":10085,"Ġinsisted":10086,"Ġscores":10087,"-round":10088,"Ġstepped":10089,"Ġmuch.":10090,"Ġabilities":10091,"Ġcarri":10092,"Ġburning":10093,"ĠAvenue":10094,"Ġlayer":10095,"Ġtechnique":10096,"Ġarguing":10097,"MS":10098,"ĠDeb":10099,"Ġstored":10100,"ĠHa":10101,"Ġmoon":10102,"Ġ25,":10103,"Ġengineer":10104,"Ġhomeless":10105,"ologists":10106,"Ġrookie":10107,"ĠStone":10108,"Ġendorse":10109,"-long":10110,"Ġcontrol.":10111,"Ġdiscrimination":10112,"Ġdeny":10113,"Ġbot":10114,"Ġexception":10115,"Ġroles":10116,"even":10117,"ĠItaly":10118,"Ġ24,":10119,"-O":10120,"Ġhoped":10121,"Ġstruggled":10122,"Ġmanaging":10123,"Ġprinciple":10124,"Ġaccessible":10125,"ĠEmail":10126,"ker":10127,"Ġquoted":10128,"Ġexhaust":10129,"Ġrelease.":10130,"Ġeligible":10131,"Ġ2nd":10132,"alys":10133,"Ġkitchen":10134,"RL":10135,"Ġmonitoring":10136,"run":10137,"Ġ?":10138,"ass.":10139,"Ġparad":10140,"-month":10141,"ĊĊAny":10142,"Ġinterface":10143,"Ġfundra":10144,"âĢĻ,":10145,"ones,":10146,"Ġcolour":10147,"dog":10148,"Ġlapt":10149,"Ġindustry,":10150,"Ġenthusi":10151,"Ġreverse":10152,"ĠKick":10153,"ĠBud":10154,"Ġships":10155,"Ġstations":10156,"ĠPu":10157,"Ġpointing":10158,"Ġpill":10159,"ĠCredit":10160,"Ġhire":10161,"ĠHong":10162,"Ġfalls":10163,"ĊĊUnder":10164,"ĠRoss":10165,"ĊĊThose":10166,"Ġrepair":10167,"Ġax":10168,"Ġabsence":10169,"Ġweekly":10170,"ĠtheyâĢĻll":10171,"Ġlists":10172,"ĠR.":10173,"Ġhosted":10174,"raig":10175,"rator":10176,"Ġpersu":10177,"Ġ$20":10178,"Ġcelebrate":10179,"Ġdeficit":10180,"ĠBoe":10181,"Ġpenalt":10182,"ĠBerlin":10183,"ĠUr":10184,"ĠHold":10185,"Ġepisodes":10186,"Ġit.\"":10187,"Ġexpectations":10188,"Ġpast.":10189,"ĠNorm":10190,"Ġprocesses":10191,"Ġsilver":10192,"Ġe-mail":10193,"Ġdoors":10194,"Ġlean":10195,"ĠSab":10196,"Ġaddressed":10197,"Ġlux":10198,"AG":10199,"Ġtwenty":10200,"ĠPhiladelphia":10201,"Ġshe's":10202,"T.":10203,"Ġimprovements":10204,"Ġhimself.":10205,"Ġstudied":10206,"ĠIndust":10207,"Ġcaptain":10208,"Ġinterviews":10209,"Ġfactory":10210,"ĠWas":10211,"ĠWH":10212,"ĠâĢľIâĢĻm":10213,"ĊĊ0":10214,"ĠSon":10215,"ney,":10216,"========":10217,"Ġinstance":10218,"Ġgroups,":10219,"Ġuncom":10220,"ĊĊMr.":10221,"Ġshopping":10222,"Ġspell":10223,"senal":10224,"Ġsevent":10225,"ĠWolf":10226,"Ġcontacted":10227,"-9":10228,"Ġrequested":10229,"Ġcounterpart":10230,"Ġminds":10231,"ĊĊCom":10232,"ĠCapital":10233,"Ġtoxic":10234,"Ġpron":10235,"Ġshirt":10236,"Ġ2007,":10237,"ĠInc.":10238,"Ġpromises":10239,"Ġdeadly":10240,"Ġwanting":10241,"ĠVietnam":10242,"ĠFal":10243,"Ġcontrad":10244,"Ġsteel":10245,"rock":10246,"ĠCanada,":10247,"Ġthey've":10248,"ĠSport":10249,"Ġseries.":10250,"etime":10251,"Ġworldwide":10252,"ĠIndeed,":10253,"Ġclothing":10254,"ĠExpl":10255,"Ġcoinc":10256,"ĠWe're":10257,"ĠJere":10258,"Ġblank":10259,"ĠVice":10260,"Ġnic":10261,"ĠChristians":10262,"Ġsurely":10263,"ĠAllen":10264,"ĠGovernor":10265,"ĠMcK":10266,"Ġentitled":10267,"text":10268,"Ġhyper":10269,"Ġadded:":10270,"Ġprocedure":10271,"Ġwal":10272,"Ġcorporations":10273,"Ġupgrade":10274,"Ġscandal":10275,"grad":10276,"Ġmac":10277,"ĊĊRec":10278,"ĊĊ\"If":10279,"Ġmit":10280,"Ġpolice.":10281,"Ġscrut":10282,"Ġstaying":10283,"ĠVik":10284,"Ġ100%":10285,"Ġpublic.":10286,"ĠSix":10287,"akh":10288,"Ġstolen":10289,"uan":10290,"ĠYOU":10291,"Ġabandoned":10292,"Ġreveals":10293,"Ġcentury,":10294,"ĠMorgan":10295,"Ġsubmitted":10296,"Ġcoaches":10297,"Ġfield.":10298,"Ġunfair":10299,"ĠEqu":10300,"s?":10301,"ĠH.":10302,"ĠMetro":10303,"Ġpromoting":10304,"Ġsmile":10305,"Ġnaturally":10306,"Ġawarded":10307,"eath":10308,"Ġautonom":10309,"ĠGil":10310,"ele":10311,"ĊĊBecause":10312,"Ġtired":10313,"Ġimplemented":10314,"Ġ28,":10315,"ĠPict":10316,"ĠRun":10317,"zed":10318,"ĠList":10319,"ĠGreece":10320,"osystem":10321,"RC":10322,"ĠRy":10323,"ĠSarah":10324,"worth":10325,"Ġrescue":10326,"atern":10327,"Ġdiscount":10328,"Ġsimultane":10329,"da":10330,"iller":10331,"umble":10332,"Ġ23,":10333,"Ġlobb":10334,"Ġblocked":10335,"plete":10336,"Ġintervention":10337,"oenix":10338,"ra,":10339,"Ġ26,":10340,"oice":10341,"ĠTele":10342,"Ġstreaming":10343,"Ġconversations":10344,"Ġfiring":10345,"zing":10346,"ĊĊApp":10347,"ĠJonathan":10348,"Ġplay,":10349,"Ġ$100":10350,"-season":10351,"Ġsuperior":10352,"es:":10353,"Ġthreatening":10354,"Ġspectrum":10355,"Ġinsight":10356,"Ġbik":10357,"-for":10358,"ĠLeft":10359,"Ġhal":10360,"Ġprofession":10361,"Ġpharm":10362,"Ġmillion,":10363,"Ġlying":10364,"Ġclip":10365,"Ġfunny":10366,"ĠDec.":10367,"ĊĊFacebook":10368,"!)":10369,"Ġshell":10370,"-Q":10371,"ja":10372,"Ġappe":10373,"Ġservices,":10374,"32":10375,"Ġgains":10376,"ĠâĢĿ":10377,"ĠMoon":10378,"Ġ$8":10379,"Ġcens":10380,"Ġfascin":10381,"Ġrecre":10382,"Ġpicking":10383,"Ġreports.":10384,"Ġcomprehensive":10385,"Ġconnections":10386,"ahu":10387,"Ġans":10388,"Ġhours.":10389,"rust":10390,"Ġtransportation":10391,"organ":10392,"Ġom":10393,"Ġtransit":10394,"Ġ1.5":10395,"Ġposition.":10396,"Ġsatellite":10397,"thon":10398,"raph":10399,"Ġdemonstrate":10400,"Ġdivor":10401,"Ġshield":10402,"ĠSean":10403,"K.":10404,"Ġsamples":10405,"ition,":10406,"ency,":10407,"Ġdismissed":10408,"ixed":10409,"ĠPhill":10410,"ĠPass":10411,"ĠHell":10412,"Ġbeach":10413,"achel":10414,"Ġhelic":10415,"Ġrevers":10416,"ĠPerson":10417,"Ġdepress":10418,"Ġcompeting":10419,"author":10420,"enezuel":10421,"Ġpounds":10422,"ĠCrime":10423,"ĠHarvard":10424,"ĠSus":10425,"Ġunve":10426,"Ġ[the":10427,"Ġwine":10428,"Ġhelp.":10429,"ethe":10430,"ĠLeader":10431,"Ġeducational":10432,"Ġemerging":10433,"Ġdifferent.":10434,"Ġcomputers":10435,"obb":10436,"To":10437,"agh":10438,"8]":10439,"va":10440,"Ġstatistics":10441,"Ġfet":10442,"urren":10443,"ĠSS":10444,"ĠHawai":10445,"Ġsurvival":10446,"Ġviolation":10447,"Ġunpreced":10448,"Ġinspect":10449,"ĠAz":10450,"acon":10451,"Ġbirthday":10452,"Ġ\"R":10453,"Ġsoccer":10454,"ĠHistory":10455,"Ġassass":10456,"Ġcontributions":10457,"ĠâĢľThat":10458,"ĠSquare":10459,"Ġtraum":10460,"mal":10461,"Ġ27,":10462,"Ġ2002":10463,"Ġlucky":10464,"Ġbreaks":10465,"Ġfacilit":10466,"Ġimprovement":10467,"LC":10468,"ĠKeep":10469,"Ġguitar":10470,"ĠRepresent":10471,"Ġvig":10472,"ĠLibr":10473,"Ġjack":10474,"ĠCS":10475,"Ġmood":10476,"ĠBal":10477,"Ġbanking":10478,"Ġdisord":10479,"ĊĊâĢľYou":10480,"Ġfather,":10481,"Ġpollution":10482,"aping":10483,"ĊĊSp":10484,"Ġdance":10485,"gered":10486,"opyright":10487,"Ġsituation.":10488,"Ġtrigger":10489,"Ġescal":10490,"Ġfilter":10491,"ĠLA":10492,"Ġlegally":10493,"Ġenhance":10494,"ittee,":10495,"ĠAndre":10496,"Ġstere":10497,"Ġabove,":10498,"ĊĊAbout":10499,"Ġgraduate":10500,"ĠChildren":10501,"Ġmargin":10502,"Ġsid":10503,"Ġ1:":10504,"Ġ\"If":10505,"week":10506,"Ġremarks":10507,"ĠCameron":10508,"Ġpoints.":10509,"Ġinsult":10510,"Ġjudges":10511,"ĠArk":10512,"Ġanger":10513,"-found":10514,"Ġstarter":10515,"ĠThomp":10516,"Ġarbit":10517,"Ġanother.":10518,"Ġregulatory":10519,"Ġ2:":10520,"Ġentertainment":10521,"Ġdiscussing":10522,"Ġciting":10523,"Ġhelicop":10524,"Ġcopies":10525,"Ġsurgery":10526,"ritten":10527,"phy":10528,"Ġquestioned":10529,"ĊĊLe":10530,"Ġunexpected":10531,"Ġcro":10532,"A)":10533,"Ġparty.":10534,"-pl":10535,"ĠElizabeth":10536,"ĠUpd":10537,"Ġpossible,":10538,"Ġministry":10539,"aware":10540,"Ġphilosoph":10541,"Ġaged":10542,"-elect":10543,"ĠAI":10544,"Ġcareer.":10545,"orous":10546,"ĠThrough":10547,"ĠSilver":10548,"Ġconcrete":10549,"etts":10550,"ĠProp":10551,"Ġcream":10552,"Ġcurrenc":10553,"ĠTai":10554,"Ġhockey":10555,"Ġmath":10556,"igious":10557,"ĠâĢľin":10558,"Ġdefending":10559,"By":10560,"ais":10561,"Ġopinions":10562,"ĠEurope.":10563,"iece":10564,"Ġcomed":10565,"Ġranks":10566,"ami":10567,"Ġrepeat":10568,"Ġcock":10569,"ĠAtlanta":10570,"Ġeveryday":10571,"9)":10572,"Ġdistingu":10573,"ĠDV":10574,"ĠBruce":10575,"vertisements":10576,"Ġdeath,":10577,"Ġjob,":10578,"oret":10579,"vision":10580,"x,":10581,"claim":10582,"Ġtitled":10583,"Ġfict":10584,"Ġglad":10585,"itage":10586,"Ġexempt":10587,"Ġfabric":10588,"Ġwebsites":10589,"orious":10590,"Ġcompat":10591,"Ġbonus":10592,"Ġgraphic":10593,"Ġvote.":10594,"ĠDick":10595,"ĠBow":10596,"ĠHart":10597,"Ġroom,":10598,"ads":10599,"Ġavailable.":10600,"-down":10601,"ĊĊUs":10602,"ĠSet":10603,"Ġcrus":10604,"Ġreplacement":10605,"Ġ3rd":10606,"ĊĊHereâĢĻs":10607,"-K":10608,"name":10609,"Ġopens":10610,"Ġphysically":10611,"Ġincidents":10612,"Ġobsc":10613,"Ġgig":10614,"itary":10615,"ĠâĢľWhat":10616,"Ġdeport":10617,"Ġna":10618,"Ġleft,":10619,"Ġvend":10620,"Ġupload":10621,"Ġemployed":10622,"Ġdrone":10623,"Ġinnocent":10624,"ĠOntario":10625,"Ġcomedy":10626,"Ġtone":10627,"Ġpulling":10628,"Ġservice,":10629,"Ġvirus":10630,"Cl":10631,"Ġreferendum":10632,"Ġit,âĢĿ":10633,"Ġexplaining":10634,"Ġnin":10635,"Ġpassengers":10636,"sburgh":10637,"Ġstriking":10638,"Ġconvince":10639,"Ġbow":10640,"Ġassigned":10641,"Ġbold":10642,"ĠLeon":10643,"Ġpreferred":10644,"ĠVancouver":10645,"Ġguid":10646,"igenous":10647,"Ġopenly":10648,"es.\"":10649,"ancial":10650,"ĠSound":10651,"ĠSav":10652,"Ġchicken":10653,"Ġ1950":10654,"Ġriding":10655,"Ġinstant":10656,"ĠHarper":10657,"Ġ95":10658,"unicipal":10659,"Ġstrip":10660,"ĠBlu":10661,"Ġexpanding":10662,"ĊĊThough":10663,"Ġtea":10664,"ena":10665,"ĠHon":10666,"cest":10667,"Ġloop":10668,"Ġpoison":10669,"ĠStill,":10670,"Ġtut":10671,"Ġ41":10672,"Ġquestion.":10673,"Ġreviews":10674,"Ġterr":10675,"Ġactors":10676,"ch,":10677,"Ġstudying":10678,"ĊĊOb":10679,"cott":10680,"argo":10681,"Ġbacking":10682,"arre":10683,"-by":10684,"Ġsin":10685,"Ġclinical":10686,"Ġhighlights":10687,"Ġsovere":10688,"ĠKennedy":10689,"Ġpredicted":10690,"ĠUtah":10691,"ĠEth":10692,"Ġtiss":10693,"Ġtweeted":10694,"5]":10695,"Ġstructures":10696,"Ġrebel":10697,"post":10698,"Ġsoldier":10699,"Ġrequiring":10700,"Ġunderlying":10701,"ĠCreat":10702,"Ġgamep":10703,"Ġcontroversy":10704,"Ġsituations":10705,"ĠGary":10706,"ests":10707,"Ġextraordinary":10708,"oir":10709,"ĠMagic":10710,"open":10711,"Ġsentenced":10712,"UN":10713,"ĠâĢ¢":10714,"ings.":10715,"ĊĊMc":10716,"Ġdramatically":10717,"stal":10718,"ĠSyria,":10719,"Ġ(t":10720,"ĊĊQu":10721,"ĠVideo":10722,"ĠFriend":10723,"wise,":10724,"Ġassociate":10725,"ĠPhotos":10726,"Ġ10,000":10727,"aver":10728,"ĠPow":10729,"Ġof,":10730,"Ġgross":10731,"ierce":10732,"ĠRoll":10733,"ĠBase":10734,"Ġparty,":10735,"Ġregion.":10736,"th.":10737,"Ġsociety.":10738,"Ġrepresentatives":10739,"Ġvocal":10740,"Ġprompted":10741,"Ġmovements":10742,"Ġ$2.":10743,"Ġcha":10744,"Ġsed":10745,"agic":10746,"ĠBu":10747,"EF":10748,"Ġaffordable":10749,"ĠAtlantic":10750,"ĠHarris":10751,"Ġanswered":10752,"ĠMess":10753,"Ġdesert":10754,"Ġlegacy":10755,"ĠBrooklyn":10756,"Ġminim":10757,"Ġtrue,":10758,"ĊĊ$":10759,"Ġconstitu":10760,"AY":10761,"Ġow":10762,"Ġbody.":10763,"Ġwis":10764,"Ġpublishing":10765,"uten":10766,"Ġphilosophy":10767,"Äĥ":10768,"Ġpromising":10769,"Ġoutrage":10770,"mart":10771,"Ġproviders":10772,"Ġattitude":10773,"onz":10774,"Ġmerch":10775,"Ġprosecutors":10776,"Ġdesktop":10777,"Ġbeating":10778,"ĠTrade":10779,"Ġdiplomatic":10780,"Ġroy":10781,"T,":10782,"ĠGDP":10783,"ĠRather":10784,"Ġmeaningful":10785,"ĠTreas":10786,"Ġcoaching":10787,"2%":10788,"Ġuniversal":10789,"itals":10790,"ĠConst":10791,"Ġbreast":10792,"Ġ120":10793,"Ġterrorists":10794,"onder":10795,"ĠEst":10796,"Ġpermit":10797,"Ġadded,":10798,"ĠWhether":10799,"ĠExper":10800,"Ġresults.":10801,"Ġtraged":10802,"Ġbillions":10803,"ĠBox":10804,"Ġwhereas":10805,"3%":10806,"âĢĶa":10807,"Ġdevelopment.":10808,"Ġhomosexual":10809,"Ġdelight":10810,"Ġbathroom":10811,"86":10812,"ĠHereâĢĻs":10813,"ĠLine":10814,"ĠEPA":10815,"Ġprecisely":10816,"Ġanniversary":10817,"Ġear":10818,"ĠExecutive":10819,"Ġassumed":10820,"ĠJavaScript":10821,"Ġreliable":10822,"Ġpolicy,":10823,"sect":10824,"itual":10825,"Ġperiod.":10826,"ĠLewis":10827,"arms":10828,"opp":10829,"Ġblockchain":10830,"Ġsettled":10831,"ateral":10832,"Ġecosystem":10833,"Ġecho":10834,"odox":10835,"-20":10836,"Ġrace,":10837,"Ġcollaps":10838,"7%":10839,"Ġjoy":10840,"ĊĊMay":10841,"ĠDod":10842,"Ġexploit":10843,"Ġscope":10844,"Ġkeyboard":10845,"Ġwas.":10846,"ĠSheriff":10847,"Ġlect":10848,"Ġtempor":10849,"9%":10850,"Ġbin":10851,"a)":10852,"Ġtips":10853,"Ġperceived":10854,"Ġtemperatures":10855,"ussell":10856,"eding":10857,"Ġindicates":10858,"zy":10859,"z.":10860,"Ġscan":10861,"ĠUsing":10862,"Ġgreatly":10863,"ĊĊIm":10864,"Ġbackup":10865,"Ġ\"There":10866,"berry":10867,"ĠCharlie":10868,"Ġstone":10869,"ĊĊSec":10870,"ĠYan":10871,"Ġcertific":10872,"Ġpublication":10873,"44":10874,"ĠBelow":10875,"Ġelder":10876,"Ġprotein":10877,"ĠRussia,":10878,"encing":10879,"Ġlogic":10880,"Ġcomment.":10881,"Ġsecondary":10882,"Ġdating":10883,"Ġshit":10884,"rogen":10885,"necess":10886,"ĠHu":10887,"Ġcounts":10888,"Ġchecks":10889,"ĠInstitut":10890,"ĠAssad":10891,"Ġutility":10892,"Ġnoise":10893,"ocolate":10894,"ized,":10895,"Ġmainten":10896,"Ġmaintained":10897,"ested":10898,"BM":10899,"ia's":10900,"Ġsits":10901,"Ġscientist":10902,"Ġlet's":10903,"Ġadventure":10904,"Ġpunch":10905,"rating":10906,"ĠStory":10907,"Ġirre":10908,"Ġoppose":10909,"Ġacknowledge":10910,"ĠCC":10911,"ĠStew":10912,"erning":10913,"born":10914,"Ġpoints,":10915,"ĠPhoenix":10916,"rite":10917,"ĊĊIâĢĻm":10918,"ĠDigital":10919,"ĠTalib":10920,"Ġarrival":10921,"Ġeliminate":10922,"ĠCapitol":10923,"ĊĊBack":10924,"Ġaround,":10925,"Ġ29,":10926,"ĠMLS":10927,"Ġsite,":10928,"Ġundert":10929,"Ġ(l":10930,"Ġground.":10931,"Ġsixth":10932,"Ġpatent":10933,"Ġfood,":10934,"Ġpartly":10935,"erent":10936,"Ġinequality":10937,"apore":10938,"Ġaffili":10939,"iac":10940,"ÂĴ":10941,"8%":10942,"Ġeager":10943,"Ġspaces":10944,"ĠCooper":10945,"ĠFirst,":10946,"PC":10947,"Ġconservatives":10948,"friend":10949,"ĠOrland":10950,"Ġthat?":10951,"Ġproposals":10952,"ĠTax":10953,"Ġsuspic":10954,"ĠPriv":10955,"Ġrecently,":10956,"Ġhead.":10957,"Ġdrama":10958,"Ġdocumentary":10959,"Ġcam":10960,"Ġinterior":10961,"eah":10962,"Ġweren't":10963,"Ġburst":10964,"-scale":10965,"ĠJen":10966,"rah":10967,"alling":10968,"igation":10969,"Ġdrunk":10970,"Ġremarkable":10971,"oving":10972,"Ġartificial":10973,"ler,":10974,"Ġsearching":10975,"Ġvideo,":10976,"Ġlesson":10977,"ĠSometimes":10978,"ĠMit":10979,"Ġhopefully":10980,"utter":10981,"Ġfor,":10982,"Ġrend":10983,"Ġpsychological":10984,"Ġfirst.":10985,"Ġassessment":10986,"Ġover,":10987,"pled":10988,"har":10989,"9]":10990,"es,\"":10991,"aska":10992,"Ġdiam":10993,"Ġindependence":10994,"Ġwebsite,":10995,"Ġchann":10996,"Ġcampaigns":10997,"ĠDer":10998,"ĠKnow":10999,"Ġpassword":11000,"Ġsoon.":11001,"Ġstimul":11002,"Ġsorts":11003,"Ġsummer,":11004,"Ġhappened.":11005,"PP":11006,"ches.":11007,"ers'":11008,"arity":11009,"Ġodds":11010,"R.":11011,"Ġgenre":11012,"ba":11013,"Ġgirlfriend":11014,"Ġ12.":11015,"Ġsli":11016,"Ġthink,":11017,"ators,":11018,"Ġ\"They":11019,"Ġasyl":11020,"ĠRoberts":11021,"id,":11022,"Ġforward.":11023,"ĠNintendo":11024,"ĠWarri":11025,"Ġold,":11026,"ĠIron":11027,"An":11028,"core":11029,"Ġgrounds":11030,"Ġconclus":11031,"ĠVenezuel":11032,"umes":11033,"ĠAlexander":11034,"Ġresolve":11035,"Ġdominant":11036,"ems":11037,"Ġloves":11038,"face":11039,"ĠteamâĢĻs":11040,"king":11041,"Ġwealthy":11042,"Ġquote":11043,"ĠHal":11044,"agger":11045,"ĊĊCan":11046,"ke,":11047,"Ġlanding":11048,"Ġposting":11049,"ĠDog":11050,"Ġhelpful":11051,"Ġintercept":11052,"ĠMeanwhile,":11053,"Ġstatement,":11054,"Ġtons":11055,"Ġhand.":11056,"''":11057,"Ġwages":11058,"How":11059,"ĠReserve":11060,"Ġpresident.":11061,"reck":11062,"ĠOrle":11063,"Ġowns":11064,"Ġsuccess.":11065,"ĠJenn":11066,"Ġpodcast":11067,"Ġnurs":11068,"istol":11069,"bow":11070,"Ġcreature":11071,"land.":11072,"Ġcance":11073,"ĠEff":11074,"ĠSa":11075,"ĠPrice":11076,"ĠMountain":11077,"unes":11078,"ĠHeart":11079,"Ġorganic":11080,"ĠTransport":11081,"Ġveterans":11082,"Ġmirror":11083,"Ġsymptoms":11084,"Ġtechnology,":11085,"Ġdid,":11086,"Ġcriter":11087,"ĠDal":11088,"Ġ(not":11089,"Ġreader":11090,"6%":11091,"Ġleast,":11092,"Ġillness":11093,"Ġobjective":11094,"ĠMissouri":11095,"mate":11096,"Ġsee,":11097,"riving":11098,"ĠHamp":11099,"Ġconver":11100,"Ġphrase":11101,"Ġwho,":11102,"Ġcompound":11103,"Ġfiction":11104,"ĠLeag":11105,"Ġfled":11106,"ĠBurn":11107,"Ġ(K":11108,"Ġcompany's":11109,"Ġstack":11110,"Ġnose":11111,"ĠTrust":11112,"Ġutter":11113,"aka":11114,"Ġspace,":11115,"Ġuse,":11116,"Ġoffices":11117,"ĠStaff":11118,"ties":11119,"incol":11120,"appropri":11121,"ĠLondon,":11122,"Ġtempl":11123,"Ġstamp":11124,"Ġdates":11125,"Ġwalls":11126,"Ġhunt":11127,"Ġdeclar":11128,"Ġelectoral":11129,"Ġswit":11130,"Ġsmartphone":11131,"Ġgest":11132,"Ġquestion,":11133,"Ġmen.":11134,"Ġjumped":11135,"Ġsne":11136,"asters":11137,"oca":11138,"ard.":11139,"-third":11140,"Ġbankrupt":11141,"Ġcompanies,":11142,"Ġmile":11143,"ml":11144,"Ġresort":11145,"ĠDenver":11146,"Ġburden":11147,"ĠCoal":11148,"Ġperson.":11149,"Ġunderground":11150,"ĊĊâĢľThey":11151,"Ġuncon":11152,"Ġoccasional":11153,"Ġcler":11154,"Ġjihad":11155,"ĠGiven":11156,"Ġstatist":11157,"annon":11158,"oop":11159,"ĠPittsburgh":11160,"Ġprincipal":11161,"Ġopposing":11162,"acu":11163,"ĠLim":11164,"ĠGO":11165,"ela":11166,"ĠBol":11167,"hes.":11168,"owered":11169,"ĠJean":11170,"ig.":11171,"ĠCustom":11172,"Ġtwist":11173,"ier.":11174,"change":11175,"ĠP.":11176,"Ġmaintaining":11177,"Ġaims":11178,"ĠEconomic":11179,"owing":11180,"Ġ21st":11181,"ĠAct,":11182,"ĊĊ\"You":11183,"Ġsalt":11184,"ĠAustin":11185,"isa":11186,"Ġnews,":11187,"thood":11188,"Ġcar,":11189,"lining":11190,"elson":11191,"Ġperson,":11192,"ĠFeder":11193,"ĠBM":11194,"Ġface.":11195,"/s":11196,"ĠEver":11197,"Ġhours,":11198,"ĠVegas":11199,"ĠMail":11200,"Ġprofits":11201,"Ġbut,":11202,"se,":11203,"Ġinflation":11204,"Ġbetter,":11205,"rowing":11206,"Ã±":11207,"ĠâĢľl":11208,"ĠImm":11209,"Ġminutes,":11210,"Ġrecept":11211,"Ġchronic":11212,"ĠAge":11213,"Ġshipping":11214,"ĠRic":11215,"/201":11216,"Ġcar.":11217,"Ġpopularity":11218,"ĠEb":11219,"ĊĊâĢľIn":11220,"Ġ19th":11221,"Ġcontrast,":11222,"ĠIntel":11223,"Ġsame.":11224,"-sp":11225,"ĠLeban":11226,"starter":11227,"ĠCode":11228,"Ġrecon":11229,"Ġpapers":11230,"Ġperiod,":11231,"Ġbeauty":11232,"Ġeconomy,":11233,"aved":11234,"Ġrefuse":11235,"Ġrights.":11236,"Ġannoy":11237,"Ġnotable":11238,"Ġloans":11239,"ĠFact":11240,"ental":11241,"Ġadequ":11242,"ally.":11243,"Ġflour":11244,"ĠPentagon":11245,"Ġinteraction":11246,"Ġjunior":11247,"ĠToday,":11248,"Ġpolice,":11249,"ĠMichel":11250,"ĠVe":11251,"ria":11252,"ĠOcc":11253,"Ġ2009.":11254,"ĠArgent":11255,"arks":11256,"ĊĊOr":11257,"Ġgathering":11258,"ĠLear":11259,"ĠThen,":11260,"Ġjer":11261,"ĠFant":11262,"Ġthemselves,":11263,"Ġdone,":11264,"ĠBarn":11265,"ĠWord":11266,"ĠHamilton":11267,"ĪĴ":11268,"ĠAfghanist":11269,"ĊĊ\"They":11270,"Ġroads":11271,"ixture":11272,"Ġintellig":11273,"Ġfel":11274,"Ġunprecedented":11275,"ĠMs":11276,"Ġbiological":11277,"ĠUkrainian":11278,"ĠCould":11279,"Ġrepeal":11280,"Ġmock":11281,"ĠZe":11282,"Ġattack,":11283,"Ġgo,":11284,"ĊĊInt":11285,"Ġ54":11286,"Ġimpression":11287,"Ġcivilians":11288,"/C":11289,"Ġcarries":11290,"Ġshort,":11291,"AV":11292,"ped":11293,"Ġhanging":11294,"Ġ2008.":11295,"ĠManhatt":11296,"abet":11297,"ĠHad":11298,"ĠUnfortunately,":11299,"abs":11300,"-party":11301,"d.":11302,"ĊĊâĢľN":11303,"Ġexclud":11304,"Ġexpense":11305,"ĠJoin":11306,"Ġinches":11307,"ĠBC":11308,"Ġathe":11309,"Ġsurrounded":11310,"Ġmusic,":11311,"Ġbutt":11312,"ĠDur":11313,"Ġdrives":11314,"ĠHouse,":11315,"Ġdescribing":11316,"ateful":11317,"afe":11318,"Ġseized":11319,"ĠâĢľAnd":11320,"ĠOx":11321,"B,":11322,"ĠShort":11323,"ĊĊStill,":11324,"TER":11325,"Ġremoving":11326,"type":11327,"Ġsheet":11328,"Ġturb":11329,"Ġlike.":11330,"Ġclosest":11331,"Ġmaps":11332,"Ġrefugee":11333,"Ġtalented":11334,"Ġacquis":11335,"Ġgroups.":11336,"ĠWeâĢĻve":11337,"Ġslot":11338,"Ġbrothers":11339,"phones":11340,"Ġintr":11341,"Ġamendment":11342,"Ġrolling":11343,"Ġdecision.":11344,"74":11345,"Ġ\"But":11346,"Ġconsole":11347,"Ġdemanded":11348,"Ġheadquarters":11349,"Ġexecutives":11350,"ĠVlad":11351,"-201":11352,"Ġargues":11353,"Ġconsensus":11354,"Ġsavings":11355,"Ġprog":11356,"ĠSN":11357,"Ġinherent":11358,"Ġlabour":11359,"Ġresponses":11360,"rets":11361,"ĠBi":11362,"ĠDragon":11363,"Ġtremendous":11364,"Ġ(6":11365,"Ġsubjects":11366,"ĠIndia,":11367,"ĠTechnology":11368,"ĠSunday.":11369,"Ġendors":11370,"Ġkicked":11371,"ĠLam":11372,"Ġlanded":11373,"ĠBrexit":11374,"ĠIndones":11375,"ĠAlan":11376,"ĠAug.":11377,"ĠPant":11378,"Ġsexually":11379,"ĠColumbia":11380,"Ġorient":11381,"Ġvoices":11382,"Ġda":11383,"ĠhadnâĢĻt":11384,"ref":11385,"Ġfatal":11386,"ĠFollowing":11387,"ĠGaza":11388,"Ġreason,":11389,"ioned":11390,"ĠFeb.":11391,"Ġanything,":11392,"Ġ2.0":11393,"oned":11394,"Ġcontemporary":11395,"ĊĊSpeaking":11396,"erves":11397,"'.":11398,"ĠKu":11399,"oft":11400,"Ġhouse.":11401,"ĊĊSe":11402,"ĠRaj":11403,"Ġplan,":11404,"ĠUS,":11405,"ATCH":11406,"Ġinbox":11407,"Ġsophistic":11408,"Ġattitud":11409,"Ġstro":11410,"Ġretirement":11411,"-back":11412,"ĊĊThereâĢĻs":11413,"Ġpleased":11414,"Ġinnovation":11415,"atar":11416,"ailed":11417,"early":11418,"Ġencouraging":11419,"Ġdifficulty":11420,"s\"":11421,"Ġnonpro":11422,"Ġnew,":11423,"immer":11424,"Ġinterviewed":11425,"Ġfriends.":11426,"ocial":11427,"Ġ~":11428,"Ġknee":11429,"Ġcalm":11430,"Ġdish":11431,"ophob":11432,"ĠMassachusetts":11433,"Ġshoulder":11434,"income":11435,"iler":11436,"ĠCraig":11437,"power":11438,"hand":11439,"********":11440,"Ġhouse,":11441,"acco":11442,"ĠEve":11443,"ĠYes":11444,"Ġgrave":11445,"ĠWright":11446,"imir":11447,"onduct":11448,"ĠGermany,":11449,"Ġpir":11450,"Ġcompr":11451,"inite":11452,"i.e.":11453,"ellow":11454,"maker":11455,"Just":11456,"Ġmoment.":11457,"Ġ(including":11458,"iano":11459,"ĠMarine":11460,"Ġpocket":11461,"Ġvert":11462,"ĠF.":11463,"Ġdecades,":11464,"Ġplan.":11465,"Ġexpects":11466,"ĠIII":11467,"Ġteeth":11468,"ĠThink":11469,"Ġgri":11470,"Ġcooperation":11471,"ĠAccess":11472,"Ġorbit":11473,"Ġ11.":11474,"inations":11475,"TON":11476,"ĠProtection":11477,"Ġwin.":11478,"Ġstrengthen":11479,"ĠUb":11480,"ĠoneâĢĻs":11481,"Ġdeemed":11482,"Ġnowhere":11483,"NA":11484,"ology.":11485,"ĠEntertain":11486,"ĠCro":11487,"ĠTherefore":11488,"uits":11489,"ernand":11490,"Ġprofound":11491,"Ġcinem":11492,"Ġaccum":11493,"Ġtestimony":11494,"Ġrobust":11495,"Ġusage":11496,"Ġphotographer":11497,"way.":11498,"ĠIM":11499,"oub":11500,"ĠDak":11501,"ĠCaptain":11502,"aeda":11503,"Ġal.":11504,"Ġbureauc":11505,"ĠMap":11506,"Ġcoup":11507,"Ġdevelopment,":11508,"ĠSingapore":11509,"Ġfigured":11510,"iar":11511,"ĠWalker":11512,"Ġcolors":11513,"Ġ\"g":11514,"ricane":11515,"ĠLog":11516,"ĠBul":11517,"ĊĊYet":11518,"ator.":11519,"Ġdual":11520,"Ġthro":11521,"Ġjustify":11522,"ĠFestival":11523,"Ġfer":11524,"What":11525,"Ġ85":11526,"Ġbill,":11527,"Ġdefeated":11528,"Ġenact":11529,"Ġage,":11530,"ĊĊ201":11531,"Ġconcerning":11532,"Ġeditorial":11533,"ĠChicag":11534,"ĠFive":11535,"ĠHaving":11536,"Ġdeployed":11537,"Ġtraveling":11538,"earing":11539,"via":11540,"Ġpicks":11541,"ĠMun":11542,"Ġgif":11543,"Ġsubmit":11544,"Ġmother,":11545,"Ġracing":11546,"Ġprosecution":11547,"Ġparticipation":11548,"Ġdominated":11549,"ission.":11550,"amous":11551,"Ġbars":11552,"ĠIllinois":11553,"Ġhave.":11554,"Ġgeneral,":11555,"ĠDuke":11556,"Ġarc":11557,"Ġ191":11558,"Station":11559,"ois":11560,"Ġaddict":11561,"Ġevident":11562,"Ġimplications":11563,"ĠChina.":11564,"Ġintimid":11565,"####":11566,"lihood":11567,"Ġfolk":11568,"There":11569,"Ġcentury.":11570,"ĠOsc":11571,"Ġco-found":11572,"Ġproducers":11573,"Ġcommunicate":11574,"Ġbarg":11575,"ĠTel":11576,"Ġtransparen":11577,"ĠMedicaid":11578,"Ġsmoking":11579,"ĠCaption":11580,"ĊĊStory":11581,"jo":11582,"ĊĊCons":11583,"Ġattracted":11584,"Ġrefers":11585,"Ġways.":11586,"Ġimposed":11587,"Ġmoderate":11588,"Ġlaptop":11589,"Ġappl":11590,"Ġstages":11591,"Ġ(n":11592,"ingham":11593,"ĠBatman":11594,"ighth":11595,"uters)":11596,"77":11597,"Ġ(al":11598,"ĠHand":11599,"ability.":11600,"Ġ(âĢľ":11601,"Ġcareer,":11602,"irts":11603,"ĠBridge":11604,"ĠPers":11605,"Ġparticular,":11606,"ĠTwitter.":11607,"ivals":11608,"secutive":11609,"Ġinaug":11610,"Ġratings":11611,"Ġsupplies":11612,"ĠChannel":11613,"Ġ52":11614,"Ġ2006,":11615,"Ġwaters":11616,"Ġbeliefs":11617,"Ġrace.":11618,"/d":11619,"Ġchoosing":11620,"Ġease":11621,"Ġreleasing":11622,"Ġ2019":11623,"Ġoccasionally":11624,"ating.":11625,"ĠMurray":11626,"NBC":11627,"istant":11628,"through":11629,"Ġsentiment":11630,"math":11631,"Ġcourse.":11632,"ĠChinaâĢĻs":11633,"grade":11634,"eep":11635,"Ġ00":11636,"bod":11637,"Ġric":11638,"Ġoutdo":11639,"ĠEveryone":11640,"ĠGard":11641,"ĠJeremy":11642,"ATE":11643,"ĠEdit":11644,"ĠStewart":11645,"ĠUSB":11646,"ĠGriff":11647,"ichael":11648,"mble":11649,"com.":11650,"ĠCurrent":11651,"Ġrecovered":11652,"ization,":11653,"wich":11654,"Ġmuscle":11655,"Ġbiz":11656,"Ġblamed":11657,"-12":11658,"Ġstudents,":11659,"ĠDu":11660,"Ġpipeline":11661,"ĠSU":11662,"ĠNether":11663,"Ġdisplayed":11664,"-19":11665,"Ġpublish":11666,"assy":11667,"ĠPortug":11668,"Ġattending":11669,"Ġappearances":11670,"Ġbust":11671,"Ġcourtesy":11672,"Ġscared":11673,"Ġcircuit":11674,"ĊĊWill":11675,"ĠLincol":11676,"ĠEC":11677,"TP":11678,"Ġ(Re":11679,"ition.":11680,"Ġfert":11681,"ĠBeijing":11682,"Ġidea.":11683,"ĠLes":11684,"Ġembrace":11685,"Ġefficiency":11686,"Ġtasks":11687,"Ġrights,":11688,"Ġabstract":11689,"ira":11690,"ĠBenn":11691,"Ġsequence":11692,"Ġprovinc":11693,"Ġancest":11694,"ĠOklahoma":11695,"Ġenvironment.":11696,"Ġbias":11697,"Ġunnecess":11698,"ĠMississ":11699,"Ġdesperate":11700,"ĠStock":11701,"ĠCarter":11702,"ĠObs":11703,"ues,":11704,"riminal":11705,"ixel":11706,"ĠHan":11707,"mith":11708,"ĠRest":11709,"Ġreass":11710,"Ġscar":11711,"ĠFuture":11712,"itable":11713,"Ġdefended":11714,"Ġplayer,":11715,"ĠCPU":11716,"Ġovercome":11717,"Ġjet":11718,"Ġdamaged":11719,"-com":11720,"Ġgro":11721,"Ġconvict":11722,"Ġson,":11723,"erving":11724,"lly":11725,"ĠObama's":11726,"Ġeducation,":11727,"Ġrequirement":11728,"Ġbrid":11729,"Ġprovid":11730,"Ġanything.":11731,"Ġdropping":11732,"Ġ_":11733,"ĠAssembly":11734,"Ġanalysts":11735,"Ġtheft":11736,"ĠHampshire":11737,"Ġshouldn't":11738,"ĠDomin":11739,"ĠNS":11740,"Ġclass.":11741,"Ġearthqu":11742,"Ġlanguages":11743,"Ġfunctionality":11744,"Ġforgotten":11745,"ĠMove":11746,"security":11747,"Ġpassage":11748,"hero":11749,"Ġhumanity":11750,"Ġdesp":11751,"ĠAren":11752,"Ġrestore":11753,"ika":11754,"Ġwhist":11755,"O.":11756,"ĠPap":11757,"Ġmigrants":11758,"Ġsupport,":11759,"ĠAntonio":11760,"Ġanonymous":11761,"Ġdispute":11762,"Ġleaked":11763,"Ġtransactions":11764,"opt":11765,"Ġ31,":11766,"Ġhimself,":11767,"ĠAlp":11768,"Ġtechnology.":11769,"eps":11770,"Ġcigare":11771,"ized.":11772,"ĠRussell":11773,"ĠWould":11774,"Ġ2.5":11775,"88":11776,"Ġmodified":11777,"ĠCase":11778,"Ġshame":11779,"ently,":11780,"Ð»":11781,"Ġpacked":11782,"Ġsettings":11783,"Ġpatri":11784,"Ġcourt.":11785,"Ġharsh":11786,"pen":11787,"Ġaffairs":11788,"Ġdecades.":11789,"Ġremoval":11790,"5)":11791,"Ġuncomfort":11792,"Ġuniversities":11793,"uther":11794,"ĠGill":11795,"Ġmuch,":11796,"ĠChristopher":11797,"ĠBlock":11798,"Ġinvestigation.":11799,"-tr":11800,"ĠAndy":11801,"terror":11802,"il,":11803,"ikh":11804,"ĠForest":11805,"ĊĊArt":11806,"Ġ(V":11807,"peed":11808,"Ġprogramme":11809,"Ġoxy":11810,"agers":11811,"Ġcare.":11812,"Ġexclusively":11813,"ĠSor":11814,"-ed":11815,"ching":11816,"Ġalone,":11817,"ĠShould":11818,"Ġarticle,":11819,"ĠEgyptian":11820,"Ġengaging":11821,"Ġdonations":11822,"eters":11823,"Ġconsecutive":11824,"ĠCounty,":11825,"ĠManagement":11826,"Ġpremie":11827,"Ġreleases":11828,"ergus":11829,"Ġthreaten":11830,"Ġfar.":11831,"vas":11832,"ĠGib":11833,"Ġdeal,":11834,"wart":11835,"acre":11836,"Ġadvocate":11837,"Ġjuris":11838,"ĠFA":11839,"ĠChelsea":11840,"ĠBarb":11841,"ĠHung":11842,"Ġsummer.":11843,"ĠRs":11844,"Ġlaunching":11845,"ĠTs":11846,"Ġhave,":11847,"ĊĊLetâĢĻs":11848,"ĠSteel":11849,"iture":11850,"Ġlegs":11851,"ĠAaron":11852,"ĠHIV":11853,"aying":11854,"ĠBor":11855,"ĠSupport":11856,"mir":11857,"Ġdestro":11858,"Ġpersons":11859,"idem":11860,"laim":11861,"Ġ53":11862,"Ġraises":11863,"aria":11864,"Ġclothes":11865,"Ġvoid":11866,"Ġcollaboration":11867,"oming":11868,"ĠNo,":11869,"ĠOpp":11870,"player":11871,"Ġ(i.e.":11872,"Ġkeys":11873,"Ġkeen":11874,"w.":11875,"ĠCompan":11876,"Ġasylum":11877,"ĠObamacare":11878,"FF":11879,"Ġsorry":11880,"Ġ!":11881,"Ġhiring":11882,"ĠSimon":11883,"Ġsubsequently":11884,"Ġraces":11885,"Ġalgorithm":11886,"ublished":11887,"Ġcognitive":11888,"ĠCult":11889,"Ġtheater":11890,"ĊĊHer":11891,"ĠFrance,":11892,"Ġgolf":11893,"ĊĊ6.":11894,"ĠSydney":11895,"Ġconsiderable":11896,"ana,":11897,"Ġreluct":11898,"ĠCole":11899,"omic":11900,"Ġbottle":11901,"ashes":11902,"ĠMand":11903,"Ġcity's":11904,"asty":11905,"ĠAFP":11906,"Ġbody,":11907,"Ġown,":11908,"Ġspots":11909,"ĠPortland":11910,"Ġinnovative":11911,"Ġdying":11912,"ĠGro":11913,"Ġharassment":11914,"Ġcosm":11915,"embers":11916,"ĠCR":11917,"Ġ1/":11918,"Ġpension":11919,"Ġinstructions":11920,"Ġreck":11921,"Ġchecking":11922,"Ġrelation":11923,"Ġbol":11924,"Ġconsol":11925,"Ġscrew":11926,"Ġcharging":11927,"Trump":11928,"ĠIndiana":11929,"Ġbrutal":11930,"Ġlongtime":11931,"Ġcompos":11932,"Ġignor":11933,"Ġresearch,":11934,"Ġrenewable":11935,"ĠContinue":11936,"Ġcode.":11937,"ĠAbd":11938,"Ġpropaganda":11939,"LY":11940,"oded":11941,"iper":11942,"ĠStanford":11943,"ĠCB":11944,"ones.":11945,"Ġevacu":11946,"-k":11947,"âĢĻs,":11948,"Ġof.":11949,"Ġexamine":11950,"Ġinvestigations":11951,"Ġsolely":11952,"Ġyou?":11953,"Ġ(1)":11954,"Ġmeal":11955,"Ġareas.":11956,"66":11957,"ĠToky":11958,"Ġfrequency":11959,"Ġambit":11960,"Ġwaves":11961,"ennial":11962,"Ġresidential":11963,"hether":11964,"Ġoverl":11965,"Ġtransferred":11966,"father":11967,"ĠFacebook,":11968,"Ġchamber":11969,"ĠMay,":11970,"O,":11971,"olar":11972,"Ġindu":11973,"am.":11974,"ĠFrancis":11975,"Ġshowc":11976,"mony":11977,"child":11978,"Ġplayer.":11979,"Ġtactics":11980,"pton":11981,"ĠChairman":11982,"Ġcenters":11983,"ĠDoctor":11984,"ĠArsenal":11985,"ie.":11986,"ĠWy":11987,"Ġflee":11988,"Ġinfluential":11989,"cont":11990,"anim":11991,"elve":11992,"B.":11993,"Ġrounds":11994,"Ġathletes":11995,"Ġregret":11996,"reshold":11997,"ĠDrug":11998,"ĠPH":11999,"Ġsystems.":12000,"Ġpost,":12001,"ĠPel":12002,"rend":12003,"âĢĻâĢĿ":12004,"Ġtiming":12005,"ĠFO":12006,"Ġbadly":12007,"iley":12008,"Ġinher":12009,"mat":12010,"Ġblocking":12011,"ĠKurdish":12012,"rif":12013,"Ġathletic":12014,"Ġgraphics":12015,"Ġv.":12016,"lla":12017,"u.":12018,"Ġpose":12019,"Ġorder.":12020,"Ġgate":12021,"ĠVen":12022,"ĠKnight":12023,"ĠHug":12024,"Ġvolunt":12025,"Ġabsurd":12026,"ization.":12027,"Ġmodest":12028,"lee":12029,"Ġpurpos":12030,"ĊĊ\"N":12031,"ĠPoll":12032,"Ġdies":12033,"Ġexcuse":12034,"Ġinex":12035,"ĠSummer":12036,"Ġimportantly,":12037,"Ġview,":12038,"ĠArabia":12039,"Ġ250":12040,"Ġintrig":12041,"Ġhe'd":12042,"QL":12043,"Ġmisc":12044,"ĠGab":12045,"ĠDon't":12046,"Ġgovernment's":12047,"Ġunre":12048,"Ġaccord":12049,"ĊĊâĢľM":12050,"Ġ).":12051,"ĠUnlike":12052,"Ar":12053,"ums":12054,"yc":12055,"Ġsuspects":12056,"Ġaddresses":12057,"ĠTwitter,":12058,"ĠBan":12059,"Ġ#1":12060,"Ġrealistic":12061,"Ġkidn":12062,"attered":12063,"thodox":12064,"Ġmembers,":12065,"yer":12066,"isons":12067,"Ġattractive":12068,"Ġventure":12069,"Ġengin":12070,"Ġpresents":12071,"Ã§":12072,"ĠManning":12073,"ĠMother":12074,"***":12075,"M.":12076,"EMENT":12077,"EE":12078,"Ġevents,":12079,"ĠMarg":12080,"ating,":12081,"When":12082,"ĠCold":12083,"Ġsimilarly":12084,"-man":12085,"Ġbother":12086,"-qu":12087,"Ġoffseason":12088,"ĠNi":12089,"ĠPalestinians":12090,"Ġconsent":12091,"Ġdimin":12092,"Ġstance":12093,"occ":12094,"Ġjobs.":12095,"Ġ(Photo:":12096,"Ġeru":12097,"Ġcheaper":12098,"Ġenfor":12099,"Ġpreserve":12100,"Ġinsert":12101,"Ġbump":12102,"leep":12103,"ĠhereâĢĻs":12104,"lem":12105,"Ġfinishing":12106,"ĠUnivers":12107,"Ġidentical":12108,"Ġunions":12109,"Ġoutlet":12110,"Ġpurposes":12111,"ĠGrant":12112,"ĠModel":12113,"AND":12114,"Ġtables":12115,"olitical":12116,"Ġmemories":12117,"ĠPlayStation":12118,"Ġminimal":12119,"Ġintegrated":12120,"Ġprinted":12121,"ĠMalays":12122,"Ġ51":12123,"Ġchoice.":12124,"ocated":12125,"ichol":12126,"Ġaccepting":12127,"ĠWinter":12128,"Ġproduces":12129,"ĠPennsylvania":12130,"Ġhypothes":12131,"Ġdivid":12132,"Ġcalend":12133,"ĊĊs":12134,"Ġgut":12135,"Ġvit":12136,"Ġevents.":12137,"Ġsustainable":12138,"Ġfacult":12139,"ĠAffairs":12140,"Ġburied":12141,"ish,":12142,"apes":12143,"ĠTreasury":12144,"Ġmanagers":12145,"ĠNik":12146,"ĊĊâĢľP":12147,"ĠPsych":12148,"Ġwondering":12149,"ick,":12150,"Ġbicy":12151,"thur":12152,"Ġweekend,":12153,"ĠHoly":12154,"agine":12155,"awks":12156,"Ġsmall,":12157,"Ġstops":12158,"Ġinstruction":12159,"Ġfield,":12160,"ĠFilm":12161,"Ġcharity":12162,"ĊĊRef":12163,"Ġbutter":12164,"Ġplatforms":12165,"Hz":12166,"agu":12167,"Ġvalue.":12168,"Ġinvested":12169,"Ġprisoners":12170,"Ġhttp://":12171,"umph":12172,"ĠJerry":12173,"ĊĊInstead":12174,"S:":12175,"out.":12176,"Ġsteady":12177,"izza":12178,"ĠThus,":12179,"angle":12180,"Ġmini":12181,"Ġshocked":12182,"ĠLi":12183,"Ġbarri":12184,"Ġretain":12185,"ĠPlayer":12186,"ĊĊSim":12187,"Ġexpecting":12188,"ans,":12189,"Ġproblems,":12190,"Ġmart":12191,"bi":12192,"Ġmedicine":12193,"Ġ50%":12194,"Ġabout,":12195,"avy":12196,"ĠweâĢĻd":12197,"ĠNiger":12198,"Ġ100,000":12199,"Ġwoman,":12200,"Ġiconic":12201,"avor":12202,"ĠMcCon":12203,"Ġcommander":12204,"Ġdialogue":12205,"Ġaction,":12206,"Ġstating":12207,"Ġrolled":12208,"Ġalign":12209,"Ġbip":12210,"Ġseeks":12211,"Ġepic":12212,"Ġ$15":12213,"Ġcleared":12214,"Ġgrade":12215,"Ġsubstance":12216,"tes":12217,"Ġ(199":12218,"ĠMario":12219,"Ġdecor":12220,"Ġscene.":12221,"-gener":12222,"Ġinvestments":12223,"olitan":12224,"Ġnu":12225,"Â°":12226,"ĠiPad":12227,"ĊĊStep":12228,"ollar":12229,"Ġbulk":12230,"Ġisolated":12231,"Ġmonu":12232,"Ġlessons":12233,"Ġlist,":12234,"ĠLad":12235,"Ġpreventing":12236,"ĠNash":12237,"Ġspray":12238,"Ġgene":12239,"Ġmovement.":12240,"Ġtweets":12241,"Ġtoug":12242,"Ġdefender":12243,"ĠâĢľn":12244,"ĠMcDonald":12245,"Ġfunctional":12246,"Ġrun.":12247,"Ġsense,":12248,"Ġnomination":12249,"eren":12250,"ĠThompson":12251,"ĠCas":12252,"ĠMadrid":12253,"ĠClimate":12254,"Ġsurge":12255,"Ġovernight":12256,"Ġug":12257,"kee":12258,"Ġtent":12259,"ues.":12260,"ĠChampions":12261,"hers":12262,"Ġquit":12263,"ĊĊTe":12264,"Ġwireless":12265,"embered":12266,"Ġantib":12267,"Ġsignals":12268,"Ġworks.":12269,"Ġperformance.":12270,"Ġexample.":12271,"Ġcircle":12272,"cribed":12273,"Ġforever":12274,"Ġdependent":12275,"ĠOcean":12276,"Ġhosp":12277,"bling":12278,"Ġdepict":12279,"K,":12280,"Ġengineers":12281,"ĠBand":12282,"ĠFinancial":12283,"Ġspectac":12284,"Ġcours":12285,"Ġpeaceful":12286,"Ġprojected":12287,"ĠUnit":12288,"s://":12289,"Ġviolence.":12290,"Ġinfo":12291,"Ġbattles":12292,"rying":12293,"Ġracism":12294,"ability,":12295,"Ġadviser":12296,"Ġit,\"":12297,"ĠKickstarter":12298,"Ġdesigns":12299,"Ġanother,":12300,"ĠSaint":12301,"ĠDrive":12302,"ĠOakland":12303,"Ġperception":12304,"ame.":12305,"Ġelabor":12306,"Ġpolar":12307,"Ġwounded":12308,"ĠSpir":12309,"ĊĊWhere":12310,"Ġstrategies":12311,"Ġbeneath":12312,"rates":12313,"Ġsupposedly":12314,"ĠAbu":12315,"Ġonline.":12316,"iox":12317,"Ġought":12318,"Ġsystems,":12319,"ake,":12320,"ĠTro":12321,"Ġgameplay":12322,"ives.":12323,"ale,":12324,"ĠReagan":12325,"Ġfishing":12326,"Ġtorture":12327,"ĊĊEarlier":12328,"Ġsolo":12329,"Ġfilm.":12330,"Ġrhetoric":12331,"asm":12332,"ĠET":12333,"Ġpassenger":12334,"ĠBerke":12335,"Ġcorrel":12336,"urse":12337,"Ġranging":12338,"-or":12339,"Ġaffects":12340,"ĠMult":12341,"ito":12342,"ĊĊâĢľIâĢĻm":12343,"Ġguilt":12344,"Ġ$500":12345,"Ġways,":12346,"Ġoverseas":12347,"Ġpossibilities":12348,"Ġrebels":12349,"aga":12350,"Ġadvertisement":12351,"ĠNon":12352,"ĠCav":12353,"ancer":12354,"ĠCommer":12355,"ĠPA":12356,"Every":12357,"pat":12358,"Ġpresentation":12359,"ocurren":12360,"Ġclassroom":12361,"Ġpredec":12362,"Ġreflects":12363,"Ġresemb":12364,"Ġpolitics.":12365,"ĠU.S.,":12366,"key,":12367,"Ġ13.":12368,"Ġinfluenced":12369,"ĠCON":12370,"Ġbook.":12371,"Ġrevol":12372,"Ġloaded":12373,"Ġspotted":12374,"ĠMagaz":12375,"-inch":12376,"Ġmanual":12377,"Ġprize":12378,"Ġages":12379,"mes":12380,"Ġsilence":12381,"ĠJimmy":12382,"ilst":12383,"Ġguidelines":12384,"ĠFlash":12385,"Ġbriefly":12386,"Ġanch":12387,"Ġimprison":12388,"Ġsecular":12389,"ĠTower":12390,"estion":12391,"uter":12392,"section":12393,"Ġfract":12394,"ĠType":12395,"ĠCitiz":12396,"ĠPage":12397,"Ġwarn":12398,"ĠMarx":12399,"Ġphenomenon":12400,"Ġformation":12401,"Ġtorn":12402,"-life":12403,"Ġqualified":12404,"Ġautomatic":12405,"Ġcrisis.":12406,"ĠNothing":12407,"ĠMcM":12408,"ĊĊPart":12409,"ĠEmer":12410,"ĠPope":12411,"ĠNazi":12412,"ĠheâĢĻll":12413,"Ġmak":12414,"Ġmatter,":12415,"Ġchallenged":12416,"enâĢĻs":12417,"Ġmanufacturer":12418,"Ġsubscript":12419,"udeau":12420,"Ġtablet":12421,"Ġreally,":12422,"Ġbreath":12423,"Ġconvenient":12424,"ĠNews.":12425,"Ġtransf":12426,"TIS":12427,"ĠRonald":12428,"Ġunlock":12429,"Ġhosting":12430,"Ġarchitecture":12431,"ĠBeing":12432,"Ġimmune":12433,"oyd":12434,"Ġbeef":12435,"viously":12436,"ila":12437,"Ġjobs,":12438,"ĠSaturday.":12439,"ĠThings":12440,"Ġconsideration":12441,"Ġweakness":12442,"ĠCA":12443,"i-f":12444,"Ġpromoted":12445,"Ġright-wing":12446,"Ġcaution":12447,"ĠOfficer":12448,"ĠYah":12449,"ĊĊ.":12450,"Ġelectron":12451,"ĠCloud":12452,"atives,":12453,"ĠWarner":12454,"Ġaccompanied":12455,"inâĢĻs":12456,"ĠHouse.":12457,"Ġcontent.":12458,"Ġclass,":12459,"ĠLev":12460,"ĠAirport":12461,"Ġcabinet":12462,"ĠSeveral":12463,"Ġwell-known":12464,"ĠEV":12465,"lash":12466,"Ex":12467,"ĊĊAdvertisements":12468,"inge":12469,"Ġreforms":12470,"ormal":12471,"ley.":12472,"ĠPhoto:":12473,"Ġfed":12474,"ĠJacob":12475,"dy":12476,"ĠHans":12477,"Ġmistakes":12478,"App":12479,"Ġdesign,":12480,"ĠPear":12481,"))":12482,"Ġconsists":12483,"ĠMississipp":12484,"ĠHuff":12485,"ĠDa":12486,"Ġ\"In":12487,"ĠTotal":12488,"Ġadj":12489,"ĠOil":12490,"ĠClinton,":12491,"Ġones.":12492,"Ġoldest":12493,"Ġpolling":12494,"ĠTam":12495,"ĠYouâĢĻre":12496,"Ġhes":12497,"eting":12498,"-led":12499,"Ġ2,000":12500,"Ġproportion":12501,"ĠRuby":12502,"ĠState,":12503,"Ġpraised":12504,"ĠSoft":12505,"ĠPod":12506,"Ġfits":12507,"ĠComb":12508,"Ġoperated":12509,"ĠCenter,":12510,"cons":12511,"pecific":12512,"ĠJanuary,":12513,"Ġmouse":12514,"ibl":12515,"Ġsections":12516,"ĠMarch,":12517,"Ġsummit":12518,"ĠFOR":12519,"Ġdemonstration":12520,"about":12521,"DR":12522,"ppers":12523,"shore":12524,"Ġpour":12525,"ĠMaryland":12526,"Ġcontrol,":12527,"alysis":12528,"ission,":12529,"Ġdescript":12530,"Ġexplicitly":12531,"ified.":12532,"Ġ600":12533,"icked":12534,"Ġservers":12535,"kward":12536,"instein":12537,"Ġelse,":12538,"ĠNature":12539,"Ġensuring":12540,"ĠJane":12541,"Ġregarded":12542,"Ġcompensation":12543,"ĠCo.":12544,"ĠBlood":12545,"ĠAy":12546,"ĠGordon":12547,"Ġceremony":12548,"Ġmurdered":12549,"ĠtheyâĢĻd":12550,"ators.":12551,"Ġparticipating":12552,"\":":12553,"ĠYemen":12554,"Ġmunicipal":12555,"Ġsense.":12556,"ĠCommand":12557,"800":12558,"ls":12559,"Ġreserve":12560,"Ġrestaurants":12561,"ĊĊFr":12562,"Ġapplies":12563,"Ġcurious":12564,"eling":12565,"Ġfavourite":12566,"ĠVladimir":12567,"an's":12568,"oup":12569,"Ġinterrupt":12570,"Ġadap":12571,"Ġhaz":12572,"'\"":12573,"Ġguaranteed":12574,"rations":12575,"ĠâĢľre":12576,"Ġiter":12577,"ĠQuebec":12578,"ĠBJ":12579,"</":12580,"less.":12581,"ĠAnna":12582,"Ġcomplained":12583,"Ġoccupied":12584,"ĊĊFinally,":12585,"ĠJune,":12586,"ussel":12587,"Ġ56":12588,"ASH":12589,"Ġmilitants":12590,"ĠCity.":12591,"ĠWiki":12592,"Ġimmun":12593,"Ġwrong,":12594,"Ġgym":12595,"300":12596,"Ġrecommendations":12597,"PI":12598,"Ġstir":12599,"Ġamm":12600,"Ġcouples":12601,"Ġexperiments":12602,"Ġsuprem":12603,"Ġstopping":12604,"Ġpreview":12605,"Ġwisdom":12606,"Ġadministrative":12607,"Ġmaintenance":12608,"ĠLocal":12609,"ĠSyria.":12610,"Ġmanufacturers":12611,"Ġsegment":12612,"ĠFergus":12613,"rix":12614,"Ġsynd":12615,"Ġexcite":12616,"Ġmade.":12617,"Ġcountless":12618,"Ġpy":12619,"Ġrecipient":12620,"Ġaddressing":12621,"ĠFlyn":12622,"ĊĊWell,":12623,"fare":12624,"Ġdelivering":12625,"ĊĊ\"In":12626,"Ġdisappointed":12627,"ĠKa":12628,"Ġcontroll":12629,"Ġrhy":12630,"ĠPir":12631,"she":12632,"ĠNative":12633,"ĠOR":12634,"ĠStandard":12635,"apolis":12636,"Ġpopulation.":12637,"Ġinhab":12638,"ĠOw":12639,"Ġinterven":12640,"Ġrelie":12641,"Ġmovement,":12642,"ch.":12643,"ĠLincoln":12644,"ied.":12645,"OV":12646,"Ġstunning":12647,"Ġtoss":12648,"bury":12649,"ĊĊNote":12650,"Ġwore":12651,"Ġfru":12652,"erto":12653,"ĠTalk":12654,"Ġ1999":12655,"........":12656,"ĠBuddh":12657,"Ġwindows":12658,"Qu":12659,"anz":12660,"400":12661,"ĊĊAmong":12662,"Ġhandled":12663,"Ġchannels":12664,"neg":12665,"Ġsacrific":12666,"Ġmodule":12667,"aints":12668,"Ġluxury":12669,"government":12670,"block":12671,"ĠToy":12672,"ĠDeep":12673,"Ġprobe":12674,"ĠRound":12675,"Ġsanction":12676,"Ġshelter":12677,"ĊĊPresident":12678,"ĠKings":12679,"ĠDelhi":12680,"Ġoutlets":12681,"held":12682,"ĠMind":12683,"limited":12684,"Ġis:":12685,"Ġtension":12686,"ĠKal":12687,"ĠGoog":12688,"ĠNetany":12689,"Ġlong.":12690,"Ġreferences":12691,"Ġministers":12692,"icity":12693,"ĠHTML":12694,"Ġweekend.":12695,"inton":12696,"ĠStreet,":12697,"ĠâĢĺI":12698,"Ġpopulations":12699,"ĠPok":12700,"Ġtheories":12701,"Ġemphasis":12702,"ĊĊ10":12703,"chell":12704,"ILL":12705,"Ġthreshold":12706,"Ġamongst":12707,"Ġemployers":12708,"accept":12709,"ĠT.":12710,"Ġvoc":12711,"ĠFather":12712,"Ġlineback":12713,"heriff":12714,"Ġconced":12715,"Ġreign":12716,"Ġintend":12717,"est.":12718,"ĠSEC":12719,"Ġappearing":12720,"Ġbacks":12721,"uate":12722,"Ġfate":12723,"Ġamend":12724,"ĠElection":12725,"Ġsubur":12726,"Ġmotivated":12727,".com.":12728,"mit":12729,"Ġassumption":12730,"Ġtu":12731,"SU":12732,"ptions":12733,"Ġdressed":12734,"Ġtwo,":12735,"ĠLarry":12736,"Be":12737,"-friend":12738,"Ġpainting":12739,"ĠStanley":12740,"ĠHann":12741,"Ġaspir":12742,"ĠNone":12743,"Ġimpose":12744,"ĠCongressional":12745,"llor":12746,"rin":12747,"Ġdealt":12748,"ĠWhit":12749,"Ġvariable":12750,"-one":12751,"ĊĊAD":12752,"Ġthis?":12753,"ĠGiants":12754,"Ġpowered":12755,"Ġfucking":12756,"Ġanalog":12757,"Ġcatast":12758,"Ġscenari":12759,"ĠWhatâĢĻs":12760,"DAY":12761,"icienc":12762,"Ġit:":12763,"Ġrelease,":12764,"Ġteam's":12765,"Ġtraded":12766,"ulations":12767,"Ġmeets":12768,"Ġknowled":12769,"Ġbill.":12770,"Ġsustained":12771,"Ġpublic,":12772,"Ġgenes":12773,"VP":12774,"Ġsomething.":12775,"ĠAustralia,":12776,"ium,":12777,"Ġcaps":12778,"ĠReddit":12779,"Ġbooks,":12780,"ĠEverything":12781,"Ġpoet":12782,"ĠObama,":12783,"Ġreality,":12784,"Ġcurve":12785,"PL":12786,"Ġraid":12787,"ĊĊf":12788,"Ġareas,":12789,"Ġprev":12790,"Ġcategor":12791,"ĠMorm":12792,"Ġchecked":12793,"Ġdil":12794,"Ġcollecting":12795,"Ġther":12796,"ATED":12797,"Ġtroop":12798,"ĠGre":12799,"Ġ(Reuters)":12800,"Ġalike":12801,"Ġanxiety":12802,"Ġbirds":12803,"ĠThird":12804,"ĠSac":12805,"ences.":12806,"ĊĊWatch":12807,"Ġdestination":12808,"ways,":12809,"ĠIndependent":12810,"ugby":12811,"Ġtelephone":12812,"Ġ'I":12813,"ĊĊPlease":12814,"ers:":12815,"Ġanyway.":12816,"ĠAuthority":12817,"Ġune":12818,"Ġdecrease":12819,"ĠGod,":12820,"Ġvote,":12821,"Ġpatrol":12822,"Ġdamn":12823,"ĠTexas,":12824,"Ġbizarre":12825,"/0":12826,"ĠTrek":12827,"Ġthought,":12828,"atal":12829,"Ġwet":12830,"Ġwedding":12831,"po":12832,"Ġbubble":12833,"bridge":12834,"ĠBarcel":12835,"Ġit!":12836,"ĠMoreover,":12837,"Ġrepresentation":12838,"ĠLuke":12839,"ĠTimes,":12840,"Ġpolitics,":12841,"ĠQueens":12842,"34":12843,"Ġtoll":12844,"bian":12845,"ĠPark,":12846,"bing":12847,"Ġ(like":12848,"Ġconviction":12849,"ĠSumm":12850,"ĠMM":12851,"ĠImp":12852,"Ġstuff.":12853,"Ġ180":12854,"ak,":12855,"Ġreasons.":12856,"ĊĊNext":12857,"Ġ10%":12858,"Ġmembers.":12859,"Ġjudgment":12860,"Ġquestions.":12861,"Ġtowns":12862,"ĠEnvironmental":12863,"Ġtob":12864,"Ġarts":12865,"Ġ1000":12866,"ĠThey're":12867,"ĠMotor":12868,"\\x6":12869,"Ġhere:":12870,"Ġtempt":12871,"Ġtends":12872,"Ġtheoret":12873,"Ġsociety,":12874,"gust":12875,"Ġvolunteers":12876,"Ġabove.":12877,"ĠSwedish":12878,"Ġspeculation":12879,"Ġreads":12880,"Ġyou'd":12881,"Ġ2005,":12882,"ĠOnline":12883,"pa":12884,"Ġdesigner":12885,"Ġcitizenship":12886,"Ġgarden":12887,"ĊĊThat's":12888,"36":12889,"Ġworkers,":12890,"ĠFind":12891,"Ġprospects":12892,"ĠâĢľun":12893,"Ġsenators":12894,"Ġ\"That":12895,"Ġtopics":12896,"Ġabund":12897,"Ġinspiration":12898,"uccess":12899,"oken":12900,"Ġwrote:":12901,"ailable":12902,"EAD":12903,"i)":12904,"ible.":12905,"enger":12906,"Ġtrends":12907,"Ġoccurs":12908,"Ġcease":12909,"Ġlogo":12910,"Ġ3:":12911,"ĠGh":12912,"ĠSwit":12913,"Ġcredits":12914,"Ġcave":12915,"ĠTR":12916,"Ġprosper":12917,"Ġreplacing":12918,"theless,":12919,"Ġregion,":12920,"Ġinstances":12921,"Ġexploring":12922,"ĠIraq,":12923,"oga":12924,"Ġstruggles":12925,"manâĢĻs":12926,"backs":12927,"ĠStudio":12928,"Ġevolved":12929,"Ġwallet":12930,"VERTIS":12931,"Ġpost.":12932,"Ġpeer":12933,"ART":12934,"Ġlens":12935,"Ġ(20":12936,"gged":12937,"Ġsket":12938,"ĠBloomberg":12939,"www.":12940,"Ġtransparent":12941,"Ġstate's":12942,"Ġpromotion":12943,"emit":12944,"Ġmarginal":12945,"ĊĊGoogle":12946,"ĠTennessee":12947,"Ġusers.":12948,"nie":12949,"star":12950,"Ġreality.":12951,"Ġjo":12952,"thal":12953,"Ġexplosion":12954,"ĠKr":12955,"ĊĊSte":12956,"mak":12957,"Ġscratch":12958,"ĠMontreal":12959,"ane,":12960,"Ġnervous":12961,"Ġinvasion":12962,"ĠOrder":12963,"Ġlad":12964,"Ġacted":12965,"cos":12966,"Ġregistration":12967,"600":12968,"omach":12969,"ĠSmart":12970,"Ġimpacts":12971,"Ġmusic.":12972,"rod":12973,"ĠVin":12974,"Ġaltogether":12975,"ĠEnt":12976,"Ġverify":12977,"Ġfrustrated":12978,"aste":12979,"ership":12980,"Ġcome.":12981,"ulse":12982,"ĠRap":12983,"Ġoutstanding":12984,"ife.":12985,"Ġpregnant":12986,"Ġerrors":12987,"Ġtechnological":12988,"Ġoversight":12989,"-15":12990,"Ġinquiry":12991,"Ġ(who":12992,"Ġriot":12993,"otes":12994,"Ġelectrical":12995,"Ġpsychiat":12996,"ĠBenj":12997,"Ġspan":12998,"Fi":12999,"Ġmysterious":13000,"Ġremembered":13001,"Ġfirearm":13002,"aintiff":13003,"Ġculture,":13004,"Ġhub":13005,"Ġbreach":13006,"P)":13007,"Ġfarmer":13008,"Ġwars":13009,"Ġlong-":13010,"Ġcommod":13011,"Ġattach":13012,"ĠTamp":13013,"Ġawkward":13014,"Ġreflected":13015,"atives.":13016,"Ġcous":13017,"ĠMPs":13018,"shop":13019,"ĠRh":13020,"Ġposition,":13021,"Ġcategories":13022,"Ġpedest":13023,"Ġgreet":13024,"Ġfollowers":13025,"Ġview.":13026,"Ġrobber":13027,"ĊĊ7.":13028,"ĠAbbott":13029,"Ġhighlighted":13030,"-hand":13031,"ĠPerry":13032,"-winning":13033,"Ġincreas":13034,"Ġconverted":13035,"Ġcoin":13036,"onymous":13037,"Ġbund":13038,"Ġschools,":13039,"ĠFCC":13040,"ĠHispan":13041,"4%":13042,"ĠMitt":13043,"ĠâĢľto":13044,"ical,":13045,"Ġweaken":13046,"Ġdirt":13047,"Ġconcentration":13048,"ĠLaur":13049,"Ġnews.":13050,"Ġapproaches":13051,"Ġ\"I'm":13052,"37":13053,"ailing":13054,"Ġintegration":13055,"Ġrecord,":13056,"ĠLead":13057,"Ġcustody":13058,"ĠDoug":13059,"ĠOm":13060,"ĊĊTop":13061,"ĠRecord":13062,"Ġattention.":13063,"untu":13064,"Ġproducts.":13065,"Ġno,":13066,"Ġhunting":13067,"UTERS":13068,"-profile":13069,"Ġrooms":13070,"Ġsuspension":13071,"Ġdisappeared":13072,"Ġforb":13073,"Ġforward,":13074,"UC":13075,"Ġhosts":13076,"Ã¢":13077,"Ġenabled":13078,"Ġaccount.":13079,"Ġdispl":13080,"Ġsituation,":13081,"Ġleft.":13082,"Ġdelet":13083,"Ġmusc":13084,"Ġpartially":13085,"ĠKas":13086,"ags":13087,"Ġlip":13088,"Ġmomentum":13089,"Ġincorrect":13090,"ĠCanada.":13091,"out,":13092,"ĊĊWho":13093,"Ġcompanies.":13094,"ĠQual":13095,"Ġmortgage":13096,"Ġaccomplished":13097,"Ġguests":13098,"Ġspeaker":13099,"Ã¨":13100,"Ġdesignated":13101,"Ġfut":13102,"Ġfurn":13103,"Ġexperimental":13104,"inded":13105,"ĠJapan,":13106,"sk":13107,"ĠRaid":13108,"ĠBuck":13109,"Ġviolence,":13110,"ĠMuch":13111,"ĠBear":13112,"ĠStation":13113,"&T":13114,"wa":13115,"Ġembedd":13116,"Ġpunishment":13117,"38":13118,"ĠNCAA":13119,"ĠBlog":13120,"ĊĊPeople":13121,"ĠTheat":13122,"ĊĊPre":13123,"Ġfocuses":13124,"ussian":13125,"aries,":13126,"Ġburned":13127,"izer":13128,"ĠReds":13129,"Ġcrossed":13130,"ĠKy":13131,"ðŁ":13132,"Ġcrown":13133,"Ġimpressed":13134,"Ġlone":13135,"ĠInn":13136,"Ġearlier,":13137,"ĠRubio":13138,"wind":13139,"Ġenjoying":13140,"Ġritual":13141,"Ġhug":13142,"Ġ's":13143,"Ġequipped":13144,"Ġcelebrated":13145,"Ġfrank":13146,"ĠChall":13147,"Ġold.":13148,"ĠBah":13149,"Ġfriendship":13150,"Ġdeparture":13151,"armed":13152,"icide":13153,"Ġranking":13154,"Ġ\"in":13155,"-state":13156,"Ġconcepts":13157,"Ġi.":13158,"ĠStorm":13159,"Ġbits":13160,"Ġwitnessed":13161,"ĠIsrael,":13162,"Ġstudents.":13163,"Ġcreatures":13164,"Ġcultiv":13165,"ĊĊ--":13166,"ame,":13167,"Ġholes":13168,"Ġcondemn":13169,"Ġshar":13170,"\")":13171,"ĠProduct":13172,"omething":13173,"ĠNa":13174,"ĠSeptember,":13175,"rait":13176,"ĠAlt":13177,"ĠHond":13178,"Ġfortun":13179,"Ġbands":13180,"Ġcryptocurren":13181,"ĠNovember,":13182,"Pro":13183,"Ġspy":13184,"Ġneeded.":13185,"Ġ360":13186,"ardo":13187,"Ġharvest":13188,"Ġeffect.":13189,"Ġorder,":13190,"-per":13191,"ĠRussia.":13192,"Ġhoriz":13193,"Ġcrossing":13194,"ling,":13195,"Ġkiss":13196,"Ġtum":13197,"Ġgreenhouse":13198,"Ġgenerations":13199,"Ġprosecutor":13200,"Ġ57":13201,"Ġtoile":13202,"Ġacceptable":13203,"agen":13204,"Ġhumanitarian":13205,"ĠSM":13206,"liminary":13207,"Ġtunnel":13208,"Ġrecord.":13209,"ĠLawrence":13210,"ĠEdition":13211,"Ġspacecraft":13212,"ĠSmith,":13213,"ied,":13214,"Ġroyal":13215,"Ġorganisation":13216,"Ġ$3.":13217,"Ġanymore.":13218,"ĠFight":13219,"Ġghost":13220,"omy":13221,"Ġcare,":13222,"Ġsupplement":13223,"Ġdevoted":13224,"Ġpm":13225,"ĠFR":13226,"avery":13227,"gency":13228,"ĠCry":13229,"Ġassembly":13230,"alg":13231,"ade,":13232,"Ġ$9":13233,"uj":13234,"ĠMov":13235,"iens":13236,"Ġvery,":13237,"ĠCanadians":13238,"ĊĊ6":13239,"Ġapprove":13240,"check":13241,"ĊĊYour":13242,"Ġanth":13243,"Ġdisorder":13244,"T:":13245,"Ġflew":13246,"Ġtrials":13247,"ĠLegisl":13248,"Ġlegislature":13249,"Ġperiods":13250,"ĠTodd":13251,"Ġconfiguration":13252,"Ġbecause,":13253,"ĠSex":13254,"Ġ4th":13255,"Ġ58":13256,"Ġleader,":13257,"Ġarguably":13258,"bourne":13259,"ire,":13260,"Ġtutorial":13261,"Ġgaining":13262,"Ġhead,":13263,"strong":13264,"ĠTaliban":13265,"Ġsurvived":13266,"Ġroots":13267,"-bl":13268,"Ġbeaten":13269,"wing":13270,"ĠPrinc":13271,"Ġconfused":13272,"Ġreviewed":13273,"Ġhostile":13274,"Ġ800":13275,"ĠAmb":13276,"Ġproductive":13277,"Ġfights":13278,"isode":13279,"Ġprototype":13280,"Ġcontradict":13281,"ĠâĢľst":13282,"ĠBeng":13283,"Ġcompelling":13284,"Ġtoy":13285,"Ġpride":13286,"-ex":13287,"emin":13288,"ĠComey":13289,"Ġshake":13290,"Ġinsur":13291,"Ġcompass":13292,"owski":13293,"ĠBra":13294,"Ġchocolate":13295,"Ġbra":13296,"ĠKir":13297,"Ġdeadline":13298,"Ġconditions.":13299,"ĠFinally,":13300,"Ġconqu":13301,"Ġingredients":13302,"ĠConvention":13303,"ĠMORE":13304,"ĠJuly,":13305,"ĠWales":13306,"Ġintegrity":13307,"viously,":13308,"Ġdenial":13309,"Ġfoods":13310,"Ġfull-time":13311,"Ġpione":13312,"ĠDraft":13313,"with":13314,"Ġbombing":13315,"Ġvegan":13316,"Ġ1998":13317,"Ġ$50":13318,"ocracy":13319,"Ġdepression":13320,"isive":13321,"pack":13322,"Ġcomposition":13323,"Ġattacks.":13324,"ĠSweden":13325,"ĠLibrary":13326,"ĠUniversity.":13327,"-line":13328,"ĠBond":13329,"Ġshed":13330,"ĠSE":13331,"Ġbox.":13332,"DC":13333,"Ġimportant.":13334,"Ġanarch":13335,"iary":13336,"-yard":13337,"ĠHend":13338,"Ġmosqu":13339,"ĠAgainst":13340,"Ġwomen's":13341,"elcome":13342,"Ġculture.":13343,"Ġvisits":13344,"ĊĊd":13345,"Ġneur":13346,"ĠRangers":13347,"Ġdevastating":13348,"ĠCongress,":13349,"Ġsod":13350,"ĠSud":13351,"osa":13352,"Ġimportant,":13353,"ĊĊFurther":13354,"Ġplacing":13355,"Ġpink":13356,"LU":13357,"ĠCircuit":13358,"ĠDor":13359,"Ġineff":13360,"-owned":13361,"hol":13362,"à¤":13363,"ĠYork.":13364,"ĠArea":13365,"ĠRobinson":13366,"ĊĊCol":13367,"tains":13368,"-page":13369,"ommun":13370,"Ġpaper,":13371,"Ġmisle":13372,"Ġwho's":13373,"Ġcombine":13374,"Ġinvestigated":13375,"Ġchur":13376,"Ġ\"And":13377,"Ġstatic":13378,"holders":13379,"chest":13380,"Ġsink":13381,"Ġ192":13382,"Ġdetention":13383,"Ġstomach":13384,"ĠFarm":13385,"ised.":13386,"Ġbuzz":13387,"outheast":13388,"Ġperformances":13389,"Ġaccusations":13390,"Ġbreakfast":13391,"itb":13392,"ĠâĢľWhen":13393,"Ġrevolutionary":13394,"ĠHitler":13395,"Ġpractice,":13396,"Ġpursuit":13397,"Ġsecured":13398,"Ġflights":13399,"lected":13400,"ĠTimes.":13401,"Ġinterview,":13402,"ĠWayne":13403,"Ġinfring":13404,"Ġ9/11":13405,"ĠSpeaker":13406,"Ġunderw":13407,"arians":13408,"oning":13409,"ĠIV":13410,"ĠPlace":13411,"FO":13412,"ĠRemember":13413,"Ġprocedures":13414,"bably":13415,"Ġsword":13416,"Ġinterview.":13417,"ĠTun":13418,"Ġground,":13419,"guard":13420,"Ġannouncing":13421,"Ġnetwork.":13422,"Ġalliance":13423,"ĠTrudeau":13424,"Ġ15.":13425,"overs":13426,"Ġtraveled":13427,"ĊĊ\"I'm":13428,"ĠOthers":13429,"ĠResp":13430,"arted":13431,"Ġgradually":13432,"os.":13433,"ĠSubs":13434,"Ġnonprofit":13435,"icut":13436,"Ġgolden":13437,"Ġmissions":13438,"ĠBrand":13439,"ĠRail":13440,"Ġexamined":13441,"Ġsake":13442,"Ġfest":13443,"ĠSection":13444,"Ġcartoon":13445,"ĠTea":13446,"-profit":13447,"Ġapplying":13448,"Ġmandatory":13449,"anguage":13450,"ĠJess":13451,"l,":13452,"cience":13453,"Ġmild":13454,"HE":13455,"Ġrules.":13456,"Ġauction":13457,"Ġcontributing":13458,"Ġhybrid":13459,"Ġserial":13460,"Ġsilent":13461,"Ġstrang":13462,"ĠWrit":13463,"Ġbeta":13464,"Ġambitious":13465,"ĠNichol":13466,"alid":13467,"Ġceremon":13468,"Ġor,":13469,"estyle":13470,"Ġwalks":13471,"Ġquantum":13472,"Ġtwo.":13473,"ĠBeat":13474,"ĠSwiss":13475,"incinn":13476,"Ġlongest":13477,"Ġinappropri":13478,"Ġworkers.":13479,"VERTISEMENT":13480,"ĠTesla":13481,"Ġpressing":13482,"bits":13483,"Ġtouched":13484,"ĠApril,":13485,"Ġdign":13486,"ore,":13487,"Ġdeserves":13488,"ĠComput":13489,"Ġhiding":13490,"Ġguards":13491,"ĠCowboy":13492,"Ġlung":13493,"Ġrestricted":13494,"Ġpledged":13495,"Ġepidem":13496,"var":13497,"ĠMobile":13498,"Ġprevented":13499,"Ġsmok":13500,"Ġpor":13501,"Ġviolations":13502,"ĠChange":13503,"Ġdate.":13504,"ot,":13505,"Ġbrands":13506,"Ġchap":13507,"Ġtreating":13508,"ĠAmerica's":13509,"Ġcompromise":13510,"Ġresid":13511,"Ġcourage":13512,"ĠSwitzer":13513,"Ġtill":13514,"ĠRow":13515,"ĊĊ\"M":13516,"NC":13517,"ĠTig":13518,"Ġspeech,":13519,"arget":13520,"Ġidea,":13521,"Ġresidence":13522,"ĠLions":13523,"Ġunderc":13524,"SC":13525,"Ġflexibility":13526,"Ġneeded]":13527,"atile":13528,"Ġhospitals":13529,"Ġviewing":13530,"zb":13531,"Ġqualify":13532,"rup":13533,"ites,":13534,"ĠRoger":13535,"Ġunfold":13536,"Ġmonster":13537,"Ġprovincial":13538,"ĠG.":13539,"ĠSD":13540,"ĠLaure":13541,"Ġpending":13542,"Ġcan.":13543,"Ġexecuted":13544,"Ġfastest":13545,"Ġviolated":13546,"ĠBart":13547,"Ġeverything.":13548,"Ġ\"l":13549,"arat":13550,"Ġlanguage,":13551,"Ġ$30":13552,"Ġendless":13553,"ĠModern":13554,"Ġsophisticated":13555,"oding":13556,"Ġsparked":13557,"Ġmonetary":13558,"Ġjudicial":13559,"Ġofficials,":13560,"ĠRC":13561,"Ġnation's":13562,"[1]":13563,"Ġdistinction":13564,"ĠCrit":13565,"ĠFif":13566,"ĠPa":13567,"Ġdefect":13568,"Ġrefusing":13569,"Ġadvised":13570,"Ġportfol":13571,"Ġdecision,":13572,"ĠNelson":13573,"Ġinvolved.":13574,"ĊĊâĢľWhen":13575,"Ġrushed":13576,"Ġseventh":13577,"Ġhealth,":13578,"Ġstudy.":13579,"Ġposter":13580,"KE":13581,"Ġgrowth.":13582,"ĠNeed":13583,"Ġdispar":13584,"Ġtel":13585,"Ġindication":13586,"Ġcorn":13587,"Ġworse.":13588,"charg":13589,"Ġups":13590,"Ġtar":13591,"Ġlevels.":13592,"ierre":13593,"ĠLock":13594,"abling":13595,"ĠEntertainment":13596,"ĠGPU":13597,"Ġstrain":13598,"ĠBrussel":13599,"aret":13600,"former":13601,"ĠTherefore,":13602,"Ġrall":13603,"ĠProm":13604,"ifier":13605,"-made":13606,"Ã³n":13607,"requ":13608,"Ġoptimistic":13609,"Ġmaxim":13610,"Ġpractice.":13611,"ĠU.N.":13612,"enter":13613,"ĠGray":13614,"Ġbombs":13615,"ĠMorning":13616,"enz":13617,"AB":13618,"Ġshorter":13619,"ang,":13620,"Ġtherapy":13621,"graph":13622,"Ġunderstands":13623,"Ġdeclare":13624,"ĊĊFollowing":13625,"imes,":13626,"Ġdoctr":13627,"Ġpainted":13628,"aki":13629,"ĊĊClick":13630,"valid":13631,"yard":13632,"Ġgrip":13633,"Ġoperational":13634,"ĠDJ":13635,"Ġconvinc":13636,"ĠSteam":13637,"Ġlanguage.":13638,"Ġprofessionals":13639,"azi":13640,"Ġcourt,":13641,"ĠOctober,":13642,"ĠBrandon":13643,"TR":13644,"reek":13645,"ĠPlus":13646,"ĠEagles":13647,"ova":13648,"Ġ14.":13649,"Ġcalculated":13650,"Ġlogical":13651,"rike":13652,"Ġwise":13653,"ĠCohen":13654,"uz":13655,"ĠPatriots":13656,"Ġridiculous":13657,"-te":13658,"89":13659,"Ġattorneys":13660,"Ġmamm":13661,"Ġmystery":13662,"Ġadvocacy":13663,"Ġfood.":13664,"ĠHeat":13665,"ĠOscar":13666,"Ġdetained":13667,"-cons":13668,"eness":13669,"ĠWol":13670,"Ġinstead.":13671,"Ġambassador":13672,"Ġfiling":13673,"Ġminister,":13674,"Ġexperiencing":13675,"Ġdevelopments":13676,"Ġcomics":13677,"Ġresponding":13678,"Ġdocumented":13679,"Ġundermin":13680,"Ġfound.":13681,"Ġrun,":13682,"elle":13683,"ĠChance":13684,"Ġsteep":13685,"Ġtriggered":13686,"Ġpledge":13687,"âĢ³":13688,"ĠCorby":13689,"ĠNO":13690,"Ġindict":13691,"Ġgreat.":13692,"Ġheroes":13693,"-I":13694,"Ġformally":13695,"ĠSnowden":13696,"Ġpays":13697,"Ġfright":13698,"Ġpersist":13699,"ĠIan":13700,"MAN":13701,"Ġrevealing":13702,"Ġdate,":13703,"Ġpage,":13704,"Ġstrongest":13705,"ĠMedicare":13706,"ateur":13707,"ĠOrlando":13708,"ĠRio":13709,"outing":13710,"ĠRussians":13711,"Ġheadlines":13712,"Ġagricultural":13713,"Ġdesired":13714,"ĠCalifornia.":13715,"idal":13716,"alog":13717,"ĠJav":13718,"ians,":13719,"Ġlot.":13720,"ĠCampaign":13721,"ĠPhys":13722,"bound":13723,"Ġcosts.":13724,"ortion":13725,"nered":13726,"Ġmathemat":13727,"ĠREUTERS":13728,"Ġincomp":13729,"Ġknocked":13730,"verning":13731,"eu":13732,"Ġhatred":13733,"Ġdrafted":13734,"Ġcelebration":13735,"Ã¥":13736,"Ġmic":13737,"Ġeconomics":13738,"s;":13739,"ĊĊthe":13740,"ĠChap":13741,"ĠNetanyahu":13742,"Ġthen.":13743,"Ġsuppli":13744,"wall":13745,"Ġcreator":13746,"ĊĊReg":13747,"Ġdevices.":13748,"Ġpackages":13749,"class":13750,"otte":13751,"ĠOccup":13752,"vol":13753,"mod":13754,"Ġtoken":13755,"Ġbedroom":13756,"Ġmeters":13757,"Ġconj":13758,"Ġsends":13759,"Ġassured":13760,"Ġconstructed":13761,"Ġhands.":13762,"ipher":13763,"Ġideological":13764,"ĠMeg":13765,"Ġengagement":13766,"Ġage.":13767,"Ġfans,":13768,"Ġseparated":13769,"ĊĊ<":13770,"-century":13771,"ulpt":13772,"ĠReid":13773,"Ġparliamentary":13774,"Ġdisabled":13775,"Ġprovisions":13776,"Ġenvironment,":13777,"Ġ72":13778,"ĠAgain,":13779,"Ġboxes":13780,"ĠAdams":13781,"ap.":13782,"49":13783,"Ġclear,":13784,"Ġthey'll":13785,"ĠAlliance":13786,"Ġborders":13787,"Ġdifferently":13788,"Ġdispos":13789,"Ġfails":13790,"Ġfun.":13791,"ĠPuerto":13792,"ĠOrleans":13793,"Ġdrill":13794,"ĠTa":13795,"Ġpock":13796,"Ġinvesting":13797,"Ġsee.":13798,"ĠWikiLe":13799,"Ġteammates":13800,"Ġsubtle":13801,"Ġal-Q":13802,"inally":13803,"Ġdirty":13804,"ĠLie":13805,"ĠCommissioner":13806,"Ġ16.":13807,"Ġtrailer":13808,"Ġsheriff":13809,"ĠChuck":13810,"asted":13811,"ĊĊPerhaps":13812,"aps,":13813,"Ġwitnesses":13814,"Ġlun":13815,"Ġdesign.":13816,"Ġinterpretation":13817,"wau":13818,"ĠHide":13819,"ĠKyle":13820,"Ġquickly.":13821,"ĠTemple":13822,"riven":13823,"Ġclicking":13824,"Ġacquire":13825,"flow":13826,"Ġradiation":13827,"ĠHamas":13828,"Ġreceives":13829,"ĠColleg":13830,"ĠOrange":13831,"Ġbone":13832,"Ġever.":13833,"tail":13834,"Ġanimated":13835,"Ñĥ":13836,"obby":13837,"ĠLevel":13838,"Ġdeciding":13839,"ĠProgress":13840,"Ġafterward":13841,"Ġcontrolling":13842,"atively":13843,"87":13844,"Ġconstrain":13845,"Ġshort-term":13846,"ĠFisher":13847,"Ġdelayed":13848,"Ġboard.":13849,"ĠBlake":13850,"Ġconducting":13851,"Ġdetain":13852,"ounding":13853,"ilateral":13854,"Ġdead.":13855,"Ġsinger":13856,"burn":13857,"Ġokay":13858,"ĠKentucky":13859,"Ġbless":13860,"Ġmeanwhile,":13861,"ĠNatural":13862,"ĠBird":13863,"Ġgarb":13864,"ford,":13865,"Ġtemporarily":13866,"Ġposed":13867,"Ġcondemned":13868,"Ġreminded":13869,"tte":13870,"ĠLady":13871,"arenthood":13872,"ĠFle":13873,"ĠFlorida,":13874,"Ġentrance":13875,"Ġguidance":13876,"Ġcalc":13877,"ĠBund":13878,"ĊĊPost":13879,"Ġfleet":13880,"ĠNix":13881,"Ġhistorically":13882,"Ġdonors":13883,"Ġreaches":13884,"Ġ(if":13885,"Ġdoes.":13886,"Ġbabies":13887,"ĠFurthermore,":13888,"ĠAfrica,":13889,"Ġinfant":13890,"Ġimagin":13891,"Ġimmense":13892,"ĠAugust,":13893,"Ġsubscribe":13894,"Ġidentifying":13895,"ĠSong":13896,"Ġsecurity.":13897,"ĠOrganization":13898,"Ġno.":13899,"Ġwrapped":13900,"Ġsomething,":13901,"ĠFa":13902,"pace":13903,"Ġfunn":13904,"Ġwast":13905,"Ġincons":13906,"storm":13907,"Ġscene,":13908,"ĠEditor":13909,"Ġfilling":13910,"Ġoverd":13911,"Ġmerc":13912,"ĠLen":13913,"ommon":13914,"Ġsleeping":13915,"chron":13916,"ĠCL":13917,"ĠAdditionally,":13918,"Ġinterrog":13919,"Ġ(7":13920,"Ġstun":13921,"TE":13922,"ĊĊDavid":13923,"::":13924,"Ġexped":13925,"Ġflavor":13926,"around":13927,"Ġ);":13928,"ĠFranklin":13929,"Ġchanges.":13930,"ified,":13931,"ĠPinterest":13932,"Ġflip":13933,"Ġinstinct":13934,"apper":13935,"ĠPick":13936,"roductive":13937,"Ġscreen.":13938,"Ġrehab":13939,"Ġtrigg":13940,"Ġattributed":13941,"itbart":13942,"ĠRoc":13943,"ĠâĢľwe":13944,"ĠDVD":13945,"Ġconflicts":13946,"ND":13947,"Ġcheese":13948,"ĠSafety":13949,"Ġexcit":13950,"ĠCorn":13951,"Ġpleasure":13952,"ĊĊPl":13953,"Ġkiller":13954,"Ġbillion.":13955,"Ġneighbors":13956,"Ġsquee":13957,"Ġnumbers,":13958,"Ġencrypt":13959,"Ġnick":13960,"rane":13961,"Ġscrap":13962,"ĠÂ©":13963,"ĊĊEd":13964,"Ġviable":13965,"Ġsimultaneously":13966,"Ġmandate":13967,"Ġlegendary":13968,"Ġbacteria":13969,"ĠPhilip":13970,"-V":13971,"Ġsess":13972,"oting":13973,"Ġpainful":13974,"Ġpriest":13975,"Ġtoday's":13976,"Ġtub":13977,"omer":13978,"formance":13979,"Ġreports,":13980,"akes,":13981,"ĠName":13982,"ĠpresidentâĢĻs":13983,"rition":13984,"ced.":13985,"Ġgoal.":13986,"Ġslavery":13987,"Ġhouseholds":13988,"ĠMerkel":13989,"ucker":13990,"Ġundermine":13991,"alyst":13992,"Ġactress":13993,"Ġ189":13994,"istance":13995,"Ġreserved":13996,"ĠKl":13997,"Bl":13998,"Ġstage.":13999,"Ġverdict":14000,"Ġeggs":14001,"ĠKit":14002,"MC":14003,"eem":14004,"eor":14005,"ATION":14006,"ĠFro":14007,"zone":14008,"ĠPur":14009,"Ġbio":14010,"ĊĊ\"P":14011,"Ġemission":14012,"Ġrecalled":14013,"Ðº":14014,"Ġhesit":14015,"ĠKeith":14016,"ries,":14017,"Ġrules,":14018,"Ġal.,":14019,"Ġ(h":14020,"Ġvideo.":14021,"Ġtable.":14022,"ĠâĢľpro":14023,"Ġtheor":14024,"ĠWikip":14025,"Ġknife":14026,"ĠRussiaâĢĻs":14027,"ĠAw":14028,"ĊĊComp":14029,"Ġyes":14030,"umbl":14031,"GO":14032,"aucus":14033,"Ġrespectively.":14034,"Ġ0.5":14035,"Ġvolunteer":14036,"ĠBou":14037,"Ġwelcomed":14038,"ĠColomb":14039,"town":14040,"Ġgrabbed":14041,"ERE":14042,"Ġhik":14043,"aya":14044,"Ġquietly":14045,"Ġpoorly":14046,"Ġformula":14047,"ĠDeputy":14048,"Ġurge":14049,"ĠChamp":14050,"HT":14051,"Ġbreakdown":14052,"ĠIndia.":14053,"ping":14054,"Ġ99":14055,"Ġgrasp":14056,"Ġintens":14057,"ropolitan":14058,"rior":14059,"ĠBuild":14060,"bie":14061,"Ġzomb":14062,"respect":14063,"Ġquestioning":14064,"Ġstressed":14065,"Ġreson":14066,"Ġflexible":14067,"Ġprice.":14068,"Ġbelt":14069,"ĠUntil":14070,"adi":14071,"Ġbeloved":14072,"Ġorange":14073,"Ġthat.âĢĿ":14074,"Ġcode,":14075,"Ġoperator":14076,"Ġdirection.":14077,"Ġfans.":14078,"abbing":14079,"Ġanimation":14080,"Ġ59":14081,"Ġexplosive":14082,"Ġsafely":14083,"ĠHowever":14084,"Ġrecount":14085,"Ġ$25":14086,"ĠConc":14087,"Ġbest.":14088,"Ġfloating":14089,"Ġuncertainty":14090,"ĠCincinn":14091,"ides,":14092,"Ġfluid":14093,"ĊĊDem":14094,"ĠSmall":14095,"Ġresearch.":14096,"Ġwrote,":14097,"Ġdrops":14098,"Ġ\"What":14099,"Ġbelow,":14100,"Ġawful":14101,"Ġworship":14102,"sa":14103,"icials":14104,"Ġdur":14105,"aning":14106,"Ġassuming":14107,"ĠBenjamin":14108,"ĊĊFormer":14109,"ante":14110,"ĠBos":14111,"Ġbuilds":14112,"ĠKhan":14113,"ĠOd":14114,"Ġcharacteristics":14115,"ĊĊSeveral":14116,"ported":14117,"Ġderived":14118,"ĠBeh":14119,"L.":14120,"Ġform.":14121,"FA":14122,"Ġmeeting,":14123,"iden":14124,"ĠTable":14125,"ĠFacebook.":14126,"ites.":14127,"forward":14128,"âĸĪ":14129,"Ġ20%":14130,"ĠVar":14131,"Ġdisgust":14132,"Ġcharacter,":14133,"ĊĊâĢľThat":14134,"Ġmulti-":14135,"ĠVermont":14136,"Ġaftermath":14137,"ĠConnecticut":14138,"Ġprovider":14139,"ĠRodrig":14140,"Ġ1996":14141,"Ġunders":14142,"er,âĢĿ":14143,"Ġslide":14144,"Ġtrips":14145,"Ġbitter":14146,"--------------------------------":14147,"Ġaest":14148,"ĠEarly":14149,"ĠFlynn":14150,"Ġgoverning":14151,"Ġmutual":14152,"Ġsampl":14153,"Ġmechanical":14154,"ĠTell":14155,"ĊĊâĢľWhat":14156,"-friendly":14157,"Ġlayers":14158,"ĠSalt":14159,"ĠUK,":14160,"ĠCorp":14161,"fox":14162,"And":14163,"Ġdisplays":14164,"Ġ1930":14165,"-ind":14166,"Ġvibr":14167,"LS":14168,"Ġspreading":14169,"ups":14170,"Ġprojects.":14171,"Ġsessions":14172,"Ġfree.":14173,"Ġstory:":14174,"ĠIss":14175,"Ġdisclosure":14176,"Ġ2004,":14177,"âĢĻs.":14178,"Ġcontent,":14179,"Ġacquisition":14180,"Ġpraise":14181,"Ġparticipated":14182,"Ġsuggestion":14183,"Ġfine.":14184,"ĠKirk":14185,"ĠKarl":14186,"ĠPeace":14187,"ĠCommons":14188,"Ġtang":14189,"ĠPosts":14190,"g,":14191,"Ġtraditionally":14192,"ĠOli":14193,"ilarly,":14194,"Ġannually":14195,"think":14196,"ĠRaven":14197,"Ġappeals":14198,"Ġ2007.":14199,"Ġmany,":14200,"Ġi.e.":14201,"ĠPoland":14202,"Ġmodel,":14203,"Ġdemographic":14204,"Ġnotably":14205,"icism":14206,"Ġpricing":14207,"Ġtrains":14208,"urred":14209,"Ġtrop":14210,"earchers":14211,"illary":14212,"Ġdonated":14213,"ĠConfeder":14214,"Ġearnings":14215,"Ġconfirmation":14216,"lamm":14217,"iliate":14218,"Ġmice":14219,"~~":14220,"Ġinstrument":14221,"ĠCa":14222,"Ġoperates":14223,"ĠProfile":14224,"Ġsure,":14225,"Ġlaws.":14226,
[...]
