#version: 0.2
Ġ t
Ġ a
h e
i n
Ġt he
r e
Ġ o
Ġ s
e r
Ġ w
a t
o n
e n
Ġ c
i t
i s
Ġ b
n d
o r
Ġ f
Ġ p
e d
in g
e s
Ġt o
o u
a n
Ġo f
Ġ in
Ġ m
a l
a r
Ġ h
Ġ d
Ġa nd
Ġt h
a s
i c
l e
Ċ Ċ
o m
i on
â Ģ
l l
Ġ n
en t
Ġ l
Ġ re
v e
Ġb e
s t
Ġ e
l y
Ġ g
i d
o t
u t
Ġth at
Ġo n
r o
c t
Ġ is
Ġ T
Ġ I
a y
Ġf or
o w
i m
s e
a d
a m
i g
e t
v er
Ġ S
l d
c e
Ġ u
Ġ y
Ġs t
âĢ Ļ
Ġ A
Ġ it
u r
Ġ he
Ġw h
it h
Ġ C
i r
Ġw e
c h
Ġw ith
at ion
Ġa s
Ġa n
t er
i ll
Ġ M
o l
i l
Ġy ou
Ġw as
Ġh a
r a
k e
Ġ B
er s
Ġc on
Ġa t
Ġd e
he r
at e
i f
Ġa re
Ġs e
Ġ P
Ġm o
c k
g e
Ġf r
Ġc om
Ġ W
m ent
ĠT he
p p
s ,
âĢĻ s
es t
s .
Ġn e
Ġp ro
u l
Ġ r
Ġ H
o p
ig h
or t
Ġ âĢ
Ġha ve
Ġn ot
is t
ou ld
Ġe x
Ġ 2
Ġs u
r i
Ġ D
Ġo r
Ġb y
Ġfr om
Ġ v
Ġ R
re s
a in
u s
Ġ F
Ġ 1
Ġa l
o o
it y
Ġth is
ar t
n t
Ġ N
Ġs a
e m
i ve
ou t
an t
Ġs h
u m
ĊĊ T
Ġ le
u n
Ġa b
u st
igh t
Ġh as
a b
es s
a nd
p e
Ġc h
o s
Ġ G
q u
re d
en d
Ġp l
i es
Ġh is
om e
Ġ L
al ly
' s
t h
Ġd o
al l
i e
e ar
g h
Ġsa id
Ġthe y
Ġ j
Ġ E
Ġ J
e l
Ġw ill
Ġb ut
as t
i v
ar d
Ġc an
Ġw he
Ġw or
r ou
u d
a ck
Ġ O
Ġwh o
Ġa ll
ĊĊT he
a k
Ġ2 0
Ġs o
ic h
ou r
Ġg o
Ġ k
Ġthe ir
Ġin t
Ġ U
Ġo ut
id e
p t
am e
Ġ (
Ġmo re
t her
c i
Ġu p
a g
ic e
u re
on g
i ke
Ġab out
Ġm e
o re
e ct
Ġa d
on e
f f
s o
Ġon e
Ġwe re
Ġcom p
c c
Ġw ould
Ġh ad
im e
a ge
Ġwh ich
r y
in e
an s
ĠâĢ ľ
Ġu s
ver y
Ġbe en
Ġa g
a ke
Ġof f
ou s
Ġc l
Ġt e
Ġcon t
e p
Ġ im
at ed
b er
Ġy ear
p l
u e
p er
âĢĻ t
Ġl ike
ct ion
Ġ en
ĊĊ A
u b
o d
ĠT h
in d
a re
ig n
Ġp e
o st
a c
Ġe v
Ġm an
Ġin c
a u
i a
ar y
e w
Ġp er
ĠS t
Ġo ther
oo k
Ġs ome
Ġu n
ĊĊ I
Ġp r
op le
e re
Ġre s
Ġs p
âĢ Ŀ
it e
Ġne w
Ġal so
Ġthe re
Ġth an
a ct
m er
0 0
Ġbe c
Ġ20 1
a p
i z
o se
o c
Ġyou r
Ġo ver
Ġthe m
Ġwhe n
i le
Ġwh at
Ġpe ople
ĠI n
i re
or d
oo d
Ġwor k
es ,
en ce
Ġp art
f ter
a ce
Ġt r
Ġa pp
ou nt
Ġ K
p ort
Ġj ust
o g
Ġit s
Ġa r
ab le
ic al
Ġan y
ow n
Ġd is
Ġs ay
ou gh
Ġt ime
in t
it ion
i p
ĠI t
Ġg et
ul t
Ġ qu
an ce
re e
i al
Ġk n
as e
Ġm y
Ġ if
Ġ "
es .
Ġhe r
Ġint o
on d
as s
l ic
i b
ir st
or m
Ġpl ay
Ġt w
r u
re at
res s
Ġo ur
Ġn o
a ch
ĠC h
a il
Ġ Y
Ġre c
id ent
d u
a v
in k
ou nd
ve l
au se
ic k
ar k
or y
Ġa fter
i an
Ġp ol
Ġs he
Ġh ow
w n
Ġc ould
Ġf irst
Ġc o
h ing
ion s
Ġp re
en s
Ġ -
ad e
' t
ation s
Ġa cc
Ġh im
Ġs c
Ġon ly
it t
Ġp o
Ġf e
ĠH e
Ġat t
Ġtw o
Ġ 3
Ġ ro
am p
nd er
ver s
i ld
Ġ V
n ing
Ġs er
Ġcom m
Ġbe t
Ġs pe
Ġmo st
ic t
an g
Ġb ack
he d
ĠâĢ ĵ
ĊĊ âĢ
f orm
n âĢĻt
Ġd id
y ,
ĊĊ S
Ġag ain
d ay
Ġw ant
rou gh
ĠâĢ Ķ
Ġde c
Ġw ay
Ġb l
n e
Ġa ct
rou nd
Ġa m
Ġ1 9
Ġbec ause
o b
a w
i ous
u ch
f t
Ġn ow
ĊĊ W
Ġne ed
Ġ ra
Ġev en
as on
l ud
Ġd es
v ed
if f
ub lic
is h
Ġu nder
Ġse e
w ay
w e
ing s
Ġad d
Ġkn ow
or s
Ġcon s
Ġin v
at er
Ġe very
Ġm ake
se l
at es
Ġse c
f ore
ci al
u al
is e
Ġsu pp
ur n
ter n
ĠW e
c ed
ĊĊâĢ ľ
Ġthe se
Ġwhe re
Ġb u
r it
o y
c es
Ġin d
Ġl ook
Ġth ink
ot her
Ġt ra
Ġd on
Ġbe ing
ver n
pe ct
ed .
Ġe m
Ġd ay
T he
ĠU n
ĠA nd
Ġr ight
Ġman y
ation al
Ġinc lud
is s
Ġm ay
Ġl ast
Ġc all
ĠB ut
um p
u ll
Ġre m
Ġp os
e k
y .
Ġthe n
Ġth rough
j ect
Ġd iff
ĊĊ "
Ġth ose
Ġsaid .
Ġsh ould
Ġ very
Ġp res
mer ic
i ly
o ve
ur ing
Ġde f
Ġm uch
Ġto o
Ġsh ow
Ġf o
ak ing
e c
Ġst ate
Ġre l
Ġre g
x t
v ing
ie w
ĠTh is
Ġim p
Ġ 4
Ġc ount
Ġo wn
it ed
ĊĊ B
ro w
ĠT r
Ġd own
Ġu se
at ing
ar ly
Ġbe l
o ld
Ġs y
ĠA meric
Ġre port
Ġbe fore
on s
vern ment
in ce
Ġwe ll
Ġdo es
ĠW h
Ġst art
ent s
Ġ end
ri b
Ġte am
Ġl ong
an ge
an k
m an
ot h
Ġf l
it ies
Ġ ke
o ck
Ġm on
ow er
Ġm ade
v en
re n
Ġp h
ll ow
ĠN ew
at ive
om et
Ġf in
as ed
Ġgo ing
ar g
i ed
he n
if ic
Ġwe ek
Ġhe l
Ġ 5
Ġsu ch
t ing
w ard
u nd
Ġagain st
Ġwor ld
Ġg ood
ing ,
Ġst ud
Ġg ame
le ct
or k
ĊĊI n
ou n
al k
u ally
Ġpro b
Ġgo vernment
at h
Ġhel p
ing .
Ġpo int
Ġst ill
Ġyear s
Ġwh ile
if e
ib le
Ġs et
Ġs m
Ġle ad
ers on
Ġa c
Ġs ur
ĊĊ H
ĠA s
p h
Ġe ff
n 't
ment s
ill ion
le t
on t
Ġg en
ed ,
Ġg u
Ġt ake
we en
Ġ ent
rou p
er ,
Ġoff ic
Ġpro du
st em
l es
f ul
er t
Ġ20 0
Ġs ame
Ġs im
g r
Ġth ough
g an
Ġm in
il ity
Ġbet ween
Ġl aw
l i
Ġpro v
Ġdiff ere
Ġcon f
e ll
Ġin st
ot e
. âĢĿ
Ġ $
Ġn um
ĊĊ M
Ġc ar
sel f
er al
Ġs ign
Ġc ol
Ġo p
Ġb r
Ġs omet
Ġa round
Ġw r
Ġsu b
e ver
Ġh igh
ĊĊ O
Ġf ound
Ġit âĢĻs
u es
Ġr un
Ġo b
t y
Ġhe re
ol og
ut ion
Ġth ree
Ġcomp an
Ġre ally
vel op
u p
ĊĊ F
Ġin ter
Ġsupp ort
âĢĻ re
ar ch
re ad
Ġm em
us s
ĠTr ump
Ġm ed
Ġg roup
Ġt er
Ġre al
c ent
Ġst r
i x
Ġsy stem
en c
Ġre f
Ġin s
a x
Ġre t
Ġdis c
ĊĊT h
g g
Ġp ublic
a ,
Ġ ed
d er
l and
Ġus ed
ra ct
Ġg reat
Ġf am
Ġc our
Ġtr ans
Ġw om
at her
Ġex p
ou se
ĠThe y
at ch
Ġf ind
Ġb oth
a ir
Ġha pp
h ip
o ol
Ġto ld
Ġd uring
Ġc ur
Ġex per
e f
Ġmon th
e red
Ġb ig
Ġha nd
Ġas s
Ġs ince
Ġre ad
n g
y s
al th
i o
ĠY ou
Ġex t
al s
ĠI s
Ġc r
Ġis s
en se
ce pt
Ġde velop
Ġf ew
ord ing
v es
ĠF r
is ion
Ġf act
Ġfo llow
Ġre p
Ġw ar
Ġp erson
ĠI âĢĻ
Ġd et
Ġc re
c ess
ire ct
a ve
Ġl ot
ro s
m s
Ġpol it
ul ar
Ġ 6
ĊĊ C
ic s
e ad
it s
Ġle g
Ġas k
e e
l ed
Ġbel ie
S .
a red
Ġcont in
Ġc ent
Ġp ut
Ġa ut
ĠS o
im es
Ġan other
Ġpl an
Ġex pl
ist s
Ġo pp
ĠC om
c on
Ġsomet hing
g et
Ġre qu
ĠI f
Ġpr ot
ak es
Ġs l
Ġinv est
, âĢĿ
Ġdon âĢĻt
Ġ1 0
i vers
n er
Ġdiffere nt
Ġf il
Ġc le
u res
Ġm ark
Ġar t
Ġres p
ation .
Ġsay s
Ġre le
b ers
Ġse ason
ort h
Ġc amp
in es
ĠC l
re nt
ent ion
Ġh ome
is m
Ġne xt
ch ool
Ġm ight
Ġit .
ly ,
al e
Ġf ar
Ġt ry
Ġcomm un
p r
ĠU .
Ġl oc
am es
ter s
Ġne ver
Ġe ach
Ġp ower
Ġcom e
t s
Ġg iv
Ġper cent
ĠA l
Ġg ot
ation ,
Ġl ife
ĊĊ P
Ġop en
Ġpos s
Ġall ow
00 0
o h
Ġ .
Ġch ild
Ġhe ad
Ġb est
ere st
Ġqu est
ĠTh at
m in
Ġse em
ĠA n
Ġp ass
ar ge
at t
Ġsec ond
o k
Ġad v
Ġb us
Ġfe el
Ġc he
Ġ [
itt le
ĠR ep
a j
Ġc or
t on
Ġm illion
Ġde p
m ed
ic ally
ĠF or
ĠU. S.
Ġin f
he s
Ġinclud ing
s on
r ic
er .
v iew
Ġinc re
re t
Ġd at
ut e
ĠR e
Ġwith out
Ġrec ent
a z
Ġb o
Ġde m
Ġm et
a .
Ġpl ace
Ġc are
Ġp ri
Ġcount ry
it al
Ġim port
Ġcon c
n ce
Ġcont ro
Ġres ult
gr am
Ġin form
Ġd irect
Ġc a
Ġbu ild
Ġh ard
Ġprob le
ros s
Ġ 7
Ġnum ber
Ġw in
Ġto p
con om
n ed
Ġa v
ĠS e
Ġbet ter
le ction
, 000
ĊĊ R
ĠU S
t en
Ġ ide
Ġl ittle
ĊĊ D
an c
Ġle t
Ġt alk
Ġd ist
ĊĊ N
Ġp ost
r at
ever ,
a h
Ġst and
Ġint erest
p le
pt ion
i red
Ġf our
ĠAmeric an
W e
Ġt urn
Ġke ep
ers ,
Ġcall ed
Ġc ase
Ġpart ic
ĠL e
a im
iz e
Ġan n
Ġpol ice
Ġp ay
ch n
Ġbe h
Ġapp ro
ie ld
Ġth ings
Ġatt ack
Ġh um
ĠA r
Ġm il
as h
Ġmo ve
u c
Ġle ft
l ine
Ġt ri
aj or
ĠThe re
ĠS h
th ing
is hed
Ġe l
Ġl ess
Ġf ull
Ġus ing
er v
Ġser v
ar s
Ġpro gram
Ġ 8
Ġre st
Ġpre v
at ure
Ġm ain
Ġp op
. "
r al
way s
iz ed
ag es
Ġpres ident
in ed
Ġe conom
Ġmo d
os ed
ic es
Ġg l
im ate
ĠI nd
Ġl ist
Ġt est
le g
Ġcur rent
Ġit 's
ert ain
Ġwom en
Ġs chool
in al
od y
Ġch ange
' re
Ġfor m
e x
Ġsm all
Ġe as
Ġal read
Ġeff ect
ab ly
Ġoffic ial
Ġre ce
Ġle vel
ĠD e
Ġg r
u g
le ,
Ġf un
Ġd ri
Ġ 9
in ess
Ġex pect
Ġre se
ers .
Ġpr om
ĠUn ited
iv es
Ġv al
Ġm one
Ġch ar
Ġhapp en
I t
a ign
or n
o ,
Ġj ob
Ġh ist
Ġre ason
Ġpro ject
am a
Ġalread y
h at
Ġcl aim
Ġab le
Ġth ing
Ġmark et
ĠB l
Ġu nt
Ġnew s
Ġm ajor
i ence
pl oy
Ġl ater
ĠO b
ĊĊB ut
u ck
Ġhe alth
Ġ- -
ĊĊI t
in s
Ġc ap
Ġst ory
Ġal ways
Ġdes ign
Ġte chn
Ġc ity
Ġp ast
ivers ity
ĊĊ L
ot t
u ro
re m
ĠH ow
Ġt y
Ġa way
Ġch ang
id ed
Ġwh y
oh n
Ġb re
is ed
Ġor gan
at ter
ĠA t
Ġs ol
Ġcamp aign
er ing
ĠCh r
Ġimport ant
Ġb ook
, "
Ġspe c
h or
Ġle ast
Ġv is
Ġf ree
pp ed
t he
l ess
iss ion
Ġg row
l ing
g y
Ġc ame
od e
Ġm aking
Ġh op
Ġpro f
ĠP res
r ation
Ġrem ain
er n
ur ity
ir d
Ġk ill
ant s
Ġte ll
Ġen ough
Ġo ld
Ġo per
Ġc ost
Ġm ust
st and
re en
w ork
Ġfam ily
Ġde al
us ed
ar i
Ġe ar
out h
Ġev ent
ĠC an
Ġrec ord
ĠRep ublic
Ġv ide
i or
Ġl arge
Ġunt il
ĠS he
Ġk ind
Ġt ax
Ġpol ic
Ġpolit ical
Ġm en
Ġ est
i end
Ġcompan y
Ġtoo k
os s
Ġfr iend
Ġacc ording
i er
ĠP ro
Ġv iew
Ġfor mer
Ġp ur
Ġme an
u red
Ġs it
Ġa ff
Ġbec ome
r .
Ġd ra
ĠI '
Ġdat a
s ide
Ġact ually
are nt
ĊĊTh is
Ġproble m
Ġd r
ver t
Ġp at
Ġquest ion
Ġl ine
Ġv ot
Ġl a
ĠJ ohn
Ġw on
n es
Ġb as
at ur
Ġg ive
Ġcon st
Ġf und
Ġwork ing
Ġin tern
Ġof ten
end ing
oc rat
Ġhum an
he re
Ġde b
Ġme et
ment .
ĠP h
ĊĊ E
is ter
enc y
n ess
i k
Ġs k
Ġcomp let
Ġl o
Ġse ver
ion al
Ġe ver
Ġbus iness
c rib
Ġ ve
Ġgen er
ĠR uss
w it
ĠPres ident
Ġto day
Ġb ro
Ġdon 't
g in
en g
c u
Ġmed ia
ĠE uro
Ġret urn
m ost
Ġb it
ut ure
Ġg ra
Ġse en
ĠD em
Ġwhe ther
Ġ es
Ġha ving
Ġcl ass
Ġa ir
ĠCom m
Ġapp ear
Ġinform ation
Ġle ar
w are
Ġ =
Ġsever al
ĠA d
r or
Ġn ight
Ġn ame
Ġper form
Ġw ent
Ġed it
Ġwor d
e .
ru ct
Ġe arly
Ġf ore
i ol
et s
em ber
Ġyou ng
Ġsu re
Ġchild ren
o v
iv ed
e ,
ies ,
ĠY ork
au gh
Ġs ci
Ġlike ly
al ity
it her
Ġmem bers
Ġde v
Ġchar act
Ġf ive
ĠM ay
Ġpro cess
Ġsu cc
ak en
m ber
at or
Ġp ot
i ent
Ġa ction
Ġal ong
Ġc ertain
ĠIt âĢĻs
Ġor der
et y
Ġmone y
Ġmil it
ĠB e
Ġd one
Ġc rit
y ing
Ġcontro l
id er
al f
Ġinv ol
Ġso cial
Ġ 0
Ġh our
ĠEuro pe
art ment
Ġf ac
Ġs ing
Ġam ong
Ġf uture
Ġinvest ig
Ġb ra
Ġf ight
Ġ vers
Ġcour se
Ġex amp
o .
ort un
us h
id ence
Ġthough t
Ġ1 2
ar ing
Ġs ide
Ġar g
Ġw ater
ne y
ĠS y
ĠIâĢĻ m
ĠM an
âĢĻ ve
Ġp ress
re am
Ġwith in
Ġloc al
id es
b s
is on
Ġac ross
Ġr is
if ied
- y
Ġcommun ity
Ġdo ing
Ġav ail
Ġaut hor
Ġen g
Ġkn own
Ġon ce
Ġm akes
Ġy et
Ġposs ible
Ġunder stand
c om
Ġsh ort
ed eral
Ġpro p
Ġb en
Ġget ting
Ġv iol
Ġse x
ĠA ll
Ġo cc
Ġann oun
Ġh old
ent ial
ĠS p
Ġsaid ,
Ġst at
ag ue
in a
Ġe qu
gg est
ĠH ouse
Ġprot ect
u ed
ĠSt ate
Ġpri v
ies .
Ġsu ggest
em pt
Ġbelie ve
Ġ Q
Ġprodu ct
c o
ĠW hen
ĠP l
b e
Ġ201 6
. .
Ġgiv en
ub l
- -
Ġact iv
ver age
Ġw rit
Ġ1 5
Ġf ail
-y ear
Ġl and
ĠOb ama
ĠM ar
Ġp a
r on
Ġor ig
Ġe lect
o ot
ĠDem ocrat
Ġstr ong
Ġj o
ĠâĢľ I
ĠUn iversity
ic le
Ġit ,
ĠP r
Ġplay ers
Ġcl ose
ĠC ol
Ġme ans
id d
c hed
Ġc ut
in ing
Ġ19 9
c l
Ġd i
i qu
Ġ &
ain ed
Ġs ent
iv id
end ed
ens ive
Ġavail able
Ġiss ue
Ġn ational
ĠO n
Ġ Z
ĠS en
g ed
Ġcom es
ĠO r
ĠS c
Ġ ident
n ect
Ġs our
ur s
Ġpos ition
Ġc reat
Ġ1 8
Ġfil m
o x
re w
so ci
b le
Ġsa f
Ġ ,
Ġm us
ap s
Ġtry ing
on y
le ment
b all
olog y
ur ther
Ġb ased
i ally
Ġl ove
Ġal most
Ġind ust
o ber
re et
Ġf oc
Ġvide o
ĠWh at
Ġday s
Ġl ight
Ġdid nâĢĻt
Ġhist ory
Ġn et
ard s
Ġ201 5
it ing
ĊĊA s
Ġask ed
as hing
Ġcour t
Ġem ploy
k s
Ġsucc ess
Ġto get
Ġtoget her
Ġl im
Ġfollow ing
Ġacc ount
it ive
Y ou
Ġcle ar
ĠC ar
Ġde ath
Ġadd ition
Ġm om
Ġh ig
Ġexper ience
ir on
iv ing
Ġlook ing
ĠC ent
i ans
âĢĻ ll
ĠChr ist
g er
Ġstart ed
ci ally
le x
Ġe lection
Ġr ul
on ,
b ook
ĊĊH e
p or
Ġcon d
ment ,
Ġb ill
Ġreport ed
Ġimp ro
Ġrep res
ĠC on
b y
Ġp ar
re st
ion ,
Ġtr ad
ion .
or ld
Ġl ive
ĠCan ad
Ġt aken
ate ly
ro p
Ġeff ort
Ġ ]
Ġsec urity
ay ,
Ġbeh ind
Ġ201 4
am ent
ĠO ne
Ġdec ision
il ar
Ġacc ess
as es
is ing
Ġent ire
e ly
Ġp ract
min ist
ie f
al d
Ġc ou
ĠM in
f or
th ough
Ġf av
g ress
ĠCl int
i um
Ġ3 0
Ġmilit ary
u ge
Ġp ick
Ġv ict
ious ly
ust om
Ġl ow
Ġth reat
ĠM c
i ber
Ġcomp et
Ġ i
r ict
Ġs ix
Ġb ad
ere nce
Ġsome one
u ly
Ġr ather
ra el
a pp
Ġthat âĢĻs
Ġ1 1
Ġbr ing
Ġpres ent
Ġan al
Ġp ubl
Ġind ivid
ĠC o
h ile
Ġf ace
Ġg ames
Ġt aking
Ġt imes
Ġph ot
Ġdisc uss
Ġne ar
Ġqu ick
Ġm or
ĠN orth
Ġm iss
Ġpre t
Ġto t
ri es
ĠT e
ur y
t o
Ġh alf
Ġthem .
ĠD on
Ġdoes nâĢĻt
Ġpro per
u se
ĠN ational
un ch
Ġf all
ĊĊ G
Ġtime ,
Ġatt empt
Ġf ood
a ff
if t
Ġspe cial
r an
Ġthat ,
) .
ĠA m
i ver
Ġprob ably
Ġwant ed
n ot
ĠD ep
Ġindivid ual
Ġf re
ru g
ul ation
ashing ton
iz ation
or ies
Ġm ar
Ġrese arch
Ġyear ,
ĊĊ J
Ġto ward
ĠS ec
ĠC ity
ro wn
ĠA f
un e
Ġm ess
l o
ia ,
Ġdet ail
u ff
Ġnot hing
Ġmod el
st er
ĠJ an
Ġh it
Ġsp ace
o ice
o int
Ġ$ 1
Ġre du
p ly
as ter
ĠâĢľ The
ĠB rit
ĠP ol
Ġf ederal
ĠW ar
Ġide a
ot s
ĠIs rael
Ġm atter
ction s
c her
b ack
Ġ /
Ġfo ot
Ġsu s
Ġcom b
ĠE ng
er man
Ġwr ote
Ġm ind
Ġsim ilar
Ġcre ate
Ġdes crib
Ġel se
Ġc ult
Ġbe gin
ĠW orld
Ġben ef
Ġbl ack
Ġcon nect
Ġch all
Ġex ist
e b
Ġke y
Ġman ag
ĊĊâĢľ I
Ġe ither
ir l
ĠB r
Ġb ank
v iron
le y
ĠT o
Ġsing le
Ġsu m
Ġserv ice
Ġfr ont
ĠW ashington
ic ult
ĊĊA nd
Ġf urther
ro du
Ġcom ing
ĠW ith
Ġst op
p ite
ĠA ust
Ġsay ing
an n
Ġt arg
Ġyou âĢĻre
Ġre pl
Ġsign ific
Ġmonth s
ĠClint on
Ġc and
Ġpart y
u nt
Ġs al
Ġf ig
en n
Ġth ird
Ġw atch
Ġfin al
Ġbl ock
g le
Ġd ue
ab ility
Ġst ep
Ġex ec
Ġcontin ue
el t
Ġseem s
Ġcon v
Ġh ouse
Ġout side
Ġ201 3
Ġen c
Ġprov ide
Ġbe gan
Ġf ield
Ġtime .
wit ter
Ġw a
Ġan t
pe cially
Ġc ustom
Ġ er
os p
Ġme as
or ,
ir m
Ġser ies
al if
Ġoff ice
T h
Ġm ass
an ,
c ing
ĠF l
Ġam ount
ĊĊI f
ĠS outh
our n
Ġro om
Ġf ire
Ġem ail
ĠD av
ll ing
ar ter
Ġ201 7
Ġrun ning
o red
Ġgo al
ac y
Ġinter view
ra ph
Ġ201 2
Ġche ck
Ġsc en
Ġrele ased
ĊĊ U
Ġen er
ĊĊW e
Ġl arg
Ġbec ame
Ġdo cu
Ġfe at
Ġgen eral
Ġwho le
Ġhim self
Ġst ri
Ġim m
Ġthem sel
Ġs ound
m y
Ġrepres ent
as ing
il t
and s
Ġany thing
ĠIn st
Ġevery one
Ġad minist
Ġt reat
Ġit self
ace book
Ġsim ply
Ġspec ific
ob al
ĠIn tern
ar m
Ġab ove
Ġd am
rib ut
Ġrele ase
ĠJ ust
Ġin it
Ġyear .
ĠSt ates
Ġro le
d d
Ġinf l
Ġapp e
Ġrel ations
Ġdiff icult
Ġbre ak
Ġbel ow
Ġsit u
iv il
am ed
Ġg un
Ġprof ess
ĠRepublic an
Ġfor ward
Ġm ult
Ġt re
Ġsignific ant
Ġag ree
Ġpret ty
ĠI m
ĊĊ" I
ff ic
Ġcand id
ol ution
Ġtr ue
Ġal leg
Ġindust ry
Ġqu ite
ĊĊF or
pl ay
Ġin j
Ġnet work
Ġb illion
Ġch arg
Ġev idence
Ġ X
on es
Ġleg al
Ġl ab
p ar
ab l
a ult
ĠT witter
ĊĊ 1
Ġd rug
Ġsa w
ĠP art
Ġan s
Ġplay er
Ġinclud e
Ġg round
itt ed
Ġw alk
ĠE x
Ġe y
Ġcan âĢĻt
Ġne g
in ation
Ġmus ic
ly .
Ġty p
Ġst ay
Ġes pecially
Ġresp ons
Ġ" I
2 0
Ġv ote
ain s
Ġs w
Ġeconom ic
Ġc oun
cc ording
Ġ2 5
Ġear li
Ġstud y
ĠHow ever,
ib ility
ĠA pp
Ġl ost
Ġde ep
Ġlead ers
m .
pp ing
Ġplay ed
Ġd ou
an ces
Ġl ate
ĠH ar
Ġofficial s
o id
Ġinst ead
a pe
Ġplay ing
Ġb all
- old
ĠG erman
a ul
ĠH is
an e
r ing
Ġs ense
Ġyear s,
ĠB ar
l im
Ġmom ent
ĠG e
Ġc op
Ġother s
Ġ z
Ġopp ortun
i od
Ġen viron
ĠWh ite
Ġb ar
ĊĊThe re
Ġ1 6
ĠA fter
Ġs ite
Ġpl ac
Ġsh are
Ġcomm on
Ġd om
Ġ )
Ġh ost
Ġwh ite
Ġtra ck
if y
art h
ourn al
ĠAmeric a
Ġon line
Ġbuild ing
ĊĊO n
Ġadd ed
Ġsh oot
at ic
Ġevery thing
Ġcond ition
Ġvers ion
Ġpolic y
Ġ1 00
id ay
Ġc ra
Ġ1 3
' ve
Ġk id
Ġadd ress
Ġpot ential
Ġcompan ies
am er
Ġris k
Ġtarg et
Ġwe bs
an cial
Ġmo v
Ġph ys
ĠSy ri
Ġr ad
Ġhe ld
Ġt em
ĠO ct
ĠW est
Ġsh ot
ĠC ong
Ġd est
ur al
Ġp ie
Ġ1 4
iv al
Ġdec l
Ġl ink
Ġneed s
Ġshow s
oo gle
Ġpoint s
Ġl ed
ĠSe pt
Ġval ue
Ġac cept
Ġj ud
ĠI' m
- p
Ġwom an
ĠM arch
att le
l er
idd le
Ġre ve
og n
Ġmin ut
Ġan im
Th is
ĠDep artment
s h
le ge
Ġp le
i am
-year -old
Ġfoc us
l f
ĊĊâĢľ The
Ġab s
Ġany one
ang u
Ġwr ong
- f
ĠE d
Ġst ru
Ġ |
ĠR es
Ġper iod
Ġannoun ced
Ġp arent
ance ,
Ġconc ern
Ġo pt
Ġed uc
Ġp ain
ues day
Ġex c
ĠM ond
n ow
Ġdet er
ate g
ri ed
Ġyear s.
e v
Ġcons um
ĠM us
Ġstud ents
med i
Ġright s
ul arly
ac hed
ĠM ed
ir t
Ġc red
at ors
Ġperson al
Ġare a
m b
ĠF acebook
Ġtot al
Ġde l
w here
ĠThe se
Ġg am
Ġup d
Ġcons ider
Ġhop e
Ġpop ular
Ġso ld
Ġre view
Ġv ar
ind ow
Ġhig her
ĠW ill
Ġt it
ĠN ot
Ġ :
Ġrel ig
Ġp ort
c le
as k
ĠIt 's
ĠM ich
B C
ĠT uesday
it ution
Ġg irl
Ġcre ated
Ġb ody
Ġr ate
Ġc ode
Ġfun ction
Ġcont ract
Ġ19 8
ĠS u
Ġfav or
Ġm ot
Ġsur pr
Ġne arly
c y
ĠG u
Ġpriv ate
Ġa p
- t
on se
s c
Ġdid n't
Ġans w
Ġm ag
Ġfam il
Ġsu per
Ġhow ever,
Ġso on
Ġincre ase
ity .
ĠA ug
Ġapp lic
Ġa ge
Ġsci ent
at s
Ġob ject
Ġc e
pr il
- c
Ġimp act
r ight
Ġneed ed
Ġcharact er
itt ee
se c
Ġexec ut
Ġinvol ved
ep end
he ad
ull y
Ġst aff
u ary
end s
Ġlong er
Ġs en
id ing
l am
i en
s y
Ġpr im
ĠN o
Ġdevelop ment
Ġa ud
c il
Ġcomp ut
Ġex act
Ġarg u
ist ic
Ġ5 0
Ġcan not
og raph
le v
Ġis nâĢĻt
Ġb ase
Ġc ir
u el
Ġhe âĢĻs
ĠD o
Ġsp ok
Ġde ad
a i
Ġar rest
Ġrece ived
ĠAust ral
Ġp ack
Ġne cess
Ġfor ce
itt ing
Ġrecent ly
ĠH ill
ĠG en
Ġintern ational
Ġspe ak
Ġp red
Ġins ide
Ġe p
Ġv ari
Ġle ave
age .
ĠM r.
ĠW ed
Ġres pect
Ġexp ress
o ke
Ġa verage
Ġ1 7
her n
Ġ201 1
Ġre d
nes day
Ġcl ub
ent ly
h ood
Ġcont ent
a ut
Ġener gy
is l
o ver
Ġorig inal
Ġext rem
urs day
Ġd en
Ġ '
b ody
om m
ĠG o
ĠA pril
il ities
Ġw orth
Ġcom ment
Ġter ror
Ġfin ancial
Ġst e
i et
Ġhour s
Ġopp os
Ġgl obal
h od
Ġresp onse
Ġbec om
vert ise
se t
Ġrelations hip
Ġc ivil
Ġstate ment
Ġresp ond
ĠA b
Ġim medi
ĠC ount
ĠM y
ĊĊW hat
ĠWed nesday
er y
our t
Ġpubl ished
ĠWh ile
f ect
' ll
Ġsour ce
Ġl angu
ĊĊW hen
Ġab ility
Ġph one
or ing
Ġt akes
Ġpr ice
Ġor d
Ġst ates
ĠTh ursday
h aps
g o
ĊĊA n
ur d
Ġ" The
Ġcurrent ly
Ġdec ided
Ġrequ est
ive ly
r ay
Ġl at
rough t
um b
ity ,
Ġbro ad
Ġo il
Ġexpect ed
Ġmo der
a f
Ġch ance
ĠS und
Ġg ave
ĊĊS t
Ġl ack
Ġty pe
Ġart icle
Ġiss ues
ĊĊ" The
Ġm ater
y n
end er
Ġwho se
ĠC alif
Ġchang es
it iz
ĠG oogle
Ġdirect or
itt en
Ġstud ent
Ġv ol
Ġfore ign
Ġthere âĢĻs
Ġcou ple
- b
Ġtrad ition
_ _
Ġh uge
Ġest abl
j oy
m ing
Ġso ft
ĠJ ap
Ġst ra
Ġmem ber
Ġso ci
e ch
ove mber
ct or
ĠS ome
ĠJ uly
Ġre v
ally ,
Ġe mer
ur ch
Ġwe ap
av ing
Ġro ad
Ġs ort
Ġbu y
Ġrequ ire
a ction
ĠN ow
g ing
Ġwork ed
Ġsay s.
t ain
Ġem b
Ġar ri
Ġv ia
Ġturn ed
ĊĊH ow
ĠNew s
ĠS an
Ġad m
Ġsim ple
Ġint rodu
Ġthat 's
Ġcl os
Ġd iv
ĠJan uary
re g
Ġexamp le,
Ġp ict
l t
Ġgroup s
Ġ201 0
) ,
- d
Ġare as
ĠGe or
a el
Ġbo ard
Ġl iving
Ġsub ject
ell ig
Ġaff ect
ĠâĢ ĺ
Ġt im
Ġsp ent
Ġas soci
ĠF eb
Ġwebs ite
Ġco ll
Ġhe art
o ll
Ġm other
Ġvis it
Ġpo ll
c hes
ĠEurope an
Ġhe av
du ct
is c
r om
ĠT V
ĠSept ember
f er
Ġthemsel ves
atur al
Ġn ation
ĠDav id
ĠCh ina
Ġf elt
Ġnum bers
ri pt
o ff
Ġappro ach
ĠN ovember
Ġlaw s
Ġimpro ve
Ġreve al
Ġc ell
igh b
Ġ2 4
Ġbu ilt
ĠP e
Ġreg ard
Ġinfl u
Ġeas y
Ġind ic
ough t
Ġearli er
l ike
ĠM r
ĠIs lam
Ġra ce
Ġsec ret
Ġrec ogn
Ġth ous
on st
ĊĊA d
ĠSt e
ruct ure
Ġhe ard
Ġpartic ip
Ġde li
ĠIâĢĻ ve
ĠC ourt
ĠS m
Ġmor ning
Ġvict im
Ġeng ine
Ġp ull
Ġf em
ĠA ct
ĠG od
ĠAf ric
Ġc ard
p ut
Ġco ver
g est
Ġen joy
lo ad
Ġcount ries
Ġleg isl
Ġto ol
s er
ĊĊTh at
Ġdef in
ĠJ une
c ast
c ome
ru ction
A T
Ġtra vel
ĠP aul
Ġlat est
Ġexamp le
Ġcap ital
Ġn on
Ġmater ial
ĠR ed
ĠCalif orn
Ġlear n
Ġdem and
Ġsu ff
Ġu r
a ily
Ġre pe
Ġgo es
Ġr ound
age ,
o ard
Ġwant s
Ġtr ade
Ġhim .
ang er
ĠRuss ian
Ġcol lect
Ġprev ious
Ġwe âĢĻre
Ġfriend s
ĠB y
ĠOct ober
Ġprodu ction
Ġget s
ĠP al
un g
Ġl og
Ġmet hod
Ġkn ew
Ġenviron ment
Ġis ,
ĊĊS o
Ġ2 1
Ġkill ed
ot o
he l
Ġne ighb
Ġw ide
l ight
Ġc al
Ġhe ar
Ġoff er
b r
Ġre ach
Ġb rought
Ġn orm
Ġf ather
Ġm atch
ĠAug ust
Ġdoes n't
Ġto wn
ĠK ore
âĢĻ d
ce mber
Ġallow ed
Ġthat .
Ġper fect
Ġen s
atur day
ĠU K
Ġco ach
ĠP ark
in ,
ĠSen ate
iqu e
ĠCong ress
ĠBrit ish
Ġd ig
al t
Ġtri ed
Ġ19 7
an a
Ġatt ention
Ġst o
Ġim ag
Ġh on
Ġ {
5 0
Ġgrow th
ation s.
Ġm at
Ġc ause
Ġte xt
Ġse par
. m.
Ġvar ious
Ġve h
Ġl ower
Ġe t
Ġlook s
Ġpartic ular
Ġquest ions
Ġs qu
Ġspok es
ch ie
Ġb an
Ġpl ans
Ġmeet ing
Ġb ud
Ġf ear
oo se
Ġresult s
Ġcrit ic
ĠSt reet
Ġcont act
Ġm ention
Ġf ans
ĠJap an
Ġh om
e xt
ĠE n
el s
Ġweek s
Ġres ident
Ġst ar
om b
o f
ĠRuss ia
it er
Ġca pt
Ġthey âĢĻre
an y
Ġcr im
Ġse arch
Ġexpl ain
Ġus ers
Ġmed ical
v al
ĠFr iday
ĠDe cember
n ers
Ġo ption
- m
y ond
olog ical
i ents
Ġ ill
und red
Ġf air
ur ning
Ġbeh av
Ġperform ance
Ġhere .
Ġter ms
es tern
ide red
Ġe ight
ĠAmeric ans
Ġinclud ed
ĠS aturday
y le
ĠE m
Ġex am
H e
ig r
ĠMond ay
Ġc itiz
Ġstru gg
vertise ment
Ġpre p
. 5
Ġs ize
pl es
Ġdocu ment
ĠDon ald
ĠP ar
c he
Ġbig gest
ad es
Ġb oy
Ġse lf
ll ed
Ġtechn ology
Ġ4 0
Ġsee k
Ġext ra
i res
ou ra
Ġind epend
Ġcons idered
h am
Ġstand ard
Ġdes pite
Ġh ot
Ġw ond
- 1
ĠI ran
Ġwork s
Ġtalk ing
Ġs ong
Ġ ess
Ġ #
for ce
le ar
e es
Ġsex ual
Ġsl ow
ra q
ut h
Ġteam s
ĠT ex
E R
Ġc y
ĊĊA t
Ġprot est
Ġway s
ar ily
Ġr u
o on
ra ft
Ġdo ll
ĠA g
Ġyou 're
ec ause
Ġp ers
ĠP er
o e
e an
Ġcl imate
Ġprev ent
Ġcon duct
Ġincre asing
re ed
ellig ence
Ġwr itten
op h
Ġminut es
Ġa chie
Ġviol ence
Ġter m
Ġsc reen
Ġpartic ularly
ĠP ost
Ġsur ve
Ġpa per
Ġj ournal
ra p
osp ital
ĠMus lim
S A
Ġf ast
Ġser ious
Ġreport s
Ġinc ident
ĠI raq
ĊĊ You
Ġqu arter
Ġcons erv
ic ro
ure ,
Ġsp ort
Ġnow ,
Ġpa id
Ġpl at
ip le
is hing
Ġcor re
r is
Ġse ven
n a
ation s,
Ġbo x
Ġup on
a ur
Ġob v
Ġp ark
Ġre b
Ġcar ry
Ġl oss
Ġcomp l
Ġcomplet ely
se qu
Ġwas nâĢĻt
Ġcourse ,
Ġdef ense
Ġadminist ration
Ġthem ,
Ġdra w
et er
ru ary
Ġwork ers
or .
at ives
Ġset t
Ġsum mer
Ġcertain ly
Ġlead ing
ĠL ond
Ġch ief
im ent
Ġfe ature
Ġdou b
al ,
Ġr ange
Ġrese ar
Ġh undred
Ġman age
Ġinst all
Ġstart ing
ĠDemocrat ic
Ġl iber
i -
ud e
Ġpri or
Ġ }
at ory
ib ly
Ġ. ..
f ace
cher s
Ġquick ly
ĠM ark
Ġm ach
Ġexact ly
ĊĊW hile
Ġg as
Ġres our
led ge
ent ially
ĠB ill
Ġst ore
Ġgiv ing
ĠBl ack
Ġh or
Ġass ist
e g
Ġpr ison
Ġmov ie
Ġrequ ired
b it
ĠC or
Ġcan 't
Ġpract ice
ĠJ ew
Ġb ott
Ġproble ms
Ġav oid
Ġserv ices
Ġ +
ĠSund ay
ke y
ĠC ont
Ġf ill
Ġqu ality
Ġ200 8
Ġh y
uc lear
Ġsk ill
Ġl ay
Ġlook ed
g round
Ġshow ed
Ġbud get
Ġsci ence
Ġchall eng
. ,
ate ,
ĠLe ague
en ed
ou d
r ast
Ġpolit ic
augh t
Ġhist or
Ġn atural
Ġocc ur
ĠFeb ruary
ĠE ast
Ġmoder n
Ġr out
Ġcommun ic
or ters
or ter
ĠM ore
ce ed
Ġ( and
ĊĊA fter
Ġcon vers
Ġreg ul
Ġst uff
Ġfig ure
ĠI S
ĠE ven
en ,
Ġdescrib ed
ĠMich ael
Ġfl o
Ġpur ch
es e
ys is
Ġgu y
Ġmult iple
-- --
Ġfoot ball
Ġd ro
Ġ200 9
Ġro ck
Ġn amed
ĠSt at
Ġremain s
Ġt able
f ully
Ġex cept
Ġass um
Ġs ens
I S
Ġa w
he m
Ġinclud es
Ġlet ter
lt imate
Ġand ,
Ġorgan iz
Ġme .
ĊĊT o
Ġr ank
Ġmajor ity
Ġh ous
ate .
ĠTex as
Ġhappen ed
Ġdem onst
en ge
ĊĊO ne
Ġwell .
ĠMin ister
Ġc amer
Ġsur v
Ġ2 2
Ġb i
Ġme ,
Ġcir c
a pt
Ġf an
Ġthrough out
ĠS and
Ġm id
Ġim age
Ġwr ite
Ġ( w
t ed
Ġm iddle
Ġus ually
Ġopportun ity
Ġpro gress
Ġplat form
Ġfin ally
Ġgrow ing
ist an
ĠN et
he st
Ġa head
Ġprov ided
Ġbe yond
ĠP at
Ġcr is
Ġce le
Ġl os
ĠG l
ines e
Ġal though
ĠInd ian
Ġfeat ures
Ġ19 6
ĠL ab
ĊĊA l
Ġfact ,
Ġspe ech
Ġout .
Ġtoward s
h old
us ion
Ġprop os
it ,
Ġ Â
Ġaddition al
Ġal one
Ġla unch
Ġtra ining
Ġrece ive
ia .
Ġm ent
ly ing
Ġmo b
ĠR om
ĠB ra
ren ch
ĠE l
Ġ( 1
ĠThat âĢĻs
c er
it .
ove red
ĠK ing
an ced
om p
Ġimp lement
ĠâĢľ We
Ġp en
Ġsomet imes
Ġalleg ed
Ġch oice
Ġdis play
Ġlead er
Ġb ord
Ġg one
Ġse ll
Ġpie ce
ag ed
Ġfor ces
Ġcons ist
Ġw ife
Ġhe 's
Ġsoft ware
Ġm is
ĠCh ar
Ġf ile
Ġdesign ed
t e
Ġrec omm
ĠS w
ĠF irst
Ġmo ved
Ġm ill
Ġf irm
Ġcomplet e
Ġit em
o llow
Ġtw e
Ġp an
Ġ il
Ġrem ember
ĠH er
Ġsus pect
Ġf ix
Ġpr in
ĊĊâĢľ We
Ġthous ands
Ġev ents
Ġag o
Ġpresident ial
Ġincre ased
ĠC oun
Ġbl og
3 0
Ġpur p
Ġclaim s
al .
Ġhelp ed
Ġworld .
Ġsp end
Ġu nd
ĠAs soci
Ġsitu ation
en ing
ip s
Ġc as
u f
Ġl ives
it ute
ĊĊW ith
Ġcomp lex
Ġbegin ning
Ġep is
Ġmo ving
Ġcor por
Ġp ath
Ġd anger
l ish
Ġro b
ĠCh inese
he t
Ġc ases
ĠJ ames
O R
Ġconf erence
Ġpop ulation
is es
Ġle ague
Ġs on
Ġop in
Ġcontin u
Ġexecut ive
Ġbl ood
Ġn uclear
Ġrel ative
Ġwon âĢĻt
Ġdev ice
Ġspe ed
Ġper haps
Ġmove ment
f ort
Ġenc oura
Ġoffic ers
Ġcont ain
Ġimmedi ately
in ary
Ġdri ve
Ġp it
Ġword s
Ġse lect
Ġappear s
g es
ĠCount y
ess ion
Ġcont ribut
Ġper m
Ġread y
Ġmess age
Ġlarg est
ir ing
Ġ1 .
Ġcol lege
Ġa im
row d
Ġinterest ing
Ġsen ior
ight s
Ġcare er
ĠPh il
ance .
i ant
ĊĊ 2
Ġfor ced
Ġcomp ared
ĠJ ack
- s
Ġn om
Ġ2 3
ib r
Ġcon cept
ĠThe n
in c
w o
Ġcall s
ĠRepublic ans
ac her
ĠWill iam
ict ion
am s
ĠâĢ ¦
- w
co in
ĊĊAd vertisement
- h
ĠT ur
ĠR o
Ġmy self
Ġp age
Ġpower ful
Ġsaid :
Ġf a
Ġbra nd
Ġdiffere nce
Ġd ied
h ib
Ġparent s
r im
Ġdirect ly
Ġc ast
Ġevent ually
augh ter
ĠPart y
Ġus er
Ġme ant
Ġpart s
ren g
op s
Ġhand s
Ġgame .
Ġest im
Ġsub st
ate ver
Ġread ing
im um
Ġup .
ĠH ere
Ġallow s
ĠApp le
amp ions
Ġthis ,
iz ing
on ent
us es
e ed
Ġpl ant
ĠR ich
ure .
Ġref er
Ġin n
Ġar m
u gh
Ġa ware
Ġp us
er c
ĠAn ge
Ġsh own
ra b
Ġpos itive
Ġdra ft
Ġb od
Ġgiv es
ĠO ff
Ġansw er
Ġrul es
Ġil leg
Ġdo g
ol ute
ex ic
Ġto uch
ĊĊ" We
ĠMc C
Ġcomm and
in o
Ġsp ot
Ġst ories
ĠS pe
Ġover all
Ġcrim inal
Ġth row
F L
ĠCanad a
Ġeas ily
Ġtra in
ĠSt ar
ĠPol ice
Ġn ar
ven ue
Ġpo or
Ġappe ared
Ġb and
Ġpeople ,
ĠS erv
ĠR ober
Ġf ra
ro om
Ġde g
ĠG reen
Ġwrit ing
Ġmay be
Ġ ign
ĠLond on
Ġdis app
us ing
Ġun f
id ge
Ġst reet
sy ch
ens ion
ĠO f
Ġt en
ĠPl ay
Ġs le
Ġd ark
Ġcom ments
It âĢĻs
Ġtr ust
Ġphys ical
Ġdetail s
ur t
Ġc rowd
Ġcop y
Ġyour self
ĠCent er
u s,
Ġn ature
Ġcle an
Ġsign ed
Ġt ro
ĠEng lish
Ġnecess ary
Ġweek ,
ad em
Ġc ross
uf act
ĠF rench
er ve
ĠC ons
Ġw all
Ġsm art
e gr
Ġanal y
d own
Ġinc ome
Ġchall enge
Ġdr ink
Ġgr ad
ri ef
Ġs we
it es
Ġn ice
ĠB ro
ĠD es
P h
Ġout ,
is ,
ine ,
ĠT imes
Ġanal ysis
b an
ĠD ay
et ,
Ġinvestig ation
Ġmean ing
Ġeffort s
Ġsus p
Ġco ol
Ġrelig ious
ĠM exic
Ġday ,
Ġst reng
Ġorgan ization
Ġlevel s
ĠChrist ian
Ġprom ot
Ġpass ed
Ġm ix
Ġapp arent
Ġb al
Ġcent ral
Ġchang ed
Ġlim ited
Ġaut om
Ġsub s
Ġcr ime
le ase
Ġvot ers
in ated
ĠA nt
m on
ĠIntern ational
B I
Ġ2 6
Ġexp and
Ġcontin ued
ĠI I
ous ly
Ġis n't
Ġmar ri
Ġide as
Ġch arge
Ġs il
Ġcompl ain
ĠI nt
Ġbenef it
Ġimp ress
Ġh ospital
ĠG O
ĊĊA ccording
h y
Ġ ut
Ġd rop
ast ic
Ġseason .
Ġthink ing
Ġ <
Ġ2 7
Ġs at
m p
Ġreg ular
Ġ2 8
Ġd ire
Ġbra in
Ġcle arly
ĠG ra
Ġmin ister
en ces
ĠE U
Ġsuccess ful
ir th
Ġall ,
ĠT H
Ġag o,
ic les
Ġthere 's
Ġint elligence
ĠGeor ge
ĠS chool
ĠS er
Ġre ached
or id
Ġla un
Ġprim ary
Ġfail ed
or ney
Ġrel ated
Ġsa ve
ĠM or
Ġlangu age
ru pt
Ġrem o
ĠM art
Ġ$ 2
ĠK e
ĠA ir
Ġke pt
sec ut
i ar
f ield
ĠF in
Ġbe aut
Ġyou .
Ġweek end
Ġfre qu
es ter
Ġgu ys
Ġadv ant
Ġs n
Ġpress ure
Ġthere .
Ġprev iously
Ġr ise
ĠD an
re ly
indow s
Ġpeople .
ĠCoun cil
it ness
Ġs end
z e
Ġsp read
j u
Ġseem ed
Ġconf lic
- up
Ġdis p
ĠQ u
. 0
al ent
Ġfre ed
Ġal tern
ĠInd ia
Ġmeas ure
ĠT im
Ġfavor ite
p s
w ise
Ġdest ro
ĠDemocrat s
ĠCaliforn ia
b um
Ġcred it
Ġman ufact
ĠSm ith
Ġfull y
ĊĊ Y
Ġfollow ed
Ġdis e
Ġpred ict
Ġu ltimate
Ġex ch
Ġsp ending
Ġl ic
Ġattack s
Ġus es
n y
Ġeconom y
Ġmin or
Ġb attle
ent y
Ġtit le
Ġhigh ly
Ġfe ed
Ġbas ic
Ġexper ien
an ch
Ġins p
Ġcall ing
ĠG r
ĠT or
c ul
ĠGen eral
Ġc ities
Ġprin ci
Ġoffic er
Ġstra ight
l in
Ġre form
Ġpe ace
Ġhim ,
Ġsol ution
ĠFr anc
Ġsay ,
Ġag ency
a per
ĠJ er
res h
Ġbr other
Ġar ch
Ġsupp osed
Ġra p
ĠFl orid
Ġwill ing
Ġcost s
Ġauthor ities
u x
Ġes c
Ġdevelop ed
ĠHill ary
Ġ6 0
pp er
lev ision
Ġto ur
c raft
Ġch air
Ġjob s
Ġca used
ak er
Ġens ure
Ġcreat ing
Ġkid s
u it
ite ly
un k
Ġc at
Ġadd ing
Ġnow .
3 .
Ġtr uth
ĠB rown
n ces
Ġpre m
Ġhapp y
ine .
Ġm ission
ĠSc ott
Ġha ven
ĠCom p
it or
Ġgreat er
v ent
Ġcontin ues
ic ag
is ions
Ġm ist
Ġcorre ct
ar ian
Ġoff ered
- in
ot i
ĠSu per
ĠEng land
Ġlarg er
E O
Ġins ur
ĠS im
r ated
Ġsaf ety
Ġpost ed
Ġabs olute
Ġre n
Ġfem ale
Ġstr ateg
om en
Ġproduct s
ĠE arth
av es
Ġr at
Ġconf ir
b and
ĠFr om
Ġknow ledge
Ġem ot
Ġday .
ĊĊ K
Ġmass ive
ver se
Ġsh ut
Ġcent er
Ġtradition al
e ff
ĠS ci
Ġsee ing
y an
Ġpro ces
ĠB en
Ġcandid ate
Ġorig in
Ġdam age
Ġresear chers
ĊĊN ow
et .
Ġbe at
ay s
ak ers
Ġl ik
Ġk ick
Ġsl ight
' d
ag ing
Ġt rou
Ġclaim ed
Ġ >
ĠE very
ific ation
Ġreg ion
Ġal bum
Ġh ar
Ġdef end
Ġj ump
ĠT ra
Ġwe b
ari ju
Ġact ual
Ġint egr
et h
ĠS ch
Ġ *
Ġon es
Ġra ised
Ġp .m.
-t ime
Ġch oose
Ġp ush
Ġbehav ior
in y
Ġv irt
Ġv oice
Ġcomput er
Ġbelie ved
ĠA rab
Ġlife .
Ġ( the
Ġwe 're
Ġlaw y
ll ,
ĠA ccording
t .
Ġl iter
ĠâĢľ A
Ġen force
Ġle aving
Ġmost ly
rib ution
Ġseason ,
ĠM ost
op e
Ġ1 ,
Ġg reen
op er
w hile
Ġindepend ent
ter m
Ġg ain
Ġsystem s
Ġeffect s
Ġknow s
Ġass ault
a id
Ġcom mer
Ġref lect
ĠCh icag
Ġfreed om
Ġdeb ate
ĠT om
Ġeffect ive
Ġway .
ĠH igh
Ġst ock
ac hes
Ġcele br
Ġlim it
ig ration
Ġfight ing
Ġag enc
Ġpro s
5 .
O N
Ġl ose
Ġcoun ter
A R
Ġshow ing
j ust
ch an
Ġup ,
Ġun ique
Ġb rief
Ġf uel
a cc
Ġsp ir
Ġyou ,
ĊĊ V
Ġoppos ition
ĠâĢľ the
Ġway ,
Ġtechn olog
ut y
Ġnot e
Ġjud ge
Ġad op
- l
ĠU p
Ġthey 're
Ġcrit ical
Ġdist rict
Ġwe ight
c .
Ġdig ital
v il
k en
Ġp ow
Ġcult ure
rem e
Ġprofess ional
Ġwh atever
m ore
k y
ĠH am
Ġdri ver
Ġfeel ing
Ġadv oc
Ġend ed
Ġask ing
I N
Ġb ur
Ġgo vern
ĠComm ittee
Ġwh om
ĠPe ople
Ġneg oti
Ġprodu ce
ĠM e
Ġen em
Ġac qu
i pp
Ġcris is
Ġb irth
st on
Ġad ult
Ġp sych
Ġgame ,
Ġpr int
Ġcomm it
al es
Ġprov ides
ĠB el
Ġshoot ing
ĠSec ret
et ro
Ġt end
Ġprodu ced
Ġcompet ition
Ġst ream
f ord
Ġru le
Ġdeter min
S T
ĠM att
Ġte acher
Ġd aily
ĠA lex
Ġa ward
i ers
Ġeduc ation
Ġon .
Ġt ick
Ġsub m
all ed
Ġrespons ible
li ament
Ġl ock
b ed
ĠJust ice
Ġannoun ce
Ġ200 7
1 ,
Ġw at
ĠD ef
ĠL et
ĠI' ve
ĠB ank
a ud
Ġwond er
ĠComm ission
ĠM ike
il ed
4 .
ĠB ush
Ġreveal ed
ĠN FL
ĠTrump âĢĻs
Ġworld ,
Ã ©
A N
Ġtoo .
Ġcitiz ens
Ġinflu ence
Ġ2 9
Ġm ap
Ġapp l
ĠOff ice
ĠC up
o le
Ġwork .
or s,
est ic
Ġtem per
Ġwa it
Ġnot ed
Ġconc er
l s
ĠG old
Ġrepl ace
Ġown ers
Ġme chan
Ġgo ld
Ġwor se
ĠâĢľ W
ic es.
Ġte levision
Ġfind ing
Ġlear ning
Ġ" We
Ġlater ,
ĊĊS he
ist ry
Ġse ction
Ġsal es
Ġproper ty
ĠCanad ian
Ġlear ned
Ġwin ning
Ġmanag er
ro id
Ġsh ip
Ġ ver
ĠHe alth
ĊĊ" It
Ġon to
Ġw ild
Ġm ount
Ġhundred s
Ġlong -
Ġfl ow
i pe
ear ch
ĠJohn son
Ġtreat ment
Ġcase ,
Ġhig hest
Ġent er
Ġm ariju
Ġcharact ers
Ġob ser
ĠO ur
Ġwas n't
Ġoff ers
port s
Ġsur round
ĠB ecause
Ġp un
ĠSec urity
Ġphot o
Ġbecom ing
Ġacc used
Ġr id
ĠIslam ic
Ġmill ions
Ġbe g
Ġjo in
so ft
Ġmain tain
Ġiss u
ĠPal est
Ġrest rict
Ġant i-
Ġopen ing
Ġprop osed
ĠR ob
as c
a res
ic ed
Ġconfir med
Ġocc as
ĠO h
Ġcontro vers
ĠV al
ĠWh y
Ġknow ,
Ġput ting
ĠW estern
Ġextrem ely
out hern
Ġsaf e
Ġser ved
Ġsh ared
ut ions
Ġun like
Ġcustom ers
ĠP ort
Ġgra nd
Ġweek .
Ġmob ile
t t
Ġst age
Ġare nâĢĻt
eng th
Ġlaun ched
ĠW all
Ġscen e
ĠG et
Ġpat tern
Ġst ructure
ort hern
Ġser ve
ĠIt al
Ġb orn
Ġelect ric
Ġe th
Ġagain .
Ġfund ing
ĠD is
ac ed
Ġsc ore
Ġre ject
Ġredu ce
Ġachie ve
Ġpict ure
Ġw ind
Ġdire ction
ĠA P
Ġatt ract
Ġinc red
Ġt ask
Ġcomm ittee
Ġim pl
n own
ĠM on
Ġd aughter
Ġinterest ed
ĠL ou
Ġbenef its
ĠO ther
icro soft
C .
ĊĊH ere
Ġche m
ĊĊIt âĢĻs
Ġc ru
Ġdef e
ĠL aw
Ġreal ity
Ġconst ant
Ġd ream
Ġbecom es
Ġstri k
Ġneighb or
in ian
Ġf at
Ġfamil ies
Ġv ill
ĠIntern et
Ġarrest ed
Ġcom fort
ic it
Ġaction s
ĠMan y
Ġst ick
Ġdefin itely
ĠSt ud
Ġeff ic
Ġthough ,
Ġindividual s
m ine
et t
Ġexist ing
ĠL os
ĠF ound
al se
Ġb ab
Ġconserv ative
Ġvict ory
ol ic
Ġset ting
Ġu s.
Ġrun s
ri an
Ġco verage
Ġpop ul
Ġam az
Ġ( or
ĠL iber
Ġhe ro
Ġone .
Ġr an
Ġaud ience
Ġc ore
ĠU k
âĢĻ m
Ġe le
Ġwe alth
Ġcommun ities
Ġleaders hip
Ġsp oke
ĊĊC h
ĠB re
ĠInst itute
m age
Ġmem ory
Ġm ale
Ġrem ark
Ġdet ect
ĠN o.
Ġinit ial
com ing
ĠB ay
ĠSt .
Ġb omb
Ġact ive
Ġf resh
Ġr ates
Ġnot ice
B ut
Ġra c
ab les
Ġsol id
Ġspokes man
Ġdep artment
Ġc ry
ĠF BI
Ġassoci ated
T hat
ĠY our
ank s
S t
Ġ ice
Ġnorm al
Ġsepar ate
Ġdri ving
b on
Ġwe âĢĻve
ar ies
ĠG reat
Ġthere ,
ĠB it
Ġdeb t
w ood
ri ption
Ġst yle
Ġag reed
Ġrepe ated
Ġt alent
ĠD r.
Ġneg ative
b oard
Ġtra ffic
Ġgener ally
Ġdec ade
Ġl if
ĠC he
gh an
Ġopen ed
Ġepis ode
Ġpre c
Ġheav y
Ġcol or
Ġbott om
or ial
Ġf it
ĠB ig
ĠJ on
ĠRober t
Ġfar m
ĠAs s
Ġdisc overed
Ġinvest ment
Ġlo ad
* *
Ġwell ,
Ġexper iment
et ic
Ġann ual
Ġiss ued
ĊĊThe y
Ġcol lection
Ġgo als
z z
Ġwor st
Ġrest aur
Ġte ach
Ġconcern s
Ġthis .
Ġmil es
ĠGO P
Ġra ise
Ġallow ing
Ġun s
Ġdestro y
Ġun c
Ġfr ame
Ġ x
Ġbelie f
um e
Ġp air
ĠS ince
Ġtre nd
Ġplac es
on ents
ĠS un
Ġm er
Ġagree ment
Ġco al
i ,
Ġas se
Ġinj ur
Ġ(w h
Ġaff ord
I A
Ġ0 .
w ide
Ġback ground
Ġreason s
Ġch urch
Ġc aught
Ġcons id
ĠBrit ain
Ġsle ep
iv en
Ġatt end
ĠL ike
Ġlarge ly
Ġdo z
ĠCar ol
Ġsh ock
l es,
able .
Ġthe ory
Ġwatch ing
Ġtell ing
lic k
ĊĊHow ever,
Ġpurp ose
ĠChr is
Ġemer g
ĠM il
Ġs wit
Ġweap on
Ġn ine
Ġrad io
Ġsay s,
ĠUn ion
r am
Ġstud ies
ĠF ox
Ġgr ant
Ġhigh light
s ing
Ġweap ons
Ġsoci ety
Ġfl ag
ampions hip
ĠW indows
Ġd ate
Ġall .
Ġagain ,
Ġcommer cial
ab or
ce ll
Ġcountry .
ĊĊS ome
Ġpur s
e al
Ġanim al
ar io
Ġbelie ves
Ġdoub t
Ġhold ing
ir gin
Ġh arm
b ur
Ġcharg ed
Ġplan ning
m ark
ĠB er
Ġst ated
Ġn orth
Ġtrans port
Ġresident s
Ġdis m
Ġtr uly
Ġfa ith
Ġwe l
ĠM ad
b ox
ann el
Ġdo or
ĠUk ra
Ġple ase
Ġimm igr
Ġemploy ees
as ,
ĠC EO
Ġtell s
Ġpr ices
Ġrecomm end
Ġres ist
0 s
Ġsh ift
Ġthen ,
Ġn ames
ĠD ist
Ġref uge
k nown
Ġst or
if ul
Ġref ere
Ġwould nâĢĻt
Ġyou âĢĻll
Ġconst ruction
Ġsystem .
Ġbook s
Ġrequ ires
Ġcondition s
Ġc ash
ĠS up
Ġd ed
Ġtri p
ic ip
Ġdeli ver
Ġschool s
Ġn or
Ġcharg es
Ġh us
Ġcl ick
Ġhere ,
Ġunderstand ing
ĠH all
Ġprov iding
ĠInst ead
Ġjo ined
ĠAf ghan
Ġpat ients
Ġfe et
l ant
Ġsur face
Ġim ages
d om
Ġha ck
Ġilleg al
Ġd ie
ĊĊ (
Ġas pect
Ġr ough
Ġresour ces
Ġstat us
Ġsuggest ed
Ġex cl
ĠT od
se e
ate gy
um n
at ically
Ġb oo
Ġan g
Ġwon 't
Ġinit i
o very
ĠAfric an
ĠComm un
ĠIâĢĻ d
Ġintrodu ced
ĠR ead
ĠR ec
ĠM icrosoft
Ġproject s
Ġ( 2
ĠSand ers
Ġscient ists
Ġjust ice
Ġoff ensive
ĠIsrael i
Ġl ines
Ġreturn ed
Ġdise ase
5 ,
ĠTh om
Ġsh o
Ġth us
Ġsour ces
ĠSup reme
Ġg ay
Ġex erc
Ġmore .
Ġactiv ities
Ġl iv
Ġam b
ci ous
ro f
Ġve ter
Ġd er
Ġstreng th
Ġhapp ens
ĠM od
ĠL a
Ġno vel
Ġpres ence
ou l
ĠAd d
p ri
Ġtyp es
Ġkeep ing
g en
Ġf alse
ĠJ im
O S
Ġplac ed
us ive
m a
Ġeas ier
ign ed
ĠAnd roid
r ick
Ġtrans fer
Ġsu n
Ġdown load
ĠM ill
Ġ" It
Ġsupport ed
ĠD irect
6 .
Ġey es
ĊĊâĢ ¢
ĠA re
Ġh ol
Ġbas is
ĠM ag
ĠJew ish
Ġnews p
Ġcomp ar
Ġpolic ies
Ġab use
ĠIs land
ĠP ak
ĠN A
Ġs pl
r ative
Ġacc ur
Ġser ver
while ,
Ġestabl ish
ri al
ĠCh urch
Ġw indow
Ġfin ished
B A
rib ute
Ġ2 .
Ġarri ved
um an
ĠAr t
ic es,
Ġdo .
Ġremo ved
ĊĊ -
ĠAustral ia
Ġm ur
Ġapplic ation
ck now
a âĢĻs
Ġveh icle
Ġto ugh
Ġtwe et
Ġc ateg
ĠS am
Ġdef ensive
Ġwa iting
in n
Ġsc ale
Ġcould nâĢĻt
Ġe at
Ġopt ions
E D
igh ter
Ġpart ners
Ġcon sequ
ĠG ame
9 9
- se
Ġc atch
Ġmanag ed
Ġfeel s
ĠAt t
Ġfoc used
Ġrelative ly
ĠRe g
Ġey e
Ġadvant age
Ġa cknow
or row
ak ed
p re
Ġu s,
ĠRich ard
Ġun it
r ont
Ġfe llow
ic ated
Ġcent ur
Ġin .
Ġhe aring
ĠG ree
ĠTr ans
Ġestabl ished
en e
ĠJ eff
1 1
c ript
Ġcomm ission
Ġexch ange
Ġprogram s
Ġwork ,
ĊĊB y
en .
Ġl ength
Ġconc lud
Ġappe al
ĠQ ue
ĠB u
ĠM ac
Ġ19 4
ĠSyri an
Ġhus band
Ġfe ll
ph one
go ing
ĠN e
Ġsmall er
ĠGo vernment
Ġexper t
ĠThat 's
Ġuse ful
ĠV irgin
v ention
ie l
Ġw itness
Ġfour th
Ġm ax
Ġargu ment
Ġmariju ana
ĠChicag o
ar ant
Ġconf irm
Ġrem ind
Ġs outh
Ġgu ard
Ġass ess
Ġf ant
Ġgra ph
ber g
ot ed
i pped
Ġ ir
oss ible
Ġcomm itted
Ġhelp ing
Ġst ation
Ġbl ue
Ġc ook
Ġspe aking
Ġkill ing
Ġdom estic
ic ,
is her
ve re
s :
Ġdou ble
ĠJ ud
Ġdec ide
Ġident ified
ot a
pect ive
ĠAm az
Ġcont ext
ur b
Ġval u
Ġco ve
ĠA ut
ibr ary
Ġstr ategy
ĠG roup
-b ased
ĠO p
Ġpre fer
y l
os h
ro ll
N N
Ġs an
Ġf ine
ĠFranc is
Ġha ir
Ġrecord s
ci ent
Ġdoll ars
ub e
Ġother wise
f erence
ism ,
Ġfamil iar
in ct
Ġobv ious
ĠD el
ĠTH E
ĠSt ep
Ġproper t
Ġcap ac
ron ic
Ġbus ines
iv ity
Ġpat ient
ĠK en
Ġentire ly
Ġstri ke
Ġplay s
h let
in ate
ĠSecret ary
ĠThe ir
Ġsoci et
Ġbord er
ĠFr ank
ĠM iss
r ate
le .
Ġtra il
er o
Ġthere fore
Ġactiv ity
__ __
n el
Ġcar ried
Ġfil ed
ĠP ri
4 ,
G B
Ġocc up
Ġp il
Ġfl ight
ĠIm ages
Ġpart ies
ĠCol lege
Ġoper ating
Ġt ack
ad ium
Ġ ;
Ġsu dd
Ġreg ist
d o
ĠPr ime
ĠP M
Ġment al
Ġappro pri
6 ,
Ġst ress
se y
h ow
Ġtri al
Ġb atter
Ġse at
Ġthan ks
Ġcar s
ĠFlorid a
Ġincreasing ly
ĠR yan
Ġsu st
ĊĊA ll
Ġmanage ment
Ġapp oint
v est
Ġsupp orters
Ġenvironment al
Ġsc hed
ĠAl though
ĠTor ont
Ġsched ul
ul f
Ġneighbor hood
oy al
Ġscient ific
Ġpay ing
ĠPro f
ĠF ore
ĠT re
ure r
Ġw ish
Ġn one
ĠM P
Ġag gress
ĠRes earch
ang ing
Ġcre w
on .
ĠW il
Ġseek ing
ound s
Ġacc ident
Ġ" A
Ġse qu
ag er
if ying
Ġon ,
Ġag ent
Ġob s
oc ra
Ġwe ak
Ġsol ar
Ġold er
Ġag o.
Ġtoday .
Ġ9 0
ĠAl so
ov .
Ġconnect ion
ĠC le
Ġvol unt
ra w
ĠJ oe
ĠC ap
- A
ortun ate
Ġslight ly
Ġ201 8
Ġcol le
Ġdep end
Ġposs ibly
Ġdr am
ro l
ĠTe am
Ġlegisl ation
Ġwor ry
ad d
t ime
ĠL ast
ĠJ ose
ĠO ver
Ġmur der
ĠAt lant
Ġ8 0
ĠH oll
at a
Ġtrans l
Ġv ast
Ġb ul
Ġconcer ned
Ġstand ing
ĠDist rict
Ġsto pped
Ġlos ing
Ġwar ning
ĠJapan ese
rast ructure
Ġvictim s
it ude
in .
ĠM os
Ġdanger ous
Ġregard ing
Ġprofess or
Ġer ror
ĠServ ice
Ġcorpor ate
Ġexp ensive
h a
Ġconflic t
Ġte en
O T
ber t
Ġconv ention
Ġtw ice
Ġcl osed
ĠGerman y
Ġsystem ,
Ġtrans form
Ġlab or
Ġintern et
r ump
Ġenforce ment
Ġmention ed
ĠLou is
n ight
Ġg e
Ġis land
F C
Ġaltern ative
Ġdevelop ing
Ġf le
ĠM al
v ant
Ġexpl ained
Ġat hlet
Ġro ll
es s.
2 ,
Ġbeaut iful
Ġabsolute ly
on ald
Ġac adem
Ġinsur ance
ol f
Ġr ich
Ġhon est
Ġopin ion
Ġval ues
Ġturn s
Ġap art
Ġimp ossible
Ġ( A
Ġst re
ĊĊM ore
ĠA M
Ġpolit ics
t ained
r ig
3 ,
Ġdeg ree
Ġgrad u
E A
Ġsurve y
ĠD N
E N
Ġsudd en
Ġph il
ain ,
z y
ĠCent ral
ic y
st itution
er ry
ĠU N
n o
Ġcamer a
Ġde ploy
Ġpro secut
Ġmed ic
ow l
Ġwhat âĢĻs
Ġposs ibility
Ġdiscuss ion
Ġbring ing
ĠSyri a
Ġcove red
Ġlife ,
Ġview s
ism .
Ġun iversity
Ġbig ger
Ġb att
Ġdocu ments
Ġvari ety
Ġmiss ing
Ġmonth ,
Ġv ul
ĠP C
Ġinn ov
i able
Ġsurpr ise
Ġequ ip
ĠM ary
Ġcount ri
oc al
ĠTh ose
Ġs itting
Ġsuggest s
Ġp et
ed d
Ġpot entially
ĠM ont
ĠB ost
Ġe arth
Ġpl enty
ĠR ock
Ġun less
c ription
Ġj ail
Ġestim ated
ĠS il
20 1
Ġcandid ates
Ġoff ering
Ġapp re
Ġter rit
Ġspir it
Ġdec ades
Ġa id
Ġv ision
Ġsc ript
Ġupd ate
Ġdo ct
ic ide
Ġrespons ibility
Ġterror ist
Ġf ired
Ġadv is
Ġfund ament
Ġone ,
Ġpan el
ar a
Ġgu ess
ad o
Ġplan ned
Ġoper ations
Ġintern al
9 .
ĠCh ief
Ġpro ve
Ġyou âĢĻve
Ġmarri age
Ġgu arant
or s.
er ous
ĠPak istan
Ġb ag
Ġapparent ly
Ġpart ner
Ġh ate
Ġ â
Ġdro pped
Ġel im
Ġtrans ition
ĠAustral ian
gy pt
anc y
Ġdeter mine
Ġ2 ,
Ġun ion
ĠUS A
Ġcor ner
am m
Ġmag az
Ġret ail
I T
Ġcirc um
Ġspe ct
Ġra re
Ġtest ing
ony m
ĠLe g
Ġhelp s
Ġdev ices
e qu
ĠP lease
son ,
v an
ĠP ut
C A
ester day
- st
Ġpr ime
P A
Ġpoint ,
m en
Ġloc ated
Ġad just
Ġinst ru
Ġun ivers
Ġoccur red
I n
Ġtalk s
Ġco ld
Ġultimate ly
Ġinf rastructure
it able
ect ion
Ġprep ared
Ġ20 00
Ġstart s
Ġl ived
Ġvot ed
E S
Ġse lling
r ad
W hat
ĠP eter
Ġbro ke
our ce
ĊĊB e
ĠO nce
ĠB ern
Ġfam ous
Ġhous ing
ĠI r
Ġre ward
- to
p ir
Ġamaz ing
ic on
Ġqu e
ag n
Ġins ist
Ġ2014 ,
Ġ2015 ,
Ġclos er
Ġcoun cil
Ġplace .
Ġitem s
ĠJ un
i ation
ĠBit coin
Ġtool s
h ,
Ġpoint ed
ĠIâĢĻ ll
res p
rou d
Ġt ast
Ġart ist
Ġe lement
ence ,
l ig
on a
Ġthan k
Ġt on
ĠThom as
Ġcons ult
Ġvul ner
Ġf aster
Ġhe at
ĠA c
Ġorigin ally
il es
Ġsum m
ĠF ederal
Ġstep s
Ġrem ove
Ġcur ren
Ġso ,
Ġb ought
Ġloc ation
ĠP ublic
Ġrec ru
Ġl ob
u gg
Ġfac ing
Ġfin ish
ing er
Ġexpress ed
Ġdown .
ĠM iddle
Ġ7 0
Ġg rew
Ġeng age
W hen
Ġapp ly
Ġrap id
Ġt ight
ĠA ri
F or
Ġl uck
âĢ ¦
Ġo dd
ĊĊN ot
Ġspec ies
ĠT ime
Ġchang ing
w hat
Ġmach ine
Ġnot es
ĠHe âĢĻs
Ġpresent ed
ĠJ o
al u
Ġsc hem
Ġhand ,
ĠE gypt
oc ol
air s
Ġown er
ĠSte ve
Ġrestaur ant
Ġopt im
cept ion
ĠCh in
ĠP ress
ĠWe b
ĠS aud
s. âĢĿ
Ġcl ient
Ġsport s
Ġphot os
Ġdep art
ĠMart in
Ġto urn
Ġs ale
it ect
l ock
Ġgener ation
Ġcomp lic
Ġre ci
Ġsupport ing
Ġlist en
Ġg ar
Ġgreat est
ĠMed ic
Ġchem ical
Ġpurch ase
por ary
yn am
ĠL ee
Ġh urt
ĠN or
Ġexp ans
ĠF ire
ent ed
Ġconsid ering
is f
Ġb row
Ġmeas ures
st ream
Ġf ol
Ġcult ural
Ġca ption
ill ,
Ġ" the
Ġbusiness es
Ġt urning
Ġcl as
ĠT wo
Ġsit es
Ġre venue
i ance
Ġinvol ve
Ġconduct ed
and er
Ġphil os
ĠD aily
Ġhome .
ĠGu ard
Ġtr uck
ĠOb am
ĠG ood
Ġmin imum
Ġcl im
ĠJ ones
ĠKore a
c oh
Ġrev olution
H L
Ġadd ed.
ist ics
Ġwe aring
Ġprotect ion
Ġin ,
Ġboo st
Ġfig ures
Ġteam .
os ure
ĠB oth
iver se
Ġbas ically
ĠD uring
Ġimm igration
Ġsound s
use um
Ġgirl s
Ġexperien ced
Ġopportun ities
o ly
it ation
om an
Ġst ret
ĠB ob
Ġyou th
v is
u ct
Ġsupp ly
Ġcopy right
Ġher .
Ġcl in
ud d
Ġpros pect
Ġg iant
Ġdoll ar
ad ow
ĠD .
Ġre action
as y
ĠW ork
Ġlong- term
Ġconc l
Ġreported ly
Ġopp onent
Ġlike ,
Ġint ended
Ġc ards
ict ed
Ġab ort
Ġbank s
Ġsh ape
1 .
Ġhop es
ĠAr my
Ġreg ime
Ġfund s
Ġpull ed
ul ate
ear s
r ange
Ġexpl o
Ġ( R
ĊĊâĢľ A
c es,
Ġcomb at
en ced
Ġthemsel v
ĊĊThe se
Ġbro ken
ĠR iver
ĠB BC
ĠFr ance
Ġet c.
Ġtr ig
Ġi Ph
ĠJ es
Ġy e
Ġref used
Ġra nd
Ġb ed
Ġse ctor
ĠP et
c es.
ĠH ome
Ġtre ated
Ġappro ved
Ġatt orney
Ġimag ine
5 00
Ġcl ot
ĠBr ad
Ġcountry ,
du le
' m
Ġfail ure
ĠT y
ĠAn y
Ġident ify
Ġcar bon
ĠCol or
Ġremain ed
ĠJ .
ĠC ath
ĠSo cial
Ġback .
Ġmot iv
ĠCons erv
ĠC ru
l es.
Ġtalk ed
Ġis .
Ġre nt
ĊĊL ast
ĊĊR ead
ĠD en
Ġlot s
ad ed
ĠPl an
ĠJ ournal
Ġsy mb
Ġtoday ,
Ġcont est
Ġ3 .
ĠFor ce
Ġexper ts
Ġtyp ically
Ġdec isions
Ġword s,
er ation
B S
Ġnot .
Ġrand om
Ġad apt
u ke
ĠC amp
re l
Ġcont rast
Ġ3 2
ing ly
Ġappre ci
Ġher self
anc he
Ġsh op
Ġdevelop ers
Ġ3 5
ive red
Ġexc ited
Ġpercent age
Ġre act
i .
Ġth r
l a
Ġb ound
ĠâĢľ It
os ition
ly mp
s hip
Ġ(wh ich
Ġcent ury
ĠThere âĢĻs
ĠChar l
ĠLab our
Ġredu ced
Ġg ender
Ġlead s
Ġmin ute
Ġcra ck
ure au
ĠJ av
id el
Ġexpl os
Ġconvers ation
u s.
D A
= =
ean while,
- g
Ġremain ing
Ġ2013 ,
ĠAssoci ation
Ġdism iss
Ġ3 6
Ġswit ch
u k
Ġdeb ut
ak s
Ġup gr
est ival
g ar
Ġele ments
i j
Ġv s.
ĠO lymp
Ġdel ivered
in ent
Ġcut s
- M
ĠOh io
Ġcol umn
al ing
Ġsuff ered
Ġz one
ain t
ah ,
Ġair craft
Ġdisc l
or ne
Ġhaven âĢĻt
Ġhow ever
Ġde ck
Ġv ir
Ġinj ured
Ġun able
Ġpropos al
ĠWh o
ut ers
ow nt
Ġch o
Ġsec ure
Ġfr ust
Ġviol ent
Ġday s,
Ġprom pt
ĠSh ow
Ġlo ved
il ing
ry ,
Ġ2012 ,
Ġbel ong
Ġfuture .
ĠAnd rew
Ġren ew
Ġp ra
ĠU nder
Ġd ress
ĠM er
ĠSen .
Ġconf idence
ĠF ollow
anc ing
ul ated
m akers
Ġnewsp aper
Ġspecific ally
Ġcap able
Ġconf ident
Ġvot ing
ĠS ant
Ġm aster
ad ing
h ouse
an .
Ġp roud
Ġdecl ared
ĠSo ,
Ġopp osed
ĠSp ace
ĠD ec
Ġfil es
Ġst ruct
Ġsign s
ĠN av
ĠV er
Ġtr ick
ph as
imate ly
Ġpick ed
Ġord ered
Ġt act
Ġwar m
Ġbal ance
ĠS ing
Ġelect ed
Ġpl us
k in
Ġbroad cast
Ġpro ced
ĠPr ot
Ġprogram m
Ġhigh -
ĠS ur
iss ions
Ġcoll abor
Ġconst itution
Ġm arg
Ġst orm
ĠAnge les
Ġfor get
Ġlab el
Ġb reat
ri end
Ġch amp
r d
Ġl in
---- ----
Ġnum erous
id s
Ġtemper ature
Ġdel ay
Ġwe âĢĻll
Ġden ied
s s
Ġwide ly
Ġco ord
Ġvis ual
Ġpass ing
ot ic
ĊĊAn other
Ġtechn ical
Ġpit ch
od es
Ġdetermin ed
Ġrecord ed
Ġadv ice
ĠRo ad
Ġquarter back
Ġs ch
Ġsh ar
iz es
Ġs ides
7 .
g n
Ġsecret ary
Ġref erence
Ġdisapp oint
it ch
Ġal t
he red
qu e
as hed
res s.
Ġbe er
Ġdes ire
g ment
Ġt un
ĠBar ack
Ġad vert
Ġhealth y
Ġrul ing
Ġdrug s
Ġg ather
Ġwe ather
ĊĊD es
ĠR ub
ru ption
ra ge
Ġcent re
ou s,
Ġobv iously
Ġanim als
pl ace
Ġnight ,
ence .
Ġqu iet
ĠO ut
Ġreal ize
il i
Ġemerg ency
ĠPh oto
Ġarg ue
Ġco ast
ĊĊM r
: 00
Ġar my
ars h
hen s
Ġent ertain
Ġrep orter
re y
m as
Ġimmedi ate
C C
ĠPro ject
Ġex cell
m osp
ĠMich ig
i pping
Ġcon cent
Ġgam es.
r ant
ol ved
Ġdef ault
Ġ2016 ,
coh ol
Ġhand le
ĠF e
ĠC r
ag on
Ġliber al
Ġpers pective
ĠL at
ĠToront o
ac he
E C
Ġdo ctor
ĠPalest inian
z il
ĠM ur
Ġess entially
Ġwe ar
pl om
in ating
O U
Ġinit ially
ac es
Ġ3 1
ĠG ar
Ġphot ograph
Ġproces s.
Ġ5 00
Ġschedul ed
Ġse a
ab ilities
Ġsignificant ly
a ctions
Ġy esterday
Ġb urn
Ġ( a
g ers
and on
ĠB ur
- day
Ġsold iers
ress ion
Ġdecl ined
Ġflo or
ic .
Ġmodel s
Ġw ood
ĠiPh one
ap ter
Ġn av
Ġa .m.
ĠW al
Ġarg ued
Ġvot es
Ġrec all
Ġplay off
land ,
Ġaway .
ell ,
Ġear n
ĠF ree
ive ,
Ġres olution
Ġcra ft
ĠC al
Ġy ards
Ġto .
ĠM et
Ġsc ored
Ġinst itution
Ġbl ow
Ġanaly st
Ġappro x
om s
ĠWe ll,
Ġadm itted
Ġequ al
Ġaffect ed
ĠP ac
ortunate ly,
ĠP re
Ġco ff
2 .
Ġsurpr ising
Ġdisc rim
ĠC NN
Ġch annel
ĠI re
Ġcl oud
Ġsh all
ic a
ĠS pr
ag ues
Ġper man
Ġmonth .
Ġm ut
0 .
ĠP enn
Ġnecess arily
Ġm and
Ġcell s
Ġtourn ament
Ġattempt s
Ġbut ton
ĊĊ" A
Ġd in
Ġval id
ill ing
Ġsubs crib
Ġtro ops
S P
I C
Ġthis :
Ġed ge
Ġfr anch
ĠSc ot
Ġar med
res s,
Ġcal cul
Ġgam es,
Ġte ch
Ġoff ense
Ġsubst ant
Ġteam ,
Ġalleged ly
Ġfill ed
ev in
Ġpus hed
Ġour sel
Ġrough ly
9 ,
Ġhom es
Ġother s.
Ġpie ces
Ġwrit er
ĠIn ter
er ved
Ġpass eng
as tern
ĠAmaz on
am b
Ġthink s
Ġcont ains
ĠH uman
I D
Ġtoo ,
ord s
amp le
Ġexerc ise
ĠF ed
Ġadv anced
Ġgu est
idd en
Ġpro ceed
Ġarch itect
Ġbr ings
Ġhappen ing
ĠDirect or
ive .
Ġbu ll
Ġagenc ies
i enc
h o
Ġon going
Ġem phas
ĠSaud i
ĊĊE ven
ou s.
Ġlink ed
Ġplan et
p ret
Ġw ound
Ġsat isf
Ġinterest s
Ġm ort
st e
Ġpo ol
ĠN BA
om pl
Ġ19 5
am ing
ĊĊS ince
Ġnot ,
ĠBost on
Ġdi plom
Ġdem ocra
.. .
Ġint ention
Ġident ity
Ġsub sequ
e ed,
Ġs ought
ĠS ub
Ġworld âĢĻs
Ġoper ation
Ġorganiz ations
Ġimpro ved
L L
ĠâĢľ a
ly n
Ġwe 've
Ġcircum st
E T
Ġconsist ent
Ġtot ally
Ġfac ed
Ġra il
Ġjo int
Ġcomb ined
Ġdat ab
Ġconst ruct
Ġco oper
Ġhot el
Ġstand s
ĠWe ek
ĠKore an
Ġskill s
Ġne ither
Ġst ood
Ġdo ,
ĠS ign
ot y
Ġfor ms
Ġser iously
ĠP ower
Ġth ing.
Ġcapac ity
if th
ĠM ass
Ġmag n
Ġauthor ity
Ġrece iving
Ġwalk ing
Ġsurround ing
os en
Ġacc ompl
M y
rib le
Ġr ide
Ġb ond
ist ,
Ġgra b
Ġinst ance,
Ġlist ed
Ġpr ay
Ġnight .
Ġday s.
Ġhop ing
oo re
end ment
Ġn ative
Ġbre aking
Ġbe .
ĠStat es,
i os
Ġpar liament
-c alled
ĠPh ot
Ġwould n't
R A
Ġmy ster
ĊĊP h
Ġsqu are
Ġtrou ble
at es,
8 .
Ġaccount s
Ġrepres ents
ĠD ra
ĠS al
Ġcan cer
Ġdist ribution
Ġit ?
Ġleg it
able ,
Ġconnect ed
ĠYou T
Ġent ered
Ġorgan is
ĊĊâĢľ It
ĠL ake
P S
Ġab andon
Ġbre w
Ġqu ant
re al
Ġj our
ĊĊU n
ĠAri z
Ġat mosp
- e
ĠGra nd
Ġmone y.
ĠD r
ĠPar is
Ġpublic ly
Ġup coming
Ġdiv ision
Ġm igr
ĠH aw
ĠP rem
1 0
Ġso -called
ic s,
ĊĊN ew
Ġmiss ed
Ġrespond ed
ĠIt s
ĠB oard
Ġany th
Ġch art
Ġgovernment s
ĊĊF ollow
ĠOp en
Ġb ike
em ploy
Ġstate .
Ġwar ned
Ġnews let
Ġ2015 .
Ġs ad
ĠBra zil
Ġd ynam
Ġev alu
ĠCol umb
ĠB ook
Ġare n't
Ġdist ribut
id ay,
al ax
Ġem p
Ġheav ily
ĠE ach
Ġc art
k et
Ġreport ing
es ome
ĠT O
ĠC ur
Ġbab y
ce l
Ġag end
Ġbu ying
Ġinj ury
u pp
Ġfair ly
ĊĊF irst
Ġdefin ition
ĠH ou
Ġgovernment .
ĠW in
Ġexpl an
Ġany where
ĠA N
Ġf ish
Ġ3 D
Ġfl ood
Ġfew er
Ġfac ility
at ures
ĠM L
Ġ2016 .
Ġcan n
ĠK ell
Ġcould n't
Ġchalleng es
Ġcomb ination
Ġhouse hold
resp ond
ĠFrancis co
ĠDe velop
Ġ Ã
Ġb are
ĊĊM y
ro ad
ĠK im
d e
ĠIm age
Ġhistory .
ĠAn other
Ġencoura ge
Ġfor g
Ġse lection
ĠSw ed
ĠChrist mas
Ġhistor ical
Ġpus hing
Ġmor al
th ,
Ġro w
ĠSt an
ĠSec ond
Ġtest s
Ġhard ware
D P
ĠGeor g
ĠOn ly
Ġcomplet ed
Ġkn ock
Ġprom ise
Ġle aves
Ġfact or
Ġtim es,
ĠMed ia
ĠM ount
Ġ4 5
ĠStat es.
ĠT er
Ġtax es
Ġstud io
Ġcontrovers ial
ĠJack son
ĊĊIt 's
Ġun its
ĠM em
stand ing
se ason
Ġwith d
Ġm al
Ġacknow led
- 0
Ġmonth s,
Ġpolitic ians
Ġalong side
ĠV ict
ĊĊO ther
ĊĊD uring
O M
Ġsome what
Ġc up
Ġen h
re es
ĠM el
ent ,
Ġqu al
Ġright .
Ġinc or
o om
ĠMexic o
Ġse es
Ġd im
Ġsk in
ĠG M
ist s,
Ġl ibrary
ĠâĢľ ItâĢĻs
or al
ĠB et
ab in
Ġar ms
Ġdown ,
og ue
Ġchair man
Ġwell -
x ual
Ġa st
Ġt ree
s en
Ġsign ing
Ġsc he
Ġrad ical
ĊĊO f
Ġsu c
Ġal cohol
o es
ĠCarol ina
ĠCl ub
Ġset s
Ġ$ 3
Ġ/ /
Ġappear ance
ĠR od
a wn
Ġg rown
ĠL in
Ġfeat ured
Ġ2014 .
Ġvolunt e
Ġv ice
Ġextrem e
Ġded icated
Ġcompet itive
Ġris ing
Ġcarry ing
Ġeffect ively
Ġstru ck
ĠR ight
ath an
Ġstate ment.
Ġsa c
Ġout put
at ,
Ġlet âĢĻs
ce an
Ġadv ance
Ġupd ated
Ġbr ight
l or
oun g
Ġover w
Ġpro hib
Ġoppos ite
o res
Ġsc r
ĊĊF rom
Ġcase .
Ġsust ain
Ġa f
Ġfac es
Ġfra ud
Ġd ownt
ĠSy stem
ac ing
Ġ2011 ,
m ond
Ġgl ass
ĠE ner
Ġh all
ĠW alk
Ġsqu ad
ĊĊI mage
Ġpriv acy
Ġemot ional
Ġcreat ive
ck et
Ġchange .
Ġappl ied
Ġemb ra
Ġrep orters
Ġconv in
ĠSo v
Ġto w
Ġreg ional
Ġpl ed
y wood
Ġappropri ate
Ġs ister
ĠS her
Ġun us
ĠCru z
Ġv an
ĠS ee
es ters
ĠY ear
Ġear ned
Ġhold s
ĠBl ue
Ġunder st
Ġr ally
iz z
Ġf ly
ĠCath olic
Ġphilos oph
Ġr ot
o oth
Ġser ving
Ġsurve ill
ĠJ ul
Ġl it
tern al
Ġinsp ired
ĠS qu
Ġm urd
Ġperform ed
Ġgovernment ,
ĊĊH is
Ġcitiz en
Ġhas nâĢĻt
ĊĊ *
Ġess ential
he w
Ġe c
Ġsurpr ised
Ġmon it
Ġs ke
ĠC ub
Ġconsum ers
Ġ( b
Ġdec line
Ġp ure
ld er
ĠTe chn
8 ,
Ġp ipe
Ġrele vant
Ġinter act
Ġcom ed
Ġte le
ward s
Ġdec ad
Ġappro val
Ġmain stream
Ġd ial
Ġ3 ,
Ġ4 .
h an
Ġst ars
Ġfav our
Ġr ival
Ġoff .
ens es
k ins
Ġlaw ,
ust er
Ġclass ic
Ġdec re
at .
Ġs ending
Ġeffic ient
Ġpict ures
Ġrefer red
0 s,
Ġf ash
Ġca using
ĠMay be
Ġb on
Ġ( S
p art
Ġg ap
ĠSe attle
il ty
Ġwat ched
Ġn ut
Ġexcell ent
Ġdescrib e
Ġvide os
7 ,
Ġend s
Ġ ing
Ġattempt ed
Ġdiffere nces
igh ters
es s,
and a
ĠA ff
Ġconf ig
Ġgu ide
Ġan cient
Ġw ire
Ġs am
Ġapplic ations
Ġcor respond
Ġsp r
Ġdetail ed
Ġstrugg le
Ġco -
Ġback ,
Ġdeal ing
ĠR em
g ent
r ison
Ġveh icles
Ġsu it
ĠL ib
Ġwas ,
Ġhome ,
n oon
Ġv ac
ĠW he
ĠB us
Ġinter pret
Ġill ust
Ġche ap
- 2
Ġl ie
Ġent ry
ĠRom ney
ĠInstead ,
ĠL ife
ĠStep hen
ion ally
Ġin put
E L
y m
Ġfact ors
Ġfundament al
Ġstr ange
ĠR el
Ġch ain
Ġpossible .
Ġpay ment
Ġvirt ual
Ġm ir
Ġdes k
T C
Ġ( s
Ġinvol ving
Ġlater .
Ġkind s
Ġalleg ations
Ġconsum er
Ġwalk ed
Ġt ens
Ġstand ards
ĠC IA
ĊĊAl though
Ġhum ans
ĠR ad
Ġown ed
Ġunlike ly
ĠDef ense
Ġcommit ment
Ġthing s,
Ġ @
Ġput s
ĠâĢľ S
Ġmonth s.
ĠBro ok
Ġas ide
E :
ail s
Ġfor t
Ġw ake
ĠT en
Ġoverw hel
ĊĊP ol
ĠNet work
Ġmot or
ans as
Ġ( I
ĠSp an
Ġlaws uit
Ġn orthern
Ġso .
00 ,000
Ġr um
Ġus ual
Ġafter noon
Ġrepeated ly
ul a
ĠS ol
Ġem pt
Ġc ere
Ġsa nd
Ġl augh
Ġemail s
ĊĊT rump
Ġsymb ol
ĊĊ Q
Ġhy p
Ġaccept ed
ĠWilliam s
Ġre in
Ġstre ets
Ġev olution
Ġb ird
Ġsu icide
Ġapp s
Ġpre gn
Ġdis s
Ġt iny
Ġsch ol
Ġmar ried
Ġmethod s
Ġg ift
Ġra pe
Ġout l
Ġch ose
Ġbl ame
b ing
e ople
ĠA T
Ġe ating
Ġto m
Ġrep ut
Ġgu ilty
ĠTrump 's
Ġsubs id
Ġis ol
Ġlaw .
Ġnom ine
Ġca uses
ĠCon stitution
Ġwel come
Ġwin ter
ĠFound ation
Ġdri vers
ĠK evin
ffic ient
ĠW atch
Ġun employ
Ġprom ote
Ġaut h
Ġdiscuss ed
Ġexpl ore
Ġlo an
Ġannounce ment
Ġtechn iqu
ve y
Ġw ave
Ġpl ot
Ġare ,
Ġyoung er
ĠD ou
Ġend ,
ĠTh ank
os es
Ġrepl aced
Ġnear by
Ġindust rial
Ġbu g
Ġrem ote
Ġmo ves
ĠO ffic
Ġcoff ee
ĠH en
ĠI D
ang ed
Ġbeg ins
ĊĊS h
e en
A S
ĠFr iday,
a it
ĠD ie
Ġknow ing
Ġcritic ism
Ġupd ates
Ġyou 'll
Ġcre ation
Ġinst it
us al
du c
ĠNow ,
un ning
Ġs ick
ĠAd am
Ġmore ,
ĠD etro
on na
Ġactiv ists
Ġbefore .
ĠB ack
ĠL ead
Ġcon gress
Ġadop t
vil le
r id
im al
Ġr ating
Ġtyp ical
ĠâĢľ O
Ġfranch ise
ro g
ĠW ood
Ġspl it
Ġthing s.
Ġtim es.
ĠS ports
ord er
Ġact ing
Ġapprox imately
Ġread ers
ĠIS IS
ĠS l
Ġsh aring
Ġt rib
Ġt ank
Ġexam ples
ic ations
Ġh unt
Ġcr ash
Ġs ession
Ġstr ing
ĠRom an
Ġmarket s
Ġproblem .
Ġadv ent
Ġsy m
Ġdom in
Ġstory .
ĠTuesday ,
Ġthough ts
Ġrelig ion
Ġposition s
Ġm icro
Ġtarget ed
re ens
Ġdeep ly
Ġprov id
Ġdef ined
Ph oto
Ġv o
ĠE ric
ate ll
ess or
Ġsecond s
Ġedit or
ĠSo ci
on om
Ġprec ise
al ed
A C
Ġmess ages
Ġc ert
P D
Ġpack age
h ab
ĠI ll
Ġhe ight
Ġfind ings
Ġur ban
ic ial
Ġequip ment
Ġstate ,
ĠS omet
ĠSov iet
ĠVirgin ia
one y
ĠH ol
ĠMond ay,
Ġb unch
: 30
a e
ĊĊN o
ĊĊ [
Ġb id
ol ve
we ll
E M
Ġbehav i
Ġdisc over
Ġrecogn ize
p oint
Ġcut ting
ĠY et
Ġright ,
Ġstate ments
les s,
ĠHoll ywood
ĠC ard
Ġ$ 4
Ġe gg
ĊĊâĢľ ItâĢĻs
Ġgovern or
ĠIn c
Ġclose ly
ĠJ ord
Ġind eed
Ġany way
Ġ2010 ,
ĠN HL
Ġsm ok
Ġp hen
Ġmarket ing
ĠT ay
et ary
ĊĊM any
Ġpoint .
Ġcustom er
Ġcoal ition
Ġevery body
form ation
Ġimport ance
Ġs outhern
Ġl atter
ĠM iam
Ġcomp onent
Ġme rely
Ġare a.
Ġliter ally
ĠW ik
Ġap olog
Ġincre ases
Ġexpans ion
Ġmist ake
Ġun iverse
Ġoffic ially
Ġclaim ing
ag es.
i h
ĠWashington ,
Ġsome how
Ġt ag
li er
Ġfac ilities
Ġgot ten
Ġret ire
ĠAmeric a,
ĠC amer
ĠDan iel
Ġlik es
at es.
ag es,
ĠSci ence
Ġsur ger
ĠAs ian
Ġ( in
Ġun cle
ĊĊDes pite
ĠE v
Ġsp ring
Ġveter an
ĠE conom
ĠS um
Ġcompar ison
ĠO k
let s
ĠF ord
Ġp ages
Ġlic ense
Ġreal ized
ĠAfghan istan
Ġto ,
Ġfem in
Ġexpl ains
ĊĊâĢ ĵ
ĠJ u
ur ation
Ġdist ance
ĠNA SA
ĠR ights
ain e
ill a
Ġmax imum
Ġshe âĢĻs
ĠChar les
Ġobs erv
ocrat ic
b re
er ia
Ġhard er
ĠH ist
Ġterrit ory
Ġter min
Ġassist ant
Ġsupport s
ĠAtt orney
ĠA cc
Ġenem y
our s
Ġmet al
ĠEn ter
ĠAfric a
Ġrout e
Ġprom ised
Ġtrans p
i ot
p ay
or ough
ĠD iv
ĊĊ1 .
Ġw est
Ġpow ers
ic ing
Ġbelow .
Ġmone y,
Ġcountry âĢĻs
Ġemploy ee
Ġun known
Ġnar row
ant ly
are n
Ġdri ven
ĊĊ2 .
i xt
Ġbe ar
Ġposs ess
Ġext ended
Ġbas ket
Ġnon -
Ġdoct ors
h i
ĠDes pite
Ġe ast
Ġcommunity .
Ġstret ch
am in
Ġag ents
ated .
Ġsome where
Ġex hib
Ġart ic
ĠAn n
Ġan onym
Ġcond em
Ġdes per
Ġk it
Ġl iqu
GB T
ĠAd minist
Ġdep th
Ġsim pl
Ġse ed
ĠEner gy
Ġassum e
Ġcomplain t
Ġconf ront
Ġro ot
Ġlink s
Ġreg ularly
ĠIre land
Ġdatab ase
ap ers
Ġrul ed
Ġwrit es
Ġpil ot
Ġob tain
Ġdi agn
Ġfore st
Ġaddition ,
Ġh ur
ĠL ord
Ġprov ince
Ġunderst ood
Ġfor med
il it
ĠRe v
Ġobser ved
Ġcomfort able
ĊĊL et
Ġha bit
Ġthey âĢĻve
Ġdra wn
Ġbod ies
ĠâĢľ You
ĠA .
Ġkeep s
Ġt ort
ĠI' d
Ġscen ario
Ġregist ered
Ġfrequ ently
Ġnot iced
Ġincred ibly
ary ,
it z
Ġtogether .
Ġfil ms
ĠB est
Ġso le
Ġinf ect
ĠY oung
Ġcapt ured
ĊĊW hy
ri er
ol es
Ġrespect ive
Ġev il
Ġcas es,
Ġhe ll
as p
Ġbook ,
y a
p erson
ĊĊThe n
Ġsudden ly
Ġcolle agues
Ġhar ass
Ġent h
ill ed
Ġra ising
ent .
Ġben ch
ad el
Ġincred ible
ang ers
ĠW omen
Ġpro of
Ġvers ions
ri e
ĠJav a
Ġdoz en
s p
ĠTh ough
Ġprim arily
ĠRep .
ĠWednesday ,
ol a
Ġprof it
ĠF er
Ġshe l
Ġob tained
Ġcontribut ed
Ġdirect ed
ĠE ll
Ġcru cial
Ġasse mb
ĠL o
ĠS outhern
Ġm outh
Ġext ensive
Ġf asc
Ġlawy er
Ġcomp rom
Ġstrong ly
ĠSpan ish
Ġact s
ĠIr ish
Ġ19 3
ĠC y
Ġbase ball
ĠMin nes
Ġfind s
ic ious
ĠM oore
ĠB rian
Ġexperien ces
Ġhol iday
Ġpl ants
s, âĢĿ
ci pl
Ġed ition
ĠW ild
or se
P U
el lect
Ġ2013 .
Ġdis ag
Ġpass ion
out s
ĠHou ston
ĠO ld
Ġse vere
ĠP y
ĠI' ll
Ġitself .
us i
Ġret urning
Ġequ ival
Ġt ied
ĠT w
og rap
ĠCh ild
Ġtrou b
d en
ad y
Ġs now
Ġwas te
Ġesc ape
ĠHe 's
ĠRep ort
ĊĊâĢľ This
Ġst uck
ide o
Ġpun ish
u ment
Ġwor ried
ĠâĢľ This
Ġstor age
Ġresult ing
Ġb oss
Ġqu alif
Ġaim ed
ĠJ r.
Ġsupp l
int end
ĠT op
Ġenc oun
Ġprof ile
ĠThursday ,
ĠMichig an
ĠD all
ĠF am
ĊĊ"It 's
Ġher ,
ĠSen ator
ĠCh ampionship
ĠI P
Ġcon vert
ef ully
Ġprotect ed
ab led
Ġhistory ,
Ġworld wide
Ġf ifth
meric an
Ġph ase
Ġaw esome
Ġselect ed
Ġpark ing
ed ia
Ġde leg
Ġprotest s
Ġmanufact urer
Ġart icles
Ġnar rative
Ġl ift
Ġphen omen
ĊĊJ ust
Ġal g
Ġear ning
Ġpro ved
i us
ĠPut in
Ġamount s
is hes
Ġl ies
ĊĊ '
Ġbefore ,
Ġg ang
Ġsa v
Ġfall ing
Ġer a
g on
Ġinvest ors
Ġman ,
Ġattack ed
is ters
Ġair port
Ġgood .
Ġ200 6
Ġple as
Ġh at
Ġno body
Ġtick et
Ġ4 ,
Ġplan e
oc key
Ġv acc
ĠO F
Ġf lex
Ġsuff ering
Ġchamp ion
Ġdis aster
Ġatmosp here
Ġfl u
res ident
ĠCont in
p et
ĠV an
ĠMuslim s
ĠW ay
Ġboy s
Ġne ut
Ġout come
Ġpl astic
ĠTur k
ĠâĢľ w
Ġsurveill ance
ne ll
Ġgroup ,
Ġass ert
Ġelse where
f riend
Ġcontinu ing
Ġyear âĢĻs
Ġchildren ,
Ġs atell
Ġfeed back
Ġs ight
Ġsh ots
ĠN Y
Ġob lig
Ġdeath s
ap ed
Ġap artment
c ow
ĠM o
ĠLab or
Ġchildren .
Ġtrans m
Ġcontro lled
Ġgener ate
ĠTur key
ut ch
ab is
Ġenth usi
ĠI ow
iv es,
Ġtest ed
Ġan x
er âĢĻs
al y
ap se
Ġp ace
app ing
Ġfl av
Ġdownt own
ĠD C
Ġ icon
ĠDN A
ra id
Ġbetter .
ĠFore ign
Ġparticip ants
H ow
ĠL GBT
Ġauth ors
g reg
Ġ id
n er,
Ġreport .
au g
Ġcy cle
ĠW ars
Ġautom atically
ĠF ar
Ġthreat ened
Ġr us
ĊĊ 3
Ġconstant ly
u nder
ĠW here
p es
Ġin qu
Ġmarket .
Ġbatter y
Ġdist inct
i at
Ġmom ents
Ġaud io
Ġpower .
ĠPol it
Ġrec overy
Ġexp osed
Ġsol ve
Ġun p
Ġbit coin
Ġreturn s
ĊĊM ost
ĠAc adem
ĠB oy
Ġdep ending
Ġch osen
Ġwin ner
ĠB .
w est
ĠSu pp
Ġth read
Ġthreat s
ĠâĢľ He
ĠYouT ube
Ġdec ent
Ġfor th
ĠD own
ĠA venue
ĠS ky
Ġ3 3
Ġsuc ceed
it an
Ġ Ð
Ġen able
Ġ2012 .
r ist
Ġseason s
het ic
ĠB owl
c hen
l ines
Ġth ing,
ĊĊ 3.
om ing
ĠWe âĢĻre
op her
Ġother .
Ġcr imes
Ġf ake
ically ,
Ġany more
Ġsc and
ĠSt and
Ġwomen ,
isc al
ĠL ong
o ch
Ġcateg ory
Ġpercent .
ĠItal ian
ĠPac ific
un ction
al ty
ĠVict or
Ġt aught
Ġprom inent
Ġthous and
Ġpartners hip
Ġtrad ing
Ġ" a
Ġsome body
Ġprot esters
ĠA v
ĠAP I
Ġf lying
ĊĊO ver
adel ph
we ight
Ġhead s
ĠPar liament
Ġinform ed
Ġexc iting
u ing
Ġch ampionship
ll s
p ool
ot al
ĠObama âĢĻs
Ġf uck
Ġt ies
Ġelection s
Ġant icip
Ġmat ters
ĠJ osh
i est
g l
Ġcompan y,
ĠC ivil
man ,
ĠAut hor
Ġinstit utions
ard en
Ġimpress ive
us se
Ġv ent
Ġover se
Ġra in
Ġener g
Ġt all
Ġcl ar
ĠN BC
ĠN ick
Ġfound er
ce ived
Ġcon ven
Ġwith .
ad or
ĠEx p
ĊĊU p
Ġdefe at
Ġexperience .
Ġwere nâĢĻt
Ġsign al
Ġpr ote
Ġplace ,
ĠCar l
ĠM ic
ĠF our
Ġacadem ic
ĠU t
isc ons
ĠMos cow
Ġfar ,
Ġst ead
Ġacc omp
Ġcampaign .
Ġunus ual
g ender
il arly
ĠN orthern
ook ing
ĠDav is
ĠO reg
Ġvis ited
Ġfol ks
Ġsong s
Ġframe work
ow s
ar ters
Ġenjoy ed
as .
Ġother s,
Ġel ite
ĠCo ast
Ġint ellect
Ġmod e
ĠZ eal
v in
Ġra cial
ĠV iew
op y
Ġobject s
ĠM ax
Ġw id
Ġconsum ption
Ġint ense
ĊĊL ike
Ġfamily ,
Ġelect ronic
ĠâĢľI f
Ġdoz ens
ĠR and
/ or
Ġatt ended
Ġoursel ves
Ġinc l
Ġaspect s
ĠAr m
ĊĊPol ice
ĠG az
Ġperson ally
Ġproces s,
ĠBut ,
Ġfirst ,
ĠColor ado
ĠLin ux
Ġwe ird
Ġcom ic
Ġw estern
Ġcamp us
ever al
Ġbuild ings
ĠR am
ar ,
Ġf ought
c are
0 ,000
ĠPrem ier
Ġaf raid
Ġsp ark
Ġext ent
Ġmot ion
ĠT urn
Ġperson nel
ing u
ĠDis ney
ĠT ony
ĠN ight
Ġconst it
w oman
Ġreject ed
Ġmain ly
Ġmark ed
Ġabort ion
Ġresult ed
m et
Ġend ing
Ġcomp ens
Ġadd s
ĠW at
ad a
Ġc ited
Ġ( C
ograph y
Ġperman ent
Ġself -
Ġcurren cy
Ġmaterial s
Ġmagaz ine
l ay
Ġand /or
Ġ3 00
Ġlaw makers
Ġwhat 's
ĠE duc
ens us
Ġtax pay
Ġdescrib es
ĠI T
ĠM ot
ĠL ove
Ġrepresent ed
ĠTrump ,
ĠC ome
n ic
Ġd ry
Ġinn oc
Ġperm ission
Ġex cess
ĠR og
ar r
ĠI N
nes s,
ste in
ĠJose ph
ĠT est
Ġunc ertain
ren ce
Ġreg ulation
C L
Ġman ner
er ves
p read
Ġch ick
ĠZeal and
C H
ĠS T
Ġback ed
Ġal ert
ĠS ar
ĠW .
Ġmanufact uring
Ġissue .
ĠPhil adelph
Ġu pper
IN G
ĠE astern
Ġv en
ir ty
Ġport ion
at o
cl ass
Ġresult ,
Ġr ing
es y
Ġrob ot
- th
Ġfor um
ĠK urd
ĠBe fore
is an
ĠE lect
- C
Ġ19 1
Ġsym pt
Ġcor ruption
ĠY e
ĠAl ab
Ġst im
ĠL ew
Ġgun s
- le
ĠTh anks
Ġnewslet ter
Ġ( as
Ġs ample
Ġsuccess fully
Ġreason able
Ġperfect ly
ĠAmeric a.
ĠB ru
it arian
ĠL ight
Ġcont em
ĊĊAl so
Ġph r
ic ation
Ġhistor ic
Ġmix ed
Ġ5 .
ĠW iscons
Ġp od
ĠF il
D onald
Ġdemonst r
ĊĊA b
Ġmov ies
Ġinform ation.
Ġz ero
om in
Ġwin s
cc er
f ortunately,
Ġrequest s
Ġexpress ion
Ġide al
Ġplay .
Ġr ig
n am
re hens
Ġd u
Ġre ly
Ġbeh alf
ess ions
Ġnew ly
ĠCl ass
Ġregard less
-p rof
Ġaggress ive
Ġgener ated
Ġissu es.
Ġcapt ure
let e
Ġra rely
ĠGree k
Ġorgan ized
Ġbusines s.
Ġwhe el
k ed
Ġyou 've
k i
ĠJes us
Ġlevel .
Ġcreat es
ce ler
Ġ2009 ,
Ġ2017 .
ĠT ake
ĠB at
Ġen orm
ic ul
il s
Ġn ations
Ġ iron
Ġcivil ian
Ġbasket ball
ment al
ant ,
Ġr ub
ag ram
Ġdat a.
if orm
Ġent it
ĠâĢľ N
ĠB alt
p ass
Ġfact s
Ġsto res
Ġconsequ ences
ll er
Ġhon or
Ġjour ney
Ġthemselv es.
Ġvis ible
f l
Ġcity .
Ġg ear
Ġwonder ful
Ġpract ices
Ġw age
Ġst adium
Ġcampaign ,
a o
Ġevery where
ĠJ ason
Ġslow ly
ĠUkra ine
Ġfl at
ob ile
ĠV eg
Ġadult s
ot ten
Ġpet ition
Ġcommunic ations
z ,
ĠAnt h
p .
alax y
Ġh ired
ĠAlso ,
Ġr iver
Ġleg end
ĊĊA dd
Ġreport ,
Ġde als
ĠIn s
Ġteacher s
Ġgen u
Ġexcl usive
Ġeng aged
ĠSpe cial
Ġthe rap
ĊĊI s
at hered
A M
Ġare a,
Ġwrong .
Ġbr ut
Ġelection .
ĊĊE x
Ġin ev
Ġpriv ile
Ġla id
ĠR ick
Ġstory ,
Ġart ists
Ġdis cipl
Ġequival ent
ĠRe al
Ġthem e
Ġ200 5
Ġman ip
t op
Ġg ained
ĠWil son
Ġstr ict
ĊĊ" This
Ġ3 4
ĠF ood
Ġvol ume
Ġsh adow
red it
Ġf ighter
ĠVal ley
Ġtarg ets
ĊĊS pe
Ġdevelop er
or ith
Ġfamily .
Ġrec ording
Ġ( The
Ġworld 's
Ġ( N
ĠG ames
ĠD ark
Ġsu fficient
Ġteach ing
r um
ĠV ol
Ġent ering
Ġcollect ed
Ġline .
Ġun w
Ġcompet e
Ġdrink ing
Ġlic ens
Ġint ent
Ġhaven 't
m ates
c ue
ck s
Ġsuff er
8 0
Ġch ances
Ġcol on
Ġsh ares
Ġpar am
Ġris ks
ĠOr gan
anche ster
c an
ĠM ajor
Ġord ers
Ġoff ,
Ġbr idge
Ġopp onents
Ġcontain ing
u ild
Ġserv ices.
ĠSt r
Ġrefuge es
Ġfix ed
Ġh idden
Ġang ry
it ud
ĠY es,
Ġwar rant
Ġtop ic
u zz
Ġprogram .
ĠC are
ides pread
Ġk il
Ġprodu c
n s
ul s
Ġinter face
Ġb le
Ġcommunic ation
Ġown .
Ġinjur ies
Ġdraw ing
os ing
ĠO ak
ĠD ar
Ġsc oring
re ct
Ġmult i
ĠÂ £
Ġdat a,
ĠP S
Ġg ri
ĠGl obal
Ġ( Photo
ĠScot land
z er
Ġk ing
Ġimmigr ants
Ġswe et
ra in
Ġpost s
Ġret ired
Ġc rop
Ġh its
Ġp ed
ĠPro gram
Ġe lev
Ġgo d
Ġeven ing
ĠU s
Ġsa ved
Ġfollow s
Ġsupp orter
ĠJew s
Ġ2008 ,
ĠDetro it
Ġjournal ist
ĠCent re
ĠR oyal
ĊĊR el
Ġsp ons
Ġcrit ics
Ġb at
Ġoper ate
Ġpl ug
Ġrel ief
ri ve
Ġshould nâĢĻt
Ġmillion .
Ġh itting
ĠRob in
ĠO per
ĊĊNow ,
Ġhead ed
Ġcoun sel
Ġpro ven
ĠMay or
Ġregul ations
Ġyet ,
Ġshort ly
Ġstrugg ling
Ġst ack
in als
Ġwe 'll
I V
Ġrout ine
Ġ1 ,000
Ġst y
Ġf ir
ĠG reg
Ġmay or
Ġse m
ott ed
ĠV iet
- 3
Ġy ield
Ġvalu able
ĠCon ference
ĊĊS o,
Ġsp in
Ġit .âĢĿ
ib ilities
Ġexpl icit
SP N
Ġl oud
ĠO S
Ġgam ing
# #
ric ult
ĠH el
Ġdeli very
R E
Ġbare ly
ams ung
o en
Ġlevel ,
Ġfound ed
Ġestim ates
r ific
ĠBern ie
Ġt ip
Ġag ricult
ĠH ot
Ġme at
Ġbl ind
ĠJud ge
Ġstrong er
Ġas set
Ġfun ctions
ĠU FC
et her
Ġw idespread
Ġabout .
Ġinform ation,
ĠAg ency
Ġatt ribut
Ġind ex
ĠAb out
Ġpain t
Ġf iscal
ĠâĢľThe re
Ġalg orith
Ġst em
ĠO s
Ġshar p
Ġcl ock
ob e
Ġ4 9
Ġreach ing
Ġfeat uring
Ġland sc
nes s.
Ġg onna
Ġredu ction
l van
Ġb orrow
ĠTurk ish
Ġp ump
Ġwrote .
Ġcount y
Ġcons pir
ĠF all
0 ,
Ġachie ved
Ġtrans action
Ġshow .
ĠSund ay,
Ġup set
ĠN az
Ġhard ly
ĠW ater
? âĢĿ
Ġ( th
ĠBus iness
Ġexist ence
Ġtogether ,
Ġmorning ,
Ġadop ted
Ġest ate
Ġbeg un
Ġwithd raw
Ġar ray
Ġproject .
Ġ5 ,
w ord
Ġcom pe
ĠIn vest
Ġredu cing
ĠD am
Ġsuggest ing
ĠN ations
Ġ$ 5
lud ing
Ġjournal ists
ĠAriz ona
Ġemer ged
ĊĊT wo
og an
ĠC all
Ġve get
Ġth ick
m ont
Ġcomplic ated
Ġargu ments
Ġadminist r
Ġg all
ĠC ast
p al
Ġb es
Ġbus y
Ġempt y
Ġdes cription
Ġth rown
Ġmat ches
ĠG all
Ġjo ining
ill s
Ġclass es
ĠAr ch
al le
ĠV R
ĠInd epend
w ater
ial s
r un
ĠChin a,
res ent
ĠA I
Ġext end
ograph ic
A .
Ġc able
Ġprep are
ĠJord an
ĊĊA r
Ġac celer
Ġsche dule
Ġphys ic
Ġrepresent ative
Ġro se
ĠX box
Ġo k
Ġacc us
Ġcont ribute
Ġfor .
Ġ3 7
ĠF C
Ġconcl usion
sy lvan
Ġball ot
Ġjob .
Ġun iform
Ġindic ate
Ġar range
ĠN SA
g a
Ġiniti ative
Ġgenu ine
cu it
Ġschool ,
Ġinc ent
Ġpower ,
Ġpubl isher
Ġprogram ,
ĠDon âĢĻt
Ġel ig
Ġsett lement
Ġter rible
- and
ĠTod ay
Ġelectric ity
Ġvill age
x y
ĠK ent
Ġmean ,
Ġprodu cing
Ġ= >
ro c
Ġfl aw
Ġhand ful
Ġm ail
Ġ"It 's
Ġg athered
Ġd ict
Ġp al
Ġbl ast
ĠC D
ĠThere 's
Ġf ighters
ĠB ull
ter ,
Ġmount ain
Ġpart ,
Ġnetwork s
Ġsent ence
gg ed
ĠO nt
ĠMin istry
Ġ( F
Ġdone .
ig ure
ĠOlymp ic
Ġrefer ring
ĊĊâĢľThe re
Ġ" S
Ġmy th
Ġbe ,
ra ction
ĠâĢľThe y
Ġam id
ĠM en
Ġa ver
li x
Ġ7 5
ag an
Ġf ault
Ġsens itive
il ton
Ġasse ts
Ġvulner able
Ġrelationship s
ar lier
Ġmed ium
Ġlim its
ens ity
Ġpolitic ian
Ġover .
Ġcons cious
ĊĊO ur
Ġpe ak
ep ing
Ġcountri es,
Ġb ail
Ġal ien
ĠE r
Ġrecogn ition
he rent
pect ed
ĠF oot
ill y
Ġoffice .
ĠK ar
ou ver
Ġattempt ing
ĠA li
ĠAmerica âĢĻs
Ġex ceed
Ġw ing
Ġdis g
Ġst ab
Ġconvin ced
Ġreg ister
g .
ĠPenn sylvan
Ġsy nt
ĊĊM eanwhile,
Ġcann abis
Ġdep uty
Ġconclud ed
Ġlik ed
anc ouver
Ġsen ator
ĠHen ry
Ġprinci ple
Ġcommunity ,
ĠC a
Ġdem ands
ĠMed ical
EN T
ĠD id
Ġshow ,
ĠMiam i
Ġindic ated
Ġact or
Ġside ,
or ation
Ġsu gar
d ate
Ġinv ited
Ġinvestig ating
Ġproper ly
ĠB as
Ġnav ig
ĠN ote
b l
Ġ10 ,
Ġrec over
ĠPat rick
Ġgrant ed
ĠBra nd
ition al
Ġform al
Ġban ned
ĠS now
Ġgood ,
Ġprop ag
ĠTh ree
Ġdeli ber
c us
Ġuse .
Ġcoll apse
ĠE nd
Ġsa ving
Ġfin ance
ĠD un
ĠG ov.
Ġres ign
Ġr ural
Ġnorm ally
ĠD ead
Ġsub t
ret t
Ġtem porary
Ġun com
Ġ2017 ,
Ġinstall ed
ere nces
Ġposs ession
Ġmon itor
ĠE SPN
om a
Ġv ital
Ġdest ruction
Ġliber t
Ġstrateg ic
Ġtouch down
Ġaway ,
Ġwe lf
Ġrecogn ized
Ġem issions
ĠBe ach
im ore
Ġproject ,
Ġwelf are
Ġneut ral
ĊĊA m
Ġbr anch
Ġchange ,
Ġs or
âĢ Ķ
Ġcra zy
- sc
Ġeas tern
ĠT al
Ġ6 ,
vel and
ĠA BC
ĠPer haps
Ġparticip ate
Ġpay ments
ĠH T
Ġgroup .
ĠS .
ĊĊR ep
Ġto x
ĠKing dom
Ġsm ooth
Ġknow .
ĠSe ason
Ġdisc overy
Ġevery th
Ġj un
ĠCaliforn ia,
Ġactiv ist
ck ing
Ġpresident ,
Ġrequire ment
ĠP ack
port ion
r ical
ce ,
Ġp in
Ġare .
ĠM anchester
Ġconstitution al
Ġwomen .
Ġport ray
Ġgen etic
Ġdestroy ed
Ġser ves
ĠKell y
Ġfore ver
\ x
Ġover l
Ġpropert ies
ĠSaturday ,
ĠRe view
Ġform at
Ġtack le
ĠGuard ian
Ġowners hip
Ġt ear
iv es.
es h
Ġh ang
Ġseem ingly
nd um
ĠM S
Ġro ok
ĠL and
Ġ( see
Ġfash ion
b our
ĠIran ian
Ġmen u
ĠRad io
Ġelse .
M A
Ġob st
Ġj ur
ant s,
P R
Ġing red
Ġequ ally
reed om
Ġcont ained
Ġb ath
ĠN ext
Ġhead qu
Ġspokes person
Ġaccomp an
Ġhead ing
bur gh
Ġvers us
Ġ4 8
Ġhas n't
Ġdram atic
F P
Ġrank ed
ĠServ ices
Ġy es,
ĊĊO nce
Ġbehavi our
ĠSqu are
ag u
Ġto ler
ot es
Ġsett le
Ġlegit imate
Ġall ies
Ġloc ations
Ġcry pt
Ġb urd
ĊĊ 4.
Ġcity ,
Ġdev ast
Ġconv icted
Ġrece iver
ĠF ort
ĠL as
ĠSt adium
Ġminor ity
it a
Ġpoll s
Ġext ension
Ġpract ical
Ġtrans gender
ĠH y
ut ed
Ġdeath .
ĊĊW h
Ġdef ence
ĠNav y
Ġnot ion
Ġpen alty
Ġissu es,
Ġf estival
Ġmedia ,
Ġt ap
ĊĊS ee
Ġm as
ĠYork ,
ch o
Ġmil k
Ġfail ing
Ġign ore
ach use
Ġprogress ive
ĠHar ry
ĠPol icy
Ġattack ing
ĠConserv ative
ĠDiv ision
Ġcountri es.
ĠP oint
Ġconc ert
iver pool
Ġuncle ar
Ġdef ine
ĠC O
Ġinvol ves
ĠMatt hew
Ġcompany âĢĻs
Ġpass es
AT O
ĠV ancouver
Ġsy n
T o
ĠC ir
ĠC am
Ġlet ters
ĠGeorg ia
Ġsay ing,
crib e
oun ced
ĠF ield
Ġsuspect ed
Ġpurch ased
Ġsm oke
Ġmag ic
Ġpast ,
Ġthrow ing
ĠA ward
se a
he nt
ok ed
Ġcollect ive
ĠR ay
Ġh ide
Ġrefere ndum
ĠD ig
ually ,
ĠS af
Ġintellect ual
ĠB ry
ĠGet ty
Ġelection ,
Ġest imate
ĠThey âĢĻre
Ġlawy ers
ow ed
Ġreput ation
r ich
Ġmeet ings
anc es,
Ġut il
Ġex ternal
Ġatt ached
Ġun ex
ĊĊThat âĢĻs
Ġch oo
Ġch apter
ĊĊâĢľ O
Ġ- >
Ġvirt ually
Ġfoot age
Ġview ed
ĠCity ,
f ast
ar on
Ġpres um
ĠN ob
ĠAnd ,
Ġaff ili
ĠR on
ĠL .
Ġother ,
ĠSoci ety
ĠS amsung
h ost
f e
ut es
ch ain
Ġexper ienc
Ġdid .
Ġex port
Ġincor por
ion s,
Ġaccur ate
Ġ200 4
ĠDall as
ĠJer sey
Ġresist ance
ĠM useum
Ġeth nic
Ġhe âĢĻd
ĠP an
up id
Ġcountry 's
Ġ7 ,
Ġrem em
Ġsc ream
ĠSept .
Ġser ies,
Ġmiss ile
ĊĊD o
ĊĊRel ated
Ġhous es
Ġyet .
um ber
ĠMass achuse
Ġy ard
Ġwrit ers
Ġright ?
Ġ2011 .
ĠA ng
Ġblock s
Ġenough ,
ĠF und
Ġeconom y.
Ġstud y,
ph y
ĠR ose
Ġemploy ment
Ġprogram ming
Ġrequire ments
ĠCh air
Ġre ven
Ġhy d
Ġh ole
or ic
Ġv ary
Ġj u
Ġhand ed
i ency
Ġfant astic
Ġresear cher
he ast
Ġsay .
Ġd rew
ĊĊR e
ĠAnth ony
Ġe -m
Ġoffice ,
ĠAl bert
ĠâĢľ But
ĠL u
Ġper pet
Ġimprove ment
Ġinqu ir
Ġinv ent
Ġs oph
Ġindustry .
Ġinter vention
Ġtra ined
p an
ĠAnd erson
v ious
a ed
Ġcomp rehens
ĠMill er
Ġtest im
Ġsubstant ial
Ġsan ctions
ĠB ell
Ġm ine
ĠF urther
ĠCle veland
ĠC .
Ġrid icul
ĠProf essor
V ER
Ġcompan y.
ĠA ction
Ġst ake
Ġbr ill
Ġt one
pr ise
Ġth rew
ĠL ittle
Ġra w
Ġguarant ee
ost er
ĠSant a
ĠSh are
Ġle ts
Ġstay ed
Ġmid field
Ġ( D
ĠGo vern
Ġwater ,
Ġchalleng ing
et ime
ĠBalt imore
Ġprem ium
Ġ" O
Ġyou âĢĻd
a ire
Ġnot ing
Ġimpro ving
Ġno ise
Ġ3 8
Ġinv as
Ġwar .
Ġd ad
Ġgo .
Ġoverwhel ming
ĠAssoci ated
ĠGold en
ck ed
l ife
Ġexplan ation
ĠM ake
z en
og ether
Ġprotect ing
ivers ary
ĠAnt on
Ġtrue .
ĠTuesday .
Ġd iversity
Ġin ject
Ġf ed
Ġ( 3
ĠEn viron
Ġb om
Ġpre f
Ġcont ribution
ĠPhil ipp
ĠB a
ke l
ĠF red
Ġgood s
Ġ11 ,
ĠH ospital
ĠV is
Ġspeak s
Ġtast e
Ġcontrol s
Ġim per
Ġse ats
ĠIraq i
Ġfe es
ĠMcC ain
anc es.
ĠM .
Ġcover ing
Ġschem e
Ġfact ory
- sh
Ġwater .
Ġf oss
ĠTay lor
Ġdem ocratic
m ,
ĠKen ned
ĠWh ich
Ġth in
____ ____
Ġcomp onents
Ġside .
sec ution
ress ed
int s
Ġphot ograp
Ġexpand ed
ĊĊBe fore
ĠB rew
am ber
ar ry
Ġcas ual
ĠP ay
Ġwar ,
Ġgu it
Ġ8 ,
w ar
Ġadm it
Ġi P
ĠWith out
ĠM oh
Ġstart up
Ġminut es.
Ġdisag ree
Ġengine ering
Ġliv es.
ĠC S
f all
ĠK ansas
Ġcare ful
ĠIll ino
Ġover t
Ġi OS
ĠJ am
over ,
Ġcongress ional
ĊĊ"The re
Ġsol utions
Ġinvestig ate
Ġexp osure
Ġ( for
-se x
Ġst ol
ĠHow ard
ĠDevelop ment
Ġ4 2
ĊĊG et
ose xual
) ;
Ġout s
Ġc abin
r ary
Ġadvert ising
Ġfall en
Ġ19 2
Ġdog s
f lix
Ġse ct
ĠH as
Ġproblem s.
ang es
ĠInt elligence
Ġgovernment âĢĻs
Ġend .
Ġsubsequ ent
Ġeither .
ic o
olog ist
Ġ20 ,
Ġthe at
e y
el ine
Ġansw ers
Ġcity âĢĻs
p ire
Ġtom orrow
ĠP R
Ġdin ner
ret e
Ġhor ror
Ġappreci ate
- S
ĠN ever
Ġliqu id
Ġfir ms
ĠQue en
ĠO K
ĊĊâĢľI f
sh ire
I mage
Ġname ,
E very
r ors
Ġsu p
Ġfound ation
ĠCommun ity
ĠEd ward
Ġpolic y.
v y
-w ing
Ġ" W
ĠMonday .
ĠAs ia
Ġlob by
Ġfear s
ĠAcadem y
way ,
Ġmedia .
ĠIn formation
Ġbill s
Ġimplement ation
Ġencoun ter
Ġr het
Ġlist ening
Ġdi verse
omm od
ĠO âĢĻ
ĠT em
ĠHar ris
Ġur ged
ĠN ation
Ġupgr ade
ĠBr other
Ġtri es
ĠSp ain
ri k
Ġcl ients
Ġmen ,
ĠL ink
Ġschool .
ĠC A
ĠS uch
Ġrepresent ing
Ġconsist ently
Ġsal ary
Ġlow est
Ġad s
ĠMexic an
le y,
Ġenorm ous
Ġlet ting
Ġh ung
Ġlong ,
ĠC ore
Ġ" You
Ġwith ,
Ġarri ve
Ġ" This
ĠAN D
Ġt rem
Ġwork er
Ġwebsite .
Ġbusines s,
ities .
Ġtechnolog ies
G et
ĠM s.
Ġreg ions
ĠMinnes ota
Ġdeg rees
ĠâĢľ b
Ġ20 th
ap ol
Ġrecomm ended
ĠComp any
em en
l ah
Ġacqu ired
ortun ately
Ġdep ends
ĠCamer on
ĠN ATO
arr ass
Ġdis rupt
Ġtoday âĢĻs
- on
ĠSpr ing
is .
Ġassist ance
Ġweek s,
Ġfl ash
Ġp ound
Ġextra ord
Ġt ail
ĠSer ies
i ed.
ou red
Ġacc ommod
ĠDen ver
Ġwomen âĢĻs
Ġaction .
ĠK n
Ġl oyal
Ġ" He
in em
O W
Ġext ract
ĠEurope ,
ĠC at
Ġmarket ,
ĠP ent
Ġso il
Ġdeep er
Ġst upid
Ġestablish ment
Ġemb arrass
ĠH it
l ist
Ġstrik es
Ġcy ber
Ġc ust
Ġrep rodu
ĠMar vel
ĠFoot ball
i ary
Ġperson ality
ĠDo es
ort ed
ant ic
Ġvot er
Ġdynam ic
ĠLiber al
ĠE p
ĠOct .
ĠSt one
we red
ĠT own
Ġro ster
Ġfarm ers
ĠJ ac
Ġn atur
ĠC ra
ĠM a
ĠI ce
ĠFam ily
Ġfuture ,
ĠOnt ario
ĠChe ck
ĠL iverpool
Ġrac ist
ĠCo ll
Ġf ulf
intend o
ĊĊC l
ĠLet âĢĻs
Ġt or
ĠL ive
Ġexcl us
Ġ15 ,
ĊĊPh oto
Ġreport ed.
ant s.
ĠC apt
ities ,
ĠKe y
Ġdro ve
ĠC BS
Ġencoura ged
Ġclos ing
ĠFriday .
pre ne
re prene
Ġmembers hip
Ġf ab
ĠF reedom
Ġplay ers,
as er
Ġstat es,
ĠM OR
Ġh am
Ġcele b
Ġline ,
Ġprov ision
ĠB o
Ġinvolve ment
Ġfilm ,
Ġmus ical
ac are
Ġ( f
ĠJ ay
Ġord inary
Ġbrow ser
Ġsusp ended
-to -
Ġast ron
ĠN ov.
Ġ6 4
Ġprot ocol
Ġscen es
ver ty
ĠL uc
Ġaut hent
Ġsur f
Ġhappen .
ĠO tt
ĠTrump .
int erest
ĠIn f
Ġp orn
Ġpo verty
ĠLat in
Ġenough .
Ġw rest
Ġspokes woman
Ġthough .
Ġdemocra cy
ĠOreg on
ĠF air
Ġcour ts
T A
Ġvis iting
ource :
Ġt ab
ĠWednesday .
es sel
ĠD ave
Ġstate âĢĻs
Ġign ored
Ġsite .
ition s
Ġhand ling
Ġm arch
Ġo cean
art y
oc ation
ri ent
ĠT ri
ĠII I
Ġintrodu ce
ĠI d
Ġb act
Ġexperience ,
Ġmo s
Ġpres id
Ġv s
Ġnegoti ations
Ġattack .
Ġspok en
Ġcap abilities
on so
Ġh ook
Ġsupport .
ĠSe a
I P
Ġspace .
Ġwar ming
Ġfeel ings
Ġrapid ly
Ġco vers
Ġtrack s
Ġsh out
st one
Ġdemonst rated
ĊĊT od
Ġsh if
ĊĊ" O
Ġres cue
ut ive
Ġin ner
Ġde em
Ġweek s.
Ġatt orne
Ġplay ers.
ĠB ureau
ĠG i
Ġne ck
Ġst able
Ġ30 ,
Ġagend a
Ġfocus ing
Ġlock ed
Ġacknowled ged
Ġcritic ized
se mb
Ġ6 .
Ġproblem ,
Ġappro ached
Ġcho ices
> >
ĠN .
ĠSte ven
Ġpercent ,
Ġ$ 6
ĠP itt
ĠAm endment
Ġcy c
ĠC hel
Ġd uty
Ġch a
L e
F A
Ġitself ,
Ġpeople âĢĻs
in es,
Ġpurs ue
Ġ# 1
Ġtit les
Ġj ury
Ġwho âĢĻs
ĠK h
Ġch ip
Ġhelp ful
Ġal ter
Ġintrodu ction
v ard
Ġpre ced
ĠMus ic
Ġtra ve
im ents
ĠE ag
U S
Ġterror ism
Ġprep aring
Ġtweet ed
y stem
Ġb ureau
Ġaround .
Ġcommon ly
ĠUniversity ,
E W
- off
Ġlandsc ape
Ġcomplain ts
un icip
ĠS ony
ĠMark et
ĠComm on
al o
Ġsame -sex
Ġwhen ever
Ġpers ist
Ġrat io
Ġevent ,
Ġconvention al
ĊĊ" He
ĊĊâĢľ He
ĠR en
ĠCon f
Ġmoment ,
Ġtre es
Ġsign ature
ĠObam acare
Ġfriend ly
Ġtechniqu es
ĠBe ij
Ġlegisl ative
ĠBu ild
ĠD ata
Ġmeas ured
Ġequ ality
Ġs oul
Ġinsp ir
ind ing
ated ,
Ġcon so
Ġprodu cer
Ġ20 20
ĊĊ 4
ĠPat ri
nt il
Ġpipe line
Ġsmart phone
ĠHist ory
ion s.
ĠE .
Ġf inger
Ġ9 ,
ab eth
Ġfor cing
ĠJust in
ĠK ong
ig en
Ġstat es.
ĠC ook
Ġwhich ,
ĠPr ince
Ġtarget ing
Ġscient ist
Ġsatell ite
Ġadvoc ates
Ġjo ke
Ġsil ver
Ġsw im
st ers
ĠThursday .
Ġ7 .
Ġmorning .
b oy
am med
Ġact ively
Ġtick ets
Ġste el
Ġfo ld
Ġre vel
ĠAdminist ration
Ġrook ie
ĠEduc ation
Ġperform ing
Ġstud ied
Ġ100 %
Ġab road
Ġd ump
Ġveh ic
ĠOk lah
Ġmind ,
Ġfore cast
Ġ4 00
Ġwe igh
on ic
Ġ4 4
Ġt ape
Ġinst ruct
- class
Ġappoint ed
Ġm useum
Ġart ific
Ġmonth ly
Ġrestrict ions
Ġunemploy ment
bur g
ĠCl ark
Ġhealth care
Ã ¡
Ġfriend s,
b o
Ġ12 ,
ĊĊI nd
Ġcare fully
ĠTre as
Ġclub s
m un
Ġinvestig ators
Ġmem or
a 's
Ġclass ified
Ġto uc
Ġex ists
ĠU se
ĠR oy
Ġc oc
Ġschol ars
ĠRe uters
ĠHe ad
ĠH D
Ġlight s
Ġsurv ive
Ġnation âĢĻs
ĠNet flix
sen al
st ate
uck y
Ġline up
- of
ĠEx ec
Ġprocess ing
Ġske pt
Ġmatter .
Ġd ut
Ġfund ed
idel ines
Ġprinci ples
ĠDie go
ĠB attle
ĠC lick
Ġspirit ual
ĠS ir
Ġcan c
Ġcamer as
ĠO N
Ġdiv ided
Ġcomp are
ĊĊB oth
uck s
Ġsk y
Ġdeal .
Ġr ush
Ġwife ,
Ġ(w ith
az e
ĠCont rol
S cript
/ 2
Ġask s
Ġw ider
Ġlist .
Ġaccompl ish
ig are
Ġ18 ,
Ġdistribut ed
Ġgr ass
Ġhor se
in ity
Ġenc ry
Ġsurv iv
Ġman .
ĠSt art
Ġinsist ed
Ġprior ity
ess ed
ĠT our
Ġroom .
ĠN ev
if est
Ġfant asy
er m
Ġcon ce
Ġse ar
ĊĊ 5.
ĠAm ong
ĠG alaxy
os it
ĠJan .
Ġbrill iant
Ġ %
Ġmach ines
Ġresour ce
Ġp age.
Ġdemand ing
Ġfield s
ĊĊC ont
ĠCap it
Ġyear 's
Ġun pre
ens ions
ĠClinton âĢĻs
ĠL A
ĠScott ish
z ed
Ġw edd
Ġbroad er
ĠH ave
Ġdiscuss ions
Ġcontract s
Ġ15 0
Ġ200 3
Ġpattern s
Ġbro wn
Ġfrequ ent
ĠAb b
c y.
Ġgr id
ul ating
ig er
Ġmin ing
ĊĊR es
ĊĊ Â
Ġargu ing
Ġtr illion
ĠA h
Ġover s
ĠRev olution
Ġye llow
Ġrock et
B y
Ġevent .
an es
Ġf ing
Ġvisit ors
ĠN intendo
Ġste pped
Ġmin istry
ĠSy d
Ġt ur
Ġre nder
Ġtrack ing
rat ors
Ġstrugg led
Ġview ers
Ġmind .
Ġrem ov
Ġent reprene
ĠF inal
P eople
Ġmanag ing
u ous
Ġsociet y.
Ġnomine e
ĠB ang
Ġfe e
ĠAlab ama
ĊĊIn st
H S
ĠL ind
Ġmark s
Ġsc an
Ġmuch .
ĠT ed
cu se
Ġw ra
Ġloss es
Ġre ar
i ability
S L
Ġpoint ing
Ġcentur y,
Ġindustry ,
Ġr if
os m
Ġqu oted
Ġgroup s,
Ġthey âĢĻll
ĠHar vard
ĊĊTh ose
Ġsur ge
u ction
Ġcontrol .
Ġhost ed
Ġ( e.
ĠG ulf
Ġass ign
Ġservice .
Ġdisapp ear
Ġt ie
Ġissue ,
Ġhop ed
Ġrecru it
Ġname .
Ġin equ
ĠWar ren
Ġfall s
ĠB all
ĠIow a
if ies
Ġphr ase
Ġmort g
e ath
Ġqu ote
ĠWiscons in
Ġden y
Ġany body
Ġr amp
Ġshe 's
Ġst ored
ĠBre x
ĠEng ine
Ġrel iable
Ġaware ness
Ġmonit oring
Ġp atch
Ġpart y.
ĠâĢľI âĢĻm
Ġ21 ,
Ġdes erve
ĊĊM r.
Ġsitu ation.
ĠL yn
ĠM ars
Ġ2010 .
Ġsc ores
A A
ĠM ain
Ġb ub
Ġsaf et
Ġd ub
Ġweek ly
Ġph ones
Ġcontact ed
Ġant i
Ġ8 .
M L
Ġd ust
Ġpast .
ĠH ard
f ire
ĠF ull
t a
aw a
Ġl es
ĠPhiladelph ia
Ġsw ing
Ġliter ature
Ġ16 ,
iz abeth
Ġaff air
ĠMc G
ĠH op
Ġthey 've
Ġinter action
Ġhimself .
Ġsh r
end ers
Ġme re
Ġreci pe
ĠCon nect
Ġ1 st
ition ally,
Ġwant ing
ĠGra ham
ĠInd eed,
Ġaddress ed
Ġalone .
Ġdr one
ĠN OT
ĠN ic
usal em
ĠWe 're
Ġ2007 ,
Ġal arm
Ġin ning
Ġrequest ed
Ġst ability
Ġfoss il
ĠS wit
ĠB uff
Ġadded :
t hen
Ġ6 5
Ġv essel
Ġhome less
Ġout rage
Ġpar alle
Ġelig ible
ific ations
Ġabs ence
Ġdom ain
s cribe
Ġaccess ible
oty pe
Ġtechn ique
Ġinterview s
Ġpre par
Ġcelebr ate
ic ate
Ġlay er
Ġengine er
ĠCor por
ĠCanad a,
Ġchild hood
ih ad
ĊĊ"I f
Ġconspir acy
Ġsc reens
ĠJer usalem
w in
ent h
Ġcircumst ances
Ġpolic y,
Ġstay ing
r ating
Ġc od
Ġpromot ing
ĠAg ain
ct ic
Ġro les
Ġd ating
Ġaward ed
Ġb urning
Ġsure ly
Ġpart y,
Ġsurv ival
ĠEm ail
Ġ22 ,
Ġ5 5
Ġtrem end
ĠR os
ĠAs h
ĠB ron
Ġ3 9
Ġdead ly
Ġ19 ,
ĠI R
Ġreve als
ĊĊJ ohn
Ġsubm itted
ĊĊF in
ĠD. C.
ĠF I
- term
Ġentit led
Ġbre ast
ac le
Ġassoci ation
or a
Ġ$ 7
Ġsh ips
Ġhappen ed.
in ction
ĠD i
Ġfield .
Ġabandon ed
ĠW W
ugh t
ĠA le
Ġpublic .
Ġcoord in
i ate
Ġbo at
Ġset up
ĊĊâĢ Ķ
Ġimprove ments
Ġsho pping
ĠBro ad
d ict
Ġab ilities
Ġmeaning ful
Ġ25 ,
Ġneighb our
ĠMan age
ĠPr ice
ĠM u
Ġp ounds
Ġst ations
Ġ2 nd
Ġenem ies
ass ador
Ġarri val
ĠK ir
ĠItal y
Ġdo ors
Ġplay ,
Ġdisp ute
Ġann iversary
ĠM id
ĠInst agram
ĠHam ilton
ĠDec .
Ġpolit ically
Ġexec ution
Ġmillion ,
ĊĊB ecause
Ġabs or
Ġche st
Ġprocess es
Ġst one
Ġprom ises
Ġ24 ,
Ġexpect ations
Ġ17 ,
k a
Ġblock ed
ĠD utch
ĠJon athan
ĠBr idge
ĠSci ent
act ive
ĠIn c.
Ġhour s.
ult ane
ĠT ro
Ġimplement ed
Ġepis odes
Ġton ight
ĊĊE very
ĠRed d
Ġkil omet
Ġrelease .
b or
Ġmo le
Ġpro l
I M
Ġl oose
Ġcre am
Ġr ational
Ġent r
Ġthreat ening
Ġbe ating
Ġcompet ing
Ġmat hem
ĠL im
Ġreport s.
ĠU ber
Ġpick ing
Ġdemonst rate
Ġpolice .
Ġdismiss ed
Ġl ists
Ġ( M
Ġth orough
Ġit. "
s es
Ġstream ing
Ġstol en
Ġex it
I I
Ġposition .
ĠSe an
Ġdist urb
ick s
c y,
Ġend orse
ĠAss ad
Ġh ire
Ġf iring
Ġ4 3
Ġpl ain
Ġcomprehens ive
ĠSar ah
ĠD O
ĠEm pire
ĠG ord
Ġ4 1
Ġfil ter
c ott
Ġsh ame
u ce
Ġserv ices,
Ġabove ,
Ġfather ,
Ġconvers ations
Ġdifferent .
ĠH ay
p m
Ġ14 ,
ĠT it
Ġcorpor ations
ĠTen nes
ĠL ook
0 s.
Ġemer ging
p ro
in ations
Ġregul atory
Ġhyp ot
z ing
ĠC ross
Ġal ive
Ġco aches
ĊĊAb out
Ġpen alt
ĠAll en
ĠR et
Ġeduc ational
ĠM arsh
Ġser ies.
Ġl unch
enn is
Ġbreak s
Ġe ase
ĠA ge
land s
Ġc iting
Ġ"I f
ĠGovern or
Ġe-m ail
ach ing
Ġla pt
Ġl ying
Ġhelp .
ur rent
Ġg ains
Ġdial ogue
Ġc ogn
Ġdiscuss ing
ĠM aster
ĠV ice
ĠB udd
ĠH ong
Ġremark s
iz on
Ġret ain
Ġsm ell
ĠOr ig
on âĢĻt
ĠP en
ĠAs semb
Ġanyth ing,
Ġclot hing
ĠB ible
Ġ200 1
ĊĊAn y
Ġrep air
ĠT es
Ġconnect ions
our ces
ĠBel g
Ġquestion ed
ĠG irl
Ġpossible ,
ĊĊF acebook
Ġanother .
Ġ28 ,
z a
Ġprov in
Ġbank ing
em an
Ġl ad
Ġpoint s.
ĠT rib
ĠMor gan
ĠM at
Ġag ed
Ġnatur ally
Ġb ow
ĠâĢľ That
b ec
Ġcapt ain
Ġch at
Ġeconom y,
ĠBel ow
Ġsam ples
Ġpl ate
Ġac id
Ġexcept ion
. com
ri ers
Ġmarg in
Ġcy cl
less ly
Ġdiscrim ination
Ġfund ra
Ġsecond ary
Ġbod y.
Ġdef ending
Ġself -d
ĠSt ore
Ġ" N
Ġ( 201
Ġn ic
Ġ26 ,
on nell
Ġj ok
ĠViet nam
Ġdi et
Ġrank s
Ġbul let
Ġsim ultane
- the
ĠF re
ĊĊHere âĢĻs
Ġcontribut ions
Ġre verse
Ġcare er.
ĠS n
Ġgen re
Ġdeath ,
Ġ9 /
ĠEurope .
ĠDes ign
ĠC ost
enn y
in er
Ġkit chen
Ġr om
Ġrel ax
ĠGree ce
Ġroom ,
ant .
Ġguit ar
Ġde lic
app y
Ġh o
B O
ĠâĢľ M
Ġreplace ment
Ġstat istics
Ġit ,âĢĿ
Ġjob ,
Ġleft ,
f are
Ġpull ing
Ġgradu ate
ene z
Ġkn ee
Ġtransport ation
i ous,
ĠChrist ians
Ġsent enced
w an
ĠTh rough
ĠSt ill,
Ġtit led
Ġmechan ism
Ġcomput ers
ish op
Ġ23 ,
Ġass igned
Ġro of
Ġavailable .
ĠH un
ĠA p
Ġexplain ing
o il
Ġcounter part
ĊĊP er
A L
vertise ments
Ġsuper ior
Ġemploy ed
Ġcop ies
Ġ13 ,
ha ust
Ġincident s
Ġexpand ing
Ġlob b
Ġdef icit
Ġrequ iring
Ġunder lying
Ġluck y
Ġtox ic
Ġunpre ced
Ġab st
Ġinst ance
Ġle an
Ġconv ince
Ġt ired
ĠLead er
- 4
Ġgra v
Ġgr ade
Ġstud ying
ĠCr ime
Ġstrik ing
Ġhighlight s
b al
Ġtechnolog y,
Ġspect rum
ĠS C
Ġ27 ,
Ġback ing
ĠBru ce
ĠâĢľ h
Ġh ip
Ġenh ance
Ġsm ile
Ġpredict ed
Ġdead line
Ġleg ally
Ġprompt ed
Ġof ,
ĠH or
Ġrank ing
Ġh un
iven ess
ĠJ ere
Ġthat ?
Ġins ight
Ġn erv
-g ame
Ġopen ly
ĠG ary
Ġsucc ess.
Ġopin ions
Ġinter f
Ġsh irt
Ġ$1 .
Ġun ve
Ġle ak
ĠO '
ĠBl ock
Ġbo ot
Ġk m
ol ph
== ==
ĠH ind
ĠTr ade
Ġreb el
Ġproced ure
more ,
l ad
it ors
yl um
Ġpasseng ers
Ġevery day
ĠC ode
Ġvote .
Ġdocument ary
ac y.
- P
ĠEl izabeth
Ġunex pected
Ġquestion .
Ġresult s.
Ġfr uit
ĊĊâĢľ You
ĠR a
-A merican
Ġst arter
o or
in ation.
ĠM ir
Ġadd ed,
ĠSyri a,
Ġwhere as
Ġaut onom
Ġr iding
ĠHere âĢĻs
ar n
ĠWhe ther
Ġop ens
d ated
Ġreview s
m e
ĠW as
Ġviol ation
Ġclin ical
ĊĊTh ough
Ġsurger y
ĊĊU nder
Ġsy mp
Ġn am
ĠTh omp
Ġassess ment
Ġreci p
in i
ĠR ather
Ġprefer red
olog y,
- out
Ġdisc ount
ĠâĢľW hat
ou ri
Ġwebs ites
Ġman ifest
Ġex haust
Ġbreat h
Ġdist ingu
Ġan ger
Ġcoach ing
ĠB oe
ĠInd ust
Ġphys ically
Ġhe lic
Ġjud ges
Ġfun ny
Ġcont rad
ĠF estival
Ġrace ,
Ġl ux
Ġtrig ger
Ġ$1 0
Ġb read
ĠT ok
Ġso ccer
Ġrepresent atives
Ġdiplom atic
att ered
Ġm ask
Ġfac ilit
ĠU sing
ĠAtlant a
ĠB ase
et te
Ġconc rete
ĠâĢ ¢
Ġcl ip
Ġtrans it
Ġh ockey
Ġindic ates
ĠBl oom
Ġsh ield
Ġprecise ly
Ġassum ed
Ġbill ions
l ical
Ġhelic op
Ġanyth ing.
ĠE T
Ġper ceived
Ġprom ising
Ġp uzz
I L
ĠRuss ia,
Ġbon us
ĠK at
ĠFr ont
Ġche aper
Ġpoint s,
Ġover come
Ġpoll ution
Ġcol our
Ġperiod .
D .
Ġ vert
ĠExec utive
Ġprosecut ors
ĠA R
m ar
Ġlet 's
ĠKe ep
Ġstruct ures
aw are
m ad
t ,
is ms
ĠCharl ie
Ġun lock
u le
Ġs its
Ġsett led
Ġacknow ledge
Ġdram atically
Ġwas .
ĊĊI âĢĻm
Ġcan ce
ĠâĢľ f
ĠInt el
ĠChild ren
m it
Ġentertain ment
Ġprofess ion
ĠEconom ic
Ġre -
Ġreg ion.
Ġsite ,
Ġrec re
Ġpubl ishing
pl ed
O L
we et
ĠI C
Ġans wered
ĠFirst ,
Ġcontrovers y
Ġw ine
Ġaround ,
Ġprote in
Ġrecent ly,
Ġfood ,
Ġg ig
Ġunf air
Ġelim inate
Ġgreat ly
Ġbirth day
Ġ[ the
Ġpart ly
eral d
ĠCap ital
ĠML S
Ġres erved
m ail
r ics
Ġmain tained
ĠKenned y
Ġpri est
Ġdis ord
Ġafford able
2 5
ĠâĢľ s
Ġpers u
Ġleg acy
ah u
Ġcount s
Ġscr ut
g un
Ġj e
Ġtemper atures
Ġextraord inary
Ġatt itude
p se
Ġcom ment.
Ġmove ments
Ġ( P
Ġdevelop ment.
ĠSomet imes
ĊĊâĢľ S
igen ous
ĠS k
Ġground .
Ġgl ad
Ġcomed y
Ġ \
ĠHar per
Ġsitu ations
Ġsearch ing
ĠSt ory
Ġsummer ,
ĠY OU
Ġhop efully
um er
ĠE s
Ġsc ope
Ġbu ff
ĠP ict
Ġpost ing
Ġfor ,
ath y
Ġspe ll
Ġ( inc
ĠâĢľ B
Ġvide o,
ĠD et
Ġc ul
Ġprovid ers
Ġ" w
Ġact ors
Ġ"The re
enc y.
Ġres erv
Ġover ,
Ġj oy
Ġhead .
Ġ3 rd
Ġopp ose
ĠH .
k er
ĊĊP r
ĠSher iff
Ġ ?
g ic
ĠRep resent
ĠPhot os
as m
Ġcorre l
Ġ200 2
Ġthink ,
rou s
Ġw al
Ġe ager
ĠAlex ander
Ġsort s
Ġdr um
Ġteam âĢĻs
Ġminut es,
Ġdra g
Ġt iss
ĠDe ath
Ġsusp ic
ink ing
or ious
b ian
enc ies
rel ated
Ġold ,
ĠM eanwhile,
Ġright s.
50 ,000
co ver
our se
Ġstate ment,
opy right
ĠR .
ĠV ik
Ġphilosoph y
Ġg ross
ing ton
Ġgather ing
Ġe lder
Ġfirst .
is er
Ġvir us
Ġcheck s
Ġwere n't
Ġhour s,
Ġdiv or
Ġland ing
Ġown s
ĠE lection
Ġf ict
ĠE PA
ĠUt ah
unicip al
Ġcampaign s
ion e
Ġt ips
Ġint im
Ġ4 7
ĠAtlant ic
Ġpropos als
oen ix
ĠâĢľ D
Ġleast ,
Ġb ol
it ary
ĠCharl ott
ĠAnton io
ĠAd v
Ġsoon .
Ġtw ist
Ġe cho
Ġ5 1
Ġm ad
ĠHaw ai
Ġ$1 00
T V
Ġwho ,
ĠCapit ol
b ered
ian a
Ġforward .
ĠJava Script
os ystem
ĠV ideo
r s
a pped
k ,
Ġwebsite ,
Ġcompany 's
Ġco inc
Ġhand .
ĠN orm
Ġservice ,
Ġpresident .
ĠAnd re
Ġdid ,
ist an,
Ġassoci ate
Ġlo ves
Ġsee ,
her s
Ġnew s,
ĠG DP
f ront
is ation
ĠH old
ge red
ĠiP ad
re ll
Ġspace ,
Ġte a
Ġm it
Ġuse ,
s burgh
Ġpsych ological
Ġinnoc ent
Ġdomin ant
ĠLond on,
Ġdesk top
Ġb owl
ĠN ov
ĠWalk er
Ġbe ach
enez uel
Ġcompan ies,
Ġquestion ,
Ġjump ed
Ġbrother s
ĠSil ver
ĊĊ" S
ĠR usse
Ġre vers
Ġwealth y
Ġgl ob
Ġd ance
5 )
Ġ29 ,
Ġremark able
Ġback up
Ġf ro
ĠP u
ĠK ick
Ġ(2 00
Ġunivers al
Ġup load
Ġoppos ing
ĠP ot
Ġe uro
Ġbo ast
ĠB ad
Ġperm it
Ġmain ten
Ġet c
Ġmaintain ing
Ġ"The y
Ġscand al
t ra
Ġelect oral
Ġodd s
Ġ10 ,000
Ġl y
ĠL ist
Ġaim s
Ġbath room
in es.
Ġconserv atives
Ġbut ,
Ġde port
ĠAct ,
Ġut ility
Ġ10 .
Ġmen .
Ġsympt oms
âĢĶ âĢĶ
k ing
Ġcar ,
Ġoccas ional
ĠBrook lyn
Ġm ath
Ġartific ial
Ġcomp at
Ġveter ans
Ġorgan ic
Ġpo ison
Ġ4 6
Ġcontrast ,
Ġinter ior
it age
Ġbl ank
as ks
ĠB ow
Ġ19 th
ĠâĢľI n
ell ing
Ġdecad es,
Ġins ult
Ġperson ,
Ġass ass
Ġoffic es
ĠW el
ĠMag ic
Ġoper ator
Ġterror ists
Ġbre ed
ĠColumb ia
Ġchick en
ĠP op
ĠLew is
Ġwall s
ann y
L C
in ians
Ġf ur
h att
Ġperiod ,
Ġdep ress
Ġbetter ,
ĠTod ay,
Ġrepe at
Ġal -
or ge
Ġres olve
ĠH unt
ĠOr land
all ,
Ġlaws u
ĠThen ,
ĠG iven
Ġw ages
Ġperson .
ĠT ai
Ġemploy e
Ġb ot
Ġso vere
Ġpolice ,
Ġblock chain
Ġd ates
ĠRes erve
Ġpublic ation
Ġstri p
ĠC ow
Ġkey board
ul es
av id
ĠAr k
Ġlog ic
ĠC re
Ġread er
er ate
Ġnot able
aw ay
Ġinequ ality
Ġm el
ĠH ur
Ġb ik
m al
ĠDig ital
Ġground s
g us
Ġt ons
ĠTe ch
Ġec osystem
ap ing
ĠPh oenix
ĠS at
Ġc ow
Ġshort ,
Ġcoll aps
ut s
Ġcar .
ĠUn fortunately,
ĊĊâĢľThe y
Ġattack ,
Ġsubject s
Ġpr on
ĠLe ft
Ġfl ed
Ġ19 0
Ġlo op
ĠB ab
it als
Ġsurround ed
ĊĊSt ill,
Ġj ack
Ġdescrib ing
Ġdr ama
f ol
ĠG T
Ġremo ving
b ell
Ġshe ll
g ency
Ġbur st
Ġmusic ,
ĠWe âĢĻve
Ġdone ,
Ġunder ground
ĠHouse ,
i ety
Ġcar ries
ĠTal ib
ĠA D
ĠV ill
ĠAl ask
ĠP erson
Ġse ized
Ġface .
Ġas ylum
ĠR oss
Ġmo od
ĠArab ia
on es,
Ġn od
Ġclos est
i as
Ġmind s
Ġgroup s.
Ġpain ting
Ġdemand ed
Ġgo ,
Ġrepl ied
Ġh anging
Ġsame .
J .
Ġlif est
Ġun b
Ġcert ific
Ġple ased
rat or
Ġsh ipping
Ġ21 st
âĢ ĵ
Ġless on
Ġcontem porary
Ġstat ist
P G
ĠWe ll
ĠInd ia,
Ġfo ol
ĠBe ck
Ġpopular ity
ĠV enezuel
Ġfriend s.
ĠC reat
d a
Ġfab ric
Ġtra um
ĠAug .
ĊĊSpe aking
Ġv ocal
ĠE vent
Ġpeace ful
Ġtalent ed
Ġland ed
ĠC ould
Ġmoment um
ĊĊP ro
ĠGerman y,
ĠFollow ing
Ġreason ,
Ġsub sc
Ġunpreced ented
ĠF orm
ĠMic hel
Ġdis put
ĊĊThere âĢĻs
Ġinst ant
Ġtrue ,
Ġb old
ant ed
Ġtra ged
Ġconstit u
Ġkick ed
Ġthemselv es,
Ġdecision .
ĠM s
Ġarg ues
ĠUS ,
Ġembra ce
Ġconcl us
ate ful
Ġprof its
ĠFeb .
Ġbi ological
r itten
ĠC redit
Ġplan ,
arg o
an o
Ġcreat ure
ĠSunday .
Ġnew ,
Ġlike .
enc y,
es c
ĠPent agon
ĠPitt sburgh
-h and
ĠM etro
Ġpre -
ĊĊ"The y
Ġhom osexual
Ġin herent
Ġdom inated
Ġp apers
as s.
ĠMiss ouri
Ġ( @
ĠPh ill
Ġ(1 )
Ġro lling
p rof
Ġcomp ound
Ġrefuge e
Ġut ter
ew art
ĠRober ts
ect ive
Ġo w
Ġ(inc luding
ĠCon vention
Ġtw enty
Ġinterview ed
Ġexpect s
Ġesc al
Ġright s,
-f ound
Ġindepend ence
Ġrespons es
Ġ( 4
n i
Ġdeem ed
ĠMount ain
Ġv end
Ġone âĢĻs
Ġb in
Ġinc omp
Ġlo ans
ier ce
Ġhouse ,
ĊĊâĢľ W
Ġref use
ĊĊ" You
ĠP D
ĠPro v
Ġheadqu arters
ĠLe on
Ġbeaut y
Ġpat ent
ff ick
Ġdri ves
ĠThere fore
Ġway s.
Ġjun ior
ĠBat man
Ġtremend ous
Ġinc hes
Ġ19 50
Ġ5 2
Ġhouse .
Ġa er
ĠS port
Ġsix th
ĠM oon
Ġw is
ĠCo al
ĠTrans port
ĠCo oper
Ġ(1 9
ĠOr le
Ġplan .
Ġdevelop ment,
om al
ro lled
ĠAl an
ĠCh annel
ĊĊE n
Ġmin im
Ġtechnolog y.
. S.
Ġcir cle
Ġmoment .
Ġhad nâĢĻt
Ġprinci pal
Ġpod cast
ĠH aving
m ate
Ġobject ive
Ġmer ch
at i
ĊĊY et
Ġencoura ging
ĠA ud
Ġcivil ians
Ġbill ,
ĠCome y
Ġexecut ives
enc ing
ĠP A
ĠA S
Ġill ness
Ġle ct
Ġcor rupt
ĠA C
- round
Ġage ,
Ġar bit
Ġdifficult y
R L
Ġpass word
ĠChel sea
ĠUkra inian
Ġyou ?
Ġmus cle
Ġg ent
Ġmother ,
Ġbod y,
Ġph arm
T S
Ġcr us
Ġstudent s,
Ġst ere
ĠWar ri
Ġgeneral ,
um in
Ġ" But
ĠB ud
Ġfig ured
Ġroad s
Ġsor ry
Ġ50 %
Ġvo ices
Ġro y
Ġsav ings
Ġmir ror
ac hel
Ġwin .
Ġdeploy ed
Ġtravel ing
Ġjust ify
ĠâĢľA nd
Ġsp aces
ix ed
m ony
ĠP arent
Ġsex ually
th on
Ġref ers
Ġl ibr
Ġm aps
Ġland s
Ġt ut
Ġattract ed
ĠD ream
ĊĊM ay
he s,
Ġpick s
ĊĊO b
ocol ate
c ies
Ġres ort
Ġexp ense
Ġparticular ,
t ts
ĊĊB ack
if er
Ġdes ert
Ġst ating
Ġimp osed
Ġn urs
ĠCa ption
Ġs in
ch ange
Ġtestim ony
Ġdes c
Ġburd en
Ġob sc
ĠChina âĢĻs
Ġeduc ation,
ice ,
ĠAust in
Ġrele asing
ĠW olf
ĠPort land
Ġwel com
ĠTwitter .
Ġ200 6,
Ġhave .
he ld
Ġa x
Ġsubm it
ĠLe ban
Ġsc ar
Â Ń
Ġide a.
Ġmem o
ĠS ix
Ġlif etime
Ġcourse .
ĠProt ection
Ġanalyst s
Ġrepe al
Ġp ill
Ġinvestig ation.
Ġin box
Ġchoo sing
Ġm ic
ĊĊC on
Ġ2009 .
re p
Ġbl amed
ap ore
Ġgu id
ĠChin a.
Ġad equ
-h our
-------- --------
Ġ2 :
ĊĊS ec
Ġend ors
Ġcons ensus
Ġoccas ionally
Ġt asks
Ġretire ment
ĠAnd y
Ġdecl ar
Ġmod ified
Ġpr ide
Ġcomprom ise
c est
Ġdisplay ed
Ġdefe ated
Ġ2008 .
m m
Ġexc lud
Ġcommunic ate
Ġatt ending
Ġbelief s
e z
i. e.
oun ce
Ġra cing
Ġcourt esy
ĠOn line
Ġam endment
ixt ure
Ġfort un
ĠJere my
I G
Ġtem por
ĠL ine
Ġacqu is
Ġsl ot
Ġmod est
Ġus age
ĠObama 's
ĠMar ine
ĠL y
Ġdecad es.
Ġproduc ers
ĠCar ter
Ġdef ended
Ġp unch
ĠTechn ology
Ġclas s.
ĊĊSt ory
Ġs on,
um es
Ġnation wide
Ġimpl ications
ar ms
-th ird
ĠGaz a
ĠF al
ĠH amp
Ġimpress ion
ĠEvery one
i ous.
ol n
Ġunder t
ĠVeg as
Ġcentur y.
Ġstreng then
ĠL ibrary
ĠInd ones
Ġrace .
l ers
ĠOklah oma
Ġre nd
Ġf iction
Ġcare er,
Ġtem pl
Ġ !
Ġal .
Ġsupport ,
ĊĊS e
ĠMan hatt
Ġst ages
Ġsoph istic
Ġbank rupt
ĠCapt ain
ĠD uke
ĠSt aff
st al
Ġhimself ,
onso red
ĠCount y,
ĠMary land
ĠR ef
cc up
Ġcon ver
St ar
Ġparticip ation
Ġconso le
Ġinfl ation
Ġm ile
ors hip
Ġdef ic
Ġdam aged
ind er
ĠI ron
r if
Ġconcer ning
Ġle aked
ra nd
Ġst amp
Ġh int
Ġcl er
A P
ĠPri v
ĠJac ob
ĠMassachuse tts
u ros
N .
Ġdi am
EA D
Ġappear ances
Ġb ars
Ġprof ound
Ġrec overed
Ġartic le,
Ġcon secut
Ġdr unk
Ġcooper ation
Ġenviron ment.
ĠMedic aid
Ġdro pping
ĠOak land
ĊĊLet âĢĻs
Ġmuch ,
Ġatt itud
U ST
Ġbo om
Ġlab our
Ġsmok ing
Ġrat ings
ĠS et
Ġpack ed
ĠA aron
ie v
Ġnow here
rop ri
Ġp ig
Ġn ose
Ġrob ust
Ġlaunch ing
Ġsuppl ies
ĠS us
Ġcourt .
Ġdeal ,
ĠE th
ĊĊC an
ĠD ick
ĠW ould
b ow
Ġun con
-se ason
ĠW right
ĠD V
Ġshould n't
Ġhave ,
Ġnom ination
Ġsummer .
Ġshe et
Ġeng aging
inc oln
Ġra ises
Ġcity 's
ĠY es
Ġsubsequ ently
Ġj ihad
Ġcare .
Ġbur ied
Ġproblem s,
Ġplay er,
Ġexclus ively
ĠFr ance,
Ġcol ors
g u
Ġparalle l
n ew
Ġfar .
Ġjob s.
Ġ( i.e.
ĠSing apore
Ġit !
ĠPennsylvan ia
ĠN o,
it i
Ġconsecut ive
Ġkn ife
ĠY an
Ġown ,
ĠC ustom
Ġlong time
Ġconsider able
ition ,
ĠEd it
Ġnon prof
Ġplay er.
ĠE xt
or ous
ĠBeij ing
Ġdesper ate
ur ren
Ġ$ 20
ĠV lad
ĊĊâĢľI n
ĠCra ig
Ġun ne
Ġpubl ish
ur ance
ab et
ard ,
Ġen act
ĠA L
Ġresearch ,
Ġse gment
ĠContin ue
Ġmoder ate
Ġs li
Ġfat al
ĠPro p
aim ed
Ġstim ul
ll y
Ġev ident
pe l
ĠG un
Ġeffic iency
ĠEnter tain
Ġsole ly
ĠL is
ĠCur rent
Ġte eth
Ġaut o
ĠBrex it
cc ess
own ed
Ġdel ight
Ġsystem s.
ĠW H
ĠO l
A s
Ġrest ore
Ġexplo it
ĠL ow
ĠAr gent
ĠMay ,
Ġmigr ants
Ġv ig
ĠFacebook ,
e uters
Ġfunction ality
Ġint ellig
Ġh iring
Ġpro secution
Ġwh is
Ġgirl friend
Ġsociet y,
ĠSt ewart
ent al
Ġcharg ing
Ġinnov ation
Ġsuspect s
Ġleg s
ĠUS B
Ġshould er
Ġrenew able
Ġcheck ing
ĠChrist opher
Ġexam ine
Ġdon ations
ist ol
ĠMur ray
ĠSim on
y ou
Ġathlet ic
Ġpost ,
Ġlapt op
os is
Ġsequ ence
ĠM ach
ri ving
Ġtrans actions
Ġanonym ous
iz ar
ĠRusse ll
Ġadvoc ate
Ġtransp aren
u a
Ġareas .
Ġaff airs
Ġevent s,
ater al
enc es.
Ġcal m
Ġco -found
ĠIllino is
Ġof .
Ġtele phone
ĠEx pl
ĠEx per
ric ane
od ox
im ir
Ġhas h
Ġimportant ly,
pp ers
ĠâĢ Ŀ
Ġclim b
Ġtra ffick
br id
Ġke en
Ġev olved
Ġh alt
Ġshel ter
Ġhe 'd
o ved
ĠS S
Ġview ,
Ġcogn itive
Ġgovernment 's
ph ones
ĠT ax
Ġor bit
ro gen
Ġpro portion
et he
pt ed
ac y,
Ġround s
ĠJ en
ĠTwitter ,
Ġpass age
Ġ3 1,
Ġblock ing
Ġdet ention
Ġmembers ,
Ġremov al
ĠR ome
Ġrele ases
ĠChair man
e ared
in a,
ab b
it che
Ġ(Photo :
Ġhere âĢĻs
St ation
- right
Ġcode .
st arter
Ġ10 %
ĠD od
el son
Ġedit orial
Ġway s,
ĠK now
ĠSyd ney
Ġra ces
Ġevent s.
ĠTr ust
Ġinnov ative
ĠHamp shire
v ia
Ġtransfer red
Ġsystem s,
ĠSh ould
ĠChr ome
aed a
Ġann oy
az z
Ġsett ings
Ġresident ial
bre ak
ĠDon 't
Ġtim ing
Ġaccept ing
ĠL ear
Ġd ying
ĠEgypt ian
Ġweekend ,
lyn n
ĠL incoln
Ġ20 2
r ong
Ġsmall ,
ĠâĢĺ I
-le vel
Ġ201 9
Ġg est
Ġprodu ces
Ġcollabor ation
ĠC ase
Ġreb uild
ĠPort ug
Ġch ronic
ĠStan ford
ĠMar io
Ġinstru ctions
Ġunne cess
Ġprison ers
Ġout do
ĠTh us,
ĠAssemb ly
ĠManage ment
) :
ĠL ater
Ġlangu ages
ĠT ower
** **
ĊĊInst ead
Ġjob s,
Ġin aug
Ġfield ,
Ġat he
Ġwat ers
Ġacc um
Ġwe âĢĻd
Ġparticip ating
ĠRub y
bour ne
ĠB ol
Ġinvestig ations
ĠAr senal
Ġprint ed
Ġintegr ated
Ġprogramm e
Ġaddress es
Ġprem ie
Ġgraph ic
Ġsc ared
Ġinvest ed
Ġpolitic s.
ĠIndian a
ore t
Ġsee ks
Ġpres ents
Ġunivers ities
Ġra id
Ġfle e
Ġthe ft
Ġqual ified
ĠRub io
/ 1
v es,
Ġfrequ ency
Ġsp ots
in ite
Ġw aves
Ġv .
Ġaction ,
ass y
ĠS ound
G O
Ġstop s
ĠM ail
ĠE qu
ĠPol and
Ġev ac
ĠUn like
Ġforg otten
Ġpers ons
v es.
ĠSte el
Ġconv ict
Ġse vent
Ġcent ers
Ġprevent ing
Ġwom an,
euters )
Ġorder .
iv als
Ġpres erve
d og
Ġinflu ential
Ġabout ,
Ġicon ic
Ġfl our
Ġh arsh
Ġexpect ing
Ġdis h
Ġpro g
Ġlist ,
as ters
ĠPl ace
ĠMiss iss
Ġsense ,
Ġins pect
Ġathlet es
Ġearth qu
ĠMedic are
ĠE ve
ĠA FP
Ġwork s.
Ġn in
Ġthreat en
6 0
Ġmanag ers
Ġc ro
Ġsp an
Ġout com
AT CH
Ġ1 :
ĊĊA pp
it ual
Ġj er
Ġsh it
Ġcor n
Ġ( not
ĠSupp ort
ĊĊE arlier
Ġ9 5
ĠD ak
Ġgraph ics
Ġit ,"
Ġfavour ite
Ġproject ed
ĠB ox
ĠPlay er
Ġshow c
Ġen v
Ġanother ,
Ġassum ption
ke ep
Ġfin ishing
Ġtact ics
Ġcomp li
Ġstead y
Ġke ys
ĠBer lin
ĠGord on
et ch
om es
pr int
ĠB C
Ġcou p
Ġc igare
ne y,
Ġsupposed ly
Ġplatform s
Ġro lled
in ning
Ġsal t
ol ving
Ġaffect s
Ġwond ering
n et
ĠAff airs
Ġ( J
ĊĊW ill
Ġper ception
se ct
ĊĊâĢľI âĢĻm
ĠTreas ury
Ġr anging
Ġrun .
ĠR un
Ġrel uct
Ġo ught
ĠM ah
r ates
ĠCh ange
ĠP ass
ĠB M
ĠJer ry
Ġinflu enced
Ġin du
Ġrel ation
Ġuncom fort
Ġreflect s
Ġsim ilarly
ĊĊ 6.
as ed.
any ahu
Ġident ical
l an
ĠU.S. ,
Ġfilm .
Ġviolence .
Ġalone ,
oc ument
Ġ2 .0
ĠDo ctor
ĠS on
Ġre cept
ĠC PU
Ġdecre ase
Ġn a
-sc ale
ĠN one
ton ,
Ġisol ated
Ġclas s,
Ġdesign s
T rump
Ġalgorith m
Ġsp otted
Ġcle ared
Ġon es.
y e
Ġshock ed
Ġharass ment
a us
-in come
Ġcol leg
ue ,
ĠNet her
Ġwound ed
Ġc ens
ĠF .
Ġhe âĢĻll
t ies
Ġco ck
ĠPalest inians
Ġclot hes
Ġsent iment
Ġengine ers
Ġbook .
ĠA st
ann a
Ġst ance
ĠKurd ish
Ġcomp osition
Ġst ro
Ġ100 ,000
Ġpro -
Ġattract ive
el ess
Ġout f
om ed
Ġinvest ments
Ġreally ,
Ġless ons
ĠPlay Station
Ġsitu ation,
Ġold est
li hood
Ġscen e.
Ġmove ment.
ĠP .
Ġwire less
Ġoccup ied
ĠP ow
Ġtwe ets
acc o
ĠFin ancial
-p arty
ĠTok y
Ġadvis er
Ġaccompan ied
Ġmo on
Ġv oid
ĠF ive
Ġout let
Ġex cuse
Ġsec re
Ġprivile ge
Ġmatter ,
Ġcou rage
Ġam bit
ĠDra gon
ig ation
Ġperformance .
ĠCh ampions
ot ing
Ġpasseng er
ol ves
Ġbott le
ĠS everal
Ġok ay
ĊĊ 201
Ġne ur
Ġ ).
Ġsign als
ĊĊR ec
ĠF ant
ĊĊAd vertisements
ĠMan ning
Ġload ed
Ġp ension
Ġhost ing
ĠPr in
ĠPhoto :
ĠAcc ess
Ġ0 .0
Ġcrisis .
2 )
Ġpromot ed
ĠA ren
Ġbrief ly
Ġben eath
Ġcons ists
Ġ1 .5
i i
Ġun ions
er ies
Ġsustain able
Ġdesign ,
Ġan cest
Ġoff season
ĠMod el
ĠFore st
Ġp ose
ĠSaturday .
Ġpropag anda
ĠBe ing
Ġchalleng ed
che s,
ĠYou âĢĻre
on ed
ĠClint on,
Ġdepend ent
Ġcommand er
Ġreal istic
ĠJim my
E P
ĠE ver
ĠDe v
Ġbul k
Ġt ables
ĠHouse .
ĠG il
Ġ5 3
ĠJanuary ,
ĠComp an
Ġwedd ing
ĠState ,
ig .
ĠO sc
Ġo rient
ĠMarch ,
Ġmedic ine
Ġbut t
Ġintim id
Ġpra ised
Ġp ir
Ġdef ender
Ġparam et
Ġens uring
Ġbomb ing
Ġcontent .
ar ity
Ġthey âĢĻd
ut en
ĠMar c
ĊĊN ote
ĠOffic er
Ġg olf
Ġad vertisement
Ġregard ed
Ġb other
Ġf ishing
Ġhuman ity
-s pe
U T
Ġbad ly
Ġcontrol ,
Ġreform s
Ġbrut al
Ġoper ated
Ġadd ict
Ġbureau c
Ġf el
ick et
Ġexample .
Ġmem ories
- min
ĊĊFin ally,
Ġar c
Ġpurp os
b b
Ġvent ure
ĠJun e,
Ġf its
ĠF uture
Ġpo lling
ĠTh ink
Ġfull -time
Ġinst ruction
ĠWar ner
ann els
Ġevac u
ĠJ ean
w alk
ĠMal ays
Ġpolitic s,
Ġautom atic
Ġthe ater
O D
Ġelse ,
Ġchar ity
Ġonline .
ĠGr iff
Ġsa ke
ĠD rug
ĠU b
Ġme al
ĠThomp son
ĠNew s.
ĠW ord
Ġcount less
ĊĊW ell,
Ġexplicit ly
Ġag es
ĊĊP lease
ĠMad rid
ĠSyri a.
ĠCent er,
Ġfunction al
Ġadvent ure
Ġimm une
Ġrese mb
Ġeveryth ing.
Ġdep ict
Ġemploy ers
ĠCity .
ĠCo le
Ġpain ful
Ġsense .
ĊĊW here
Ġdeliver ing
Ġad j
Ġright -wing
Ġste al
Ġaddress ing
Ġb izar
Ġbut ter
Ġgu idelines
ĠHe art
Ġacc ord
Ġthis ?
Ġsto pping
Ġreb els
Ġcompl ained
Ġpresent ation
er :
Ġfac ult
Ġ( p
ĊĊ" W
Ġr ic
Ġwrong ,
h ot
Ġmove ment,
r ome
ĠH oly
ĠH on
it ter
ĠNaz i
al a
Ġ' I
n ame
ĠC ry
Ġs ne
at ar
ĠBar b
Ġstrateg ies
ĠâĢľ m
ow ing
Ġfol k
Ġmin imal
Ġdevast ating
Ġappl ies
w ich
Ġgame play
ĠCl imate
ĊĊAm ong
he im
ile y
Ġwell- known
Ġpurp oses
Ġform ation
Ġamong st
ion ed
ar l
Ġse ctions
Ġh ub
as s,
ĠH art
ĠWay ne
ĠStreet ,
ĠAb u
Ġ9/ 11
Ġpled ge
Ġappear ing
Ġover night
ĠVlad imir
Ġ( U
ĠH IV
oc a
id ers
Ġguarant eed
Ġbook s,
ĠN CA
on ing
Ġtwo ,
Ġh osp
rop ol
olog ists
Ġconven ient
ĠR s
ĠKick starter
Ġhand led
ĠWhat âĢĻs
Ġweekend .
Ġc inem
ĊĊSt ep
ĠCongress ional
ir ts
in ation,
Ġpo cket
Ġteam 's
-e lect
Ġinev it
Ġpar ad
r ite
Ġis :
Ġlong .
ĠO il
Ġfuck ing
Ġcere mony
ĊĊH er
Ġfil ing
Ġdeal t
Ġen for
Ġwar n
Ġir re
Ġmeet s
Ġmilit ants
ĠStud io
ĠJ ob
ĠU C
Ġbatt les
Ġrecommend ations
Ġpublic ,
am ous
Ġ5 4
ĠS P
b ling
Ġ(R euters)
Ġpopul ation.
Ġreal ity,
ĠT otal
Ġareas ,
Ġmurd ered
Ġter r
Ġmanufacturer s
Ġadminist rative
Ġrestaur ants
ĠFil m
M P
Ġdemonst ration
Ġd a
ĠAustral ia,
Ġw ore
Ġsust ained
ĠBer ke
r as
Ġinter cept
ĠP ope
Ġjur is
Ġep ic
Ġbill .
Ġdress ed
ĠAir port
Ġexper iments
Ġoverse as
Ġit :
Ġsubst ance
ĠTh ings
Ġcollect ing
Ġtrad ed
aut hor
Ġvalue .
ĠH ung
in s,
ĠMP s
av ed
ĠMore over,
ĠOr der
Ġin her
Ġpri ze
m es
Ġabove .
Ġposs ibilities
Ġo xy
Ġmade .
ĠB urn
ĠTexas ,
Ġ9 .
ĠTim es,
Ġthought ,
Ġt ale
ĠâĢľ L
Ġvote ,
ĠL arry
ĠM ess
ĠPark ,
ĠSh ort
Ġrhet oric
Ġint rig
Ġman ual
Ġm unicipal
Ġ Î
Ġcou ples
Ġres erve
Ġlux ury
ĠD og
Ġaw ful
Ġqu it
Ġquestion s.
Ġt ends
Ġcal end
ĠThey 're
Ġclass room
Ġar r
Ġimp ose
Ġ( al
Ġtre as
ĊĊAr t
ĠGr ant
ern and
Ġreason s.
Ġcross ing
Ġyou 'd
ude au
Ġbird s
ĊĊThat 's
Ġign or
Ġanyway .
ĠR onald
ĠGod ,
Ġavail ability
ĠN ative
as es.
ĠAn na
ĠF lynn
Ġreg ret
Ġw ise
il st
Ġsol o
Ġout lets
Ġsil ence
Ġser vers
Ġrefere nces
Ġst unning
ĠStan ley
ĠMc Donald
Ġins ert
Ġcur ious
pt on
Ġmist akes
& T
ĠCon st
Ġto ug
w rit
in ter
Ġcompens ation
Ġpred ec
Ġ200 5,
Ġcheck ed
ear ly
Ġb arg
ĠC o.
Ġexc ite
ber ry
Ġcons ent
Ġprob e
Ġsomething .
um ble
res hold
Ġs ou
Ġcons ol
ĠFer gus
ĊĊP resident
Ġweak ness
Ġt urb
ĠNet anyahu
Ġmainten ance
it ure
ĠStand ard
Ġrelease ,
ĠObam a,
Ġg ut
Ġschool s,
Ġsumm it
ĠRe id
Ġpow ered
ĠIraq ,
Ġreg ion,
Ġprospect s
Ġrepl acing
ĠMel bourne
Ġstate 's
Ġread s
ĠK night
ĠC ro
ĠHe ll
Ġer u
m ble
Ġneed ed.
Ġpopul ations
Ġ" b
Ġp our
m ath
Ġimp rison
Ġdisappoint ed
Ġb ust
Ġun e
ĠE b
ĠMississ ipp
Ġmembers .
Ġvolunte ers
Ġdim in
ĊĊO r
ĊĊW atch
ĠMag az
ĠCom mer
Ġinstru ment
ĠO x
ge l
ĠMOR E
Ġact ed
ag ers
ĠRe agan
Ġexpl oring
Ġjud gment
ĠSwed ish
on th
Ġtrend s
Ġint r
th at
Ġpost .
Ġtable t
Ġb ump
Ġmotiv ated
ĠC old
Ġstuff .
Ġinf o
ĠComm and
em s
Ġd ies
Ġb icy
Ġhere :
Ġcabin et
on z
Ġre ck
Ġimpact s
ĠG ard
Ġbrow s
6 )
ĠCong ress,
ition .
Ġphenomen on
ĠGi ants
Ġconst ra
ue .
ĠTes la
Ġproduct s.
br idge
Ġreflect ed
Ġj et
Ġch annels
ĠSh ar
Ġemphas is
ĠPer ry
ĠNot hing
Ġcult ure,
-min ute
ĠM ove
Ġwis dom
Ġwrote :
ĠN ature
Ġmusic .
ĠEnviron mental
ri ends
Ġtun nel
Ġmin isters
ĠMar x
Ġposition ,
ĠSte am
Ġf ert
Ġstrugg les
ĠP ant
Ġocc urs
ĠMod i
I ON
Ġhighlight ed
ĊĊN ext
Ġs ed
Ġreal ity.
Ġchoice .
Ġspect ac
al ysis
Ġout standing
Ġconvert ed
Ġ" That
M S
ĠDel hi
Ġ"I 'm
oc ated
ĊĊG oogle
Ġf ate
Ġsp ray
Ġcomp il
Ġant ib
Ġabs urd
Ġfasc inating
Ġconsider ation
ĠRed s
Ġrecord ,
Ġrul es.
Ġgen es
ĊĊS ub
Ġm ice
au nt
Ġarchitect ure
ark s
Ġbizar re
Ġinst ances
Ġcoordin ator
Ġm ac
x ide
Ġhost s
Ġse ve
Ġview .
Ġpo ly
ind s
Ġstudent s.
Ġpra ise
ĠP age
Ġline back
Ġforward ,
Ġrel ie
the less,
Ġ( like
Ġver ify
Ġc osm
Ġw indows
ĠEvery thing
Ġno ,
Ġfocus es
ĠD er
ie ce
ain ing
Ġsub ur
Ġtechn ological
ig g
ĠJap an,
Ġsen ators
Ġdesign ated
Ġelect rical
Ġviolence ,
Ġnew s.
ĠMc K
Ġrac ism
ĠCanad a.
Ġlog o
Ġsup rem
Ġmo dule
Ġenjoy ing
ĠZ im
O n
ĠG am
Ġwar s
ĠR ic
Ġdesign er
T IS
og en
oc urren
ĠNCA A
Ġb ip
ĠQue bec
Ġaccount .
Ġthe ories
is ons
Ġleft .
ĠIndepend ent
ĠN ash
Ġsur re
ĠY emen
Ġmyster ious
ĠSeptember ,
as es,
ert o
ĠIsrael ,
ĠJan e
Ġequ ipped
Ġguest s
Ġcred its
ĠAss ist
Ġanal ys
ĠNovember ,
c ol
he s.
ĠL uke
Ġtop ics
ĠSwed en
Ġwitness ed
th ur
ĠU r
th odox
Ġdo ing.
Ġfr u
ĠC ult
ĠBl u
Ġcome .
Ġu g
ĠD rive
Ġfollow ers
ĠH ug
Ġpre view
Ġhypot hes
Ġt orn
ĠSt ri
Ġint end
Ġinquir y
aw ks
ĠF CC
g ments
ĠSmith ,
Ġroom s
Ġold .
ig ious
Ġm elt
Ġattention .
ĠWik i
Ġvari able
ent ly,
ill er
ĠM ap
Ġrepresent ation
izz a
ĠBar cel
Ġvery ,
Ġsl ide
p ower
Ġconcept s
Ġcust ody
ĠHT ML
Ġcelebr ated
Ġbecause ,
iff s
Ġan ch
EM ENT
ĊĊS im
Ġcomp r
Ġearli er,
Ġimpress ed
J ust
Ġrevolution ary
Ġam end
Ġth reshold
Ġal ign
od ed
Ġbar rel
Ġcompan ies.
ĠâĢľ t
ubl ished
Ġgain ing
ur a
Ġeffect .
Ġargu ably
Ġcare ,
Ġ20 %
Ġcondition s.
Ġburn ed
Ġtown s
Ġdev oted
Ġb one
Ġappro aches
Ġwork ers,
est ed
Ġrecord .
Ġelect ron
el ,
ĠPro du
- D
Ġingred ients
Ġcross ed
ĠL ocal
ĠFin ally,
ĠC itiz
ĠOr ange
Ġ2 ,000
ĠAuthor ity
Ġtort ure
Ġhead ,
Ġsold ier
Ġen abled
Ġexperiment al
ĠJu ly,
ĊĊY our
Ġwh ist
av en
lim ited
m aker
ĠG ib
ĠFranc isc
Ġdec or
ĠG al
Ġspeak er
Ġinspir ation
Ġsc rew
ak h
ĊĊP eople
VER TIS
Ġca ution
at ives,
Ġhunt ing
ond er
Ġpat ri
Ġsaf ely
1 5
Ġbre ach
ci a
ou ch
Ġfle w
Ġg ate
ĠS H
Ġ(wh o
Ġw re
Ġm ouse
Ġsec ular
Ġneeded ]
- a
ĠM itche
Ġregist ration
Ġconv iction
Ġattack s.
Ġplac ing
crib ed
ĠL es
Ġun iqu
ĠTalib an
Ġperiod s
Ġreview ed
Ġt ension
on es.
ug by
ĠUniversity .
man n
Ġwomen 's
ĠTennes see
ĠO cean
ĠY ah
ĠTh ird
ĠB J
Ġfight s
ĠU I
ĠAbb ott
Ġinvas ion
Ġremem bered
ph a
Ġanx iety
f ull
B M
Ġwho 's
Ġimportant ,
he ther
Ġgreen house
Ġliv es,
ĠS ab
Ġel abor
Ġfast est
ĠRussia .
Ġfrust rated
ast y
Ġanymore .
ĠUn ivers
Ġsan ction
Ġun re
ĠF A
ĠH ad
Ġce ase
Ġbox .
Ġv it
Ġcateg ories
ag ine
Ġinterview ,
Ġmand atory
ĠBloom berg
Ġconcent ration
ĠYork .
Ġab und
Ġimportant .
Ġlead er,
Ġsurv ived
Ġre ign
Ġ4 th
Ġcon ced
Ġpart ially
Ġ$ 500
n est
Ġord er,
ĠB on
Ġgu ilt
ĠAgain st
Ġspec ulation
ĠâĢľW hen
Ġer rors
D S
Ġshe d
ĠM other
Ġ( d
op en
Ġhol es
ĊĊ"I 'm
Ġnerv ous
ĊĊG o
r ations
ĠMont real
ann on
Ġannoun cing
Ġback l
Ġtravel ed
ĊĊO ffic
Ġpregn ant
Ġinterview .
Ġground ,
ĠTre k
ĠOther s
Ġor ,
Ġapp lying
Ġor ange
Ġmortg age
Ġdis pl
ĠTod d
Ġstrong est
Ġback s
Ġl ens
Ġbeat en
row ing
Ġbe ef
ke e
Ġcontribut ing
ĠApril ,
Ġsupp lement
Ġ199 9
Ġexplos ion
Ġexpert ise
ag ger
Ġdest ination
Ġus ers.
Ġw rap
ĊĊC ons
Ġvis its
Ġdisapp eared
b od
ll or
Ġofficial s,
Ġfood s
t ains
Ġappro ve
Ġdam n
Ġexam ined
ich ael
Ġpromot ion
Ġaw k
ĊĊF urther
ĠF O
Ġlog ical
Ġtransm ission
ĠSt ock
Ġ( c
Ġnetwork .
ĠAmerica 's
Ġwalk s
ĠTy pe
Ġtreat ing
Ġal ike
Ġch amber
Ġtaxpay ers
Ġcitizens hip
Ġg arden
Ġthe oret
P P
ĊĊ"I n
ĠTim es.
Ġsusp ension
ĠCanad ians
ĊĊ #
Ġcomb ine
Ġl one
ĠKent ucky
Ġdepart ure
sh ore
ĠF act
Ġto b
gg ing
Ġpled ged
Ġcompe lling
Ġpress ing
Ġto ll
Ġs id
Ġprosecut or
el ve
ĠJ enn
ĠT amp
Ġre ass
Ġtwo .
Ġcreat ures
Ġspeech ,
Ġtri als
Ġintegr ation
Ġemb edd
Ġfl ights
Ġspace craft
Ġhuman itarian
Ġwal let
Ġhost ile
Ġaccus ations
Ġspark ed
ĠBudd h
Ġprevent ed
Ġnation 's
ĠE ff
Ġfle et
Ġovers ight
ond uct
Ġsec ured
ĠBen j
Ġfire arm
Ġref using
Ġconfig uration
ab ly,
ĠFl ash
unt u
N BC
Ġdes erves
Ġgen e
Ġcult ure.
Ġconf used
Ġan gle
ĠM uch
ap es
ing ham
ĠSum mer
Ġdo es.
ĠH uff
Ġtransp arent
ĊĊâĢľ When
Ġrestrict ed
Ġmon etary
ĠTr udeau
Ġprot otype
Ġaccompl ished
Ġin hab
oy d
Ġart s
ĠTherefore ,
Ġhealth ,
Ġb ands
ĠRedd it
Ġst ir
Ġperform ances
Ġgrad ually
ĠS ection
Ġcap ability
eng er
Ġp m
Ġcur ve
u an
Ġdecision ,
D VERTIS
Ġtro op
ime ,
ĠR io
ĊĊFollow ing
ĊĊ 7.
-l ong
ĠO pp
ĊĊC lick
Ġinter ven
â ĸ
Ġb its
ĠU ltimate
Ġview ing
Ġro ots
Ġlifest yle
Ġunderstand s
ĠRog er
Ġrec on
Ġlevel s.
Ġstud y.
ĠTe a
Ġgener ations
ĠOctober ,
1 )
us sel
Ġgrowth .
Ġunder w
Ġpol ar
Ġrul es,
ĠRem ember
Ġpaper ,
as hes
Ġv iable
ĠLaw rence
ĠAll -
Ġi .
Ġalt ogether
Ġcrypt ocurren
Ġcourt ,
Ġh iding
Ġwe aken
Ġfan s,
in stein
ĠR angers
Ġambit ious
c ore
ĠD ur
Ġnonprof it
Ġworse .
ich ol
ĠS N
Ġp ending
Ġquant um
ĠSpe aker
ĠK han
Ġdecl are
Ġjud icial
Ġminister ,
Ġstat ic
om ic
Ġtut orial
ĊĊT op
Ġpain ted
app ropri
Ġhand s.
ain ts
Ġindic ation
Ġexecut ed
Ġinvestig ated
Ġadv ised
Ġpe er
ĠT el
el a
ow ,
ĠM orm
Ġenter prise
a ver
Ġcan .
Ġproduct ive
Ġflex ible
ĠF ather
ĠHis pan
ĠE mer
w art
Ġrun ,
Ġexperienc ing
ĠK erry
Ġpunish ment
ct ive
Ġauthent ic
Ġrespond ing
Ġform ally
Ġsophistic ated
ĠI an
b orn
Ġd ate,
Ġcost s.
ĊĊD e
Ġawk ward
-prof ile
ump h
Ġsh ake
Ġ8 5
Ġinstead .
-m onth
Ġfood .
ĠD A
Ġfound .
Ġdet ained
Ġemer ge
Ġg reet
ĠL ad
Ġmiss ions
er a
Ġmar ry
Ġproced ures
Ġcontro ll
Ġreveal ing
ĠAre a
Ġdocument ed
Ġatt ach
Ġ"A nd
ĠRobin son
Ġadvoc acy
Ġcap s
ĠSp ir
Ġpsych iat
ĠQue ens
ĠOrland o
Ġt ent
Ġide a,
Ġd ate.
Ġv ague
Ġs ends
Ġdiv ide
Ġprovin cial
Ġknock ed
che s.
Ġgold en
Ġhosp itals
le ting
ĠCommission er
Ġbal anced
Ġpay s
Ġtrans f
L E
ĠP ear
Ġqualif y
Ġlong est
Ġdraft ed
Ġparliament ary
Ġthey 'll
ĊĊW ho
V P
ĠBl ake
am i
ĠPu erto
Ġchang es.
ac on
p ed
Ġclear ,
Ġviol ations
Ġhigh way
Ġappoint ment
Ġcalcul ated
Ġtouc hed
Ġo m
Ġgra ve
ĠN O
ĠAg ain,
Ġcateg or
ĠIm m
Ġhor iz
Ġenviron ment,
Ġlot .
Ġviol ated
ĠWin ter
ĠSt ation
Ġd ual
ĊĊI nt
ĊĊPer haps
lim inary
apol is
Ġgreat .
ĠC B
Ġfriends hip
l ack
ĠS EC
Ġsac rif
Ġbrand s
pt ions
Ġ9 9
Ġconstruct ed
Ġthen .
ĠB enn
ĠP ers
Ġrus hed
Ġconduct ing
Ġdec iding
Ġmean while,
Ġpractice ,
Ġ( B
Ġclick ing
Ġinvest ing
al i
ail ed
ĠW ales
Ġrece ives
Ġaccept able
ĠP o
Ġattorne ys
Ġinf ection
Ġlegisl ature
Ġincor rect
Ġcontro lling
Ġcomment ary
Ġremind ed
Ġ12 0
Ġc ous
ĠFurther more,
Ġtrig gered
Ġlegend ary
Ġw et
Ġend less
ĠCow boy
Ġg ym
ĠBrand on
ĠQu est
Ġbel oved
Ġpos ed
v iously
Ġre aches
Ġc rown
Ġ" M
h ite
Ġp age,
ĠAT &T
Ġdevelop ments
Ġdesign .
ĠPe ace
Ġident ifying
ĠAugust ,
Ġsepar ated
Ġorganis ation
Ġgu ards
Ġref lection
ĠPatri ots
Ġr itual
Ġrob ber
by n
Ġflex ibility
Ġres idence
Ġpo et
Ġr hy
ĠE st
int on
Ġscen e,
ik h
ĠAdd itionally,
? "
Ġanal og
- back
Ġfun .
Ġboard .
ĠChrist ie
DVERTIS EMENT
he ck
Ġever .
ut her
ĠM itt
t le
Ġprofession als
Ġscr atch
Ġt empt
lt ra
ĠSw iss
Ġfill ing
ĠEag les
Ġt ill
Ġall iance
Ġ âĢĻ
H E
Ġsp y
Ġcondem ned
Ġcharact er,
Ġinvestig ation,
Ġfail s
Ġwra pped
ol it
ĠS aint
Ġprov isions
il le
Ġagricult ural
Ġquick ly.
Ġp ione
y er
Ġcontrad ict
ĠT oy
Ġ) ;
Ġhead lines
AT E
Ġilleg ally
ĠP ir
ĠT ry
Ġto y
Ġlangu age,
Ġattribut ed
Ġgr ateful
Ġch ur
Ġassemb ly
ĠN elson
ĊĊQ u
Ġch ocolate
ĠK yle
Ġn u
Ġhope ful
Ġnumbers ,
ĠL ions
Ġ5 6
ĠSnow den
Ġanim ated
Ġide ological
Ġ( if
Ġdelay ed
ĠK a
Ġbi as
at ives.
Ġreport s,
F i
Ġtoday 's
Q L
Ġcle ver
Ġhar vest
Ġr all
Ġmeet ing,
m art
Ġpresident âĢĻs
+ +
Ġsomething ,
d y
Ġcondem n
Ġegg s
Ġengage ment
Ġdead .
Ġbu nd
ĠEd ition
Ġcat ast
ĠH ond
ĠL am
Ġf are
ĠMot or
Ġbillion .
Ġsecurity .
Ġintegr ity
ix el
Ġmet ers
Ġ7 2
ĠAfric a,
Ġunder mine
Ġ5 7
D ,
ĊĊâĢľ N
sec urity
id em
Ġdis order
Ġrid ers
Ġdep ression
Ġur ge
/ /
Ġdes ired
Ġsubscrib e
ist s.
ĠRussia âĢĻs
Ġhousehold s
Ġhelicop ter
ĠCo hen
ĠR aid
Ġbord ers
ĠDe ep
ĠSo ft
Ġ$ 8
Ġscreen .
vious ly,
wise ,
che st
Ġdis abled
ĠFlorid a,
ix on
Ġmyster y
Ġage .
3 )
Ġ[ 1
Ġs her
Ġ 00
Ġamb assador
Ġacqu ire
Ġde let
ĠT alk
Ġwitness es
Ġp ad
Ġgrab bed
gr ad
Ġped est
ĠT .
Ġgoal .
ĠSwit zer
Ġinev itable
ĠCaliforn ia.
Ġto ile
Ġsleep ing
ere nt
Ġflo ating
ĠEntertain ment
Ġmathem at
ĠDep uty
7 )
H P
Ġha z
Ġsil ent
ĠT erry
Ġpack ages
Ġto ken
Ġfan s.
ĠN S
Ġcode ,
\x 6
i ro
ĠL aur
Ġr iot
ĠD al
Ġpros per
Ġdist inction
Ġal .,
Ġwelcom ed
ĠM obile
ĠU. N.
Ġcolle ague
ĠHit ler
Ġshort -term
ul se
ĠD raft
Ġwrote ,
Ġoptim istic
Ġbuild ing,
Ġbelow ,
Ġharm ful
Ġhero es
Ġport fol
Ġk iss
Ġcomp ass
Ġsh orter
ĊĊS everal
Ġbreak fast
-prof it
Ġdev ices.
Ġtherap y
Ġd irty
ĠR est
Ġa uction
Ġin ex
Ġteam mates
ĠG ab
-l ife
Ġman y,
Ġve gan
Ġhead line
Ġrec alled
Ġassum ing
Ġfr ank
Ġwork ers.
Ġtrail er
Ġass ured
Ġ199 8
ĠRuss ians
out heast
Ġoper ational
ĠLyn ch
Ġthat .âĢĿ
ĠOsc ar
c ular
ĠC C
Ġquestion ing
Ġd irt
Ġdirection .
Ġsee .
rim inal
ĠBr ussel
Ġresearch .
Ġquestion s,
Ġfor b
ĊĊR ef
Ġproduct s,
ĠG ray
Ġmechan ical
Ġf urn
Ġfra ction
Ġbox es
ĠP ok
Ġentr ance
Ġtempor arily
Ġ6 00
ĠS D
Ġconflic ts
ĠU ntil
j ud
Ġbuild s
Ġcra z
r int
ĠTur ke
Ġlaw s.
Ġder ived
Ġ25 0
Ġtable .
im a
Ġeconom ics
ĠFacebook .
Ġhistor ically
ĠDou g
ĠK ings
ĠMor ris
ĠUK ,
Ġflu id
ĠDe an
Ġcere mon
li ver
Ġdrop s
Ġstory :
Ġno .
Ġcom ics
Ġbest .
ĊĊD avid
Ġcas es.
ĠSaf ety
Ġdisplay s
ĠMer kel
Ġfun eral
Ġcontent ,
Ġbuild ing.
ab ling
ĠYah oo
ĠCom b
ĠLeg isl
Ġquiet ly
ĠF ind
ĠF DA
ĠAd ams
Ġpo ck
l aw
v a
Ġv oc
Ġ200 4,
i er,
r ank
play er
Ġspread ing
ĠL og
Ġsy nd
ĠF ight
Ġmodel ,
ĠR ound
ĠG PU
Ġridicul ous
Ġform .
Ġunnecess ary
b its
ĊĊFor mer
c les
Ġdeliber ately
ĠK u
ĠPost s
art ial
Ġweek âĢĻs
ĠCl oud
ĠA z
Ġ2 .5
Ġs ess
Ġ12 .
Ġsure ,
Ġproject s.
Ġbed room
Ġsing er
Ġtradition ally
Ġi. e.
T P
Ġdon ated
Ġstress ed
Ġco in
ĠP interest
ĠR y
ĠHow ever
Ġinterpret ation
Ġceleb ration
ĠWiki Le
Ġparent s,
Ġhe s
om ach
ĠS av
Ġ" B
ĊĊ .
ĠâĢľ H
Ġappe als
Ġparticip ated
ĠNew s,
Ġlay ers
Ġcult iv
ĠPl us
Ġcomm od
ĠH ans
Ġdon ors
Ġguid ance
Ġmis le
ĠB ul
Ġrad ar
Ġnot ably
Ġ( O
ĠV in
5 ,000
all ing
Ġoper ates
Ġcomp osed
Ġturn ,
ĠL i
en er
Ġm isc
Ġearning s
ĠG ill
ĠDecember ,
is p
ĠR ap
Ġdist ract
Ġsimultane ously
Ġask ed.
ĠCor byn
Ġstaff ,
Ġvide o.
ĊĊY es,
Ġcop s
Ġworth y
ĊĊâĢľ That
Ġpurs uing
Ġmos qu
Ġface ,
Ġtri ps
Ġearli est
Ġdec ides
Ġdecade ,
Ġbet a
Ġafter no
Ġphotograph s
ĠAll iance
Ġhy brid
ĊĊ the
Ġsecurity ,
u y
Ġd ivid
ail able
Ġindic ating
Ġarri ving
Ġeffect ,
ĠOrle ans
ĠF OR
Ġastron om
gr ade
in ally
Ġexplos ive
ĠKe ith
Ġpractice .
Ġc ave
Ġfriend ,
inc inn
ĠPhil ip
Ġur ging
ĊĊL e
ad er
anc er
ĠBenj amin
Ġrad iation
ĊĊT e
u ate
onym ous
Ġst omach
Ġhigh -profile
ĠPart y,
ilarly ,
oo g
Ġpeople 's
-f ree
Ġinter se
ropol itan
ĊĊ :
r ust
ĠH ide
Ġcir cuit
ci p
ĠVictor ia
Ġlangu age.
Ġbit ter
Ġwas t
Ġsu itable
Ġphotograp her
ĠCh uck
ĠM un
ĊĊFirst ,
Ġuncertain ty
ĠI M
Ġwant .
Ġmarg inal
Ġdist ant
Ġcomp aring
Ġ" h
ĠThe at
Ġdistrict s
Ġc ake
ĊĊA DVERTISEMENT
Ġgo ver
Ġem ission
Ġfree .
ĠE arly
ĠMod ern
ĠWW E
d ge
Ġres olved
Ġcris is,
ĊĊUp date
Ġbom bs
Ġarticle .
Ġple aded
ĠN ichol
Ġafter math
Ġavailable ,
ĠM A
Ġpro cl
ĊĊâĢľ What
Ġbact eria
ic ut
ĠWashington .
Ġ" D
Ġconfirm ation
Ġsevent h
Ġspeak ers
Ġmag ical
ro ph
Ġex em
Ġsubsc ription
Ġhappen ed,
Ġt ar
Ġgover ning
K .
Ġmon ster
o ons
ĠFebruary ,
Ġfemin ist
Ġgl im
Ġneighb ors
o is
enc es,
an i
Ġhat red
Ġopin ion,
Ġcharacter istics
Ġdecade .
Ġkill er
ĠSing h
Ġform ula
Ġin appropri
ĠRec ord
ĠU S.
ĠArt icle
Ġpure ly
ĠB and
Ġgreat ,
Ġus ed.
r ine
Ġm ild
art isan
-c ont
on 't
Ġpr icing
c os
ĠHere 's
Ġ"I n
Ġ" What
ear chers
ĠAmerican s,
Ġembedd ed
Ġcreat or
- T
Ġrespective ly.
Ġthrough .
Ġenerg y,
Ġt u
Ġperm itted
ĠCh all
Ġf ine.
ĠS ac
Ġcrime .
Ġcook ing
ĠBl og
ne red
- ch
ĠV e
Ġfire .
Ġrout es
ing e
Ġimm ense
- run
ĠPy thon
b ar
Ġver dict
Ġwa ited
ĠProf ile
Ġafter ward
en a
un es
Ġey es.
p a
R I
Ġrate ,
h and
ĠMor ning
Ġmand ate
f ather
ĠO w
ĠHam as
Ġnumbers .
ĠCh ance
Ã Ń
k o
Ġparty âĢĻs
Ġconsid ers
n amed
ĊĊ --
Ġass ists
ĠB or
Ġtra ins
Ġmyself ,
Ġstre ak
ian o
Ġh al
ades h
ĠÂ ©
ĠâĢľ g
ĠInd ia.
ĠJ ess
ĊĊE ach
Ġs essions
at ile
Ġintrodu cing
.. ..
Ġroutine ly
Ġsuggest ion
Ġenthusi ast
ĠWar ,
ĠDN C
Ġdes p
Ġdem o
he ro
Ġagree ments
ĠN atural
ĠS U
ĠVer mont
ĠCamp aign
Ġ5 8
Ġle verage
ĠL ady
ĠLet 's
Ġrespond ents
ĠChr on
Ġact ress
is ive
Ġinf ring
Ġind ict
Ġdiagn osed
Ġshare hold
ĠIsrael âĢĻs
Ġvolunte er
Ġdet ain
Ġsp onsored
Ġlo ving
Ġneed s.
i er.
Ġ18 9
Ġgr asp
ĠV ery
ĠIslam ist
Ġpress ed
Ġmodel .
ĠE C
rodu ction
Ġtechn ically
Ġacquis ition
oph ob
ĠHe at
Ġadopt ion
k es
Ġdestro ying
i ens
Ġinvolved .
Ġfight .
Ġtra pped
ĠFor mer
Ġlaw s,
ok ing
Ġsubt le
c ons
ĠBl ood
ĠMem orial
ĠLe vel
ree k
Ġn ation.
Ġp ink
Ġindust ries
Ġanim ation
Ġrec ount
ER S
ĠP sych
ĠOrgan ization
Ġen ables
ic s.
Ġ( )
Ġ10 th
Ġaw a
m are
ĠN eed
w orth
Ġt um
Ġsqu ee
Ġc au
ĠSub scribe
ĠH u
ĠO ccup
Ġstruct ural
ĠS essions
Ġinter rupt
Ġpost er
Ġdr ill
ĠMcC onnell
ĠAm b
i ac
ĠD omin
Ġunve iled
Ġchang ed.
Ġdub bed
Ġattack s,
Ġwin ners
Ġadministr ation,
ĠY ang
ĠN ik
Ġser ial
Ġincident .
ĠC incinn
Ġoption s.
Ġsw ord
ĠOx ford
Ġhealth .
ĠWe 've
ĠPhotos :
Ġexplain ed.
c ific
N A
ĠQ ual
ĠConnect icut
Ġterm ,
Ġs ink
ĠComm ons
ĊĊTh ank
Ġwond ered
ĊĊS ource:
ĠPakistan i
Ġexcess ive
Ġout right
Ġdream s
Ġep idem
Ġann ually
Ġsacrif ice
o in
ĠIR S
Ġg host
Ġexist ed
ĠH ann
Ġdam aging
Ġ1 000
Ġrus hing
Ġmed ian
Ġd il
ĠBJ P
ĊĊ" That
Ġoxy gen
Ġste ep
-p oint
Ġshift ed
olog y.
Ġmovie ,
Ġmariju an
ĠZ e
Ġaver aged
ar med
Ġlast ed
s a
Ġeth ical
ĠI V
ĠN ame
- B
le ep
Ġgr ants
Ġche ese
Ġl ung
ĠNe il
Ġmut ual
Ġbreak down
Ġpoor ly
Ġlicens ed
Ġprov ider
ĠJohnson ,
Ġemp ire
ĠWe âĢĻll
Ġsl a
ĠBar ry
ed s
Ġfrom .
g .,
Ġlobb ying
Ġneg lect
Ġdiscl osure
ĠMad ison
ig hed
ĠM arg
t d
Ġpit cher
Ġchild ,
Ġbab ies
ĊĊTh ree
Ġ3 :
Ġemot ions
Ġ" s
Ġsumm ary
Ġmin i
Ġl ake
Ġfin an
ou b
Ġbad .
4 0
Ġfacult y
Ġdis par
ĠSen ior
Ġphone .
ĠP el
m ir
Ġyourself .
Ġ2007 .
Ġwild life
Ġn ick
Ġl ane
Ġst age.
Ġsla very
Ġperspective ,
ĠMr s.
Ġa ired
ĠOtt awa
ĠB ear
Ġcamp s
ĠWik ip
Ġpassion ate
Ġoff set
I f
ri x
Ġhor rible
AT ED
ER E
Ġpre liminary
Ġwilling ness
Ġtend ency
Ð ¾
ĠMan ager
Ġprice .
Ġsecond ,
Ġfe ared
Ġprepar ation
ĊĊI m
ĠD anny
Ġpurs uit
Ġess ay
Ġunf old
Ġgent le
Ġcalend ar
th rough
Ġconnect ing
ĠRod rig
vil le,
Ġcondition s,
er r
Ġmass ac
Ġscience ,
ĠS or
- 5
Ġm igration
w au
Ġoper ators
ount ered
p ,
for ward
Ġenc ountered
Ġhack ing
ĠâĢľ G
Ġshock ing
Ġmax im
o ft
ĠB ond
Ġexec ute
Ġsho es
Ġins pe
Ġcomp iled
Ġtow er
Ġsuggest ions
Ġinv ite
Ġstart .
Ġcharact er.
Ġstat s
7 0
ĠPlay ers
Ġfing ers
Ġpresum ably
ĠPro gress
Ġrole .
ĠTem ple
ĠR aj
Ġdraw s
Ġdifferent ly
Ġcart oon
ĠCoal ition
lement ary
Ġdeleg ates
an im
ĠUb untu
N ew
Ġres igned
Ġlay out
Ġshe er
Ġcast ing
ĠâĢľ d
ĊĊQ :
Ġre hab
ak a
ĠD a
Ġafterno on,
ĠJ ake
Ġd ign
is ode
Ġdirect or,
Ġcrit eria
ĠEd itor
ĠHun ter
ĠH a
ic iary
Ġall y
4 )
Ġchang es,
ĠS ide
Ġcomp os
ri a
ĠCir cuit
ĠTheat re
Ġprint ing
Ġreason s,
ĠV en
Ġinf ant
ĠDV D
ĠO R
Ġnut r
Ġperform ance,
ĠF isher
Ġresponse ,
Ġintellig ent
P M
ĠMarsh all
ĠJeff erson
ĊĊP art
ci ence
ĠSo x
Ġinst antly
Ġreason .
ry .
Ġbasis .
ĠB eng
Ġwor ship
Ġsing ing
Ġbl ess
Ġeng ines
ĠHoll and
Ġtransparen cy
ĠAr ctic
ĠW rit
ĠW ATCH
Ġst age,
il ateral
ĠCol omb
Ġsize ,
Ġrisk .
ra it
Ġnothing .
Ġcan ,
Ġh ik
Ġteam s.
Ġm amm
it b
Ġpleas ure
Ġbub ble
Ġteen age
Ġwork place
Ġendors ed
Ġsher iff
ĠC rown
Ġconf usion
Ġ2018 .
Ġthere by
Ġball s
Ġproduction .
Ġadministr ation.
Ġavoid ing
Ġreward s
Ġsurprising ly
Ġpre ference
Ġimplement ing
Ġout break
Ġbelie ving
Ġprotect ions
Ġn ode
ĠT ig
Ġcred ibility
be it
ĠP od
ost ed
Ġgar b
Ġfound ing
Ġ( m
Ġf ierce
Ġeduc ation.
Ġprogram s.
Ġpresid ency
Ġwill ,
Ġrefere n
ang le
Ġwork force
ĠF arm
Ġalbum ,
Ġsu ed
ĠFed eration
Ġcon qu
id al
Ĥ ¬
Ġcr ude
ul ations
ĊĊâĢ ĺ
Ġaward s
af e
Ġinstall ation
Ġremind er
Ġincident ,
Ġwhile ,
v as
Ġ$ 50
Ġachieve ment
let on
Ġrum ors
Ġreven ues
Ġco-found er
Ġ( L
Ġgener ating
ĠDou gl
Ġsl ower
ĠIn n
Ġentreprene ur
ĊĊ 8.
ĠCommittee ,
Ġpopul ation,
r ans
Ġinter actions
ĠStud ies
ĊĊ" When
Ġair .
Ġbreat hing
u ,
Ġsupp ose
Ġeconom ist
Ġsuper v
Ġcar rier
ĠSus an
Ġroad .
Ġout er
Ġsucc ess,
Ġsc out
ĠS alt
ĠCommun ist
p ace
Ġres id
c ling
Ġ11 .
Ġenh anced
ĠConf ed
ĠH and
ĊĊAs ked
ĠD J
Ġbag s
ĠEngland ,
Ġadm ission
ĠSm art
Ġflav or
Ġworse ,
ĠO liver
ĠRes p
ĠState .
Ġportfol io
Ġbroad band
Ġpl aint
Ġdise ases
Ġestabl ishing
Ġarrest s
val id
Ġofficial s.
Ġf ut
Ġbillion aire
ĠManhatt an
Ġhigh .
Ġspeed s
ĠR ail
arch y
Ġ( at
Ġlength y
8 )
Ġprob ability
Ġrec y
Ġstatist ical
Ġrespect ed
Ġhistor ian
Ġtens ions
Ġbe ings
Ġwork s,
ĠG .
ĠMitche ll
Ġanaly t
Ġevalu ate
ĊĊTh anks
Ġsm ugg
Ġbe ars
Ġt une
Ġinter ference
ĠT able
ĠFire f
ĠAct .
Ġsac rific
ĠM ission
ĠC av
ĠMc D
n ie
Ġdirect ory
th al
ĊĊSh are
Ġhappen ,
DA Y
Ġbenef icial
Ġimmigr ant
ĠNev ada
Ġg ro
Ġdisp os
b ably
Ġele ph
ĠS omal
Ġ(s uch
ĠHot el
ĠB E
Ġa est
Ġinst inct
Ġcont ents
ĠParent hood
Ġres ur
Ġaffect ing
Ġaudience .
Ġsam pl
Ġlight .
ĠâĢľ C
Ġsh ops
er 's
itb art
Ġm ixture
g ary
ĠPlan ned
Ġcontinu ous
Ġfun n
Ġin ch
Ġschool s.
Ġlight ing
ĠâĢľ to
Ġfirm ly
Ġrecru iting
ien ces
ĠWat son
Ġoff shore
Ġmar ine
Ġcr ashed
H ING
Ġrob ots
ĠN ig
ĠH end
Ġsc ary
Ġas h
Ġy es
T ON
Ġd io
Ġinfect ed
Ġto ss
Ġf ract
Ġfr ight
Ġshif ting
Ġfrust ration
ĠIran ,
Ġr ice
Ġz omb
Ġelim inated
ĠPhot ograph
Ġdetail s.
Ġform ,
Ġdem ol
ĠBelg ium
Ġconserv ation
Ġ( l
Ġm akers
Ġse iz
Ġair line
Ġdo se
Ġcont ra
Ġh orm
ĠE V
ĠIsrael .
Ġdo es,
Ġonline ,
Ġaccount ,
ĠR T
Ġmother s
Ġoption .
ĠH P
ĠFant asy
Ġdeclar ation
ard o
em it
ĊĊI âĢĻve
ĠYou 're
ĠMil wau
i ated
Ġcomm itt
Ġ199 6
ĠI ,
Ġ200 1,
Ġcont am
o j
Ġlike lihood
ĠMc M
sh op
Ġwood en
Ġadm its
Ġlight ,
Ġl ip
am il
ĠW y
ĠGu ide
ĠKore a,
ĊĊC omp
Ġauthor ized
e ep
Ġdeb ate.
Ġdef ect
ĠWith in
Ġqu otes
ĠCong ress.
Get ty
Ġt el
Ġdo or.
Ġchemical s
ĠLe af
Ġ6 6
Ġbest ,
att oo
ĠAmerican s.
Ġscreen ing
Ġlead ers,
Ġplay back
Ġflo or.
Ġsp are
e ven
Ġfro zen
Ġbas es
Ġcrim inals
ĠK y
ĠBrazil ian
Ġcorrespond ing
Ġfulf ill
Ġresponse .
Ġfeed ing
Ġsh ore
Ġmove .
Ġsn ap
ĠR ice
ĠB an
ĊĊ" N
Ġret reat
Ġtob acco
Ġ(2 )
C .,
Ġed ited
Ġphys ics
Ġthrow s
ĠSe ah
ord able
Ġinf amous
Ġlicens ing
Ġthe r
Ġdam age.
Ġmagn etic
ĠMar co
Ġ6 2
Ġt ub
ĠNovember .
Ġorganiz ation,
Ġencry ption
ĠAr ts
er ving
u per
ĠCom put
Ġ19 30
ĠUn iverse
Ġeth ics
Ġlarge ,
ĠSt orm
Ġden ial
ĠS ud
Ġint ens
Ġtrust ed
Ġmyself .
Ġlove ,
Ġsignific ance
ter ror
- cent
Ġl ady
Ġun rest
roc ery
Ġvert ical
ĠOh ,
ĠLa ure
-w inning
ĠMur phy
-e lection
Ġadvert is
Ġforce .
Ġreb ound
Ġex empt
Ġearthqu ake
ar at
Ġtransform ed
Ġseve rely
Ġbuy ers
Ġimper ial
ĠCent er.
Ġresult s,
p en
ĠHome land
Ġaccept ance
ĠIn valid
Ġdeploy ment
Ġhad n't
ĠAr thur
if ts
ort heast
Ġabst ract
Ġdeb ate,
Ġt rop
Ġadd ress.
Ġfire f
Ġdepart ments
Ġv ibr
The re
Ġcha os
Ġcelebr ating
Ġ(e. g.
Ġland mark
Ġapproach ing
Ġpurch asing
Ġinter rog
Ġwhere ver
Ġteam s,
back s
Ġtheory ,
Ġcon j
ĊĊP lay
Ġcharact ers,
ĠT ory
Ġnew est
Ġincent ive
pl us
Ġind igenous
Ġgoal s.
Ġunf ortunate
Ġf ires
ĠU RL
Ġenerg y.
ĠâĢľ F
Ġres on
Ġsa uce
Ġconvers ion
ĊĊE d
Ġbel t
Ġdocument ation
ĠFor um
im es,
Ġdevice .
Ġpan els
Ġjournal ism
Ġp or
Ġrate .
Ġseed s
Ġdisc oura
Ġuncomfort able
Ġmiss iles
ur ities
Ġhe 'll
Ġbo ards
Ġvacc ine
ĠMexic o,
1 2
Ġsurpr is
Ġun h
Ġlove .
ĠM and
ĠFor ces
Ġcompat ible
Ġmill enn
Ġswit ched
ĠMil itary
Ġthem es
Ġ200 3,
ĠF le
R C
Ġcities ,
Ġtra gic
Ġoverl ook
l arge
Ġjump ing
- gen
Ġreg ards
Ġcar s,
Ġpat rol
Ġgu y.
Ġwor n
Ġbehavior .
ĠC elt
Ġaccommod ate
way s,
av or
Ġbra ve
Ġ5 9
Ġexp ose
od ing
Ġ6 3
ĠGl enn
Ġphone ,
al id
ĠTamp a
Ġfire arms
Ġ8 00
Ġanticip ated
Ġaverage ,
Ġoutdo or
Ġelection s.
ĠP oll
ĊĊA re
Ġl un
Ġexp end
Ġoffic er,
Ġcomp ly
ĠToky o
Ġscholars hip
Ġrel ating
Ġmet ap
Ġtrad em
Ġ= =
el ing
Ġdio xide
ĠAM D
ĠFrank lin
ĠSil icon
way .
Ġm m
Ġvulner ability
Ġment ally
Ġland ,
ĊĊHere 's
Ġtr ash
ĠClinton .
Ġsh aped
Ġmatch ing
Ġstat istic
Ġmatch up
Ġcomm ands
Ġaccur acy
Ġelder ly
Ġpres cription
Ġpen et
Ġhe nce
le ments
ĠTy ler
i per
ĠLondon .
ĠMar ia
Ġeas y.
Ġdisease .
ĊĊThe ir
Ġan th
uss ia
ĠSer ge
Ġclub .
Ġcomput ing
Ġdisg ust
ĠBud get
g ering
Ġdiscl ose
Ġinteract ive
Ġcompar able
Ġneed .
Ġsatisf ied
Ġexp enses
ow ered
Ġcomplex ity
I .
ĠM ason
ĠEx change
Ġcustom ers.
ĠSm all
Ġland .
ut ical
Ġthe or
ur se
Ġvari ables
ĠPh ys
ĠP L
ĠP ick
ĠII ,
Ġm ales
Ġd rought
Ġf ont
Ġdev ices,
ist ent
row s
ail ing
ĠPol ish
Ġ3 ,000
Ġrel ies
Ġinvestig ator
Ġsuch ,
Ġboard ,
Ġinc ons
Ġrenew ed
c ut
ĠCam bridge
Ġproduct .
Ġexpl oration
Ġco ins
ab out
Ġ( though
Ġbase .
Ġdep os
Ġwin ,
ĠB ears
Ġcru el
ĠM ue
S C
Ġr ated
Ġfl ip
Ġwh ilst
Ġdi abet
ĊĊWhat âĢĻs
ĠN DP
Ġfrust rating
ĠTr ue
p ack
ĠImages )
Ġpart ial
ĠTai wan
ob b
t te
z one
Ġless er
Ġnom inated
Ġsc rap
Ġrel atives
Ġcontro ller
Ġfor ces.
Ġoper ations.
Ġart work
ace utical
Ġingred ient
Ġ199 7
Ġclean ing
Ġpre season
w estern
Ġdesper ately
Ġequ ity
Ġres cu
Ġnetwork ,
Ġarrange ment
Ġpre cious
Ġplayoff s
ĊĊSec ond
Ġab ol
Ġrest ra
Ġexpress ing
Ġey es,
Ġboy friend
ĠJ ets
Ġgener ous
ĠLib ya
Ġ36 0
Ġconclud e
ed y
Ġnegoti ate
omet imes
ĠFound ation,
Ġobser ve
ĠChina 's
Ġword s.
ĠL ED
Ġprogram s,
Ġapp .
Ġbet ray
Ġre w
Ġorgan ize
Ġcontain er
Ġmotor cy
Ġmade ,
Ġa ide
E ven
Ġbu zz
Ġ2000 ,
ĠLe v
Ġpract ically
Ġproblem atic
ck er
Ġtransl ated
Ġlim iting
ĠPh one
ange lical
Ġcentur ies
I s
ĠPolit ical
Ġconf us
Ġactiv ity.
ĠâĢľWe âĢĻre
we ek
ĠN PR
Ã ¼
ĊĊT witter
Ġmechan isms
Ġide ology
Ġin sect
Ġmet h
ĠBe at
Ġcount ing
ĠColl ins
ĠDe vil
Ġliter ary
Ġsp awn
Ġspot light
Ġdisp ro
ĠCamp bell
Ġus ers,
Ġag greg
ĠB ased
ĠCor ps
e or
Ġm ph
ĠSomet hing
are t
Ġtown .
ĠConserv atives
Ġt ire
ĠB ash
Ġt anks
Ġgrowth ,
Ġclear .
ĠC rit
ĊĊOb ama
ĠB i
ĠBet ween
Ġformer ly
Ġproduction ,
ĠAfrican -American
Ġter m.
Ġinterest .
ĊĊU sing
Ġall -time
Ġobserv ations
Ġwar ri
ol ar
Ġman ages
Ġset .
ĠQ B
Ġover h
z b
Ġign oring
I F
Ġhelp ,
Ġmat ched
ĊĊâĢľWe âĢĻre
ne ath
Ġg end
ĠW ard
ĊĊ" What
ĠYou âĢĻll
ĠG arden
Ġre actions
go vernment
Ġd ang
Ġ5 ,000
Ġh ill
force ment
ĠW iz
Ġlift ed
uss ian
Ġn aked
Ġcar ri
Ġsp ends
Ġdaughter ,
Ġwar fare
Ġav o
Ġdetect ed
Ġpremie re
Ġcontinu ed.
ĠS aints
th .
Ġimm un
Ġsuper hero
if ty
ĠF igure
- re
Ġcorrect ly
st rong
Ġexp ed
ok en
Ġfamil ies.
Ġ: :
Ġking dom
Ġden ying
Ġfree ly
her ic
Ġproduct ivity
Ġproject s,
ĠT reat
S h
Ġthird -party
ĠCo ach
Ġtaxpay er
Ġrom antic
Ġdr ones
ĠShe âĢĻs
ier re
or gan
Ġch ase
Ġf et
Ġc ub
Ġsound ed
Ġfundra ising
Ġl au
Ġchild .
Ġweapon s,
Ġspectac ular
Ġautonom ous
Ġk ern
Ġtiss ue
O C
Ġb ite
Ġpe op
ep s
A n
- related
Ġadequ ate
Ġdoub led
Ġstraight forward
Ġmidfield er
Ġven ue
Ġcont rary
= "
iv ic
Ġtem ple
Ġcapital ,
Ġf itness
w ing
Ġdisturb ing
Ġinstitution al
Ġover d
ĠContin ued
Ġfree ,
umb led
ĊĊG iven
Ġfun ,
Ġlist ing
ĊĊ and
Ġwill .
Ġun anim
Ġdisease ,
ĠSh an
ĠL td
Ġpenalt ies
Ġpropert y.
Ġcharg es.
ĠWal ter
Ġdefense .
Ġl ined
Ġ" L
Ġcour ses
Ġnight s
ĊĊR eg
Ġcrowd s
ĠYe ah,
Ġ18 6
Ġprison .
ĠVer izon
Ġl an
ĊĊC heck
Ġmid st
Ġgenuine ly
ĠB ird
Ġ$ 30
ĠH ockey
ell ed
Ġphysic ian
ĊĊTod ay,
Ġyou !
ĠR E
Ġcharacter istic
ĠUn it
ĠA CL
ĠB id
Ġv on
Ġfamil ies,
ĠDown load
ĠHind u
Ġh ier
Ġinjur y.
Ġbrother ,
Ġ( T
Ġorganiz ing
les s.
Ġplatform .
Ġafternoon .
Ġroy al
ĠBuild ing
Ġstra in
og a
Ġsequ el
ĠPok Ã©
Ġhowever .
Ġd ur
Ġund ers
ĠWarri ors
ĠB aker
Ġeconom ists
Ġpro x
Ġbench mark
Ġg rocery
ĠJon es,
2 00
ĠM ov
ac les
Ġcompli ance
ĠChicag o,
ĠMichel le
ĠS ong
Ġm all
eg a
F O
o op
Ġsimple ,
Ġvot ers.
ĠA ve
Ġform ing
Ġal- Q
ĠJo ined
ud ge
ĠMississipp i
- R
Ġaltern ate
Ġwhist le
Ġord in
Ġste pping
Ġinv ented
Ġstay s
ĠD ubl
Ġwere ,
Ġlevel s,
ĠâĢľ not
Ġcoast al
form ance
Ġsport ing
are st
ĊĊWh ich
Ġpo vert
Ġpartic les
ĠD ate
Ġcan cel
ĠM ember
Ġredu ces
Ġresult .
Ġsaf er
ear ing
Ġre un
ate ur
Ġin ability
Ġsl ip
ĠBrad y
Ġnegoti ating
ĠF riends
Ġins ists
- ed
Ġspecial ist
Ġavo ided
Ġtruck s
P C
Ġskill ed
aly st
Ġam mun
Ġhes it
ĠMu ham
na pped
ocra cy
Ġdecre ased
ĠSp enc
Ġsp ur
ĠCh amp
Ġ( it
ĊĊOn ly
oc ke
ĠHe b
ĠBre itbart
Ġmotiv ation
Ġorganiz ation.
EL ATED
Ġdo ing,
Ġrhy th
Ġaccount ing
ll a
s he
Ġbackl ash
Ġskept ical
Ġsa il
Ġtreat ment.
Ġun limited
ĠExp ress
res a
Ġtrain ing,
Ġter rib
Ġdef ining
ĠSol ar
ath on
Ġadvant ages
Ġmove ,
Ġhusband ,
Ġr ivals
Ġl aser
Ġemail .
ter y
Ġles bian
ĠGM T
ĠCarl os
ous ing
Ġmicro b
Ġansw er.
Ġcompetition .
Ġmet ric
Ġ(f rom
Ġmusic ian
Ġgu y,
ĠAb d
ĠR ow
ĠCowboy s
ĠE li
Ġpray er
ĠAn ne
Ġmeet ing.
ac ent
Ġint ensity
Ġnecessary .
Ġh ors
ay ing
Ġmid night
ĠA k
Ġsocial ist
Ġcapital ism
Ġlast ing
ĠSh adow
Ġsympt om
Ġbug s
ĊĊ $
Ġtrans cript
Ġmount ed
ĠJohn ny
Ġshut down
ĠL S
ĠT un
Ġent ity
Ġlibr aries
Ġsubstant ially
ĠCorpor ation
ĠHar rison
uck er
Ġbar riers
Ġoutcom es
ĠAtt ack
ar ious
ac cept
Ġchem istry
Ġoccup ation
it ative
Ġvir al
Ġd ensity
Ġatt raction
ĠIraq .
ĠCommun ications
Ġfollow -up
Ġtele com
Ġbl end
Ġt attoo
Ġwarning s
Ġdis ch
Ġregul ate
Ġv owed
ĊĊC urrent
Ġstart ,
Ġplan es
le e
Ġaccident ally
Ġdeb ates
Ġt ribute
Ġh oly
Ġinc oming
Ġha unt
ĠâĢľ in
Ġext ends
th is
ĠN athan
] .
ĠHur ricane
Ġob es
Ġlock er
Ġtransl ation
Ġf ame
ĠR av
Ġdivor ce
ĠFin ance
ĠAriz on
Ġind irect
Ġth ro
ĠCor p
Ġoutl ined
d ad
Ġmain tains
Ġbu ck
Ġstaff .
Ġgoal ,
Ġmal ware
Ġaccount ability
ĠInd ians
ĠH BO
Ġembra ced
ĠRo om
ĊĊ 9.
Ġtra ce
Ġsays :
ro se
Ġm ature
ail and
Ġpar ade
Ġrec onst
ch ild
ĠH an
o -
um m
Ġcomplet ion
ag raph
Ġlabor atory
ar ies,
- ray
Ġsafet y.
ĠBu y
Ġexcite ment
Ġmo ck
ĠBrad ley
it es,
ĊĊD r.
ĠV eter
Ġstrict ly
ĠBron cos
Ġdesign ers
Ġsw ift
Ġhonest ly
ĠR h
ra ham
ĠBern ard
ĠG onz
ĠLiber ty
ment ed
ĠUnivers al
Ġincl usion
Ġcompet itor
Ġbip artisan
ĠEb ola
ĠTh under
Ġlabel ed
Ġun le
ĠAssoci ation,
Ġhack ers
Ġfundament ally
ĠDen mark
um ing
Ġ198 0s
ĠS el
Ġscrut iny
ĠS A
ĠG P
Ġspe ec
Ġt ears
ĠJenn ifer
Ġdo ?
Ġbad ,
Ġexp os
Ġug ly
ah .
Ġquestion :
ĠâĢľ we
ĠAff ordable
ĠN ex
it es.
Ġmovie .
Ġcomp leting
Ġoverh aul
Ġfall .
Ġunder neath
ers ion
Ġi T
/ A
Ġsc ul
orm al
Ġmisc onduct
Ġshot .
-third s
Ġp y
Ġrein for
Ġac res
Ġheart s
Ġ(1 99
ĠHar vey
ĠS a
u ccess
Ġtrib al
ĠEarth .
Ġle ather
Ġ( W
ĠL ock
Ġspeech .
Ġtest ified
t es
ĠC ut
ĠB. C.
Ġhigh ,
Ġdefend ers
Ġpre st
I R
ĠP ence
Ġ199 5
ĠLouis iana
Ġam pl
Ġbillion ,
ĠAll- Star
Ġ6 7
ĠClinton 's
Ġan arch
Ġsubject ed
Ġcost s,
Ġfresh man
Ġpart isan
ĠRead ing
Ġrent al
ĊĊ 5
un ge
ne ver
Ġunf ortunately
Ġmin eral
Ġp ile
Ġsubm ission
ĠBuff alo
Ġfin ancing
ĠL uck
Ġanalysis ,
Ġclin ic
Ġ6 1
Ġdirect ors
Ġwind s
Ġg ard
Ġ" f
ĠBl air
Ġmilit ant
Ġparamet ers
oub ted
Ġ5 th
Ġsell s
j a
Ġrespons ibilities
ĠâĢľ My
Ġregul ators
Ġaccur ately
Ġsche du
Ġattitud es
Ġstore .
Ġab oard
Ġsuspic ion
Ġdrink s
ĠWall ace
ir a
Ġw ishes
ĊĊTod ay
Ġsens it
Ġleague .
Ġadv ances
Ġeven ing,
Ġche er
Ġclass ical
Ġterm s,
Ġtruth .
ĠCl ar
ĠB al
Ġearli er.
ĠSt ev
ĠRich mond
Ġair ,
angu age
ĠCar son
Ġcommunities .
Ġrev ised
Ġfacilit ate
ĠAnge les,
Ġedit ing
Ġacc using
n atural
Ġt ong
Ġlack ing
ĠAl b
Ġexist .
ĠPart ners
ĠAren a
ĠP a
Ġneighborhood s
Ġso on,
Ġsol ved
ĊĊAdvertisement :
Ġviol ating
ĠBerke ley
Ġapproach .
r ons
Ġen abling
ĊĊC om
ĠHigh way
Ġ$2 .
ĠJanuary .
Ġsupp ress
Ġthorough ly
Ġ _
ĠKir k
pp y
Ġmeant ime,
Ġinevit ably
ĠK as
Ġlimit ations
Ġbond s
## ##
Ġdon ation
Ġm erc
Ġan ime
ĠB uck
ak es.
Ġaction s.
ull iv
n ers,
Ġsh ipped
ĊĊBut ,
Ġpart .
ĠPal ace
ĠCh ile
at al
ort ion
r ament
Ġthat ."
ĠGod .
ari ans
Ġcrime ,
Ġlin es.
ĠStreet .
Ġgen et
Ġforce ,
ĊĊH ave
Ġnot orious
) |
Ġoccas ion
Ġcatch ing
Ġreason ably
ĠG PS
ĠTh ailand
Ġswe eping
Ġfire ,
Ġaud iences
t ail
Ġun accept
i âĢĻs
Ġd uration
Ġreview ing
ĠGall ery
Ġconvin cing
- one
ĠGold man
gh dad
Ġste am
Ġover see
Ġesc aped
ĠS in
Ġd ated
Ġarch ae
Ġdut ies
ĠP AC
Ġ( n
Ġsecond s.
Ġeveryone .
Ġclim bing
ĠWikiLe aks
ĠT itan
port ed
ĠTra il
Ġblood y
ĠDak ota
ĠInt erest
ĠBang l
Ġsubsid ies
Ġstab il
Ġdrug s,
ĠF a
est one
Ġnot es,
l og
ĠG ro
Ġperm its
Ġad min
ĠCanada âĢĻs
Ġbit .
Ġedit ors
Ġdi ed.
if act
Ġconsol id
Ġbig ,
Ġrub ber
h ran
ĠT an
Ġnewsp apers
ĠT ell
Ġbook s.
Ġde ce
Ġext ending
Ġsource .
ĠReg ional
Ġconfront ed
Ġtown ,
Ġtrave lling
ĠB ah
ĠE dd
ĊĊS c
Ġchildren âĢĻs
Ġdifferent ,
is ible
Ġseason s.
- way
is k
ĊĊTh rough
are r
-1 0
Ġhe al
Ġ199 4
Ġro st
b orne
Ġlack s
ul ative
ĠTO DAY
Ġgrow s
ĠD ennis
ĠEff ect
leg raph
Ġw ip
Ġconsum ed
Ġkid s,
ĊĊP aul
Ġarr anged
Ġt ang
Ġcont end
Ġemp ower
Ġ40 %
itt y
Ġrel ate
Ġadjust ed
Ġaud it
ĠL iving
Ġviol ate
Ġfilm ing
ĠTransport ation
Ġpret end
ĠM MA
Ġn ons
ĠPri ze
Ġpolic ies.
ĠBenn ett
Ġsepar ation
Ġdifference .
Ġthem .âĢĿ
Ġcred ential
ut ing
ad vant
Ġeveryth ing,
Ġch ips
Ġachie ving
Ġtact ical
Ġl ap
Ġc ab
Ġsp ill
ĠâĢľ no
ĠF ame
Ġapp ,
Ġtraged y
Ġutter ly
ik a
ĠSeptember .
Ġabs ent
ĠArk ansas
Ġsusp icious
Ġris en
Ġattend ance
Ġconference ,
Ġfor ces,
Ġcelebr ity
ĠE D
Ġever ,
Ġinc umb
Ġprohib ited
ĠF ried
Ġemploy er
Ġsucceed ed
Ġ( to
Ġmanag er,
Ġpro ving
Ġpred omin
e em
re ls
Ġalt ered
ak es,
Ġare :
Ġnight mare
Ġthought .
Ġkill s
ĠC hen
Ġhour .
ĠMuham mad
Ġdetermin ing
Ġpriv ately
at ched
Ġ1 )
ĠTwitter :
Ġd ense
ĠBill y
Ġsl ave
ra v
Ġcolleg es
Ġfil med
Ġcomment ed
Ġsac red
Ġne uro
ĠV A
ĠS ure,
Ġcomm itting
Ġl anes
ĠPro duct
Ġvalu es.
ĠBrown ,
ĠE van
Ġseen .
Ġvis a
Ġvalue ,
ĠT arg
ĠB es
Ġdep ut
Ġmatch .
Ġrest ored
ĠAnge l
ĠSc ar
Ġshow s,
ĊĊS en
Ġbe aring
Ġn ull
ĠAd vent
Ġexcept ional
Ġtransform ation
ĠSoft ware
Ġche f
Ġstuff ,
Ġdemonstr ates
Ġin hib
Ġd ash
Ġ vel
Ġ199 0
h ap
ig nt
Ġrele ased.
umb l
c ill
ĠC z
ĊĊI 'm
Ġtherefore ,
Ġstere oty
Ġnewslet ters
ĠGerman y.
Ġinterse ction
Ġp ap
Ġmort ality
ĠF R
Ġelsewhere .
ard ed
ĠR ams
ĠBe h
Ġthink .
ĊĊU .S.
ĠWar .
il a
ĠL ie
Ġban ning
Ġsp ite
ĠColor ad
ĠAlask a
Ġbound aries
ĠC as
Ġ18 th
Ġinter im
n an
Ġsn aps
ĠAr men
ather ine
Ġvari ation
Ġrecre ational
Ġiniti atives
ĠG ear
ĠD or
ĠLuc as
Ġliber als
Ġmon ument
Ġrel ied
Ġsur pass
ĠCh arg
Ġstar ring
ĠA th
Ġre lying
ĠJam ie
Ġ( t
I LL
Ġ200 2,
ĠSun ni
Ġshif ts
Ġtour ists
Ġret rie
ĠTe hran
the re
Ġsolution .
ĠK och
Ġstock s
Ġmem orial
ĠIm per
az i
Ġappeal ing
Ġsub urb
ĠPhilipp ines
Ġwrest ling
k .
Ġbl own
ĠE mb
im m
S :
Ġstor ies,
Ġastron aut
Ġwh y,
ĠR oll
Ġag ing
H z
Ġpaper .
ĠJun e.
i y
ĠM itch
ĠOlymp ics
Ġconsider ably
Ġ" m
Ġmed al
E E
Ġlay ing
ĠAfghan istan,
Ġresour ces,
ocument ed
Ġtest .
Ġhard .
Ġinvest or
or ate
Ġcapital ist
Ġeduc ated
ĠMagaz ine
ĠB und
ĊĊH ist
Ġch unk
Ġbra ins
ĊĊThere 's
Ġ30 %
Ġgri p
ĠC BC
Ġcon vey
Ġprot ester
Ġsc ram
ĠN eb
ĠElect ric
Ġshoot er
Ġovert urn
Ġsupport ive
Ġhappen s,
Ġgoal s,
Ġlibert arian
Ġund oubted
ĊĊArt icle
Ġbenefit s.
ĠAustral ia.
Ġdem ographic
Ġ6 8
ĠT ill
Ġlow -income
b ury
ĊĊT ake
Ġsty les
Ġ(th at
ĠCredit :
Ġautom ated
Ġmarket place
Ġmon st
Ġart istic
Ġs ons
Ġ7 6
er g
ĊĊP re
Ġwoman .
Ġident ification
Ġweapon s.
ĠSeah awks
Ġbelong s
ĠLib y
Ġ1 %
ĠR achel
Ġref usal
Ġste aling
ĠUn ion,
Ġbes ides
Ġdifficult ies
ĠL ess
Ġfinan cially
Ġtransl ate
Ġdis advant
ĠCon n
Ġc ats
Ġal beit
ĠPet ers
Ġpr ices.
Ġswim ming
Ġn est
e ah,
Ġtermin al
Ġinclude :
Ġreluct ant
Ġanti- S
t ered
Ġve t
Ġvot ers,
Ġsent ences
Ġad verse
ĠInvest ig
ĠMcC arth
d iv
Ġbe ast
ĠBe ast
ĠK it
Ġincent ives
ĠMorm on
Ġbar rier
Ġl ighter
Ġsomet ime
m other
Ġdon ate
Ġra ge
ĊĊ1 0.
Ġcount ies
Ġpredec ess
Ġonce ,
Ġprotect ive
Ġdiscipl ine
Ġeight h
Ġdefense ,
ĊĊM ichael
Ġf est
Ġmet ab
ĠBob by
l u
Ġ13 .
anc hes
ĠCarol ina,
ĠBull s
Ġor chest
Ġkill ed.
ĠG host
ĠT oo
am ents
Ġinsp ire
Ġ$1 5
Ġadministration âĢĻs
ĠTit le
ob by
Ġbact er
ĠD ay,
Ġle ap
ĠRog ers
ĠLis a
ĊĊH aving
Ġphilos opher
Ġf iber
av y
Ġd angers
Ġcred ited
Ġo ce
ue z
ĠâĢľ How
ĠH om
ĠL en
Ġhand s,
Ġint u
ĠBet ter
ĠGroup ,
Ġover time
Ġstick ing
ul um
ne y.
Ġprom is
% )
Ġmagn itude
Ġ< /
Ġdecl ining
Ġbott les
-1 2
Ġce iling
ĠC H
ch ing
Ġswitch ing
Ġplan s.
ĠPark .
Ġcor rid
Ġaim ing
Ġconsum e
ĠD u
Ġve to
ĊĊAlso ,
iz able
Ġl ag
Ġfrom ,
Ġemb assy
ĠD isc
-st ar
ĠN a
Ġclos ure
ĠG oog
Ġcompet itors
ĠLeg end
ĠIm p
Ġpar agraph
ater n
ĠTV ,
Ġresour ces.
-st ate
Ġple a
Ġf action
Ġas c
Ġread ily
there um
ĠBarcel ona
ut ter
ĠOper ation
Ġhard ,
ĠFergus on
r ation.
Ġtable ,
ĊĊR em
Ġconfident ial
ĠAm y
Ġlin es,
Ġevidence ,
Ġ( G
Ġfall ,
Ġart ,
Ġon es,
Ġin acc
ed ing
ĠBe yond
Ġl aug
ĠSer ver
man uel
Ġc am
ĊĊRef erences
Ġpred iction
Ġopp ress
Ġcommission er
Ġtwo -thirds
Ġlaug hed
ĠâĢľ c
ĠCub an
Ġ200 6.
ĠMay .
Ġlos es
ro ots
Ġmarket s.
ĠRe form
ig m
ell ar
Ġ(b ut
ĠF ro
m ines
- L
ĊĊRelated :
ĠCl ose
Ġb ass
o vers
Ġgam ers
Ġpresent ,
Ġagenc y,
HING TON
f ortunately
Ġent ities
Ġsk ull
Ġsour ces,
Ġcreat ors
Ġdis ability
ĊĊD em
Ġretail ers
Ġfurther .
ĠE ither
ĠNob ody
Ġhard est
AS HINGTON
Ġmist aken
Ġres erves
ĠR AM
ruct ive
ĠP ast
Ġelabor ate
Ġstro ke
Ġfight ,
ĠLiber als
Ġ(A P
Ġundoubted ly
irm ingham
Ġyoung ,
Ġrev ol
Ġ7 7
Ġgra ce
AR T
Ġfam ously
Ġcolon ial
ĠCent ury
ĠUr ban
Ġapolog ize
E G
Ġsubm ar
Ġcontract .
ĠAlex and
Ġmechan ics
vert ed
Ġsuper vis
Ġvary ing
Ġagenc y.
Ġcharacter ized
Ġun ch
Ġp ub
Ġexch anges
Ġdeb ris
ĠRaid ers
Ġc ute
Ġne at
Ġment ions
ĠWh it
Ġ19 20
Ġex ports
Ġcharact ers.
ĊĊâĢľA s
Ġ15 .
Ġhospital .
Ġbr id
Ġjud g
A pp
ĠNe ither
Ġdecl aring
Ġsovere ignt
ĠC orn
ĠPict ure
Ġpropert y,
ĠSt ill
umb ling
Ġ197 0s
Ġtroub led
ĠAle pp
ĠâĢľThat âĢĻs
ĠIs a
Ġd ive
Ġ( on
Ġvari et
Ġc u
Ġprev ention
Ġch ampions
Ġteen ager
________ ________
ĠM om
Ġwh y.
iam ond
ĠAss ange
Ġl az
eng u
ĠIn side
Ġgroup âĢĻs
Ġle af
ic ient
ĠC abin
ĠM VP
ĠPokÃ© mon
b ra
ĊĊC opyright
ab ul
Ġactivities .
Ġman âĢĻs
-cent ury
Ġcl ust
Ġexc it
ĠG re
ĠVik ings
Ġ20 ,000
Ġcent er,
ĠB Y
Ġadapt ed
ag en
4 5
s w
Ġpron ounced
ĠUK .
Ġrock s
b ro
Ġf oster
i ors
Ġb inary
Ġportray ed
be ing
Ġsens or
Ġbudget .
Ġstrik er
ier ra
Ġmob ility
Ġpil ots
Ġoblig ation
ĠJu an
Ġthey 'd
ĠFiref ox
ay .
ĠYan ke
v ation
Ġcigare tt
Ġs ie
ĠGu y
Ġyoung est
st ar
t ag
Ġcyc ling
Ġl iability
R .
Ġconference .
Ġcontact s
ie val
Ġswe pt
Ġres ume
ĠAd vis
Ġye ah,
ĊĊ" But
Ġonce .
Ġkick ing
Ġscreen ,
Ġst un
Ġrot ation
Ġd ivers
ĠAl ong
-d own
Ġlarge -scale
Ġair pl
ĠPl us,
ick ed
ĠDougl as
Ġ18 0
Ġeffort .
Ġcrop s
Ġmeas uring
Ġ$ 9
ic ism
Ġre iter
cript ions
pr ising
ale ,
ĠAssist ant
- G
ĠB ishop
Ġsear ched
Ġup side
Ġbes ide
ĠIndia âĢĻs
ĠE nt
ĠML B
Ġsurviv ors
Ġstat ue
Ġspec ify
ot ton
Ġp iv
Ġspec ified
Ġcomment s.
ĠE rd
Ġ(e. g.,
Ġopt ed
ĠR ain
ĠMarch .
Ġpark s
ĠB P
Ġwant ,
ĠâĢľ T
ĠM ust
Ġcred ible
Ġideas .
ĠH ub
Ġp upp
Ġevolution ary
ĊĊA ut
ator ,
Ġfa cial
Ġremind s
oth y
Ġrecord s.
ĠEm ploy
ĠâĢľ it
Ġ" t
Ġcount ed
Ġelection s,
Ġrelig ion,
Ġdisp ens
Ġun st
Ġnavig ate
Ġcon cess
Ġor al
Ġ2018 ,
Ġtw in
Ġprov es
Ġsoon er
Ġb atch
Ġbase ,
Ġwhite ,
Ġwe 'd
Ġkid s.
ĠR C
ĠCz ech
ĠCal gary
ĠI BM
Ġpri z
Ġnext .
Ġliber ty
Ġ ic
Ġc ents
Ġs idel
Ġpat ience
** *
Ġmet res
ĠD ub
p ing
Ġconscious ness
Ġinside .
Ġo l
S S
r in
Ġal umin
ter ior
Ġag rees
ĠHall ow
Ġha ul
Ġw and
Ġmassac re
if ied.
Ġd umb
ow ers
ĊĊ"We 're
Ġ5 %
ĠNob el
ĠDef ence
Ġpregn ancy
Ġread .
Ġb out
ĠJul ian
ĠE ss
ĠWh atever
Ġinhab it
Ġgener ic
- by
Ġur gent
Ġsize .
tra ck
ĠE RA
b lock
Ġconclus ions
ĠM oney
Ġbelong ing
land .
-m ade
ĠEv ans
ĊĊA g
ĊĊT HE
Ġpos es
Ġtwo -year
ĠCan n
ĠG it
Ġlegit im
ĠA gr
Ġc ord
Ġp izza
Ġgradu ated
Ġare na
Ġtempl ate
Ġfe et.
ĠAg ree
V E
Ġcl ash
ĠA y
ĠKar l
Ġn ation,
Ġscience .
Ġ3 .5
az a
ĠT ob
ĠM ode
Ġideas ,
Ġim pe
ĠCh apter
ĠN iger
ĠAfric a.
Ġrep osit
ĠSpe ed
Ġdem on
Ġre ception
ĠSt ars
Ġnot e,
ĠPart y.
Ġlineback er
Ġinappropri ate
ĠUp date
Ġs lic
Ġdisappoint ing
ĠV P
Ġroad ,
re ction
Ġexhib ition
Ġp uck
Ġjust ified
Ġnature ,
Ġn urse
Ġunc overed
ĠPark er
1 00
ĠBa ghdad
ĠB irmingham
ĠK rist
ĠW ade
oca ust
Ġcard .
Ġjok es
ĠBoe h
ĠAl most
Ġreturn .
Ġexhib it
ĠSte in
Ġdefin itive
Ġc argo
Ġsh y
Ġcl uster
ĠSuper man
Ġb ones
Ġgl ory
Ġbr ick
ĠSh ield
Ġunder min
olit ical
ĠBl ues
Ġst ation.
Ġp ip
Ġtun ed
Ġchar ter
ere n
ĠV atic
Ġintention ally
Ġsolid arity
ĠS ad
Ġseason s,
olph ins
ĠL ost
Ġbe ll
Ġthink ing,
Ġst er
Ġscream ing
Ġj ew
Ġsubst itute
Ġdef ines
Ġtour ist
Ġconsequ ence
Ġtri umph
ĊĊ f
Ġf ancy
Ġs ib
Ġmob il
Ġentreprene urs
Ġstrateg y.
Ġw are
Ġdom inate
Ġvictory .
e u
ĊĊV ideo
ĠR ank
Ġmon op
Ġ" When
E .
Ġab used
ĠCount ry
Ġpurch ases
ĠWikip edia
ĠWork ers
ĠJ oy
ĠâĢľS o
Ġf art
ĊĊP l
se ts
Ġpow der
ĠG erm
ĠSam uel
Ġr ib
Ġobser vers
Ġdrug s.
ari os
ĠK rem
ĠPal in
Ġwhat ?
ĠD ut
Ġcost ly
ĠC ape
ĠJ oint
ĠAn imal
Ġs izes
Ġint ake
Ġlove ly
Ġbattle field
Ġper cept
Ġhere 's
Ġinterest s.
ĠB h
Ġelim inating
Ġin mates
Ġ199 2
ĠAnge la
Ġ( 5
-m aking
Ġtri al,
Ġsimple .
Ġm ans
Ġcost .
ĠObam a.
Ġag re
Ġcre ep
Ġelev ated
Ġun aware
Ġ# 2
Ġobserv ation
Ġanti-S emit
Ġhas ,
u um
er d
ĠCouncil ,
- qu
Ġ199 0s
ĊĊD onâĢĻt
ĠQu inn
Ġahead .
Ġâ Ī
ĠN umber
Ġstrong ,
b ase
Ġbroad c
Ġp up
Ġdifficult .
Ġinv isible
Ġcoll ision
Ġtruth ,
urer s
Ġopen ,
Ġquick ly,
Ġble w
Ġus ed,
ĠS ep
ĠB order
ĠPack ers
ĠK ind
Ġ7 3
ĠMS NBC
Ġgone .
re ach
Ġreal m
ĠCh amber
st an
Ġflag s
sel ess
Ġ9 11
Ġbelow :
he astern
Ġmen âĢĻs
ĠOccup y
Ġren ov
Ġdep osit
Ġloc ally
Ġcr icket
Ġint ends
Ġrec ession
ĠM IT
Ġtop .
Ġstyle .
Ġkid n
Ġwithdraw al
Ġpresent ing
-b it
Ġ" H
Ġdetermin ation
Ġmess age.
Ġisland s
ĠDemocrat s,
ĠSt op
Ġclub ,
Ġ18 8
Ġse al
Ġwrit ing,
Ġvol can
Ġc ache
Ġoil ,
Ġtri al.
ul ent
Ġlawsu its
Ġconsult ant
Ġaccount able
Ġone 's
Ġsu ited
Ġhome own
Ġgra in
Ġrel ent
-sh irt
Ġinstead ,
ĠOr thodox
Ġorganis ations
ĊĊD r
Ġca ut
Ġtrain ing.
ĠK .
Ġtradem ark
red d
Ġchur ches
Ġp istol
M AN
ĊĊS uch
ĠH um
r ,
Ġte ens
Ġbutt ons
Ġm aker
Ġst ark
Ġ2 )
Ġeffect s.
Ġneighb oring
Ġsatisf y
it o
Ġfollow s:
Ġvers ion,
Ġadapt ation
ĠS earch
Ġrif le
ĠY et,
Ġun ited
Ġen roll
ĠM aine
Ġsold i
Ġjo ins
ĠH ud
Ġnew er
ĠOctober .
Ġplan et.
9 )
ĠR ace
Ġrender ing
- F
ĠBry an
Ġinterest ing.
ĊĊD own
Ġsaying :
Ġgame 's
Ġhy per
Ġm artial
Ġperman ently
ĊĊW hether
ĠO m
ĠN ancy
Ġit âĢĻll
Ġtest ,
Ġbe ers
Ġac ute
ĠT D
Ġvers ion.
ra ce
Ġs illy
op ard
iz er
ĠJer se
ĠAgr icult
Ġnot ed,
Ġorganiz ers
ĊĊE arly
ĠG B
Ġdevice ,
Ġpan ic
Ġinvent ory
Ġbreak through
idd ing
ĠN ixon
nest y
Ġinvestig ative
Ġa uster
ri el
Ġlin ear
Ġanaly ze
Ġthem ?
b led
ar ies.
ĠD awn
Ġremem bers
ĠSp urs
ĠWest ,
Ġsour ces.
Ġinspe ction
ĠSo ccer
/ 4
ĠD om
ĠSe lect
Ġevidence .
Ġtitle .
com m
ĠEarth ,
Ġdesign ing
Ġsk ip
ĊĊS upp
ĠCincinn ati
Ġd y
Ġtra p
ĠCle an
ĠNex us
ĠPhotograph :
ĠM ult
ist .
book s
Ġinstru ments
Ġinjur y,
Ġtax es,
Ġhappen ing.
C h
Ġmarri age,
ĠK l
Ġdin os
Ġscul pt
omet own
ĠD ue
bs ite
Ġconsult ing
B N
Ġmit ig
Ġlist ened
ĠJuly .
ag o
Ġuncon stitution
b a
ĠPr int
Ġh ood
Ġg ifts
Ġconven ience
Ġdig it
ult s
im ens
Ġcities .
Ġcall .
Ġ( E
iz ation,
Ġencoura ges
ĊĊInd eed,
Ġlot ,
Ġcitizen s.
Ġevent ual
Ġes p
Ġball .
ĠVirgin ia,
ĠChron icle
Ġemploye es,
ĠPet erson
ĠP T
ĠC reek
ĠW onder
ĠRepublican s,
Ġkern el
Ġnav al
Ġpre jud
ĠJapan .
Ġcat al
Ġlink ing
pe lled
Ġpict ured
in ed.
pl es.
ac o
O P
ĠPresident ial
Ġrat es.
Ġask ed,
Ġbord er.
Ġagricult ure
Ġcul min
ĠEd mont
Ġl end
Ġro le,
Ġoffic ers,
ĠSac rament
Ġrep ublic
Ġinf er
ĊĊRep ublic
b el
Ġh ij
Ġloc als
ĠB art
ĠTexas .
Ġtreat y
Ġtri ple
Ġreal -time
Ġeconom ies
Ġval ued
m ith
Ġrec ess
Ġvill ain
Ġnature .
ai ro
Ġneighbour hood
Ġ7 8
Ġset ,
Ġgame âĢĻs
Ġfootball .
Ġuns uccess
st on,
Ġfel ony
Ġunder go
Ġoccurred .
ĠH ait
ĠPet e
ĠC au
ĠWhat 's
ie ,
Ġ49 ers
Ġschol ar
Ġmarri age.
Ġpharm aceutical
Ġ16 .
Ġfunction .
Ġscen arios
ĠTig ers
ĠL uther
Ġor g
Ġse am
Ġattack er
Ġen cl
F rom
Ġth umb
y on
Ġbr anches
Ġint imate
Ġworld s
Ġ4 :
Ġprev ents
Ġlab els
Ġdoub ts
Ġinfl amm
ĠRec ords
ĠSp ider
Ġshort age
ĊĊA :
Ġprocess ed
Ġ199 3
Ġmal icious
Ġcl ause
ar ound
ĠMem bers
ĠEnter prise
air y
Ġpersist ent
T E
Ġcanc er.
Ġmake up
eg u
Ġover ly
Ġ7 00
ĠL. A.
Ġbrief ing
Ġpart ies,
Ġadd iction
Ġrep ly
Ġg rat
Ġp ause
ĠW oman
Ġsh ark
Ġproduct ,
Ġgr ay
le an
Ġstead ily
ĠD iamond
Ġbureauc rat
Ġl uc
Ġanaly zed
ĠâĢľ an
Ġart ifact
ay er
Ġprem ier
ĠBritain ,
ĠM ind
Ġfict ional
ĠH TC
Ġhe ated
Ġev olve
Ġhom es.
Ġsafet y,
Ġsear ches
Ġf ib
Ġcar s.
Ġdist ribute
Ġca us
ange red
Ġfavor able
Ġapplic ations.
Ġe .
Ġdistingu ish
ĠIS P
Ġa ston
ĠColumb us
ble m
ĠMe et
Ġsince .
Ġsaf e.
k ind
Ġdr illing
Ġoper ations,
Ġplan ets
Ġvig il
ĠNether lands
ĠMilwau kee
ĠBu zz
Ġapproach ,
Ġh ike
Ġgrand father
ĠS ierra
ĊĊ 0
ĠÂ ±
Ġdispro portion
ĠCharlott e
Ġextrem ist
ĠMin or
Ġunc ons
Ġmanufact ured
Ġsuppl ied
ĠV irt
ĠLaur a
y ard
ĠâĢĺ The
Ġstore ,
ĠB ou
ĊĊInstead ,
g er,
Ġten ure
Ġ7 4
Ġhyd rogen
Ġspot .
Ġnow ?
Ġyourself ,
ĠJes se
ri es,
Ġtheoret ical
Ġspe ed,
Ġassemb led
ĠRet urn
ĠH o
ĠAl f
Ġside walk
ĊĊU PD
Ġsu its
ist ing
Ġthat ,âĢĿ
id es,
ĠGoogle âĢĻs
ĠNever theless,
ir able
ĠBrown s
ĠRes ources
Ġpolic ies,
ĠPl at
Ġdu o
Ġtext s
Ġ3 .0
ĠB os
ĊĊ <
Ġex agger
Ġw ings
ess ional
Ġ) ,
e ve
Ġsc al
Ġhand gun
Ġgarb age
ĠMar cus
r ask
red ict
ĠEp isode
Ġlegisl ators
Ġattention ,
Ġsol ving
Ġstandard s.
p at
or ical
ocal y
ĠEast ,
Ġred ist
ĊĊB est
Ġas pir
Ġlif ting
Ġvolunt ary
ĠJ oh
Ġ14 .
ĠGoog le,
Ġpass port
Ġcommission ed
Ġfar ming
ĠWork ing
ĠW ii
ĠCol in
Ġinf lic
ĠMinnes ot
Ġso cially
Ġly rics
ĠInstitute ,
Ġperson âĢĻs
Ġemploye es.
ator s,
Ġdead ,
ĠMc L
Ġglim pse
S E
Ġvar ied
Ġ11 th
Ġtax i
ĠAr med
ĠâĢľ is
r ation,
ation ally
Ġall -
Ġf isher
ĠS ource
let ter
Ġsecond .
Ġrec l
- line
Ġwid th
Ġhour ,
ĠTrib une
ia h
ĠW inn
Ġendorse ment
Ġfeature s,
Ġle ase
Ġsum mon
Ġsubur ban
Ġanimal s,
Ġprior ities
ĠPal mer
Ġban ner
Ġamb ul
ĠPri or
ĠImper ial
c ulation
fl ow
Ġarbit rary
ĠF un
ĠG ive
Ġindepend ently
ĠN HS
Ġoccur ring
Ġqu ery
Ġher itage
ster oid
ĠBrew ing
Ġorgan ised
ĠA irl
Ġopen .
Ġthat :
ĠW i-
Ġexpect ed.
Ġexam ining
Ġpurpos es.
Ġgrand mother
Ġdollar s.
Ġ25 %
ĠBase ball
ĠP ed
ed In
ĠI v
ĊĊ w
ĠT s
ĠF el
Ġdiff er
Ġoften ,
ra pe
oll ah
eg ree
Ġprem ise
ĠS ulliv
Ġissu ing
Ġju ice
Ġvill ages
Ġtoug her
ĠU A
Ġpredict ions
Ġident ity.
Ġ0 .5
ĠSn ap
ĠGod âĢĻs
ĊĊL ater
Ġcent er.
ĠAlbert a
Ġad vers
tern ative
Ġbatter ies
Ġsecret ly
ĠFour th
Ġcomm em
Ġturn out
Ġev angelical
abl es,
Ġsto pp
ĠY ears
Ġchoice ,
r us
er y,
Ġstra nd
U R
ĠBrother hood
ĠVis it
Ġatt ribute
Ġmarket s,
Ġro d
Ġflo or,
Ġaff irm
Ġinning s
/ Getty
Ġint act
ĊĊM ark
Ġrend ered
Ġind ef
a ci
Ġsurface .
Ġ1. 0
Ġag g
Ġmount ains
Ġchallenge .
Ġsatisf action
ĠK ate
( )
Ã ¶
Ġth irty
Ġprog ress.
Ġworry ing
Ġ ~
Ġdeli vers
Ġan k
Ġd ys
Ġne ural
ĠFI FA
Ġp.m. ,
==== ====
Ġmemor able
Ġdra gged
le y.
Ġhom es,
Ġreven ge
Ġepisode ,
ĊĊR EAD
ĊĊM ar
Ġca res
Ġenthusi asm
Ġvari ations
Ġcollaps ed
Ġc her
Ġprocess or
Ġnumber ,
ĠA round
Ġrap ed
oc ate
ĠP ere
Ġoption s,
Ġsl ated
ĠStud ios
Ġpublisher s
Ġdisc ourse
ush room
ĠC ox
ĠInd ex
Ġaltern atives
ĠG and
Ġf oul
op ular
Ġeffort s.
ĠFl ight
ĊĊâĢľO ur
Ġsame ,
ĠEd ge
ĠBrussel s
Ġsaf egu
Ġdecision s.
Ġiniti ated
Ġdam ages
m o
Ġsan ct
ĠSw ift
ĠJr. ,
Ġdo or,
ĠM atter
Ġf ond
ĠAny one
Ġflag ship
-d egree
Ġor b
pt ic
Ġstart ed.
ĠG ates
ran ean
Ġtra its
Ġe leg
ĠUS S
Ġsens ors
Ġwho ever
ĊĊNew s
ĠâĢľA s
Ġ6 9
onom ic
oc us
Ġprot agon
Ġ90 %
ne g
ran ium
Ġb inding
ĊĊA ct
Ġactiv ity,
Ġd rown
am ,
Ġhaz ard
Ġoccas ions
pe red
Ġbo oth
Ġshar ply
Ġsex ,
ĊĊC ol
Ġimmediately .
Ġadj acent
ĠHer itage
ĊĊUn fortunately,
Ġsto le
ĠBro s.
Ġphilosoph ical
Ġbeh ave
art ed
Ġaffili ate
Ġsk i
ĠM ort
for mer
Ġprop ri
Ġcard s,
Ġconcent rated
Ġcrack down
ot ion
ĠSand y
ĠC riminal
ĠC e
Ġeven ing.
Ġw ard
per or
Ġ" G
Ġsure .
Ġpath s
ĠProt est
Ġ8 2
Ġte aches
P I
Ġmole cul
Ġme .âĢĿ
Y es,
Ġhapp iness
Ġrecord s,
Ġsynd rome
ĠLat ino
Ġintegr ate
Ġexam ination
Ġstat us.
ĊĊO ut
ĠTh us
e enth
Ġhor rific
Ġboth .
Ġorig ins
Ġun ity
ĠCh ase
Ġcool ing
omet hing
Ġlive .
ĠCS S
Ġcontem pl
ig e
ĠC u
umb ai
Ġbuilt -in
Ġkilomet ers
Ġreal ise
ĠR ah
ĠR oose
Ġoutl ook
ĠAn im
Ġtel esc
Ġcrew s
Ġqualif ying
ia âĢĻs
Ġblack s
ĊĊD id
ĠHol ocaust
Ġtrack ed
ĠPD F
Ġ199 0s,
Ġirre lev
Ġloc ation.
ĠKrem lin
ĠG ate
Ġsec uring
ĠCat al
Ġpro st
ĠR ush
augh ters
Ġgoing .
Ġst ation,
Ġweek 's
Ġoper ation.
Ġrange .
ĠSe ven
Ġdetect ion
Ġneed ing
Ġdiam ond
Ġsecre ts
ĠMart ine
Ġmod ify
- 6
Ġparent s.
ĠC R
Ġf er
Ġpe pper
y ang
Ġaccount ed
n ers.
ĠJo el
Ġresign ation
Ġpromot ional
Ġdis ast
ĠCard inals
Ġtreat ments
ĠV ide
ĠJ ared
Ġat e
Ġbatt ling
Ġtw elve
Ġoverwhelming ly
Ġper ce
Ġstri pped
ĠShe l
ĊĊâĢľ But
iz ation.
ĠAcc ount
Ġunw illing
Ġrat es,
Ġar ise
Ġthreat ens
Ġfile .
Ġfollowing :
ĠJ S
ĠStev ens
Ġcor ners
Ġbudget ,
ĠM M
Ġ80 %
Ġmo ld
ĠApple âĢĻs
Ġdel ays
Ġsoftware .
Ġtim eline
Ġl ess.
Ġover head
Ġmind set
Ġfra g
ĠL ooking
Ġt al
Ġcirc les
Ġexpect ation
Ġhon our
Ġmeasure ment
Ġcommunities ,
Ġhe dge
ĠDepartment ,
-spe ed
Ġpro c
Ġsa ck
ie ls
Ġdis k
Ġnon ethe
r idge
Ġpitch ing
Ġtax es.
ĠIran âĢĻs
Ġcoach ,
Ġcondition .
ĠHere ,
Ġstor ies.
ĠCommer ce
ĠDecember .
Ġb ind
Ġyesterday ,
ĠCom ics
Ġprec ision
ĠWilliam s,
Ġdeck s
ĊĊO rig
00 00
ĠCitiz ens
Ġl as
ĊĊ ,
Ġlost .
Ġapplic ation.
ĠD rew
Ġheart .
Ġbar rels
Ġby pass
Ġgrav ity
ĠRel ations
w ords
ĠFrancisc o,
Ġ" to
Ġpart ies.
ĠM umbai
ĠZim mer
ĠN in
Ġwork out
- 8
ĠL G
Ġ> >
Ġloyal ty
Ġfar ms
Ġsu ck
u ation
Ġcompass ion
Ġcou pled
av a
ĠH erald
ĠHawai i
ĠLu is
Ġle thal
ĠTh or
Ġlook .
ĠGriff in
Ġinjur ies.
Ġinstall ing
a ired
Ġcur b
ĠBarb ara
ĠNeb rask
Ġpost season
ĠD ise
Ġany time
Ġdocument s,
ĠZ ion
ĠE thereum
Ġgu ided
Ġwh ites
Ġcritic ised
Ġref uses
Ġkick s
Ġp ond
Ġfast .
Ġins ights
Ġenviron ments
Â Ĵ
ĠU CL
Ġthreat .
ĠCom cast
Ġam ateur
Ġflow s
Ġh ated
d iction
Ġvac ation
Ġins an
Ġprop ose
Ġcrowd ed
Ġload ing
ar cer
ĠS O
Ġconcern s.
y es
Ġvo iced
ĠRoose vel
Ġorient ation
Ġassum ptions
ĠS ave
Ġtraffick ing
Ġrecru ited
Ġc ort
Ġ7 1
Ġn aming
Ġdesc end
ĠC ON
ers hip
Ġhe aling
Ġfar mer
ent er
Ġc odes
Ġent ries
Ġplac es,
Ġdism ant
i otic
v o
Ġsk etch
Ġind ie
ĠF itz
ĠB ak
Ġ200 5.
ĠGen .
Ġ$1 00,000
Ġstra w
f ound
Ġfin es
ĠPant hers
ĊĊR ELATED
Ġbicy cle
Ġfav ored
iff erent
Ġent ers
ĠQ aeda
ĠTe legraph
er b
ĠD ian
Ġbus es
cc a
ĠN EW
-w orld
en ess
er ting
ĠHer o
Ġfail ures
pl es,
Ġf ence
ĠDep art
Ġletter ,
ĠR PG
Ġsty le,
Ġsoftware ,
Ġinterpret ed
full y,
Ġpresent .
ĠF ast
Ġplatform ,
Ġread ,
ĠJ ong
un a
Ġg alax
Ġ$2 00
gg le
ugg ing
Ġover r
Ġdemonstr ations
Ġp .
ĠStud ents
Ġcur ric
ort s
ol k
Ġcontext ,
ĠBoe ing
Ġpeop les
ĠPriv acy
oo f
Ġtext ure
Ġeffect iveness
Ġbusiness man
ĠApril .
Ġsusp end
Ġc ri
ĊĊâĢľ My
Ġreb ell
Ġbr ush
ĠA LL
ĠE arlier
Ġa ides
Ġo un
Ġdownload ed
ĠChance llor
keep er
Ġrad i
ĠSim ilarly,
be at
Ġrevel ations
Ġh ometown
ĠIs s
Ġbusiness es,
Ġf itting
ĠM erc
ĠAugust .
ĠRe ed
ĠO wn
ĊĊ â
Ġnote :
-hand ed
ĠTra vel
qu is
Ġcalcul ate
Ġ0. 1
Ġspecial ized
Ġby ,
ĠC and
Ġgall ery
Ġnational ist
ĠTurn er
Ġto pped
Ġagend a.
ĠChristian ity
Ġ17 th
Ġarri ves
ĠClar ke
Ġle aks
Ġ7 th
G E
ĠSenate ,
Ġreal ised
ĠHispan ic
ĊĊUn like
Ġbehind .
Ġpun ished
Ġprompt ing
ĠCar ib
Ġflee ing
Ġexpl ored
ous es
ĠForm ula
col m
Ġim age.
ĠA w
ĠBre nd
Ġn ail
ĠD est
Ġround .
Ġrecommend ation
Ġdiscl osed
an s,
ĠMin ne
Ġcandid ate,
Ġdeb t.
Ġhapp y.
ĠS ach
ĠChall enge
ĠAl t
Ġden ies
Ġattribut es
ĠBid en
Ġdeter ior
Ġpr ices,
ĠSchool ,
cl usion
Ġscrut in
Ġtouch ing
Ġlow -
Ġfeature s.
Ġdelic ious
ĊĊCl inton
Ġha bits
Ġinc arcer
ĠT ib
Ġcertific ate
Ġhospital ,
Ġg au
Ġnation ally
ĠMr s
Ġsa ves
Ġ196 0s
Ġcontin ually
Ġthr ust
am bers
ĠP i
ĠCreat ive
Ġ[ 2
7 5
ĠYouT ub
ĠIm agine
ĠImm igration
Ġvac uum
ĠA wards
Ġse w
ĊĊP rof
Ġshoot ings
Ġtrade ,
Ġmov ies,
Ġthr illed
Ġpl ag
Ġreport ed,
ĠCol on
Ġsurre nder
Ġassault ed
ĊĊ 6
ĠGerm ans
ere k
Ġsne ak
Ġfunction ing
Ġrun ner
Ġhalf .
Ġsu ite
Ġfast ,
ch .
Ġleave .
ĠChief s
Ġsurv iving
Ġn erve
ĠGl ass
Ġcharge .
ĊĊNote :
Ġemot ion
ĠB B
ĠBr un
ĠEast .
Ġsub way
Ã ±
Ġwhat so
Ġsovere ign
ĠâĢľN o
ĠF ly
ĠC ass
ĠMed iter
Ġpl aus
ĠN E
ĠEdd ie
ĠM aking
Ġmeasure ments
Ġcomment s,
Ġwhile .
Ġtoile t
upp orted
Ġham mer
Ġcard s.
s )
we alth
ct ors
ĠSt ra
ift een
ĠQ atar
ĠMedic ine
ĠSoci et
Ġind eed,
ri en
ĠAdv anced
Ġap ology
Ġorganization s,
ĊĊA M
Ġtit le,
ĠIsland ,
Ġop io
Ġnumber .
Ġvol um
Ġcontribut or
T O
otten ham
Ġfe et,
Ġaggress ively
Ġhad ,
Ġme als
ĊĊF r
Ġsit es.
Ġsymb olic
Ġf t
in itely
Ġpresident s
Ġ1. 2
Ġle ver
cul us
ĠH alf
ĠK ath
en eral
w all
i pt
Ġdefend ants
el come
Ġund ocumented
r ue
ĠSpir it
ment ioned
Ġoutf it
Ġanalysis .
ard ing
Ġbail out
Ġagree ment,
Ġceleb rit
Ġhonest ,
oc ide
Ġcult ures
ĠMajor ity
ĠL C
Ġmathemat ical
ĠG reens
Ġcapital .
ĠÃ Ĺ
Ġto k
ĠRather ,
ch ron
Ġwor ries
Ġlos s.
ĠS M
Ġfriend .
ĠTer ror
ĠBrook s
ul ous
ĠAth let
Ġvalu es,
Ġro oted
Ġnot ified
ĠBry ant
ĠL ives
Ġstop .
Ġbankrupt cy
Ġcorpor ation
Ġfem ales
Ġprof itable
Ġflood ing
Ġcomplain ing
ĠV iol
Ġwall .
ĊĊCh ina
ĊĊ"A s
Ġg rey
ĠAnt ar
ĠC L
ĠDou ble
v als
Ġprom in
Ġexerc ises
ĊĊB el
Ġz ones
Ġalbum s
ĠJeff rey
ĠWhy ?
ĠJess ica
Ġimag ined
ĠItal y,
Ġnons ense
ĠMer ced
Ġa pt
Ġwhe els
ĠTr uth
Ġeveryone ,
Ġaver aging
r ot
Ġrelationship .
Ġsuper mark
Ġst unt
Ġmulti player
ĠFin n
ĠÂ »
Ġse min
ĠM ans
os pel
ĠF ish
Ġsaf e,
Ġlack ed
ĊĊ }
Ġaction s,
Ġat op
ĠSh aw
Ġguy s,
ĠR A
Ġarm or
Ġforever .
Ġthrough ,
Ġmis under
Ġathlet e
Ġfive -year
Ġteen agers
Ġcoverage .
Ġaer ial
am ine
Ġby :
Ġcra w
Ġsp at
ĠSch m
ĠCl ay
ĠEngland .
ĠWal mart
p ost
arm a
Ġhalf ,
le ft
Ġcance lled
Ġl iver
Ġevalu ation
p ol
ĠCh ip
Ġbl ur
Ġpe ers
Ġcry ing
Ġa irst
ĠOb s
Ġaffili ated
Ġcanc er,
ĠWhat s
Ġtra it
ĠFor b
ĠPres s.
Ġm im
Ġboy cott
Ġ12 th
Ġcomp act
sh ot
Ġeas iest
if ting
Ġover th
Ġcens orship
ĠRussia 's
ack s
ill ery
Ġsupp li
Ġlawy er,
hap s,
Ġst ag
ĠApp arent
iz ations
Ġhoriz ont
Ġcro re
Ġcust od
ĠHe zb
Ġwindow .
Ġpain .
Ġconfir ms
Ġfo lder
y âĢĻs
ĠBe er
Ġreason ing
Ġmusic ians
ĠP ap
ĠCarib be
Ġdisc on
Ġwe ighed
ĠStud ent
ĠSp ot
ĠWe 'll
Ð µ
Ġclas hes
Ġwas h
Ġal ive.
Ġtrop ical
Ġpark ed
Ġinj ust
Ġjuris diction
Ġaccord ance
Ġnetwork ing
Ġgeneral .
p iece
Ġanimal s.
Ġback ward
Ġsit es,
Ġpain ,
ĠN on
Ġvel oc
Ġmean s,
ĠF em
ĠBen gh
Ġpsych ology
ĠL ane
Ġsl ice
ot he
Ġsc are
Ġcompetition ,
Ġcamp .
Ġlegisl ation.
ĠC li
Ġo ven
Ġt ier
Ġed ges
ĠC her
ĠL an
Ġsw ap
Ġ18 .
Ġreprodu ctive
z o
ĠG ay
Ġ1 /2
Ġmemory .
ĠA ra
ĊĊF our
ing ly,
N C
ĠNew cast
Ġmisle ading
ol an
Ġcome back
ĊĊE mail
at oes
Ġconflic t.
Ġrecip ient
ĠP ur
l er,
int age
Ġsumm ar
Ġmount ing
Ġadvis ory
ĠD E
Ġl od
ĠC ertain
Ġgot ta
Ġche es
Ġ50 ,000
ĊĊF igure
Ġcontract ,
Ġb ru
h ill
ĊĊM edia
f ish
Ġse greg
war f
ĠâĢľO ur
Ġmaterial .
Ġ" not
iss ance
Ġdelet ed
Ġsurve ys
Ġconfig ur
Ġmach ine.
Ġtour ism
ĠPost ,
ĠLegisl ature
ĠZ ach
ĠVatic an
in son
oo s
ĠW ire
-1 5
Ġpres erved
ĠInter ior
Ġh orn
Ġpur ple
Ġinherent ly
Ġvol umes
ĠBoeh ner
ĠF at
Ġf ine,
Ġqual ities
-M an
ĠT ogether
ĠFer r
Ġemot ionally
at hetic
Ġcard ,
on ge
Ġorder ing
e pt
ĠAr n
ĠCost a
Ġamb ition
Ġdisc ret
ĠAl ice
ĠMos ul
on ut
b ot
ĠWomen âĢĻs
Ġclar ify
Ġconst itute
b ound
Ġ198 0
ĊĊF e
Ġdi ver
Ġd ancing
Ġpit ched
ĊĊM c
Ġinfring e
uten ant
l ow
ache s,
ĠM ack
Ġprol ong
erv ation
Ġpr one
Ġscale .
Ġun law
ĠHill s
Ġtransport ed
ĠCol lection
Ġ16 th
Ġreal ,
Ġhash tag
Ġalgorith ms
Ġqu ot
ick ets
ĠSo on
-f i
Ġsmart phones
Ġman eu
Ġref und
Ġse aled
ĠR ou
Ġshow s.
Ġstimul us
ed ed
Ġtr ump
r ams
Ġ199 1
ib lical
ĠFO X
Ġinvolved ,
Ġa steroid
Ġcorrel ation
ĠSim p
Ġemail ,
ĠCanada 's
Ġcollege ,
Ġdim ension
g ue
Ġinv itation
Ġ13 th
ĠSh a
h ol
Ġrandom ly
ĠSpenc er
Ġswe at
Ġremain der
we g
Ġbik es
Ġtarget .
Ġball ,
ĠFr ance.
Ġpick up
Ġterm s.
d is
Ġhigh- end
ĠHill ,
ĠSh i
Ġcoc aine
Ġintent ions
ĠCast ro
Ġnew .
Ġattack ers
re aking
ust ral
Ġj am
ĊĊD an
Ġlegisl ation,
Ġshowc ase
Ġknowledge ,
ĠVin cent
ĠY outh
ĠTh ai
Ġdis ruption
Ġimport ed
D o
Ġpro port
Ġzone .
Ġdie .
Ġup hold
Ġlong er.
Ġdefend ant
ĊĊ1 0
Ġplac es.
ver ,
Ġlead ers.
Ġhuge ly
Ġskill s.
ĠC ++
IT H
Ġcorrespond ent
ĠEnglish ,
Ġinstruct ed
b n
ip her
Ġ Ñ
Ġpract icing
Ġspec ies,
ĠGl obe
Ġc yn
Ġmark ing
Ġp etro
ĠTV .
ĊĊM s
Ġtrade .
Ġimpl ies
W S
ĠCub a
ĠUn ion.
Ġim min
Ġca f
ĠAs ia,
Ġglob ally
Ġroll s
ĠHuff ington
Ġspons or
an ing
ĠIran .
elt a
Ġde lete
IC E
ĠGen er
N D
ĠLight ning
ĠE ight
ĠYanke es
Ġincorpor ated
Ġmilitary ,
Ġdemocra cy.
Ġab us
ĠR osen
Ġ6 th
ĠLeague .
ad s
Ġwhen ,
Ġincorpor ate
Ġc um
Ġvict ories
Ġhy pe
Ġsepar ately
Ġclose .
ĠLeg al
Ġvend ors
z .
Ġcont ing
ĠDe b
ĠA B
Ġco at
Ġanch or
Ġcop e
Ġstreet .
ong yang
Ġhe ating
ĠCourt ,
Ġend e
Ġd read
Ġhel m
Ġart .
ĠNew ton
Ġlead er.
j o
ĠIn iti
ĠStud y
Ġfe as
Ġsc attered
Ġgrass roots
Ġm ant
Ġcrit ically
Ġdra in
ĠMexic o.
m ak
Ġparty 's
ĠH ope
Ġsmall est
Ġ$1 0,000
im s
ĠLiber t
Ġdisast rous
Ġmis d
ĠWe iss
Ġsign atures
ĠL t.
uls ion
Ġinv alid
bre aking
Ġclaim s.
ĊĊM att
ĊĊJ ames
Ġcar riers
Ġal ways,
Ġcampaign ing
Ġreal .
Ġhand y
R e
Ġd aughters
ank a
ros c
K E
ĠZ one
Ġtheat re
ĠH orn
ĠApple 's
ĠGreat er
Ġeffort ,
Ã ³
Ġband w
Ġcent ered
ĠPr om
Ġprotect s
ĠW alt
Ġe B
ĠC M
ĠAfghanistan .
ĠK el
ab s
Ġ8 8
Ġra b
Ġsl ammed
Ġsound track
ĠLabor atory
ID S
Ġemphas ized
ĊĊC omm
o ir
ĠBM W
ĊĊ by
ĠLeague ,
Ġkill ings
Ġsociet ies
ĠEnviron ment
ĠJob s
Ġport rait
Ġtack les
Ġtrans pl
Ġquality ,
Ġdeliber ate
H T
Ġepis od
Ġpull s
ab il
ĠOne ,
âĢĿ .
Ġoff er.
Ġ(al so
Ġtri o
Ġspe ed.
ĠTurke y,
Ġbit ,
ĠSt ring
Ġplan s,
ĠMarg aret
alth ough
Ġbusiness es.
Ġcitizen s,
Ġquestion able
Ġ14 th
Ġ20 .
Ġ' The
olog ies
Ġfound ,
i oc
Ġpo em
ĠPal m
Ġsp here
Ġdest ructive
ĠS anche
ĠiT unes
Ġagree ment.
ast e
Ġin -game
ĠMoh ammed
Ġcomp lim
Ġsp ac
Ġfra gment
n ames
Ġreposit ory
Ġcan cell
Ġalso ,
Ġc m
ĠK le
Ġn asty
Ġwork shop
ĠDay .
ĠBar n
Ġpersu ade
Ġacc l
Ġdep icted
iv ity,
- owned
Ġdon or
Ġb oring
âĢĶâĢĶ âĢĶâĢĶ
Ġimpl icit
ig ma
Ġru in
ick en
Ġhold ers
Ġint ensive
Ġto :
uff icient
Ġloc ation,
ĠUp on
ĊĊS p
ĠKore a.
Ġpair s
Ġconf using
Ġposition ed
Ġfurther ,
ĠM D
Ġfix ing
Ġblog ,
co ins
ows ki
ĠBritain âĢĻs
ast ically
ĠN i
Ġl ending
h r
ĠS ri
ĠEs pecially
N T
Ġinterest ,
ol ine
Ġ( although
ĠBelg ian
ĠC opyright
Ġ18 7
le vel
Ġcustom ers,
Ġpass ive
ĠEd wards
ĠF ernand
Ġemb ark
o ffic
Ġminim ize
Ġproceed s
Ġanx iet
Ġaside ,
N G
Ġeduc ate
Ġindic ator
Ġn it
Ġbas is,
Ġjustice .
Ġminor ities
iss a
Ġprohib it
ĠW ant
Ġrule .
Ġnam es,
Ġlic enses
ĠSystem s
Ġc ure
Ġinter pre
as ant
K ,
ĠNor way
Ġinc on
Ġut ilities
ĠD ame
Ġsal aries
ĠH ack
ĠCons umer
Ġwhat ,
Ġmatter s.
r ade
Ġuns upported
ĠGO OD
ĠSen ators
ĊĊS ign
ĠMet hod
Ġd ining
Ġtime .âĢĿ
ĠCon c
Ġmod ules
ĠOhio ,
ĠE vil
ĠPost .
Ġround ,
Ġr ugby
ane ous
ran ch
Ġris es
ĠF ab
Ġtroub les
st orm
Ġcol or,
ĠD M
ĠIce land
Ġment ality
Ġrisk y
Ġmid -
ĠS ent
Ġr ipped
Ġcommittee ,
Ġtraum a
Ġsector .
ĠW R
Ġmon sters
Ġskill s,
o cc
ĊĊ"O ur
ĊĊP ri
Ġstory t
olog ically
Ġhyp oc
Ġstream s
ill ary
3 2
Ġcontin ent
ĠT ool
Ġstrateg y,
Ġenv ision
âĢ ľ
ĠRod gers
ĠMal colm
Ġ( 6
Ġsensit ivity
Ġsect ors
ĠIsrael is
Ġeas y,
d ing
Ġru le,
ĠC op
ĠS ay
Ġswe ep
ĠHel p
Ġtouchdown s
Ġbehavior ,
Ġlook ,
Ġsw all
Ġinacc ur
g ence
m ons
ĠWe lls
ch air
Ġer a,
uss ion
act ic
or ia
ĠCub s
ĠWhe el
ĠCabin et
Ġclim bed
Ġland l
Ġeffic ienc
Ġe rect
ĠACL U
ĠFlorid a.
Ġ0. 00
Ġkilomet res
g om
Ġconsequ ences.
Ġhun ger
Ġembarrass ing
ĠZ ero
Ġal -A
ĠSecond ,
ĊĊAut hor
ĠVill age
Ġsymbol s
ĠCom ic
Ġtask ed
Ġbenefit s,
ĠF ile
undred s
ĠWest min
Ġch asing
iv ity.
Ġres il
ĠGen ev
Ġfortun ate
Ġbo il
Ġconce aled
ro d
ĠT on
- be
ac ity
Ġpurpose .
Ġstr anger
ĠB elt
st op
Ġdecent ral
ĠPlan et
Ġapp et
Ġhear ings
ĠPres s,
Ġhero in
Ġtoler ance
ĠLe B
Ġchildren 's
ĠC row
ĠG h
Ġelectron ics
Ġback ers
Ġmess aging
Ġfl esh
Ġle av
ĠCO 2
Ġv ib
ĊĊMay be
ĠO ft
-l aw
Ġtrave lled
Ġit er
Ġlight ning
Ġshot ,
ĠTom my
Ġe -
ĠRepresent atives
ĠComput er
ĠHT TP
Ġplug in
b ull
ost al
ĠErd ogan
ĠK aren
Ġexpect ed,
Ġecho ed
Ġcare ers
ĠPy ongyang
ef ense
Ġcause .
terror ism
Ġab usive
ĊĊL ooking
-in ch
lud e
Ġsurface ,
in a.
ĠP as
Ġpict ure.
Ġer a.
Ġcau cus
Ġluc rative
Ġfuel s
Ġd are
Ġad oles
Ġ15 th
Ġhand ing
Ġindividual s,
ĠSur v
Ġ30 ,000
ĊĊL ink
Ġtr im
Ġret ained
ĠConfed erate
Ġrelig ion.
ĠSome one
ĠTarg et
Ġsay :
Ġdes cent
ĠBash ar
Ġch ains
Ġadjust ment
Ġalumin um
ĠN ok
Ġsh apes
Ġmed ieval
ĠD R
ĊĊPh ot
Ġmix ing
Ġ198 0s,
ĠN C
ĠA ub
ĠBre ak
Ġh urd
Ġcry stal
Ġseriously .
Ġregul ated
Ġtact ic
ĊĊSt ate
-t ra
Ð °
Ġsex .
Ġfant as
Ġsli pped
Ġsurvey ed
Ġo we
ĠMue ller
ĠO culus
Ġman ually
Ġcon gr
ĠJ ar
ĠNor weg
Ġtu ition
ĠUS D
Ġcert ified
Ġcup s
ĊĊSt art
ĠDubl in
Ġpo ised
Ġpedest rian
l as
Ġt ide
Ġabsor b
ind ed
Ġsource ,
Ġoff line
Ġquality .
ro v
Ġg orge
ĊĊDown load
Ġcat ches
Ġauthorities .
Ġincumb ent
ĠD. C.,
Ġbank s,
P resident
Ġpro xy
Ġrequired .
Ġdiagn osis
ĠArm strong
ĠOr ,
et ween
Ġforg ot
Ġstandard s,
Ġâ Ĩ
Ġfin ale
Ġ198 9
Ġess ence
Ġlive ,
Ġup ward
ĠF 1
Ġb ans
Ġhand les
Ġsu ic
Ġp add
Ġsu e
F F
ĠB annon
ĠGoogle 's
ing rich
ug s
ĠDan ish
L ast
ĠAirl ines
Ġammun ition
ĠClass ic
ĠBut ler
Ġd awn
Ġmor ality
Ġinter medi
Ġcomparison ,
ĠFebruary .
Ġfre el
b les
qu ality
ft y
Ġb io
ĠWinn ipe
ĠWild life
ĠâĢľThere âĢĻs
Ġcontract ors
Ġrecogn ise
Ġisol ation
Ġawa iting
ĠMassachuse tt
Ġanyway ,
Ġflow ing
ĠPrin cess
Ġassess ed
Ġstat ute
Ġhad .
ĊĊN e
qu est
Ġdes erved
ĠP orter
P .
Ġ4 ,000
Ġdisput ed
Ġbl at
Ġdetail s,
ale y
ol er
ĠGet ting
Ġhum or
ĠCh ad
Ġ199 9,
ĠV oice
ĠMet ropolitan
Ġdirection ,
Ġcryptocurren cy
Ġcurric ulum
Ġrecall s
Ġtrick y
Ġimp osing
Ġw ield
Ġst aring
Ġfree ze
im p
ĊĊM uch
Ġcircumst ances,
ok es
ĠL l
ĠSenate .
Ġt ube
Ġsp ike
ĠI .
Ġexclud ed
Ġunb el
Ġ17 .
Ġdep ri
Ġhalf way
ĠN ep
iz ed,
Ġansw ering
ĠH R
ð Ł
AT E:
Ġlow ,
z an
Ġcamp ,
ay be
ĠInc re
Ġpurs ued
ative ly
Ġlaun ches
ident s
Ġnovel s
Ġloc ate
ĠAh mad
Ġ"We 're
ĠLe ave
ĠO d
ĠG as
Ġcont empt
Ġhapp ily
i ott
Ġre -election
N ET
Ġd ug
Ġfaith ful
ĠD aw
Ġguy s.
Ġaccount s,
Ġun int
Ġeverywhere .
Ġeconom ically
Ġreject ion
Ġcru ise
Ġcall ,
Ġexample :
Ġe ars
ĠArgent ina
Ġpresident 's
ĠH ul
ĠV ent
ĠIniti ative
Ġleague ,
Ġge ograph
Ġhung ry
Ġbo ats
ĠS g
ĠKas ich
Ġ" g
ĠHallow een
Ġthat ,"
Ġd ough
ad ing.
Ġpregn anc
ĊĊU ntil
Ġl ied
Ġw it
ĠÃ ł
Ġonly .
u art
Ġc attle
Ġ" My
Ġpuzz le
Ġinc omes
Ġheart ,
Ġnin th
ĠAlab am
Ġb aking
Ġword ,
Ġarrange ments
ous ands
Ġg aps
ï ¿
Ġabuse .
ĠT ottenham
ĠNorth west
Ġstr ings
Ġstreet s.
Ġlight weight
Ġcorre ction
us lim
ĠAut o
Ġpredomin antly
Ġu ltra
om ore
ĠS ure
Ġbrain .
ĠCons ider
ĠH ousing
Ġwild ly
i ots
Ġmigr ant
ik i
Ġmod es
ĠM as
ud ed
Ġproceed ings
Ġrecover ing
G A
Ġp sy
Ġsome ,
Ġnar c
C l
ĠL ower
Ġelement ary
Ġbox ,
Ġdire ctions
ĠA ven
gh ai
a fter
port ant
Ġintegr al
Ġoff end
ĠZ h
Ġbo red
is en
Ġa fore
Ġhack ed
Ġutil ize
Ġspeec hes
Ġsp oil
Ġsynt hetic
Ġrevel ation
Ġfl ower
Ġgar age
ĠVide os
Ġdiv isions
Ġenthusi astic
Ġthem ,âĢĿ
ĠM B
Ġhel met
Ġstr ang
Ġexp osing
Ġcatast roph
Ġstill ,
Ġpr iced
Ġres um
ĠF ra
ĠIsrael 's
Ġcivil ization
ĠFr an
ĠIntern et.
Ġgener ates
ĊĊâĢľ M
ĠM urd
Ġshoot ing.
ĠR ico
ĠIsland s
Ġmanip ulate
Ġboast s
Ġtra ject
ĠR acing
A Y
ĠMediter ranean
Ġspeaking ,
Ġactivities ,
Ġanalys es
ĠII .
ig an
Ġme ,âĢĿ
ĊĊN ever
h ire
Ġmatch ,
Ġstud ies,
ĠS outheast
ra wn
ĠTra ining
ĠV M
ĠWi- Fi
ĠBrother s
ĠTe le
Ġbrew ery
ĠD yl
Ġcongr at
Ġhom icide
Ġnon -profit
Ġp oured
ty pe
Ġcent .
Ġsal es.
ĠAb raham
Ġm ushroom
v ar
Ġintrig uing
ĠDun can
p iring
Ġsong ,
Ġp und
ĠAm end
ĠG ore
ĠC ros
ĠW indow
Ġobsc ure
Ġdistinct ive
ĠToy ota
ĠH ig
Ġinf inite
ĠDel aware
Ġsl aughter
om atic
Ġphotograph y
Ġcolumn ist
O ne
Ġinv ention
rodu ct
Ġdis reg
Ġafore mentioned
Ġhon ored
ĠPar is,
Ġincome .
Ġinsist ing
Ġopin ion.
Ġ8 4
Ġsh aking
Ġgenet ically
Ġhypothes is
Ġquarter ,
Ġlaugh ing
Ġcontinu ously
ock et
ĠStr ateg
Ġblow ing
Ġch ron
Ġt ended
Ġe cl
Ġfilm s,
Ġbattle .
ec onomic
b orough
ĠâĢľ p
Ġ200 4.
m outh
Ġchart s
ade qu
Ġvessel s
Ġhappen s.
Ġcrowd .
nect ed
Ġreleased ,
ĠDay s
Ġadv ancing
Ġan the
Ġd ot
Ġpart ner,
Ġport s
Ġchance .
ĠMus k
ĊĊThen ,
ĠD ynam
Ġcamer a,
ĠGab riel
Ġsystem atic
g ate
Ġbook ed
ios ity
st ic
on âĢĻs
Ġn odes
Ġver bal
Ġj aw
Ġw ished
Ġkill ed,
al ph
Ġsuprem ac
ĠRepresent ative
ĠâĢľS he
Ġflow ers
Ġhabit at
ĠD erek
Ġteam mate
act er
Ġvast ly
Ġport ions
Ġenact ed
ĠH ERE
Ġcolle agu
Ġopportun ity.
Ġoffic ers.
ĠCry stal
c ar
Ġfr ames
Ġ$1 ,000
ĊĊ" My
Ġdelight ed
U p
ĠCourt .
n ormal
ip se
Ġlead .
Ġproceed ing
Ġdig ging
Ġdeput ies
ĠE rik
Ġdirect ing
Ġstat us,
Ġimpact ed
Ġju ven
Ġpot ato
Ġp ale
Ġprotest ing
ĠAl pha
ĠAn a
ĠTra vis
ĊĊW ork
Ġend angered
Ġcal culation
Ġdress ing
Ġnavig ation
Ġcomb ining
Ġpatient s.
Ġdiv ine
Ġtravel s
Ġsynt ax
om y
Ġcandid ate.
Ġconvers ation.
ĠG row
Ġvari ant
ay ed
ĠExpl ore
Ġp estic
Ġconsist ing
Ġr ou
ĠSwitzer land
ĠGirl s
ĠR oth
Ġâ Ĥ¬
Ġrail way
Ġu ranium
ĠG iant
ns ic
Ġ" no
" .
Ġunp opular
Ġschem es
Ġ(3 )
Ġr ings
Ġins ane
Ġpack s
arg ed
amp ed
Ġtrick s
ĊĊCh ris
Ġwe ars
ĠA ld
Ġb os
Ġlect ure
Ġfrag ile
Ġp ork
Ġ( of
Ġg re
Ġtreat ment,
Ġfore most
in is
Ġmos que
Ġvit amin
Ġcar ing
ĠW ere
Ġcrus hed
Ġvot es.
Ġas leep
Ġmanufact ure
Ġadminist rators
Ġwork ing.
Ġgest ure
Ġin adequ
at ility
Ġgirl ,
Ġw oke
ĊĊUp dated
Ġjail ed
Ġpress ure,
Ġspec ies.
Ġmass es
Ġimpact .
Ġ9 1
Ġequip ment,
ĠShan ghai
u ilt
Ġdied ,
Ġrein force
Ġunp redict
Ġpros pective
ro lling
Ġlos s,
ĠInc .,
Ġlow .
Ġcell s.
ĠSci ences
ĠThanks g
pp ling
ĠLear n
ĠS i
Ġbl ade
Ġref res
Ġfront ,
Ġcreat ivity
Ġmod e,
Ġtradition s
ĠS ny
Ġ15 %
Ġb ann
Ġimport s
ens ion,
ĠT C
ĠWe bsite
Ġenjoy s
ĠC ou
Ġfootball ,
Ġhe ter
Ġdisg u
ĠU. K.
Ġc ros
-d ep
ĠMot ors
ĠFal con
Ġwhole .
Ġthem ."
Ġsynt hes
Ġauster ity
ĠH usse
Ġder iv
â Ķ
Ġpriv at
l in,
id ering
Ġaverage .
Ġdam age,
am ation
ĠGT X
ĠC urt
Ġhead set
Ġassist ed
Ġ( h
ĠR af
Ġpost p
Ġspe lls
Ġconsist ed
ĠV i
ĠRoad ,
Ġload s
Ġsie ge
Ġlow ered
T od
Ġ7 9
Ġsufficient ly
ĠW ind
-c are
ĠDepart ment.
Ġdispl aced
Ġnic he
-p erson
- 9
ard less
Ġforth coming
Ġmetap hor
ĊĊR ober
Ġmission .
ĠMove ment
Ġne arest
Ġreview .
- W
Ġrece ivers
ĊĊ Z
Ġname ly
Ġmis er
Ġd uck
Ġse ize
Ġ" in
ĠD w
Ġev olving
Ġab rupt
Ġobtain ing
ĠC airo
Ġact .
Ġaccompan ying
ĊĊE l
Ġsh ook
Ġstate wide
Ġdig est
Ġoffense .
ĠPict ures
Ġquant ity
MAN :
Ġreal izing
Ġdisc ont
Ġim age,
Ġentertain ing
ĠMont gom
re ated
Ġto ggle
Ġdiscl os
ĠHend erson
ĠId ah
o âĢĻs
ĠJun ior
Ġsc roll
Ġassass ination
ĠApp lic
Ġatmosp heric
Ġrhyth m
ĠStr ong
Ġreci pes
ĠCommon wealth
ĠP un
Ġdocument s.
Ġcloud s
r one
Ġcharg es,
ect ed
Ġqu ad
Ġcoord inated
ir k
Ġjust ification
Ġstick s
99 /
Ġcomplex ,
Ġplant ed
ĠVeter ans
H ub
en z
abl es.
Ġbl unt
in ho
Ġremark ably
Ġconsist ency
ĊĊD oes
Ġ10 1
Ġinf ilt
Ġunbel iev
Ġappreci ation
Ġmus cles
ĠMo z
Ġ> >>
Ġflo at
Ġshoot ing,
if ier
Ġvehic les,
Ġterritory .
riend ly
ĠPhill ips
ĠPr ide
Ġshe lf
un ct
ĠN GO
oun cing
ĠÂ °
ĠS eth
Ġimm ers
Ġobst acles
ĠL akers
ĠR ivers
Ġintern ationally
c a
ĠK enn
Ġprice ,
l ings
ound ing
ĠNorm an
Ġmedic ation
Ġwre ck
Ġun named
t own
Ġhigh- quality
Ġe uros
Ġcomed ian
Ġcommun ist
Ġemb od
Ġinflu ences
Ġat omic
ĠH al
b ul
ĠMach ine
Ġbord er,
ĠSur vey
Ġvictim s.
ĠM O
ĠT ask
Ġwhatso ever
ĊĊAnd ,
i ably
Ġhuman s.
ĠDra g
ov a
Ġrecogn ised
Ġguarant ees
ĠK iev
in os
is cl
l ing,
us cript
ĠMun ich
Ġpot ent
Ġprison ,
ĠDise ase
Ġrank ings
ĠK ash
ĠYe llow
ĠCol lect
Ġpreced ent
ĠUkra ine,
Ġr ides
e am
ĠPresident ,
Ġbeginning ,
j an
ĠAmb assador
ĠM ade
ĠG ingrich
Ġpress ures
/ 3
Ġshr ink
Ġupload ed
Ġ8 3
ĠSur face
Ġfather .
ĠPot ter
Ġtheat ers
Ġansw er,
Ġdynam ics
ĠâĢľ and
Ġincl usive
ĠA &
b augh
-the -
ĠSum m
ĠE A
ĠBroad way
ĠTe xt
Ġalert s
Ġimag ination
ĠSp ain,
c ont
Ġfix es
ĠLad en
ple x
Ġc ivic
Ġtroub ling
Ġtouc hes
Ġwas ted
Ġsettle ments
Ġto ys
ab ad
Ġcle aring
Ġappeal ed
ĠUCL A
Ġl ing
Ġen velop
ak i
Ġword .
Ġmaterial ,
ap ters
ĠP ra
Ġvehicle .
ĠPro per
Ġball ots
sc reen
Ġnegoti ated
Ġmater n
Ġbroad ly
Ġdemonstr ating
Ġscale ,
ĠEmer gency
ant e
Ġdomin ance
o s,
Ġth rive
Ġens ures
Ġbe ats
Ġm apping
Ġ"S o
ĠPriv ate
Ġbehavi ors
ĠC ancer
id th
Ġcous in
Ġfig uring
f unction
ĠMcCarth y
Ġtrack .
Ġl ately
ĠM ean
Ġcircumst ances.
Ġbehavior al
Ġgovern ance
ĠTe levision
Ġlate .
Ġcontract or
Ġmonit ored
ĠPre vention
Ġadm itting
Ġun he
ĠNorweg ian
ident ified
Ġalleg es
Ġmurd ers
ĠEm ily
ert e
Ġstreet ,
Ġillust rate
ĠNY C
ĠCl in
ĊĊâĢľThere âĢĻs
Ġfl own
Ġfamily âĢĻs
Ġman 's
ra ged
Ġpus hes
Image :
ĠS W
Ġdeg re
Ġconfront ation
ĠM UST
Ġunder cover
ĠEngine ering
ï¿ ½
W ith
ĠA qu
ĠFerr ari
Ġs isters
Ġ60 %
ĠMerced es
Ġoper ation,
Ġl b
att le,
Ġpo or,
Ġwe aker
Ġeffort s,
ĠMem ph
ĊĊM e
old s
Ġinterf ere
Ġa qu
Ġperspective .
ĠP ew
ĠThey âĢĻve
Ġdoct rine
Ġplace ment
Ġcook ed
Ġr am
ĠRav ens
Ġ8 1
Ġsur plus
Ġreflect ing
Ġremote ly
Ġcamer a.
Ġoblig ations
ĠIS I
Ġal igned
A fter
Ġforum s
ĠS ource:
Ġuniverse .
ĠâĢľ For
ound ed
ĊĊWe âĢĻre
ĠâĢľ very
Ġshout ing
ĠEn forcement
Ġappl aud
Ġcapt uring
izz ard
iny l
Ġaggress ion
Ġanth rop
ran e
Ġwatch dog
Ġ$ 3.
Ġ9 th
ĠSqu ad
Ġneutral ity
Ġcrim es.
ect or
ĠM ons
Y our
Ġcol ored
Ġhit .
Ġa ug
Ġcell s,
Ġobs essed
Ġteam m
ur ring
ĠD ock
Ġdies el
ĠDav is,
ĠL ate
Ġgen ocide
Ġ1. 3
b y,
Ġpock ets
Ġinject ion
Ġmotorcy cle
Ġmer it
ĊĊHist ory
ĠBush ,
ĠSocial ist
Ġrel iability
ĠTex ans
Ġsubscrib ers
Ġre ct
Th ose
Ġgradu ates
- led
Ġover view
ĠM all
Ġthree ,
ĠB L
Ġd airy
Ġnot or
Ġt in
Ġdraft .
Ġsl im
Ġdebt ,
ĠB apt
ist a
Ġupgr aded
Ġrep et
Ġo ust
Ġhur ting
Ġbo y,
Ġver b
Ġch ant
ĠQueens land
Ġthree -year
Ġ$2 5
Ġmod e.
ĊĊCh rist
d rop
Ġoption al
op es
Ġ8 6
Ġsimultane ous
ĠG a
ĠW ang
ĊĊSub scribe
Ġslow ing
Ġotherwise .
ĠRodrig uez
ĊĊT ra
ĠâĢľ l
Ġplaus ible
- E
vers ion
ĠWest .
Ġfour -year
Ġin h
Ġblack ,
Ġen list
Ġlegal ization
Ġte lev
Ġunder water
Ġhighlight ing
Ġs ixt
ĠH appy
Ġal iens
Ġp ixel
Ġshould ers
Ġstructure .
Ġgreet ed
ĠAh med
Ġserver .
Ġamb ig
Ġun related
Ġintern et.
Ġreview ,
ra ctions
Ġst iff
Ġbat ting
Ġ2 -1
Ġp ars
ĠMon th
ĠW ITH
Ġtool s,
Ġgl obe
am ily
Ġ( he
Ġbot hered
Ġrece iv
offic ial
ĊĊR ight
Ġ13 0
ĠEll iott
Ġabuse ,
Ġrescu ed
ĠRand y
Ġcool .
ĠLib yan
Ġassign ment
Ġdecision -making
et ooth
Ġt ense
Ġmemory ,
as ma
ĠEm ir
Ġmore :
-s chool
Ġadvis ers
ĠD ri
ĠB rett
ĠN early
ĠAd rian
il es,
Ġfart her
Ġopt ical
Ġsci -fi
let t
umbl r
Ġpray ers
Ġauthor itarian
Ġdemocra cy,
Ġcom ing.
Ġfirst -round
ĠRob b
Ġpay roll
Ġfirm ,
Ġhuman s,
Ġcomput er.
st yle
Ġoption ,
ĠK ing,
Ġwall ,
Ġson .
ĠR at
Ġkind a
ĊĊB l
Ġc ared
ĠPS 4
Ġunder way
Ġthink ing.
Ġstructure ,
op ing
D R
Ġnot ification
Ġbreat he
Ġunh appy
Ġc ites
l ed,
Ġstart ed,
Ġpromot es
ĠPel os
com pass
ĠL ore
ĠTH IS
ĠE S
Ġunaccept able
Ġk g
it utes
Ġport able
Ġmother .
ĊĊSt ud
Ġincome ,
Ġweigh ing
ĠC ris
ĠAn alysis
ic an
Ġge omet
Ġfreedom .
ĠPr im
ell o
Ġshe ep
Ġst yl
ĠReds kins
ethe less,
Ġdu pl
Ġslow ed
Ġcon greg
ĠRe lease
Ġorig inated
Ġ( 20
ĠPak istan,
Ġout -of
Ġperform s
Ġche ek
Ġsal es,
- end
Ġwhistle bl
ĊĊP osted
V ID
Ġsens ible
t age
Ġfort une
ĠSpe cific
ĠP ink
Ġout line
ĠProdu ction
Ġpath .
Ġg ru
Ġoptim al
ĠCol ts
ab lo
ĊĊV iew
ĠIre land,
Ġo st
Ġz er
Ġp ants
g ical
Ġexem ption
ere r
Ġbuff er
or ig
Ġdr ift
Ġemerg ence
Ġhors es
ĠRoosevel t
Ġmess age,
ĠMc A
ĠBangl adesh
us k
ĠIm pro
Ġ( even
Ġpur ported
ĠW ing
Ġass ure
ĠInd igenous
Ġgen ome
Ġfail ure.
ag a
Ġext inction
Ġsect or,
ĠY ale
Ġfin ally,
ĠP ad
Ġ9 6
Ġst all
Ġaston ishing
Ġprior it
Ġcrit ique
Ġle agues
ĠNewcast le
Ġfirst -
ĠComm ander
Ġmin us
Ġpart -time
Ġtem p
Ġtrib e
he nd
l ie
ĠCo ff
Ġpl ates
el ong
ĠMOR E:
work ing
Ġstaff ers
Ġbl oc
Ġtrouble .
Ġrev is
ĠIn it
ĠThe resa
ĠPeople âĢĻs
Ġcheck point
o a
Ġtreat s
Ġbelong ed
1 8
Ġ ðŁ
ĠN uclear
ĠLl oyd
Ġshe âĢĻd
Ġto oth
Ġmac ro
Ġblank et
0 )
Ġreturn ,
Ġcance led
ĠJ a
Ġg i
Ġmet ro
Ġeffect s,
Ġfin als
ĊĊÂ ©
ĠP engu
Ġsoph omore
Ġvehic les.
ĠCard inal
ĠS old
Ġimpro per
ĠPortug ues
Ġshe ets
Ġmean s.
Ġcoach .
Ġexpress ions
Ġ( an
Ġincl ined
ĠUn less
ĠM C
Ġenfor ced
ĊĊ ***
ĠC ond
Ġsl aves
Ġste ering
Ġm ast
Ġtestim on
Ġconj unction
Ġn an
ĠMichig an,
ĠOper ations
Ġveget ables
U n
Ġst aged
ĠArab ic
Ġgroup 's
ĠK um
Ġindict ment
ĠOrig inal
Ġsp ik
ĠCh and
ĠR out
ĠS QL
Ġstreet s,
ĠSim ply
ĠW als
Ġexplo itation
Ġassert ion
Ġcons ci
o ves
ĠG round
ĠN RA
Ġpublic ity
Ġprem ature
Ġreb oot
Ġfunction ,
Ġcompr ised
ĠSc he
Ġrepe ating
ĠRe act
Ġmin ers
Ġw ounds
ĠRe ut
Ġmurd er,
ĠQu ick
ĠCD C
Ġfat ig
Ġrange ,
Ġdemand .
Ġgone ,
ĠE P
Ġrem inis
Ġpromot ions
ĠRe yn
-h alf
Ġpa ired
Ġposition s.
Ġagenc ies,
Ġab uses
Ġapart .
c ase
RE E
Ġagg rav
resp ons
Ġh oney
ĠWeek ly
Ġmost .
Ġcar b
Ġsuccess or
Ġbl u
Ġsun light
Ġdri ed
Ġterr ifying
ĠC rew
al one
Ġsim ulation
Ġclar ity
Ġprest igious
Ġforest s
in ery
ll ar
Ġexc er
if ully
ĠDe al
ĠV alent
ut t
ĠSe x
NN )
Ġman uscript
Ġmanage ment,
Ġexist ,
Ġst akes
Ġjustice ,
Ġapplic able
Ġbrew ing
ĠHud son
Ġbelieve ,
Ġselect ing
Ġ14 0
Ġc av
Ġj unk
ac erb
Ġv icious
Ġex acerb
Ġcoinc idence
Ġdr astically
it ated
ĠStep han
Ġwho le,
Ġcost ume
Ġdec isive
ĠLim ited
Ġ9 8
Ġclaim s,
Ġs add
Ġfin est
ĠCup .
ĠOb ject
Ġ0 ,
ĠR alph
ne x
ĠS E
ĠT ree
ĠG rey
ĠL LC
ĠH at
ĠNichol as
Ġmodel s,
Ġmake .
ig ade
Ġun av
Ġyesterday .
ĠIM F
Ġmolecul es
Ġwere .
Ġneg lig
ĠCast le
ourn ament
Ġhere ?
Ġen compass
Ġalong .
T :
ĠWord P
Ġtransf ers
Ġpopul ated
ĠG A
Ġconsum ing
ĠLeon ard
it ime
ĠWel sh
Ġnurs ing
Ġwoman âĢĻs
Ġ"That 's
ĊĊA lex
Ġblog s
ĠGo ing
Ġminute .
Ġwho lly
ia 's
Ġout reach
Ġware house
Ġshow âĢĻs
ĠT R
ĠR ud
Ġback pack
Ġnew com
Ġcolor ful
Ġprox im
Ġcraft ed
Ġcommit ments
Ġhair ,
Ġillust rated
ĠElect ronic
ell y
ĠC ant
Ġaudience ,
Ġtort ured
ĠObs erv
ocrat s
ĠM ine
Ġmodel s.
Ġcir cu
Ġund erest
ĠArn old
Ġoffic er.
Ġren owned
ĠâĢľA ll
Ġ" d
ĊĊR ich
ĠT PP
Ġunder grad
Ġ197 0s,
Ġworldwide .
Ġinher ited
Ġsuccessful ,
ĠHond a
Ġtest s,
Ġa in
ĊĊU se
Ġ{ \
y d
Ġattorne y,
Ġinaug ural
ot ive
Ã ¥
Ġfor k
ĠJ et
ĠR oc
Ġbl aming
ĠAr c
Ġco pper
Ġtop ,
Ġrob otic
Ġpre cip
ĠWinnipe g
i op
ĠPatri ot
Ġtrib es
Ġpeople .âĢĿ
Ġen rolled
m all
ĠTib et
Ġchurch ,
ĠE aster
Ġinsp iring
ĠG aming
ĠAct iv
u ments
Ġleft -wing
ĠTw in
ĠN ar
Ġbas eline
Ġthese ,
Ġcompe lled
Ġcompan ion
Ġin -dep
ĊĊâĢľ For
Ġpropri etary
a. ,
Ġhigh -speed
Ġexcept ions
es is
Ġst a
ĠD rop
Ġencoun ters
ĠK ill
ator .
Ġadv ise
Ġa kin
4 4
g s
Ġrecent ly.
. )
Ġinstru mental
ĠC art
Ġmission ,
und ed
pl ess
Ġt ennis
Ġoutside .
Ġ(i.e. ,
Ġcontinu ed,
ĠC ash
Ġexpl oded
Ġjack et
Ġro ast
Ġlog ged
ĠMill er,
ĊĊCont act
Ġ( by
-and -
ab y
ach ment
ĠWe ather
Ġcatastroph ic
Ġclear :
ĠPow ell
Ġyou .âĢĿ
Ġ" it
ĠF oster
Ġsp ying
Ġhigh- level
Ġo ath
Ġassum es
Ġb ounce
ĠSg t.
ĠSh akes
Ġtw itter
ĠBank ,
Ġliv est
Ġ0. 2
Ġtok ens
ĠNav al
Ġ" an
Ġpat ron
Ġexplo ited
ĠGl as
Ġfl ock
ĠL ic
ĠS F
af i
ĠPost ed
Ġcorner back
meric ans
Ġfuel ed
ĠCollege ,
Ġmerch and
ĠYou 'll
ĠA FL
ĠJ ed
Ġcon form
Ġprov oc
Ġspin ning
ĠMag n
Ġident ities
ĠL arge
ain ted
ĠDra ke
Ġtime ,âĢĿ
Ġill um
Ġrecord ings
Ġbul lets
Ġmention ing
Ġrese t
Ġinfrastructure ,
Ġpsychiat ric
Ġwrong do
ĠDub ai
Ġther mal
Ġvulner abilities
Ġjud ged
Ġmen 's
Ġdemonst rators
ab e
Ġdiss ent
Ġ200 1.
ĠB ren
ĠP ubl
ĠSud an
ĠK ush
ĠM aur
ĊĊOffic ials
Ġanyone .
Ġetc. )
ics :
Ġe ld
ĠLeaf s
Ġadvoc ating
Ġpress ure.
Ġpract iced
Ġ9 3
pe are
Ġmole cular
ĠAp oll
Ġconclud es
ĠVis ual
ĠSt uart
ĠSN P
Ġwat ches
ĊĊM ake
Ġ2000 .
ist ance
Ġdepart ment.
Ġu mb
Ġpre y
ĠHol mes
Ġbreed ing
Ġd warf
ĠIndust ry
Ġbi ased
ĠâĢľW hy
Ġey e.
Ġmanner .
Ġdiscover ing
ir med
Ġcamp us.
Ġafter ,
Ġbro k
Ġhe els
Ġbackground .
ĠIndian apolis
Ġadd ress,
Ġneur ons
pl an
Ġn ostal
Ġview s.
ch ,
Ġsovereignt y
- man
Ġcont ention
i )
ĠRe x
Ġsw orn
Ġcontext .
ĊĊ 8
Ġwar ns
ĠF ew
ĠR ing
Ġric hest
bod y.
ĠC raw
ri ber
ĠU g
Ġvideo s,
Ġthought ful
Ġneed ed,
Ġ8 th
ĊĊ 20
Ġupgr ades
w ed
ĠCre ate
Ġmaxim ize
ĠPer formance
Ġdisappoint ment
ĠPalest ine
ĠA x
l ined
Ġsecond s,
ĠCount y.
Ġpract ices.
Ġalread y.
Ġeveryone âĢĻs
ĠNS W
ivid ual
ĠK urt
or able
Ġbreak .
Ġconnect s
Ġme ."
Ġcandid ates.
Ġplant s,
l ies
Ġbeen ,
ĠL ang
ĠGu ant
Ġfe ather
Ġdign ity
Ġeat en
ĊĊN orth
Ġrisk ,
Ġsitu ations.
ĠNot re
Ġred irect
Ġblog .
Ġmurder .
em ail
Ġ9 2
Ġquarter .
Ġdisput es
ĊĊIs rael
Ġ18 5
Ġdifficult ,
Ġcon gest
ĠOffic ial
ĠBill s
Ġy es.
ĠShe 's
on n
Ġ( left
us hed
Ġc ater
Ġaest hetic
Ġ199 8,
rik es
Ġrecon cil
Ġdetail ing
Ġachieve ments
Ġfact ories
af ort
Ġsimpl er
Ġsepar at
ĠMov ie
Ġl en
ĠDemocrat s.
Ġcol or.
Ġstab bed
v ial
Ġ200 3.
Ġaccess ed
ĠM ong
Ġcollect ively
ĠSt ories
Ġscreens hot
ĠD olphins
Ġwatch .
ĊĊ"A nd
Ġir rit
Ġinher it
Ġcomp ounds
ĊĊ ...
ĠShakes peare
Ġra ids
Ġadop ting
res pect
Ġproceed ed
Ġ(th is
Ġra bb
ĠSc al
Ġarch ive
ĠTurn bull
Ġnovel ,
ret ty
Ġexplain s.
I :
Ġseen ,
Ġpleas ant
Ġstud ios
Ġbuilding s,
Ġattend ees
amp ire
Ġterrit orial
Ġ( H
Ġsu ms
Ġpost ers
Ġin-dep th
Ġterrit ories
ĠAg ent
ĠC T
Ġsid es.
ĠSpace X
Ġ1, 500
Ġcur s
Ġsp raw
Ġtest s.
Ġpotential .
It 's
Ġtask .
ĠSteel ers
Ġfather âĢĻs
ĠB ald
on est
Ġ( ex
Ġdict ators
w ald
re ts
Ġm ol
ugg ed
Ġ(F ig.
ĠN ine
Ġmet eor
ĠC hem
Ġencry pted
ra ined
Ġbroadc aster
ĠS ter
ĠPro cess
Ġconsult ation
Ġassoci ations
Ġdebut ed
iz ed.
ĠK al
Ġbar red
Ġnice ly
Ġjer sey
h ots
ad get
Ġscript s
ĠTun is
Ġdiscuss es
ĠCommission ,
Ġve ctor
Ġimag es,
Ġhead er
Ġhe m
Ġturn .
Ġjew el
Ġgen ius
Ġleadership ,
Ġhum ble
Ġnick name
ĠToront o,
ĠJosh ua
Ġpropos ing
âĶ Ģ
Ġrecogn izing
Ġglass es
ĠP ath
Ġrele g
ĠSt al
Ġreck less
Ġs way
ĠK enny
p ress
Ġoutside ,
ri es.
Ġgau ge
Ġprison er
ĠJ ama
le ased
Ġconstit utes
Ġg ren
Ġrece ipt
Ġreact ed
Ġf itted
ĠChurch ,
ĠSt ay
Ġfl ies
ĠBr is
ĠTh ron
Ġfil es.
Ġannoy ing
ĠT ouch
Ġbegan .
Ġp ass.
ĠSchm id
ĠâĢľ Every
ĠM I
Ġemphas ize
ĠFl int
Ġstudent ,
Ġat .
Ġunw anted
Ġepidem ic
ĠCont ent
Ġcor ps
Ġsuc ce
Ġconf ined
ĠEdmont on
ator ial
ĠSe b
Ġins ufficient
amm ar
Ġanx ious
Ġhij ack
ĠColorad o,
d am
C E
Ġnot es.
ĊĊU S
Ġadvant age.
ĊĊS ources
ĠâĢľ R
Ġhear ing,
ĠP HP
r ants
Ġsatell ites
Ġknown ,
ul ates
Ġintu itive
Ġmiddle -class
Ġrequest .
Ġstand point
ĊĊPhoto :
ĠSulliv an
ri age
ĠU ser
-in -law
Ġv est
Ġcompil er
Ġopio id
v or
ĊĊWith out
Ġg em
Ġgo es,
Ġrecruit ment
Ġit 'll
Ġuncom mon
Ġin eff
Ġare n
ge on
Ġball istic
Ġident ity,
ĠI de
Ġunlaw ful
ĠTill erson
ra ,
ĠH A
ĊĊLet 's
Ġgar lic
Ġ198 8
Ġheav en
Ġsess ion.
ĠS au
ĠNo ah
Ġexpl or
Ġun ified
ĠG raph
Ġzomb ie
ĠI l
Ġ198 4
Ġmas cul
Ġj ets
Ġpay load
ss ad
ĠBe aut
ĠBou lev
Ġdis abilities
Ġlit eral
asc ript
Ġflood ed
ĠCont act
Ġtelevision ,
Ġcandid ates,
Ġd ip
Ġinter val
Ġun se
ĊĊWhat 's
ĠX i
Ġeach .
Ġfin ed
ĠNash ville
ĠIndust rial
Ġcomprom ised
ĠL ope
ĠSimp son
ĊĊWe âĢĻll
Ġ( one
ĠâĢľI âĢĻve
ĠKash mir
Ġdisplay ing
Ġchang ed,
Ġr ats
ĠBur ke
Ġgod s
Ġgam bling
ĠB att
ĠDem ocracy
Ġofficial ,
sc he
Ġmember ,
Ġextensive ly
ĠMet al
Ġindividual s.
Ġflaw s
Ġrest .
ĊĊAM Y
4 00
ĠW es
Ġpark .
Ġar row
Ġgener ation.
Ġdat as
Ġexcer pt
Ġdiffere n
Ġh ints
Ġseiz ure
Ġsup reme
ĠLGBT Q
Ġu pt
Ġres ent
Ġbox ing
ĠNev ad
Ġbarg aining
ĠS em
ĊĊCon clusion
Ġsus cept
Ġcontain ers
ĊĊWe âĢĻve
kin s,
Ġp unk
Ġpublished ,
Ġp oo
Ġcomb ines
Ġ3 50
ĠY em
Ġcritic ize
Ġmar ched
ĠR aw
Ġoil .
Ġequip ment.
Ġsc am
Ġconcent rate
Ġdys function
ĠK end
ĠG ot
Ġaut ism
Ġabroad .
Ġstret ched
Ġprote ins
Ġcoc onut
ĠRe ally
Ġbase ment
Ġinterest ing,
Ġitem s,
ĠPr ison
-M obile
Ġanonym ity
ĠD elta
us iness
ĠHug hes
Ġ" we
M .
d ie
Ġwel coming
Ġobser ver
w a
ĠViet names
Ġacqu iring
ĠCar roll
ĠS add
mon th
Ġp el
ĠCourt esy
ĠWe ap
ĠPear l
Ġmil estone
qu es
ĠGib son
Ġcomp ile
Ġpublic ations
ĠSpe aking
ĠSe oul
ĠâĢľb ut
Ġconcent rations
v iol
Ġpurpos es,
Ġred es
Ġactiv ate
Ġresident s.
ĠUn ity
ic er
Ġappet ite
H OT
Ġqu arters
Ġunder going
ĠAs k
ĠFound ation.
und ing
ĠPat rol
ĠM ul
Ġflaw ed
ri ad
Ġsection .
Ġprofess ors
ĠGOOD MAN:
Ġsand wich
ĠT a
Ġsimilar ities
ĠGar cia
Ġde ar
Ġoff enders
ĠR u
Ġcustom s
ĠA bs
Ġboss es
ĠSt range
ela ide
Ġf ifteen
Ġcollege .
Ġdist ress
sec ute
ĠR BI
im ated
Ġb ats
ĠMor occ
ĠBab y
ĠFred er
ĠIntern et,
Ġun author
ĠSheriff 's
Ġacceler ate
Ġimpossible .
ĠW ings
Ġspr ing,
Ġsal ad
ĠI Q
Ġdiscret ion
Ġsubscrib ing
Ġ[ in
ĠF L
ĊĊM an
Ġfact .
ĠN FC
Ġcolumn s
Ġtraject ory
Ġfaith .
Ġ70 %
Ġfair ,
Ġconflict ,
ust ain
Ġbeginning .
Ġbe am
Ġreward ed
Ġadm ire
Ġcl ue
ĠReg ister
Ġg rief
Ġb our
Ġtable ts
Ġcomp lement
Ġcoverage ,
ĠSacrament o
Ġobes ity
ens es.
Ġmach ine,
Ġbutton .
Ġvirt ue
ĠGreg ory
Ġsp ont
B rien
Ġemail ed
ĠWork s
Ġspe ar
Ġcompar isons
ĊĊK eep
ĠGlas g
Ġtight ly
Ġreal -world
Ġfound ers
Ġ1. 1
Ġlo oph
Ġhit ,
Ġdetect ive
ĠN ad
Ġsay ing.
Ġ8 7
ĠFal cons
ĠBuddh ist
Ġdisord ers
ĊĊM ike
ĊĊ +
Ġvis ibility
Ġyield s
Ġcontest ed
ĠStart ing
Ġnecess ity
ap or
Ġinflu x
Ġintrodu ces
Ġcoun cill
Ġst int
ĠSh in
p ot
Ġstartup s
Ġ$3 00
Ġeru pted
Ġlow -c
ific ant
le m
Ġrequest ing
ĠHeb rew
Ġvehic le,
ĊĊ 7
Ġparam eter
ĠC ell
il og
Ġunderstand .
Ġmilitary .
ĠRep lay
ĠProgress ive
Ġimpl ied
ĠTri ple
Ġattract ing
Ġapplic ants
Ġcourt room
orig inal
Ġaccount s.
ĠP red
ĠAsh ley
Ġshot gun
ĠD ust
ĠUS C
ĠEd in
atter ing
ĠIsa ac
Ġreform .
r ise
ĠP oke
Ġoursel ves.
Ġreporter s.
ing ing
ĠShe p
ef ined
Ġcomput er,
Ġby .
Ġpart s.
Ġpatient s,
ĠCaribbe an
ĠEurope ans
Ġdeleg ation
Q u
intend ent
Ġamend ments
Ġh ilar
Ġpositive ly
Ġlad der
Ġlaz y
on gh
bo ards
Ġnewsletter s.
Ġper haps,
ĠG N
Ġhor r
Ġrest art
Ġlo ver
ĊĊApp le
I nt
le en
Ġdist raction
Ġ198 6
ĠJ agu
asp berry
ĠEl sa
Ġobject ives
Ġrock ets
ĠMoh amm
ĠSh ah
Ġweight .
ĠW ol
Ġfreedom ,
ian g
Ġsl ogan
Ġ( now
Ġout sp
ĠInt egr
Ġdepartment ,
ĠPartners hip
Ġb og
Ġgr im
ĠBr ight
ĠL E
ĊĊ"There 's
Ġ9 7
ic ity
Ġlower ing
Ġreg ain
Ġpar a
o ving
the ning
Ġtra ction
ĊĊ s
ĠL ion
Ġexceed ed
Ġ" very
Ġapplic ations,
co very
ĠH em
Ġnecessary ,
Ġar rog
Ġsuff ers
Ġcal ories
ra cle
Ġtal ents
Ġcasual ties
ĠR ift
Ġknock ing
ĠIndepend ence
Ġpopul ist
ĠCor p.
ic ians
nd ra
Ġchair s
ĠSpr int
Ġvibr ant
n ,
Ġindivid ually
ĠPolit ics
Ġadminist ered
ĊĊG ood
ĠUkra ine.
ut o
ĠAl ternative
Ġp iss
em ean
Ġwas hed
Ġter rain
Ġdefe ating
ern ess
Ġforeign ers
Ġu seless
ĠI G
id av
ĊĊB ased
Ġmap .
or us
Ġcont r
Ġpaper work
ĠNether land
Ġrel ates
Ġinstitution s,
ĠL L
Ġrecogn izes
Ġbi ology
ed e
Ġbackground ,
ĠT ories
ĠArch itect
ĠPro bably
ĠMan afort
Ġen rich
Ġdistingu ished
hold ers
Ġ2020 .
Ġfront .
ĠBost on,
ĊĊL ook
w ind
ĠAub urn
Ġperce ive
Ġactiv ated
ĊĊÂ ·
Ġsystem ic
Ġsister ,
ĠMon ster
ĠApp e
ĠV II
us ions
Ġtrans c
Ġf ifty
Ġliqu or
Ġaccept s
Ġtotal ,
Ġgas ,
Ġc ite
Ġshut ting
ĠUn fortunately
Ġteen ag
ĠPaul ,
Ġprovin ces
Ġtreas ure
ĠVirt ual
Ġan ten
Ġsh aping
ĊĊWh ite
ĠStar b
3 00
ĠP ierre
us hing
am o
ĠT ournament
Ġproxim ity
Ġtrack ,
Ġbenef ited
ĠAustralia 's
Ġterror ism.
Ġwe ed
m l
Ġpolic ing
ish ment
Ġwip ed
ĠFl ag
h im
Ġ199 6,
Ġo d
Ġbrand ed
Ġball oon
ru p
Ġbureauc ra
Ġpract ition
ĠDie g
iment al
ĠJack son,
Ġstruct ured
Ġpres s,
Ġunemploy ed
Ġhum ili
Ġ4 .5
9. 99
Ġco vert
Ġchurch .
Ġow ed
Ġinform al
Ġ" C
B e
Ġbrut ality
Ġproject ions
Y :
Ġcould ,
Ġitem s.
Ġblog ger
Ġown er,
ĠAl z
ĠP il
Ġ1. 4
Ġborrow ing
Ġcontinue .
ĠS pect
Ġapolog ized
ĠMalays ia
Ġinside ,
Ġreiter ated
Ġcent res
Ġmo ist
n ut
ĠJ up
- week
is es.
Ġcom ment,
Ġconced ed
Ġpos ing
ap able
Ġsc ra
Ġseason al
Ġbar ,
Ġconfirm ing
form ed
ĊĊ' I
Ġaff idav
le um
Ġb er
stan bul
ĊĊWill iam
Ġprompt ly
Ġf lick
r ame
Ġmisd emean
ĊĊRem ember
b urn
ĠHe avy
Ġdown ward
Ġcl iff
Ġstag gering
Ġknow ?
Ġfru its
ĠSum mit
Ġprof iles
Ġchar itable
O :
Ġone -third
ch ant
Ġident ifies
ĠLeB ron
ĠM atch
ĠEgypt ,
Ġtong ue
ĠPri x
ĠDyl an
Ġinterest s,
Ġden ounced
Ġus. âĢĿ
o ad
Ġfore cl
ĠB oo
L S
Ġw ary
ĊĊ" M
ĠT am
Ġcl ips
Ġem pir
Ġextrem ists
Ġacc use
ĠNov a
Ġins ul
ĊĊUpdate :
ĠHezb ollah
N e
ĠRepublican s.
Ġchoo ses
ĠR ange
Ġtournament .
Ġillust ration
Ġneed ,
Ġneed s,
Ġvol atile
Ġrow s
ĠRo lling
Ġprin ter
Ġregime .
Ġstory line
ĠWiz ards
ap an
Ġcome ,
Ġcritic izing
ur prising
Ġtrad es
ĠF ix
iber al
Ġu b
ĠL amb
are z
Ġtime :
Ġimag ery
Ġbeen .
Ġwrit er,
Ġtoler ate
Ġagree ing
ĠLeban on
ĠBlu etooth
Ġpack aging
Ġmet ad
Ġdraft ,
Ġact ,
Ġfar -right
Ġlike :
ĠMor rison
Ġme ?
ĠC ool
Ġanaly zing
Ġall ocated
ros pect
ĊĊS en.
Ġir ony
Ġsm arter
Ġwh oles
ĠStat istics
Ġ"A s
ĠImp act
Ġreact or
ĠPark s
ĠMar in
ĠGoogle +
Ġsl ides
est abl
Ġsupporter s,
99/ month
Ġcell phone
Ġsupporter s.
Ġone -year
Ġ200 ,000
3 ]
Ġcock tail
Ġcredential s
Ġgi ants
Ġfile ,
Ġspons ors
Ġl ingu
Ġrevers ed
Ġhorizont al
Ġ11 0
ĠI stanbul
Ġprob able
Ġtax ,
Ġrest oration
Ġdepos its
Ġgu idel
ĠSny der
work s
ĠCore y
ĠNic ol
Ġhous ing,
ĠLater ,
Ġgun s,
o z
m ap
ĠTrans it
Ġpercent )
Ġupd ating
ĠThe ater
U E
v oc
Ġcell ular
uild ing
ĠM oto
Ġst ones
ĊĊIn vest
ĊĊ( Image:
Ġrun ners
Ġdelic ate
Ġcr ush
ĠGonz ale
Ġunus ually
Ġshout ed
Ġ2 %
Ġeither ,
Ġmistake .
Ġfund ing.
Ġnam es.
b ly
OM E
ĠMartine z
L D
Ġb rib
ĠK ids
Ġ( no
amil iar
Ġpay .
Ġdark ness
ĊĊL aw
Ġ19 .
Ġprogress ion
Ġhar ness
Ġl ining
Ġbet ting
Ġper ipher
ĠPh D
-gen eration
u es,
ĠSc out
Ġse gments
Ġtime ly
Ġr ans
ĠâĢľ P
Ġv ag
ĠDod gers
m und
Ġwhe at
Ġrall ies
Ġjail .
ins ula
ĠS ale
Ġsl am
ian ces
ĠTr ad
Ġtourn aments
Ġnetwork s.
Ġc it
ĠG er
Ġrecomm ends
ĠAdd ed
Ġcommitt ees
Ġplan et,
um per
Ġunsuccess ful
Ġcatal og
Ġit ;
Ġleadership .
Ġhigher .
Ġsolution ,
Ġcooper ate
Ġturn over
Ġbig ot
Ġg alaxy
Ġbatt le,
Ġphysic ians
ĠVictor ian
Ġintern et,
Ñ Ĥ
uro pe
Ġinst itute
ĊĊT om
acher s
u es.
Ġpiece ,
Ġun it,
Ġm ud
Ġvictim s,
or ies,
ĠGand hi
ĠSch ult
ĠAlz heim
Ġye ast
Ġdra gon
Ġd orm
Ġfoot print
Ġtack ling
ost ic
Ġspend ing.
du ll
Ġcigare tte
io v
ĠH ernand
un ks
ĠM our
Ġ30 .
ĠApoll o
Ġp ave
Ġround ed
Ġ4 K
ĠWalk ing
Ġmic rosc
ĠFe llow
Ġha iled
Ġwond ers
Ġo h
AN D
Ġinvest ment.
Ġvoice .
Ġpredict ing
Ġtime ."
Ġfa ctions
Ġprot oty
ĠWood s
ip h
Ġr ider
Ġscar ce
Ġto uring
Ġbound ary
ĠR &
Ġback drop
Ġtelevision .
Ġro pe
Ġsanct uary
Ġst ub
ĊĊâĢľI âĢĻve
Ġrunning .
ĠChicag o.
-back ed
Ġdef er
ĠTim othy
Ġconcern .
ĊĊRELATED :
ens ion.
pp le
ĠNY PD
ĠGen eration
ĠF ighter
Ġgas oline
Ġsymp athetic
ĠCup ,
Ġcelebrit ies
Ġwrit es,
Ġb ilateral
ĠSc reen
Ġprolong ed
Ġintelligence ,
ĠP ract
ĠBrazil ,
Ã §
is es,
Ġdanger ous.
Ġper secution
Ġstar red
ĠHall ,
ĠN ap
Ġclose ,
Ġsurprise ,
ĠThis ,
Ġreform ,
Ġun it.
Ġol ive
ĊĊP ut
Ġquant ities
Ġengine ered
ĊĊD ep
Ġhous ed
ĠEdin burgh
and al
Ġ197 9
ĠCommittee .
Ġcurren cies
vert ising
g al
Ġmarijuan a.
ĠW a
Ġright ly
ĠB eth
Ġwould -be
ĠS ite
Ġauthor ,
ĠDut erte
ĠU pper
ĠHung ary
Ġ21 .
Ġcommod ity
ĠBapt ist
ise xual
Ġic ons
Ġbra in,
Ġthread s
Ġsampl ing
Ġalleg ing
ĊĊC o
Ġhom ophob
Ġst alk
Ġ( about
ĠL ot
-to -day
l us
ĠLear ning
Ġmemo ir
Ġstrength s
Ġfigure s,
Ġcost ing
Ġdef enses
Ġint oler
ĠIndia 's
Ġmor ally
Ġver ified
Ġto uted
Ġday -to-day
Ġdim ensions
Ġhot els
ĠDO J
Ġimmin ent
Ġdiabet es
ĠH im
ĠâĢľHe âĢĻs
a is
Ġc os
ĠCro at
Ġamaz ing.
Ġaccident .
ĠAd elaide
Ġseek ers
Ġbar .
ĊĊT y
ĠSU V
ĠPhill ip
Ġinfrastructure .
Ġconvers ation,
Ġlog ging
D C
ys on
ĠVietnames e
Ġinjured .
Ġas ,
Ġgun .
Ġgrav it
Ġown ing
Ġinjur ies,
Ġtransm itted
ĠEth iop
Ġy ell
Ġinter ception
Ġquarterback s
ĠA pr
Ġre- ent
ĠD I
Ġsess ion,
um s
Ġreminis cent
Ġprog ress,
ĠF u
Ġdistrict ,
m aking
ĠBook s
ĠYou âĢĻve
et ter
ĠD ownt
ĠM aj
Ġpres cribed
ĠWhats App
ĊĊâĢľA nd
ĠVenezuel a
ĠBrend an
Ġbur gl
Ġgr ams
Ġjuris dict
Ä ĥ
ER :
Ġacknowled ges
ĠB omb
p in
ĠTer min
dis play
ai res
Ġbol ster
Ġcredit :
Ġshow er
Ġredu ctions
or i
Ġ$1 2
Ġcounterpart s
Ġje opard
Ġpack age.
cient ists
Ġrig id
ĠHop efully
het ical
Ġb ed.
Ġoff s
ĠW or
ĠW E
Ġtransl ates
Ġtest ify
Ġtold ,
ant o
ĠR ugby
ott om
-t ech
Ġprivile ged
Ġb ent
Ġweight ,
ĊĊAl ong
Ġ( we
Ġrobber y
Ġviol ates
ĠOw en
Ġzone ,
ĠSand ers,
Ġpref erences
Ġreally .
l ation
Ġleave ,
Ġcar n
ĠMont ana
Ġsequ ences
Ġ5 :
Ġsem i
Ġmerchand ise
Ġshall ow
âĸ Ī
Ġahead ,
Ġremoved .
" ,
Ġ" How
Ġpolitician s,
Ġcommunic ating
Ġherself .
pe ople
Ġinv iting
Ġy oga
Ġdiplom ats
Ġn ortheast
Ġsub p
Ġsh oe
Ġstem s
Ġsound .
ĠSer b
Ġtow ers
ĠD ana
Ġoccup y
Ġfund s.
Ġch im
Ġoutl aw
ĠJud iciary
ĠTay l
co in,
Ġat roc
ĠBeach ,
H :
Ġcycle .
Ġm aj
Ġdump ed
Ġpartic le
Ġ" F
ĠNote :
Ġmanip ulation
Ġprotect ion.
Ġ16 0
Ġsatisf ying
Ġpredict able
ĠOffice ,
ĠCharlott es
Ġsecretary ,
Ġgoing ,
ĠAs ia.
Ġwar mer
Ġche ating
or um
Ġst air
Ġincons istent
ĠInvest ment
-y ard
ĠGit Hub
ĠM asters
Ġcontract ed
Ġv ic
an ut
lud ed
ĠO mar
Ġ1. 6
Ġpour ing
Ġ199 7,
Ġkn e
ef e
ĠS ask
ĊĊ"S o
Ġfiref ighters
ĠSanche z
as ure
ĠCase y
Ġaltogether .
Ġapp le
Ġassert ed
Ġconf isc
Ġhard core
Ġout field
Ġmagaz ines
ĠLee ,
Ġwrit es.
Ġbudget s
ĠThe ory
enn a
Ġcost ,
j i
the less
h ard
ĠF ifth
cu ff
am an
ĠF ace
OR K
ĠFR OM
Ġsport .
ĠX L
Ġwh ale
ĠS ou
Ġ0. 3
Ġpat ches
-s p
Ġcas ino
Ġ" is
Ġz oom
g es,
---------------- ----------------
Ġmy riad
Ġfather s
Ġremember ,
Ġup s
Ġcontribut ors
Ġprohib ition
Ġadjust ments
Ġend ured
Ġreferen ced
Ġlegitim acy
op ic
Ġmeas ure,
ĊĊF l
Ġin k
Ġ} );
isc rim
ĠMil an
Ġcyc les
Ġdoubt ,
l ance
ĠF ig.
Ġsurf aced
O ST
Ġcollection s
Ġunf amiliar
ĊĊRes earchers
ĠF ixed
Ġadvoc ated
OS E
H A
ott o
qu er
ĠIC E
ĠB ec
Ġnar rat
ĠT aking
Ġj azz
Ġco- author
ĠPoint s
ĠR ust
Ġplaint iffs
Ġignor ance
Ġlim b
Ġcycl ists
Ġsh ade
Ġconstra ints
Ġe ternal
ĊĊS outh
Ġexplain ed,
Ġhealth -care
Ġter rific
Ġpat ents
om i
Ġmanage ment.
Ġsexual ity
ĠBoy s
Ġfound ations
Ġembra cing
Ġplant s.
ĠW rest
ĠSw an
Ġpro stitution
ell er
ĠPortugues e
udd en
Ġdes criptions
ĠR idge
ĊĊSh ort
Ġrecip ients
Ġplan n
Ġcaut ious
ĠAppe als
ĠWestmin ster
Ġevalu ated
Ġsent encing
Ġway :
Ġfore nsic
ast ian
ĠD ia
eter min
Ġborrow ed
ĠT -Mobile
Ġapp s,
Ġe. g.
ĠAlf red
Ġno ble
Ġmost ,
Ġgun man
g er.
Ġnetwork s,
Ġhim .âĢĿ
ĠO C
Ġconcern s,
ĠEvent ually,
Ġdark er
ĠTennes se
ariju ana
ĠC ab
Ġcl ues
Ġcomb o
Ġsl og
Ġappreci ated
- 7
ĊĊ a
ĠArizon a,
Ġpar as
Ġfollow .
ĊĊâĢľThe se
Ġank le
Ġbom ber
Ġra ck
Ġthem ,"
Ġclub âĢĻs
Ġanticip ate
-f oot
Ġill usion
ĠSky pe
ĠStri ke
Ġ ^
ĠH ook
Ġrail road
Ġsymp athy
ĠHop kins
ĊĊS et
Ġcapt ures
and em
Ġmarijuan a,
Ġimmun ity
ir ation
Ġaddition s
ĠAnge les.
Ġex ert
Ġfact o
ĠâĢľ People
Ġend uring
ĠH od
Ġel ites
Ġg reed
ĠComp et
com p
Ġacc ess.
Ġeas ier.
Ġm ate
ĊĊ1 )
Ġg ently
op t
Ġhack er
ortun e
ĠPh .
Ġche ss
Ġd ent
Ġmonit ors
Ġind ul
ĠAustral ians
ĠC amb
Ġthree .
Ġsquee ze
Ġfe ud
1 6
ĠK am
Ġoverwhel med
Ġblast ed
ĠArab ia,
Ġbal ancing
Ġgri ev
Ġterrib ly
il iation
Ġc otton
Ġsn ake
ĠH ass
Ġtest ing,
ĊĊW ant
ĠEag le
Ġr anges
ic he
Ġwork ?
Ġcoord inate
Ġr ivers
- H
Ġc ables
ĠV ince
Ġpit ches
ĠWin ston
Ġfe ver
ĊĊN one
Ġcash .
ĠPennsylvan ia,
Ġrep ay
ent ions
Ġcalcul ations
Ġqu o
Ġresident s,
Ġlean ing
ĠA verage
Ġcool ,
st ock
Ġoften .
Ġacknowled ging
w atch
uff y
Ġprev alent
Ġcorner .
Ġtext ,
ult ure
Ġre im
Ġfil es,
Ġvar ies
Ġso ap
Ġmind ful
Ġrese mble
Ġapart ments
il ight
Ġimpro ves
ling ton
Ġcomp ares
hed ral
Ġfear ,
Ġcul p
Ġfl ank
Ġ40 ,000
rape ut
Ġt ales
set t
Ġnot ed.
Ġam ended
Ġapplic ation,
ĠO t
F S
ĠPresident -elect
Ġtra ces
Ġtraffic .
Ġso y
Ġ198 7
g m
ĠAgree ment
Ġrebuild ing
Ġ: )
Ġt apped
Ġrelationship ,
Ġaccess ing
Ġnutr ition
- r
child ren
Ġread ing,
Ġex otic
app er
ro y
Ġ" T
Ġ8 9
Ġ Ï
off s
Ġj ar
Ġsubject .
Ġtoss ed
Ġsuccessful .
ily ,
Ġabund ance
Ġdollar s,
Ġso d
Ġdem ise
Ġrev ision
Ġobs ession
am pton
Ġw itch
B erry
uc le
Ġvac ant
Ġ( 9
if le
Ġle aking
Ġimag ing
Ġexplan ations
ĊĊâĢ ¦
Ġfurn iture
Ġfaith ,
Ġtheory .
ĠB rent
8 00
ĠAlepp o
Ġs i
-p ro
Ġ( In
ĠF lo
ĠMill enn
ĊĊIn c
Ġbo ots
ĠA G
Ġv ivid
Ġbl ond
s is
Ġst ellar
ĠM es
Ġsharehold ers
ĠJ ill
j s
Ġbull ying
Ġpermission .
Ġd ice
ĠK ane
Ġfert il
ĠEver ton
ount y
ĠAb dull
Ġcondition ,
bod y,
Ġill icit
ĠM ull
Ġdeal ers
asc ular
Ġm ak
ac ies
ĠW A
Ġillust rates
ĠJ e
Ġexclud e
Ġsp ar
Ġcr ashes
er y.
Ġvacc ines
Ġla wn
ĊĊF ixed
ĠâĪ Ĵ
Ġmap ,
ĠJ eb
Ġoff ence
inent al
ĠP aper
light s
D E
ĠF an
- 20
ĠF ac
-1 6
ĠMan uel
Ġf ost
Ġknown .
Ġpeople ,âĢĿ
/ 201
Ġsubst ances
Ġfl uct
Ġhair .
Ġprev al
Ġcoord ination
Ġs per
ĠR ule
Ġself ish
Ġproud ly
Ġpro secute
ĠH alo
ĠB ent
Ġv intage
ĠSh ane
ec d
Ġchallenge ,
Ġmed itation
ĊĊN o,
ator s.
Ġstrength ,
Ġerror .
Ġminute ,
Ġresist ant
ĠU FO
Ġan ecd
ant om
Ġtra ced
ĠCharg ers
Ġret ro
Ġwr ist
ĠSpider -Man
Ġr anged
ĊĊS and
ĊĊ2 )
Ġth wart
st ring
ĠIns urance
Ġadvis or
Ġspend ing,
Ġdisapp ro
Ġub iqu
Ġpret ending
Ġ197 0
Ġserious ly,
in ates
Ġbarg ain
Ġgener ation,
e velop
Ġstep .
Ġ9 00
Ġw o
m el
Ġrad ically
Ġrespective ly,
iction ary
ĠPortug al
Ġ(S ee
Ġtax .
Ġspr int
Ġ( most
Ġpo pped
id a
ĠGeorg ia,
Ġpovert y,
ĠY es.
Ġwhere ,
ĊĊâĢľThat âĢĻs
Ġpres erving
Ġmilit ia
Ġdisaster .
hing s
ob ody
Ġble eding
p arent
ĠIndones ia
Ġan nex
ĠMurd och
ĠHou ston,
Ġlun ar
ĠWordP ress
l ar
ĠDar ren
C :
Ġav iation
g one
Ġveloc ity
Ġ25 .
Ġspons orship
ĠEm ma
Ġaccident s
Ġmicro phone
or ies.
ĠSal v
Ġcod ing
Ġtri vial
Ġun a
ĠJul ie
Ġpl um
Ġ"O ur
ĠProp het
Ġdis respect
Ġdetail .
Ġh over
Ġcontam inated
ĠH S
ĠD ow
Ġ$ 50,000
Ġsubp oen
Ġall ied
Ġthere after
ĠCult ure
Ġleast .
Ġpast or
Ġpres s.
Ġre per
Ġrig orous
ĊĊEn large
ĠSadd am
Ġwife .
ul ation,
Ġhealth y,
Ġme ,"
Ġsustain ability
d .
ur u
Ġcertain ty
ĊĊ" For
-c ons
Ġemploy s
Ġreb ounds
ĠAust rian
ĠA ur
ĊĊTop ics:
Ġemb ry
ĠSe attle,
Ġdeter mines
Ġchalleng es.
ĠMap le
ĠLe x
ĠB ody
Ġundert aken
Ġimper ative
Ġimp ly
ĠInn ov
iat ric
Ġtrad ers
imens ional
ĠBritain 's
ĠTH AT
Ġmonop oly
che ck
ĠâĢľ that
ĠCent ers
Ġpers pect
Ġ( right
Ġhapp y,
ĠC atherine
Ġins urers
Ġw ipe
Ġquick er
Ġcontribut es
Ġcont ender
ĊĊB en
Ġpo le
ĠRichard son
Ġexist ence.
oll y
Ġbe er.
Ġobser ving
ĠB ach
ĠLet ter
Ġradio active
ĠPers ian
ĠSat urn
Ġfeed s
Ġvoice ,
Ġweek day
n ote
ĠB ever
ĊĊP at
Ġoverall ,
or g
ĠB ed
Ġ95 %
Ġmov ies.
ĠAustralia âĢĻs
Ġconcern ed,
ĠSt ream
ĠAndre a
Ġmaterial s,
ĠC ensus
Ġback wards
Ġpark ,
es pecially
Ġb ore
ĠEm peror
Ġapp arat
nt h
Ġdark ,
Ġunit s,
Ġcirc ular
Ġmagaz ine,
are ndra
Ġ2 -0
Ġsong .
ĠV illa
Ġplayoff s.
Ġpr isons
sec ond
Ġart illery
ĊĊD et
Ġequ ation
ĠA IDS
Ġlibert ies
ĠT ru
U C
Ġspir its
Ġadvent ures
ĊĊInt erest
Ġhost ility
Ġvolunt arily
ĠHer oes
ĠTit ans
Ġpropos al,
Y eah,
Ġtwist ed
arg est
ĠâĢľthe re
ĠE cu
ĠS lo
Ġsomeone âĢĻs
Ġphys i
Ġstret ches
Ġjuven ile
ĠNok ia
Ġst agn
Ġd os
ĠNot es
l ing.
b ab
ĠSchool s
be cca
Ġrather ,
ĠSch ne
Ġphoto s,
Ġstretch ing
Ġunderw ent
Ġcollabor ative
Ġincomp et
uck ed
writ ing
ĠCur ry
Ġcrack ed
ĠJerse y,
Ġec ological
em bers
ĠCraw ford
Ġpl un
Ġyard s,
ĠR ules
Ġmanag er.
Ġtake over
ĠEvery body
Ġ1950 s
Ġal-A ssad
ĠâĨ Ĵ
Ġhomosexual ity
ĠAmaz on.
Ġint ric
Ġd anc
Ġdiscipl inary
Ġgirl .
ell a
ĠMontgom ery
m oil
Ġargu ment,
ĠN arendra
Ġbe er,
Ġs atur
Ġ6 ,000
med ia
ĠC it
Ġadminist rator
Ġelim ination
Ġalread y,
-h op
Ġl ur
Ġband ,
ĠChamp ion
ĠCh ap
U I
ĠZ en
Ġpict ure,
og yn
ĠV ari
Ġsleep .
ĊĊI ts
ĠSh op
ĊĊG e
ĠW i
ĠWashington âĢĻs
ĠWil son,
ĠS ett
ok o
ĠLind a
Ġarrest .
Ġordin ance
Ġsurprise .
if iable
Ġinst ability
ĠAll ah
Ġup held
ĠAgricult ure
ĠGra ce
Ġdrive .
ĠMar ie
ĊĊRober t
Ġmet er
Ġgall ons
Ġt ilt
Ġtw ent
Ġrel iance
Ġumb rell
Ġsk in.
ĊĊS cott
ĊĊRep .
Ġfalse ly
ĊĊAdd itionally,
Ġanyone ,
Ġte asp
Ġexperienc es.
ĠObserv atory
ache s.
Ġmulti pl
Ġdecision s,
Ġcooper ative
Ġimprison ed
Ġacadem ics
Ġmathem atic
ĠScient ists
Ġshut tle
Ġfore front
ĠE arl
Ġbull y
Ġnotice able
ĠJo in
Ġask ,
Ġstreng thening
Ġ verse
Ġe -c
Ġp ard
Ġstorm s
Ġret al
ĠEurope âĢĻs
ĠB ay,
Ġhistor ians
r ising
Ġmaneu ver
Ġsec urities
Ġlic ence
ob i
om as
Ġcosm ic
Ġmult i-
Ġun equ
ĠSouth west
ĠAl ways
ĠV ersion
ĠCo in
Ġhun ter
Ġl amp
Ġ20 30
Ġwork ed.
erv ice
Ġargu ment.
Ġch ol
ict ured
ĠWeb b
ĠCle arly
Ġtur moil
Ġsound ,
Ġgrant ing
ĠJ aze
it ous
Ġge ek
cl ub
ens ed
ĊĊM in
Ġhear ing.
Ġal-Q aeda
Ġread :
Ġearly ,
Ġpreval ence
Ġsl ump
Ġhand cuff
Ġbeing ,
ĠJo an
Ġknowledge .
Ġb isexual
Ġheight ened
ĊĊG ame
ĠB A
ilit ary
ĠJul ia
ĠS oul
Ġseat .
Ġunit s.
Ġoffense ,
Ġgoal keeper
Ġpoo rest
Ġadd s.
ĠEl ite
inc et
Ġrelent less
ur ally
Ġoutsp oken
ĠH off
Ġhappen ing,
Ġvers atile
ĠBr istol
ĠSur ve
Ġcand y
Ġhe ck
ĊĊAny one
Ġthr one
Ġt urt
ĠSh oot
ĠEU .
iv a
Ġpass ed,
ĊĊ1 1.
ĠOr d
Ġlau nder
Ġjud ging
Ġconsum ers.
ĠF ocus
on ia
Ġch apters
ĠF lick
ĠUs ers
ew ay
Ġ200 2.
Ġlif elong
Ġfact ors,
Ġbegan ,
ĊĊM OR
Ġsurger y.
Ġoutrage ous
w ith
ĠAnn ual
Ġm g
ĠE ug
Ġtool s.
Ġex terior
Ġthreat ,
Ġdis hes
Ġpod ium
Ġwould ,
Ġview er
L et
Ġalarm ing
Ġlong -time
Ġnight âĢĻs
ĠK az
Ġnonethe less
Ġsimple :
ĠâĢľ To
Ġme g
re f
ah l
ĠK i
Ġdi etary
il itation
Ġ$4 0
Ġdil ig
Ġrost er.
ĠHusse in
Ġbon uses
ĠR ut
Ġinfect ions
Ġassoci ates
Ġwould âĢĻve
ĠEx cept
Ġ199 5,
Ġ(AP )
Ġflav ors
Ġactiv ation
Ġheard .
Ġsing ular
Ġstart -up
Ġl ion
Ġco h
Ġlad ies
Ġexp ired
mun ications
ĠIS IL
ĠInd y
ĠL ogan
Ġl i
Ġ* /
Ġind oor
Ġspot ,
6 4
Ġthere ?
Ġexc av
Ġpresid ency.
ĠNaz is
Ġhint ed
oll ar
ĠD ale
Ġassault ,
Ġbl essed
ĠK os
Ġlate ,
Ġenter pr
Ġcharge ,
**** ****
Ġclass es,
Ġparticip ant
ĠPoke mon
an ia
Ġeleph ant
Ġhip -hop
Ġagenc ies.
Ġspecific ally,
Ġoffer ings
ĠO val
Ġdest ined
Ġwithd rew
ĊĊJ oin
Ġb ang
Ġro de
ĠâĢľThe se
Ġlast .
Ġa rose
ĠL P
ĠT ar
roll er
-b l
âĢ¦ âĢ¦
Ġneighborhood .
P al
Ġbe ?
-h igh
Ġview point
Ġvis ually
Ġtrip .
IM E
Ġde cept
Ġ198 5
Ġuniqu ely
Ġplag ued
ĠVal ve
Ġun cover
ĠF uk
Ġfail ed.
Ġtest ing.
Ġre ef
b y.
Ġnothing ,
Ġblood .
ĊĊNot es
Ġcategory .
Ġreserved .
ast ing
Ġnurs es
Ġst ap
Ġch rom
Ġsyn c
ĠAust in,
Ġregulation s.
ĠBas ic
Ġassault .
Ġren amed
Ġstuff ed
Ġprogram mer
Ġschedu le.
Ġmis ogyn
ĠEarth 's
Ġself-d riving
Ġarrived ,
ay a
re ate
Ġalbum .
Ġl ess,
Ġprohib its
ĠNig eria
Ġagent ,
Ġaut umn
Ġc em
Ġorganization s.
Ġ10 80
Ġnarrow ly
p ical
ĠD oc
Ġ( especially
Ġnow .âĢĿ
ĠAssoci ation.
Ġcreated .
Ġstar s,
Ġobs ess
ĠAbd ul
Ġcrim es,
Ġreal -life
Ġfund ing,
Ġwithd rawn
Ġuncons cious
Ġb end
ĠJ ays
Ġcold ,
Ġcr ashing
Ġer ad
Ġlong- standing
Ġpremium s
Ġd unge
Ġwho pping
ĠRh ode
Ġtro phy
Ġdet r
Ġinstitution s.
Ġtalent .
Ġext rad
ĊĊ //
Ġmat rix
ĠEnglish .
Ġcease fire
display style
Ġcompet it
Ġdetain ees
Ġresearch ing
ol ics
ĊĊD onald
Ġmitig ate
U D
ĠCompan y,
W ASHINGTON
Ġintern ally
ĠEU ,
Ġtalk ,
Ġcraz y.
Ġl aughter
Ġbr on
ĠVal ley,
ĊĊO h
Ġwrites :
ĠKn ights
iz ard
ĠLink edIn
Ġt ally
ĠGil bert
Ġdeb ated
Ġstack ed
Ġclass ification
Ġgirl s,
Ġevalu ating
Ġauthorities ,
Ġque en
Ġ9 4
Ġcompat ibility
Ġefficient ly
Ġbroadcast ing
Ġat ,
Ġapp s.
ĠBre aking
Ġsu ing
Ġpart s,
Ġrequirement s.
Ġgu ides
vent ions
-s ource
Ġfool ish
ĠComp lete
Ġmarg ins
Ġher b
Ġjump s
ĠMid west
Ġcompens ate
Ġelig ibility
ĠFl oyd
Ġad ul
om o
Ġcl oth
Ġsection ,
Ġtang ible
ĠAvenue ,
Ġcho ices.
Ġinterven e
Ġman ga
Ġdiplom at
rap y
ĊĊO h,
Ġste alth
ĠCh a
ĠConserv ation
Ġretrie ve
Ġv inyl
Ġcomment ators
Ġconvict ions
Ġstrateg ist
Ġchild âĢĻs
Ġold er,
ĠGM O
Ġresemb les
ĠCole man
Ġpun ched
Ġtime ,"
Ġded ication
Ġg ates
ĠAntar ctic
Ġcho pped
Ġscient ists,
Ã ¤
Ġweigh s
Ġ( more
Ġassault s
\x 7
th ouse
Ġclos ed.
im edia
Ġexpensive ,
Ġphotograp hed
Ġ199 4,
Ġrespect ively
Ġgun ,
Ġd yn
Ġz oo
Ġsc ales
ĠKore aâĢĻs
ĠProf essional
Ġ"N o
Ġstore s,
ĊĊAg ain,
ĊĊC rit
-p resident
t y,
Ġcatast rop
Ġdem ograph
ro e
ĠWomen 's
Ġabsor bed
Ġ{\ displaystyle
ul ator
ĠS id
ĠExper ience
ĠGu ild
ĠBlock ed
Ġlog s
ĠBlack Berry
ĠThanksg iving
Ġdesp air
Ġconnect ivity
Ġcontent ious
Ġwindow ,
Ġque ue
Ġbank s.
ĠMatthew s
Ġtarget s.
ĊĊSecond ,
ĠA K
ĊĊT ime
a que
ĊĊWith in
Ġwrit ing.
Ġpeace .
ĠPr incet
ĠLeban ese
at isf
Ġl ament
Ġdistrict .
Ġke y.
Ġnorm s
Ġconver ting
ĊĊJ ack
Ġcle arer
Ġb ed,
Ġambul ance
Ġrepl icate
Ġrec urring
Ġimag es.
ĊĊâĢľS o
ang o
Ġcy l
Ġrespond s
Ġinterrupt ed
ĊĊB es
Ġpract ices,
I O
T H
Ġh ind
Ġyour s
Ġ12 5
Ġthere .âĢĿ
ĠN ort
Ġfather 's
ĠSt age
Ġexp ire
Ġg adget
Ġgovernment s,
Ġtast es
Ġvictory ,
cl ock
Ġw olf
Ġpit chers
Ġun m
ĠDet ails
Ġbe es
ĠIslam .
ĠâĢĺ the
Ġinspect or
-m inded
Ġsou p
ĠM ets
Ġven ues
ĠMar l
Ġget .
Ġlost ,
Ġlit igation
ĠB ark
IV E
Ġwith :
Ġeleg ant
Ġpsych ologist
Ġrelax ed
ĠBritain .
Ġrec ons
ĊĊW ashington
ĠK id
Ġsymp ath
im eter
Ġen zy
Ġexp on
Ġrele v
l ook
x id
Ġtime ?
Ġconf erences
Ġpoll ,
Ġnever theless
ĠF S
ĠJapan âĢĻs
Ġnorth west
Ġreplied ,
Ġsh ine
ĠC opy
il es.
Ġgorge ous
Ġd ile
ĠKn icks
Ġmor ph
Ġwas hing
Ġbrid ges
- known
Ġfr amed
ff e
Ġuniverse ,
Ġn ucle
Ġen light
Ġg ly
ask et
ĠEmb assy
Ġmel ting
Ġfreel ance
ĠMinor ity
com mer
Ġgrab bing
EA L
ĠWH O
ĠSask at
ĠN eg
Ġstun ned
ĠEll is
Ġgar nered
Ġhur ts
ĊĊR ussia
Ġlobby ists
Re illy
Ġ(19 8
ĠAn onymous
Ġvend or
Ġclin ics
Ġspr ing.
ĠP in
Ġshape .
Ġst oring
w ick
Ġrunning ,
un al
Ġdinos aur
Ġopt -out
- O
Ġmetab ol
Ġsubur bs
Ġto urs
Ġdetect ives
ĠKurd s
Ġopp ression
Ġforward s
ĠM ath
Ġtre es,
Ġacceler ated
Ġnum er
Ġmeth ane
Ġthank ed
Ġelsewhere ,
Ġsor ry,
Ġwholes ale
Ġperson 's
Ġfemin ism
Ġwith hold
Ġd iving
ĠR B
Ġrefres hing
Ġ22 .
Ġmet a
/ 10
ĠAd obe
Ġsm iling
Ġwork ing,
ĠM ater
ĠKenn eth
Ġt ender
ĊĊJ UST
ĠW orth
Ġp ul
ĠA ,
Ġcon ceived
Ġus, âĢĿ
Ġsince ,
ĠFa ith
Ġmet rics
Ġp iano
Ġincon ven
Ġopen er
Ġcol ony
em ade
Ġlivest ock
ĠNebrask a
ĠCath olics
st ep
ĠMicrosoft 's
Ġatmosphere .
ĠBar nes
Ġown ers,
Ġrans om
Ġdrive ,
ĠS B
ĠBuzz F
ĠMuslim s,
ĠDis covery
Ġton nes
ĠForb es
ĠBl izzard
Ġinjust ice
Ġrise .
Ġregulation s,
ĠIr ving
Ġfund s,
ah n
ĠId ent
Ġexem pl
ĠYOU R
on al
Ġbu cket
Ġcommittee .
Ġh ipp
ke ys
op e.
ĠT iger
Ġweapon .
Ġheav ier
Ġcomplet e.
ĠMinne apolis
ĠOK ,
ĠFin als
Ġreal ities
B ook
ĠGe off
Ġcha otic
ĠCustom s
Ġlot tery
Ġsc aling
ĠElect oral
ĠUp dated
ĠS ame
ific ation.
ĠA A
Ġ25 th
Ġheadqu arter
Ġcall s,
ĠR O
ĠFin land
Ġa.m. ,
ĠF ear
Ġstrong .
Ġrefere e
Ġaccum ulated
Ġmult ip
ĠG oth
Ġgun s.
Ġeasily .
Ġposition s,
Ġfamily 's
ĠR uth
Ġstatist ically
ĠD at
Ġnewspaper ,
ĠIns pect
ĠKent uck
ĠEarth âĢĻs
Ġbas ics
ĠShe ll
ul ation.
Ġmer ge
ĊĊ"That 's
olute ly
Ġcap ita
Ġc ad
ĠM E
Ġhere !
ĠA F
Ġopposition .
Ġautom ation
Ġthing :
Ġnation s,
Ġende av
Ġappropri ately
eal ous
Ġy elling
ason able
Ġth riving
Ġleft ist
ĠOffice .
ĠO P
Ġstar ,
ĠLe ices
ĠR apt
Ġterror ism,
ĊĊâĢľS he
Ġshare .
Ġtom ato
Ġimmediate ly,
secut ors
ĠW end
Ġclaim .
Ġl amb
Ġfacility .
ĠCalif .
Ġdeleg ate
Ġcommer ce
ĠFil ip
Ġst umbled
ĠT weet
Ġacadem y
ĠI van
Ġbank ,
Ġvari ants
ur ry
ĠSwit ch
Ġanalyt ics
Ġsound ing
h ich
Ġa ka
Ġmother âĢĻs
ustom ed
ĊĊ"I 've
ĊĊC ar
ris k
Ġ} ,
f ax
l ass
Ġobject ions
ĠX -M
t y.
ĠMart in,
ĠAn k
ĠRes earchers
Ġepisode .
Ġsing le,
Ġterr ified
writ er
Ġtalent ,
ĠM ight
Ġfilm s.
ĠM ix
Ġartist s,
Ġrest ing
Ġnorm al.
ĊĊK ey
Ġstrength .
Ġretail er
Ġsle pt
ĠMoh amed
Ġfe es.
um a
ĠBengh azi
ĠN ike
duct ed
Ġaggrav ated
ĠPeople 's
Ġd oses
Ġnation s.
Ġfear .
Ġmethod .
Ġw anna
ĠN ate
ant h
Ġ18 4
ĠThrough out
Ġvot es,
Ġdev il
Ġhe ir
Ġunp aid
ĠT -shirt
ĊĊBe ing
Ġobst acle
Ġfor fe
Ġsuscept ible
Ġreject ing
ĠCom edy
ĠU P
ĠK ay
or age
ĠR aspberry
Ġpowerful ,
ĠN as
Ġdro pp
Ġinsert ed
Ġcontr ary,
e i
Ġrem ed
Ġscenario ,
Ġgoal t
ĠPrin ci
Ġdis se
Ġsurprising ly,
Ġembarrass ed
6 00
Ġr im
Ġdub ious
v ity
Ġhere ,âĢĿ
Ġblood ,
Ġenfor cing
Ġcrit er
Ġunauthor ized
Ġparent al
ĠStand ing
ĠIow a,
ĠIns ider
achel or
ĊĊ"S he
ĊĊI 've
Ġcr unch
Ġwell- being
ĊĊOver all,
ĠC oy
Ġost ens
Ġ196 7
Ġtyp ing
Ġabort ions
-cont rolled
Ġindu ced
ĠOb viously
fe ld
Ġpart ners,
Ġver ge
R T
Ġfree zing
Ġ1. 8
Ġbund le
ĠBeh ind
ĠCouncil .
U L
ĠO ri
Ġcirc ulated
ĠH ood
ro x
Ġrev ival
Ġadequ ately
ĊĊMore over,
Ġstar s.
ĊĊH igh
ĠB in
e ous
Ġstri ve
ĠCoff ee
ĠDownt own
Ġ$5 ,000
ĊĊB rit
Ġarchitect ural
Ġtrail s
ĊĊB lack
ar ia
Ġworking -class
Ġcould .
Ġcut s,
ĠOb ser
ĠIslam ,
ist ical
ott est
ĠD ad
Ġr ip
Ġplant ,
Ġfirm ware
Ġal pha
- side
Ġun ite
Ġpal ace
Ġansw ers.
Ġrelie ved
ĊĊG erman
ĠW ake
Ġric her
Ġstat ut
est s
ĠE M
ĠOffic ials
Ġle mon
ĊĊR ed
Ġ3 )
ĠP etro
ĊĊB ig
Ġview s,
Ġnice ,
Ġinadequ ate
ĠProject ,
ĊĊL ist
Ġclub 's
Ġbeautiful ,
Ġuns ure
Ġfavor ites
Ġprosper ity
Ġcr ust
ĊĊ"The se
Ġsubsid iary
add y
e ed.
er ie
Ġfert ility
H C
Ġrequest ,
Ġnotice .
Ġreinfor ced
Ġtelev ised
ĊĊAdd itional
Ġnight club
Ġr ust
Ġclass es.
Ġon :
Ġgr ades
ĠL anc
Ġman a
Ġorg ans
Ġmer ger
Ġbeing .
ĠO racle
qu ire
ĠPelos i
Ġp act
Ġref ined
Ġbank ers
Ġform at.
Ġsupermark et
Ġonly ,
ĠA& M
Ġoppos es
R O
Ġcomb inations
Ġsitu ations,
Ġcritic isms
Ġopen -source
Ġfin ishes
Ġce ment
ĠEx x
ub ar
ape l
-d em
Ġporn ography
ĠCir cle
ĠZ oo
ET T
Ã £
Ġfeature ,
ort ing
1 7
ĠOs borne
Ġdraft ing
Ġne uros
ri ans
im et
Ġsett ling
Ġgrow .
Ġgend er,
Ġcomplex .
Ġsc or
ĠX P
Ġsuperv ision
ĠAn cient
ur p
Ġcool er
Ġfil ters
Ġt s
Ġengine ,
-d ollar
ĠA CC
Ġa ven
ĠRout e
Ġbur ial
Ġele ven
Ġwell s
Ġdimin ished
Ġatt ain
ĠSim ilar
Ġdoub ling
ĠI PA
Ġdifferent ly.
ĠE ST
Ġcigarett es
Ġtype .
Ġastronaut s
in ational
ĠCurrent ly,
Ġlead ,
ĠT rent
ĠN ode
Ġstr angers
Ġbom bers
ĠM i
Ġten ants
Ġu lt
Ġdivor ced
ĠMill s
Ġinfer ior
Ġ(p ictured
Ġam ass
Ġ( you
Ġ"S he
- K
ĠRel igious
Ġimp ending
ĠGenev a
at able
ĠL um
Ġf an,
Ġsk ate
ĠM oss
Ġselect ive
ĊĊ 9
ĠLouis ian
Ġoverth row
Ġearth .
Ġrevenue .
Ġfore see
ĊĊHow ever
ĠState âĢĻs
ĠOver all,
Ġs outheast
ĊĊâĢľ Every
bab we
ĠY u
ĠPort land,
am ples
ĠScient ific
Ġacc ustomed
Ġthank ful
ĠBoulev ard
Ġmarri ages
ĊĊPhot os
Ġdiscuss ion.
Ġal lev
ĠVal ue
Ġarm s.
ĠF ans
Ġ196 0s,
Ġwrite .
Ġr iots
- n
g ia
Ġfeas ible
Ġcar ved
Ġexpensive .
Ġm ine.
Ġback yard
Ġlength s
Ġmin es
Ġ24 .
Ġborn .
Ġph ones,
Ġs napped
Ġru ined
ĠCom ing
ĠS weet
Ġpurs u
ĠChe v
Ġdisreg ard
ĠM ob
Ġf ren
Ġarrest ,
ĠBro ck
ĊĊN EW
Ġr ang
Ġread y.
Ġm um
Ġancest ors
ĠH erman
Ġfl ames
Ġfash ion.
Ġaggreg ate
C O
Ġam ple
ĠUn block
Ġprovince ,
Ġ198 2
Ġsm ashed
ĠPost )
iar ies
ĠIntern al
Ġha w
Ġdr astic
Ġdo ck
ĠPer l
el and
ĠN um
Ġdece ased
ĊĊ >
il ation
ot hing
ĠSch umer
Ġset back
Ġ1 -0
Ġagency âĢĻs
Ġfash ion,
Ġ199 0s.
ĠQ ur
Ġstore s.
Ġoptim ism
Ġsubject ive
Ġoverlook ed
Ġliv ing.
Ġdo .âĢĿ
Ġ 't
Ġnegative ly
ĠCarol ina.
Ġbad ge
Ġ# 3
Ġlog in
ĠBank s
Ġrespons ive
Ġkid ney
Ġphr ases
Ġpar an
pr ing
Ġelect orate
ĠAud io
Ġsubscrib e,
Ġoverwhel m
q q
Ġpeace ,
Ġhorm one
ĊĊJ on
Ġprocl aim
a ic
IS T
ĊĊA round
Ġpo or.
in ed,
Ġaffect ion
Ġ15 ,000
Ġsouth west
Ġrev ive
ĠK or
Ġexcl usion
T ION
Ġpal m
ĠâĢľO ne
Ġmeasure s,
Ġque er
Ġsur gical
Ġdev ote
Ġ[ and
Ġsp ouse
ĠL anguage
Ġsn ack
Ġinsur ance,
Ġcontinu es.
read y
os ity
ĠStal in
ĠPir ate
Ġveget able
Ġ( via
Ġbeaut ifully
Ġel bow
Ġinc ur
her d
Ġred ,
Ġgift ed
ĠT SA
at on
Ġfin ances
ĠK r
ens on
Ġbra cket
Ġyard s.
ĠPlan ning
Ġrhet or
Ġ( It
ading. ..
on er
Ġwas ting
ĊĊOther s
Ġsper m
g io
Ġexch anged
Ġfall out
Ġinteract ing
ĊĊO ff
ĠTro y
W .
Ġcut s.
Ġarm s,
Ġgo dd
Ġfinger print
Ġworld .âĢĿ
ĠPere z
Ġexpect ations.
Ġmethod s.
Ġarrest ed.
ĠZ ucker
e fficient
B :
ĠLiby a,
Ġgang s
ans as,
Ġpl ots
Ġtr ilog
ĠT X
K K
Ġone -time
Ġob l
Ġdevelop ers,
b one
Ġtomorrow .
Ġfur ious
Ġsk in,
Ġin ad
play ing
ĠJ ur
Ġbuilding s.
Ġinj unction
Ġcomplet e,
ĠCl are
Ġdecentral ized
Ġlo ot
ĠCl aire
Ġtarget ,
Ġconf ess
Ġhier arch
Ġcapac ity.
Ġneighbour ing
ĠRe venue
Ġcommand ers
ĠSol id
ĠWals h
Ġpol ite
L A
et ery
Ġdefe ats
Ġdictators hip
ĠGu ine
ĠâĢ ķ
Ġblock b
ĠBru ins
Ġdepress ion,
ĠConstitution al
ĠPer u
Ġmult inational
Ġadjust ing
ĠTre vor
ĠZim babwe
Ġreserv oir
ĠBe gin
Ġalike .
ĠG add
Ġpo inter
Ġ. .
Ġ( where
Ġactiv ists,
Ġbe ard
r ational
ĠOb viously,
rapeut ic
Ġvisit or
Ġinsur ance.
ĠDian e
a cious
Ġbron ze
ĊĊP erson
Ġentire ly.
ĠJ in
Ġsect arian
Ġun identified
Ġcrowd ,
Donald Trump
Ġempir ical
Ġdown s
Ġsent ence.
Ġ18 -year-old
Ġdi agram
ĠAdd itional
Ġ3 %
ĠIran 's
Ġinhabit ants
ogen ic
Ġcook ie
real DonaldTrump
ac ific
Ġpredict s
Ġ199 2,
Ġins ider
Ġappe al.
Ġbu ys
ut er
Ġspe cially
o pp
ĠDes ert
ĠD ash
Ġhur ricane
ch i
iz oph
Ġout :
ĠRe b
Ġgr ind
Ġexpend iture
Ġstep ,
Tod ay
od ern
Ġimmigr ation,
ĠBay ern
ĠV ot
Ġkid napped
Ġprosecut ed
Ġpe pp
ĠBet a
ĠCharl est
Ġpe cul
izoph ren
Ġjust ices
Ġsale .
Ġunanim ously
ĠLe h
Ġfilm âĢĻs
ĠBa iley
4 ]
ĠMil es
Ġcook ies
ĊĊAuthor ities
Ġscan ning
Ġh id
reg ular
ug ar
ĠCelt ics
Ġdoct r
Ġposition ing
Ġ17 -year-old
ĠMoore ,
Ġbull sh
Ġhypot hetical
Ġfav ors
ĠV ision
ĊĊH ar
Ġhere .âĢĿ
Ġc el
Ġprim itive
b out
ĊĊBe yond
Ġstra ins
ship s
ĠRepublic an,
ĊĊF ive
ĠAm anda
ĠC able
ram id
aly t
Ġsle w
el f
Ġmot ive
Ġch ambers
ĠGlasg ow
Ġp oore
Ġby tes
Ġdisch arge
Ġantib iotic
B .
Ġdeport ation
ĊĊA merican
Ġyou ."
Ġhor rib
Ġfigure s.
Ġdefin ite
Ġpropag and
Ġindef inite
Ġret ention
Ġge ographic
Ġde af
Ġextra ction
e lection
ĠLa unch
ĠWATCH ED
ĠS end
au x
Ġup !
Ġwar rants
in um
Ġconstitu ents
Ġc ensus
ĠN ortheast
Ġamb itions
ĠResp ons
ĠN ut
ĊĊâĢľA t
ig a
Ġaccl aimed
ĊĊâĢľHe âĢĻs
Ġsociet al
Ġdepict ing
ĠProv ince
Ġpartnership s
Ġshe 'd
Ġunconstitution al
ex as
ull y,
ĠCamb od
if eration
ĠWe instein
re nd
p it
itness es
Ġoverl ap
ĠIn v
A t
Ġcent ,
ĠGall up
Ġv om
ĠAbdull ah
Ġb iblical
Ġr uth
Ġcampaign ed
het t
Ġtext .
ĠâĢľI s
ĊĊF ull
Ġun armed
Ġcred it,
Ġtype ,
Ġdecor ated
ĠC inem
ĠQual ity
ĊĊAt t
Ġ| |
ĠP TS
ĠSC P
Ġfam ed
Ġ23 .
Ġstated ,
Ġlearn s
Ġfrank ly,
ĠJ os
l though
c ry
Ġexplo res
ĠL ance
Ġexcept ionally
Ġ198 3
ĠHel en
Ġeffective .
Ġauthor ity.
ĠVirgin ia.
Ġsurve y,
rest rial
ĠOther wise,
ĠL em
Ġa is
ĠPrem ium
ĠRC MP
Ġb ay
Ġcountry side
ĠOft en
ĠMohamm ad
Ġhealth ier
Ġdirector .
Ġcop ied
Ġaut op
Ġlast ,
Ġsu it.
Ġgas .
ote :
Ġcrus hing
Ġirrelev ant
Ġfaster .
ĊĊE vent
Ġthro at
Ġid ol
Ġmetad ata
ur as
Ġsurv ive.
O .
Ġ(A nd
ĠC ork
ort ium
Ġprep ares
Ġrest oring
ĠSter ling
Ġp ulse
pp led
Ġanymore ,
cl es,
Ġdis like
ĠL iqu
ors che
Ġign ores
Ġsc oop
Ġcyber security
Ġdis able
Ġch ao
ĊĊO k
3 5
ke ll
Ġcyc le,
Ġey eb
Ġtool .
Ġlaunch ,
u ated
ĠAm ster
ĠNASA 's
Ġignor ant
ograp her
ĠCan ucks
ĠC ,
Ġcamp us,
in ue
Ġsuccess ive
Ġgl uc
Ġgl aci
Ġap ocaly
Ġ" R
ĠS tern
ĠSat an
ĠR ating
Ġfre ak
Ġlong er,
Ġrem ake
Ġteacher s,
Ġlo oming
Ġl ump
Ġdes irable
Ġpriest s
Ġpen al
Ġbe ans
Ġ-- -
ĠRiver ,
burg ,
Ġwoman 's
ĠR unning
Ġpaint ings
Ġrecru its
Ġan at
Ġh one
ĠThron es
Ġbod ies.
ĠA j
Ġsen iors
Ġfact s.
Ġwant ed.
Ã£ o
ĠMar ines
ĠO ce
Ġdispos al
Ġshel ves
Ġagend a,
ĠVe h
es pite
Ġstar .
Ġstation ed
Ġkn ees
Ġbuy er
Ġattach ment
ĊĊBel ow
Ġf og
isp here
ĠAny thing
ĠPerson al
Ġcongress man
ĠL ith
Ġlau nd
Ġ 000
ĠE sc
ĠFr ame
ĠQu arter
ĠT E
Ġout .âĢĿ
ĠCar r
k ill
Ġstatement :
ĠJack ie
ĊĊW ell
Ġ199 0,
ĠHaw ks
Ġpropos es
ĊĊâĢľWe âĢĻve
ĠLouis ville
Ġdevast ated
ĠN at
ress ive
Ġclaim ,
Ġextract ed
Ġfacilities ,
Ġmiss ing.
Ġnow ,âĢĿ
Ġpiv otal
Ġas :
ĠV I
Ġpart nered
N EW
Ġcur se
Ġimportant ly
Ġprejud ice
Ġdis place
Ġch ill
Ġproject ion
ĠLeg ends
Ġsol itary
ĠM ig
Ġice .
ĠTh an
ys ical
Ġfraud ulent
Ġv ault
Ġvan illa
Ġt apping
ĠS &
Ġw aking
Ġperfect .
Ġpersu aded
aw k
Ġfunction s.
Ġgirl s.
ĊĊW ar
asc us
Ġif ,
Ġcort ex
Ġunderstand ,
Ġprob ation
Ġdiam eter
Ġtransform ing
Ġtoug hest
Ġdownload ing
Ġs ized
od ies
ĠÂ Ĺ
ĠBeng als
ĠSchool .
Ġmeas ure.
Ġsing les
Ġcurren cy.
Ġobject .
Ġplatform s.
Ġpoet ry
Ġcelebr ates
Ġpo pping
Ġdriver ,
ĠBroad cast
ĠApp le,
Ġsa cks
Ġintr ins
Ġhomeown ers
Ġrent ed
ĠRay mond
Ġg y
Ġclean ed
ĠService ,
ines s,
ĊĊGet ting
ĠA CA
Ġste er
Ġdown side
Ġdep ressed
he ll
ĠSing le
Ġa u
Ġ10 -year
Ġopportunities .
âĢ ³
Ġenroll ment
& A
ĠFurther ,
ĠLe o
ĠHill .
Ġchar ism
-d imensional
Ġfacilities .
Ġthreat s.
ĠA RE
ĠOrig in
ĠAven gers
ĠS ie
b e,
0 x
ĠCalifornia âĢĻs
Ġdiscrim in
Ġlight ly
Ġfilm maker
ĠRe ce
Ġsp am
Ġthr ill
ĠB oot
ĠS hip
Ġhas .
Ġnot ?
Ġreconst ruction
Ġdefic its
ĠS ales
ĠE manuel
Ġparad ox
i ance,
Ġprop onents
ĠF REE
IT Y
Ġh ottest
Ġcinem a
Ã¼ r
ĊĊâĢľ People
ĊĊDe velop
Ġme :
Ġimmigr ants,
viol ent
ĠRef uge
Ġf ier
ched el
Ġmethod ,
Ġgun shot
ĠC F
Ġvariet ies
ĠMin i
ĠMy an
Ġsyn chron
Ġtext book
v id
Ġfor ty
Ġpurpose ,
Ġshadow s
Ġext r
Ġform id
Ġun just
Ġtournament ,
Ġserver ,
Ġf usion
Ġmistake ,
ĠA er
ur bed
Ġdemand ,
Ġcraft ing
Ġdefinition s
Ġcrash .
Ġtrip ,
Ġsuper star
Ġcert ification
Ġstop ,
Ġhost age
Ġp ages,
ĊĊUPD ATE:
- 201
Ġfra cking
Ġ199 3,
Ġv ine
P ost
ĠRock et
ĠDam ascus
Ġcor ner,
ĠLS U
Ġt ires
Ġpossess ed
Ġneuro log
Ġcons ens
ĠReport s
ĠJen kins
Ġcorrect .
ĠKey stone
Ġtables p
Ġrelig ions
ateg ory
Ġnot ices
Ġloc ations.
ix els
Ġl ure
Ġshoot s
Ġtwe ak
ĠC our
ĠâĢľ one
Ġmass ively
ĠN iss
ĠD im
ĠR are
ES S
Ġup rising
Ġdeep est
Ġpow ers.
ĠW AR
ĊĊT im
Ġmar athon
Ġactiv ism
Ġsuppli ers
ĠG ran
Ġjun gle
ĠB uc
ĠCoun ter
ĠKat ie
Ġfemin ists
Ġant agon
ĠPod est
Ġbod ily
ĊĊ1 2.
Ġbeyond .
Ġup st
Ġfl ame
Ġ12 8
ĊĊD ef
ĠAut om
ĠSuper ior
Ġund en
Ġmarch ing
-p owered
Ġey e,
om er
ĠSim ple
Ġthem :
edd it
ĠReg ion
Ġst ew
ĠISP s
Ġ$ 5.
ĠZimmer man
ĠSpecific ally,
Ġext ensions
Ġsimpl est
Ġe-c igare
Ġbro ker
Ġalert ed
ĠRep ly
Ġthis ,âĢĿ
Ġd ens
ĠSp icer
ĠRev .
Ġscout ing
Ġgovernment al
Ġblow s
ĠSc ore
Ġgovern or,
Ġl akh
Ġhop e.
Ġsystem atically
Ġremo ves
Ġnot ifications
Ġqu eries
Ġundermin ing
Ġbreak ,
ĠMassachusett s,
Ġun official
ĠH av
Ġle agu
Ġschool âĢĻs
Ġsubject ,
Ġunanim ous
Ġstar ters
ĠAff air
Ġanticip ation
ĊĊ2 00
Ġschem e.
Ġspecific s
Ġinvest ment,
ĠAv iv
Ġtravel ers
Ġtag s
Ġcomplim ent
ĠGen e
__ _
D B
ĠHam mond
Ġn urt
ĠBush âĢĻs
ĊĊRich ard
Ġg ases
Ġairpl ane
Ġbe e
ĠP OL
Ġcut .
Ġp ages.
Ġ5 .5
- ne
Ġdes ires
ĠBl ade
ĠR hod
Ġengine .
ĠBor is
ĊĊR yan
an a,
h ou
Ġend ure
Ġcl utch
b ane
ĠSil va
Ġ" For
Ġplant .
Ġcry st
ern ick
Ġnod d
Ġp unt
Ġsolution s.
ĠF o
Ġdet on
ĠA FC
r ition
ĠF resh
Ġdisplay .
Ġforg ive
Ġcris p
ur i
Ġacc ent
or ph
ĠAdvent ure
Ġhilar ious
Ġs ang
Ġutil ized
Ġf it.
Ġbless ing
Ġoccur rence
ĠD j
ĠSher man
Ġform ul
ĊĊSt eve
Ġrout e.
form ing
gg ie
Ġsoldi ers,
Ġdeal er
Ġp enc
Ġ19 00
w ic
Ġman kind
Ġblu ep
Ġgl orious
Ġacc ess,
Ġpl ague
ĠDay ton
Ġdaughter .
Ġir respons
Ġsal v
ĠN ag
ĠJ azz
Ġinc apable
Ġ196 8
Ġsens ation
Ġhelicop ters
Ġpos it
Ġchar m
head ed
Ġcirc ulation
Ġgovern ed
Ġcl aw
ĠG rim
Ġp ine
Ġotherwise ,
ĊĊAdd ed
ĠPhiladelph ia,
ĠR abb
Ġmight y
-sc reen
ĠDar win
Ġbank .
ct ober
Ġrum ored
ĠCy ber
ut ton
Ġoff ended
ĠRe becca
ĠLeg acy
Ġsch izophren
Ġcatastrop he
ĠP ul
Ġair ports
ĠT S
ĠU T
ĠPakistan .
ĠInst itution
Ġpath way
sequ ently,
Ġt enth
Ġdisproportion ately
Ġannounced .
Ġannounce ments
ĠMem ory
Ġex ile
ĠInspect or
Ġcirc ulating
Ġassess ing
âĢ¦ ]
ĠT i
Ġsever ity
Ġplaint iff
gg y
Ġ1. 7
Ġcyn ical
Ġsh attered
Ġstud ies.
ĠTreat y
ĠCh arter
Ġ"There 's
Ġhim ?
Ġl av
Ġen gin
ĠN ord
Ġforb idden
Ġusual ,
ĠON E
ur y,
ĊĊT rans
ĊĊL ocal
Ġl id
ĠF ine
ĠBra in
Ġship ,
ĠT ag
ĠAs ked
ĠSeb astian
ren ched
orth y
Ġconf ine
Ġplay ground
Ġ[ s
Ġfr ied
ĠN J
ĠB ranch
Ġmamm al
Ġlittle ,
-f ive
Ġ19 -year-old
ĠMemph is
Ġboost ing
ĠRe ason
ĠGu j
ĊĊB uy
Ġmanip ulated
Ġhit ter
X T
Ġheavy weight
ĠD LC
Ġ" and
ĊĊC ity
Ġst ip
Ġmeasure s.
Ġdie ,
Ġsong s,
Ġ26 .
Ġincrease .
Ġunf ortunately,
Ġdanger ous,
A r
Ġinput s
Ġfraud .
Ġthis .âĢĿ
ĠJS ON
p x
Ġnomine es
ĠFall s
ĠC ities
Ġawesome .
- action
ĠKurd istan
Ġske let
Ġoff enses
-1 7
ĠAng ular
Ġbod ies,
ĠE ye
Ġinad vert
ĠK an
Ġpass words
ĠR SS
Ġafter .
Ġfraud ,
ĠStarb ucks
" :
ic ating
ĠP ic
ĠSh ia
Ġ4 .0
Ġspokesman ,
Ġch ord
Ġsh iny
ĠA llow
Ġcompet ent
Ġmiss es
osp ace
Ġiniti ate
iot ics
ĠBes ides
ens en
Ġs omed
Ġpl asma
ĠK in
ĠTra ck
Ġsh uff
ĠÂ ·
Ġp ic
Ġmodel ing
ĠSc ript
ĠHe ath
ĠBar rett
Ġf ixture
Ġv andal
ĠC hes
Ġhero ic
ĠAmerican ,
ll i
Ġalleg ation
ĠMir ror
Ġmain land
old en
Ġcomp uls
ĠRob ot
Ġaw aken
Ġleague âĢĻs
ad i
am ount
B ER
Ġspec ulate
ep ernick
Ġwinter ,
ĠGl en
os ion
ĠH ugh
ĠH az
Ġairst rikes
Ġsurger y,
Ġar che
Ġg al
Ġmaterial s.
Ġdog ,
ĠInd ividual
Ġgl ance
ĠArmen ian
Ġro gue
ĊĊP eter
Ġhy ster
cu le
Ġnext ,
Ġmagaz ine.
Ġpick .
Ġthere ,âĢĿ
ĊĊB ill
Ġdevelop s
Ġcounter -
ĠHold er
-to -d
Ġopponent s.
ĠWhite ,
ĠP orsche
Ġorganis ms
Ġb idding
ĠSach s
ĊĊL eg
Ġno on
ĠAl ban
Ġrich ,
Ġsuper natural
ĠV .
Ġce il
unt ime
Ġannounce ment,
Ġco ached
Ġtop -
Ġcash ,
M :
Ġholiday s
ĠMour inho
Ġcomfort ably
Ġfr atern
ĠS pl
[...]
