{"version":"1.0","truncation":null,"padding":null,"added_tokens":[{"id":0,"content":"<s>","single_word":false,"lstrip":false,"rstrip":false,"normalized":false,"special":true},{"id":1,"content":"</s>","single_word":false,"lstrip":false,"rstrip":false,"normalized":false,"special":true},{"id":2,"content":"<pad>","single_word":false,"lstrip":false,"rstrip":false,"normalized":false,"special":true},{"id":3,"content":"<unk>","single_word":false,"lstrip":false,"rstrip":false,"normalized":false,"special":true},{"id":4,"content":"<mask>","single_word":false,"lstrip":false,"rstrip":false,"normalized":false,"special":true}],"normalizer":null,"pre_tokenizer":{"type":"ByteLevel","add_prefix_space":false,"trim_offsets":true},"post_processor":null,"decoder":{"type":"ByteLevel","add_prefix_space":false,"trim_offsets":true},"model":{"type":"BPE","dropout":null,"unk_token":"<unk>","continuing_subword_prefix":"","end_of_word_suffix":"","fuse_unk":false,"vocab":{"<s>":0,"</s>":1,"<pad>":2,"<unk>":3,"<mask>":4,"Ā":5,"ā":6,"Ă":7,"ă":8,"Ą":9,"ą":10,"Ć":11,"ć":12,"Ĉ":13,"ĉ":14,"Ċ":15,"ċ":16,"Č":17,"č":18,"Ď":19,"ď":20,"Đ":21,"đ":22,"Ē":23,"ē":24,"Ĕ":25,"ĕ":26,"Ė":27,"ė":28,"Ę":29,"ę":30,"Ě":31,"ě":32,"Ĝ":33,"ĝ":34,"Ğ":35,"ğ":36,"Ġ":37,"!":38,"\"":39,"#":40,"$":41,"%":42,"&":43,"'":44,"(":45,")":46,"*":47,"+":48,",":49,"-":50,".":51,"/":52,"0":53,"1":54,"2":55,"3":56,"4":57,"5":58,"6":59,"7":60,"8":61,"9":62,":":63,";":64,"<":65,"=":66,">":67,"?":68,"@":69,"A":70,"B":71,"C":72,"D":73,"E":74,"F":75,"G":76,"H":77,"I":78,"J":79,"K":80,"L":81,"M":82,"N":83,"O":84,"P":85,"Q":86,"R":87,"S":88,"T":89,"U":90,"V":91,"W":92,"X":93,"Y":94,"Z":95,"[":96,"\\":97,"]":98,"^":99,"_":100,"`":101,"a":102,"b":103,"c":104,"d":105,"e":106,"f":107,"g":108,"h":109,"i":110,"j":111,"k":112,"l":113,"m":114,"n":115,"o":116,"p":117,"q":118,"r":119,"s":120,"t":121,"u":122,"v":123,"w":124,"x":125,"y":126,"z":127,"{":128,"|":129,"}":130,"~":131,"ġ":132,"Ģ":133,"ģ":134,"Ĥ":135,"ĥ":136,"Ħ":137,"ħ":138,"Ĩ":139,"ĩ":140,"Ī":141,"ī":142,"Ĭ":143,"ĭ":144,"Į":145,"į":146,"İ":147,"ı":148,"Ĳ":149,"ĳ":150,"Ĵ":151,"ĵ":152,"Ķ":153,"ķ":154,"ĸ":155,"Ĺ":156,"ĺ":157,"Ļ":158,"ļ":159,"Ľ":160,"ľ":161,"Ŀ":162,"ŀ":163,"Ł":164,"ł":165,"¡":166,"¢":167,"£":168,"¤":169,"¥":170,"¦":171,"§":172,"¨":173,"©":174,"ª":175,"«":176,"¬":177,"Ń":178,"®":179,"¯":180,"°":181,"±":182,"²":183,"³":184,"´":185,"µ":186,"¶":187,"·":188,"¸":189,"¹":190,"º":191,"»":192,"¼":193,"½":194,"¾":195,"¿":196,"À":197,"Á":198,"Â":199,"Ã":200,"Ä":201,"Å":202,"Æ":203,"Ç":204,"È":205,"É":206,"Ê":207,"Ë":208,"Ì":209,"Í":210,"Î":211,"Ï":212,"Ð":213,"Ñ":214,"Ò":215,"Ó":216,"Ô":217,"Õ":218,"Ö":219,"×":220,"Ø":221,"Ù":222,"Ú":223,"Û":224,"Ü":225,"Ý":226,"Þ":227,"ß":228,"à":229,"á":230,"â":231,"ã":232,"ä":233,"å":234,"æ":235,"ç":236,"è":237,"é":238,"ê":239,"ë":240,"ì":241,"í":242,"î":243,"ï":244,"ð":245,"ñ":246,"ò":247,"ó":248,"ô":249,"õ":250,"ö":251,"÷":252,"ø":253,"ù":254,"ú":255,"û":256,"ü":257,"ý":258,"þ":259,"ÿ":260,"Ġt":261,"Ġa":262,"he":263,"in":264,"Ġthe":265,"re":266,"Ġo":267,"Ġs":268,"er":269,"Ġw":270,"at":271,"on":272,"en":273,"Ġc":274,"it":275,"is":276,"Ġb":277,"nd":278,"or":279,"Ġf":280,"Ġp":281,"ed":282,"ing":283,"es":284,"Ġto":285,"ou":286,"an":287,"Ġof":288,"Ġin":289,"Ġm":290,"al":291,"ar":292,"Ġh":293,"Ġd":294,"Ġand":295,"Ġth":296,"as":297,"ic":298,"le":299,"ĊĊ":300,"om":301,"ion":302,"âĢ":303,"ll":304,"Ġn":305,"ent":306,"Ġl":307,"Ġre":308,"ve":309,"Ġbe":310,"st":311,"Ġe":312,"ly":313,"Ġg":314,"id":315,"ot":316,"ut":317,"Ġthat":318,"Ġon":319,"ro":320,"ct":321,"Ġis":322,"ĠT":323,"ĠI":324,"ay":325,"Ġfor":326,"ow":327,"im":328,"se":329,"ad":330,"am":331,"ig":332,"et":333,"ver":334,"ĠS":335,"ld":336,"ce":337,"Ġu":338,"Ġy":339,"Ġst":340,"âĢĻ":341,"ĠA":342,"Ġit":343,"ur":344,"Ġhe":345,"Ġwh":346,"ith":347,"ĠC":348,"ir":349,"Ġwe":350,"ch":351,"Ġwith":352,"ation":353,"Ġas":354,"Ġan":355,"ter":356,"ill":357,"ĠM":358,"ol":359,"il":360,"Ġyou":361,"Ġwas":362,"Ġha":363,"ra":364,"ke":365,"ĠB":366,"ers":367,"Ġcon":368,"Ġat":369,"Ġde":370,"her":371,"ate":372,"if":373,"Ġare":374,"Ġse":375,"ĠP":376,"Ġmo":377,"ck":378,"ge":379,"Ġfr":380,"Ġcom":381,"ĠW":382,"ment":383,"ĠThe":384,"pp":385,"s,":386,"âĢĻs":387,"est":388,"s.":389,"Ġne":390,"Ġpro":391,"ul":392,"Ġr":393,"ĠH":394,"op":395,"igh":396,"ort":397,"ĠâĢ":398,"Ġhave":399,"Ġnot":400,"ist":401,"ould":402,"Ġex":403,"Ġ2":404,"Ġsu":405,"ri":406,"ĠD":407,"Ġor":408,"Ġby":409,"Ġfrom":410,"Ġv":411,"ĠR":412,"res":413,"ain":414,"us":415,"ĠF":416,"Ġ1":417,"Ġal":418,"oo":419,"ity":420,"Ġthis":421,"art":422,"nt":423,"ĠN":424,"Ġsa":425,"em":426,"ive":427,"out":428,"ant":429,"Ġsh":430,"um":431,"ĊĊT":432,"Ġle":433,"un":434,"Ġab":435,"ust":436,"ight":437,"Ġhas":438,"ab":439,"ess":440,"and":441,"pe":442,"Ġch":443,"os":444,"ĠG":445,"qu":446,"red":447,"end":448,"Ġpl":449,"ies":450,"Ġhis":451,"ome":452,"ĠL":453,"ally":454,"'s":455,"th":456,"Ġdo":457,"all":458,"ie":459,"ear":460,"gh":461,"Ġsaid":462,"Ġthey":463,"Ġj":464,"ĠE":465,"ĠJ":466,"el":467,"Ġwill":468,"Ġbut":469,"ast":470,"iv":471,"ard":472,"Ġcan":473,"Ġwhe":474,"Ġwor":475,"rou":476,"ud":477,"ack":478,"ĠO":479,"Ġwho":480,"Ġall":481,"ĊĊThe":482,"ak":483,"Ġ20":484,"Ġso":485,"ich":486,"our":487,"Ġgo":488,"Ġk":489,"Ġtheir":490,"Ġint":491,"ĠU":492,"Ġout":493,"ide":494,"pt":495,"ame":496,"Ġ(":497,"Ġmore":498,"ther":499,"ci":500,"Ġup":501,"ag":502,"ice":503,"ure":504,"ong":505,"ike":506,"Ġabout":507,"Ġme":508,"ore":509,"ect":510,"Ġad":511,"one":512,"ff":513,"so":514,"Ġone":515,"Ġwere":516,"Ġcomp":517,"cc":518,"Ġwould":519,"Ġhad":520,"ime":521,"age":522,"Ġwhich":523,"ry":524,"ine":525,"ans":526,"ĠâĢľ":527,"Ġus":528,"very":529,"Ġbeen":530,"Ġag":531,"ake":532,"Ġoff":533,"ous":534,"Ġcl":535,"Ġte":536,"Ġcont":537,"ep":538,"Ġim":539,"ated":540,"ber":541,"Ġyear":542,"pl":543,"ue":544,"per":545,"âĢĻt":546,"Ġlike":547,"ction":548,"Ġen":549,"ĊĊA":550,"ub":551,"od":552,"ĠTh":553,"ind":554,"are":555,"ign":556,"Ġpe":557,"ost":558,"ac":559,"Ġev":560,"Ġman":561,"Ġinc":562,"au":563,"ia":564,"ary":565,"ew":566,"Ġper":567,"ĠSt":568,"Ġother":569,"ook":570,"Ġsome":571,"Ġun":572,"ĊĊI":573,"Ġpr":574,"ople":575,"ere":576,"Ġres":577,"Ġsp":578,"âĢĿ":579,"ite":580,"Ġnew":581,"Ġalso":582,"Ġthere":583,"Ġthan":584,"act":585,"mer":586,"00":587,"Ġbec":588,"Ġ201":589,"ap":590,"iz":591,"ose":592,"oc":593,"Ġyour":594,"Ġover":595,"Ġthem":596,"Ġwhen":597,"ile":598,"Ġwhat":599,"Ġpeople":600,"ĠIn":601,"ire":602,"ord":603,"ood":604,"Ġwork":605,"es,":606,"ence":607,"Ġpart":608,"fter":609,"ace":610,"Ġtr":611,"Ġapp":612,"ount":613,"ĠK":614,"port":615,"Ġjust":616,"og":617,"Ġits":618,"Ġar":619,"able":620,"ical":621,"Ġany":622,"own":623,"Ġdis":624,"Ġsay":625,"ough":626,"Ġtime":627,"int":628,"ition":629,"ip":630,"ĠIt":631,"Ġget":632,"ult":633,"Ġqu":634,"ance":635,"ree":636,"ial":637,"Ġkn":638,"ase":639,"Ġmy":640,"Ġif":641,"Ġ\"":642,"es.":643,"Ġher":644,"Ġinto":645,"ond":646,"ass":647,"lic":648,"ib":649,"irst":650,"orm":651,"Ġplay":652,"Ġtw":653,"ru":654,"reat":655,"ress":656,"Ġour":657,"Ġno":658,"ach":659,"ĠCh":660,"ail":661,"ĠY":662,"Ġrec":663,"ident":664,"du":665,"av":666,"ink":667,"ound":668,"vel":669,"ause":670,"ick":671,"ark":672,"ory":673,"Ġafter":674,"ian":675,"Ġpol":676,"Ġshe":677,"Ġhow":678,"wn":679,"Ġcould":680,"Ġfirst":681,"Ġco":682,"hing":683,"ions":684,"Ġpre":685,"ens":686,"Ġ-":687,"ade":688,"'t":689,"ations":690,"Ġacc":691,"Ġhim":692,"Ġsc":693,"Ġonly":694,"itt":695,"Ġpo":696,"Ġfe":697,"ĠHe":698,"Ġatt":699,"Ġtwo":700,"Ġ3":701,"Ġro":702,"amp":703,"nder":704,"vers":705,"ild":706,"ĠV":707,"ning":708,"Ġser":709,"Ġcomm":710,"Ġbet":711,"Ġspe":712,"Ġmost":713,"ict":714,"ang":715,"Ġback":716,"hed":717,"ĠâĢĵ":718,"ĊĊâĢ":719,"form":720,"nâĢĻt":721,"Ġdid":722,"y,":723,"ĊĊS":724,"Ġagain":725,"day":726,"Ġwant":727,"rough":728,"ĠâĢĶ":729,"Ġdec":730,"Ġway":731,"Ġbl":732,"ne":733,"Ġact":734,"round":735,"Ġam":736,"Ġ19":737,"Ġbecause":738,"ob":739,"aw":740,"ious":741,"uch":742,"ft":743,"Ġnow":744,"ĊĊW":745,"Ġneed":746,"Ġra":747,"Ġeven":748,"ason":749,"lud":750,"Ġdes":751,"ved":752,"iff":753,"ublic":754,"ish":755,"Ġunder":756,"Ġsee":757,"way":758,"we":759,"ings":760,"Ġadd":761,"Ġknow":762,"ors":763,"Ġcons":764,"Ġinv":765,"ater":766,"Ġevery":767,"Ġmake":768,"sel":769,"ates":770,"Ġsec":771,"fore":772,"cial":773,"ual":774,"ise":775,"Ġsupp":776,"urn":777,"tern":778,"ĠWe":779,"ced":780,"ĊĊâĢľ":781,"Ġthese":782,"Ġwhere":783,"Ġbu":784,"rit":785,"oy":786,"ces":787,"Ġind":788,"Ġlook":789,"Ġthink":790,"other":791,"Ġtra":792,"Ġdon":793,"Ġbeing":794,"vern":795,"pect":796,"ed.":797,"Ġem":798,"Ġday":799,"The":800,"ĠUn":801,"ĠAnd":802,"Ġright":803,"Ġmany":804,"ational":805,"Ġinclud":806,"iss":807,"Ġmay":808,"Ġlast":809,"Ġcall":810,"ĠBut":811,"ump":812,"ull":813,"Ġrem":814,"Ġpos":815,"ek":816,"y.":817,"Ġthen":818,"Ġthrough":819,"ject":820,"Ġdiff":821,"ĊĊ\"":822,"Ġthose":823,"Ġsaid.":824,"Ġshould":825,"Ġvery":826,"Ġpres":827,"meric":828,"ily":829,"ove":830,"uring":831,"Ġdef":832,"Ġmuch":833,"Ġtoo":834,"Ġshow":835,"Ġfo":836,"aking":837,"ec":838,"Ġstate":839,"Ġrel":840,"Ġreg":841,"xt":842,"ving":843,"iew":844,"ĠThis":845,"Ġimp":846,"Ġ4":847,"Ġcount":848,"Ġown":849,"ited":850,"ĊĊB":851,"row":852,"ĠTr":853,"Ġdown":854,"Ġuse":855,"ating":856,"arly":857,"Ġbel":858,"old":859,"Ġsy":860,"ĠAmeric":861,"Ġreport":862,"Ġbefore":863,"ons":864,"vernment":865,"ince":866,"Ġwell":867,"Ġdoes":868,"ĠWh":869,"Ġstart":870,"ents":871,"Ġend":872,"rib":873,"Ġteam":874,"Ġlong":875,"ange":876,"ank":877,"man":878,"oth":879,"Ġfl":880,"ities":881,"Ġke":882,"ock":883,"Ġmon":884,"ower":885,"Ġmade":886,"ven":887,"ren":888,"Ġph":889,"llow":890,"ĠNew":891,"ative":892,"omet":893,"Ġfin":894,"ased":895,"Ġgoing":896,"arg":897,"ied":898,"hen":899,"ific":900,"Ġweek":901,"Ġhel":902,"Ġ5":903,"Ġsuch":904,"ting":905,"ward":906,"und":907,"Ġagainst":908,"Ġworld":909,"Ġgood":910,"ing,":911,"Ġstud":912,"Ġgame":913,"lect":914,"ork":915,"ĊĊIn":916,"oun":917,"alk":918,"ually":919,"Ġprob":920,"Ġgovernment":921,"ath":922,"Ġhelp":923,"ing.":924,"Ġpoint":925,"Ġstill":926,"Ġyears":927,"Ġwhile":928,"ife":929,"ible":930,"Ġset":931,"Ġsm":932,"Ġlead":933,"erson":934,"Ġac":935,"Ġsur":936,"ĊĊH":937,"ĠAs":938,"ph":939,"Ġeff":940,"n't":941,"ments":942,"illion":943,"let":944,"ont":945,"Ġgen":946,"ed,":947,"Ġgu":948,"Ġtake":949,"ween":950,"Ġent":951,"roup":952,"er,":953,"Ġoffic":954,"Ġprodu":955,"stem":956,"les":957,"ful":958,"ert":959,"Ġ200":960,"Ġsame":961,"Ġsim":962,"gr":963,"Ġthough":964,"gan":965,"Ġmin":966,"ility":967,"Ġbetween":968,"Ġlaw":969,"li":970,"Ġprov":971,"Ġdiffere":972,"Ġconf":973,"ell":974,"Ġinst":975,"ote":976,".âĢĿ":977,"Ġ$":978,"Ġnum":979,"ĊĊM":980,"Ġcar":981,"self":982,"eral":983,"Ġsign":984,"Ġcol":985,"Ġop":986,"Ġbr":987,"Ġsomet":988,"Ġaround":989,"Ġwr":990,"Ġsub":991,"ever":992,"Ġhigh":993,"ĊĊO":994,"Ġfound":995,"ĠitâĢĻs":996,"ues":997,"Ġrun":998,"Ġob":999,"ty":1000,"Ġhere":1001,"olog":1002,"ution":1003,"Ġthree":1004,"Ġcompan":1005,"Ġreally":1006,"velop":1007,"up":1008,"ĊĊF":1009,"Ġinter":1010,"Ġsupport":1011,"âĢĻre":1012,"arch":1013,"read":1014,"Ġmem":1015,"uss":1016,"ĠTrump":1017,"Ġmed":1018,"Ġgroup":1019,"Ġter":1020,"Ġreal":1021,"cent":1022,"Ġstr":1023,"ix":1024,"Ġsystem":1025,"enc":1026,"Ġref":1027,"Ġins":1028,"ax":1029,"Ġret":1030,"Ġdisc":1031,"ĊĊTh":1032,"gg":1033,"Ġpublic":1034,"a,":1035,"Ġed":1036,"der":1037,"land":1038,"Ġused":1039,"ract":1040,"Ġgreat":1041,"Ġfam":1042,"Ġcour":1043,"Ġtrans":1044,"Ġwom":1045,"ather":1046,"Ġexp":1047,"ouse":1048,"ĠThey":1049,"atch":1050,"Ġfind":1051,"Ġboth":1052,"air":1053,"Ġhapp":1054,"hip":1055,"ool":1056,"Ġtold":1057,"Ġduring":1058,"Ġcur":1059,"Ġexper":1060,"ef":1061,"Ġmonth":1062,"ered":1063,"Ġbig":1064,"Ġhand":1065,"Ġass":1066,"Ġsince":1067,"Ġread":1068,"ng":1069,"ys":1070,"alth":1071,"io":1072,"ĠYou":1073,"Ġext":1074,"als":1075,"ĠIs":1076,"Ġcr":1077,"Ġiss":1078,"ense":1079,"cept":1080,"Ġdevelop":1081,"Ġfew":1082,"ording":1083,"ves":1084,"ĠFr":1085,"ision":1086,"Ġfact":1087,"Ġfollow":1088,"Ġrep":1089,"Ġwar":1090,"Ġperson":1091,"ĠIâĢĻ":1092,"Ġdet":1093,"Ġcre":1094,"cess":1095,"irect":1096,"ave":1097,"Ġlot":1098,"ros":1099,"ms":1100,"Ġpolit":1101,"ular":1102,"Ġ6":1103,"ĊĊC":1104,"ics":1105,"ead":1106,"its":1107,"Ġleg":1108,"Ġask":1109,"ee":1110,"led":1111,"Ġbelie":1112,"S.":1113,"ared":1114,"Ġcontin":1115,"Ġcent":1116,"Ġput":1117,"Ġaut":1118,"ĠSo":1119,"imes":1120,"Ġanother":1121,"Ġplan":1122,"Ġexpl":1123,"ists":1124,"Ġopp":1125,"ĠCom":1126,"con":1127,"Ġsomething":1128,"get":1129,"Ġrequ":1130,"ĠIf":1131,"Ġprot":1132,"akes":1133,"Ġsl":1134,"Ġinvest":1135,",âĢĿ":1136,"ĠdonâĢĻt":1137,"Ġ10":1138,"ivers":1139,"ner":1140,"Ġdifferent":1141,"Ġfil":1142,"Ġcle":1143,"ures":1144,"Ġmark":1145,"Ġart":1146,"Ġresp":1147,"ation.":1148,"Ġsays":1149,"Ġrele":1150,"bers":1151,"Ġseason":1152,"orth":1153,"Ġcamp":1154,"ines":1155,"ĠCl":1156,"rent":1157,"ention":1158,"Ġhome":1159,"ism":1160,"Ġnext":1161,"chool":1162,"Ġmight":1163,"Ġit.":1164,"ly,":1165,"ale":1166,"Ġfar":1167,"Ġtry":1168,"Ġcommun":1169,"pr":1170,"ĠU.":1171,"Ġloc":1172,"ames":1173,"ters":1174,"Ġnever":1175,"Ġeach":1176,"Ġpower":1177,"Ġcome":1178,"ts":1179,"Ġgiv":1180,"Ġpercent":1181,"ĠAl":1182,"Ġgot":1183,"ation,":1184,"Ġlife":1185,"ĊĊP":1186,"Ġopen":1187,"Ġposs":1188,"Ġallow":1189,"000":1190,"oh":1191,"Ġ.":1192,"Ġchild":1193,"Ġhead":1194,"Ġbest":1195,"erest":1196,"Ġquest":1197,"ĠThat":1198,"min":1199,"Ġseem":1200,"ĠAn":1201,"Ġpass":1202,"arge":1203,"att":1204,"Ġsecond":1205,"ok":1206,"Ġadv":1207,"Ġbus":1208,"Ġfeel":1209,"Ġche":1210,"Ġ[":1211,"ittle":1212,"ĠRep":1213,"aj":1214,"Ġcor":1215,"ton":1216,"Ġmillion":1217,"Ġdep":1218,"med":1219,"ically":1220,"ĠFor":1221,"ĠU.S.":1222,"Ġinf":1223,"hes":1224,"Ġincluding":1225,"son":1226,"ric":1227,"er.":1228,"view":1229,"Ġincre":1230,"ret":1231,"Ġdat":1232,"ute":1233,"ĠRe":1234,"Ġwithout":1235,"Ġrecent":1236,"az":1237,"Ġbo":1238,"Ġdem":1239,"Ġmet":1240,"a.":1241,"Ġplace":1242,"Ġcare":1243,"Ġpri":1244,"Ġcountry":1245,"ital":1246,"Ġimport":1247,"Ġconc":1248,"nce":1249,"Ġcontro":1250,"Ġresult":1251,"gram":1252,"Ġinform":1253,"Ġdirect":1254,"Ġca":1255,"Ġbuild":1256,"Ġhard":1257,"Ġproble":1258,"ross":1259,"Ġ7":1260,"Ġnumber":1261,"Ġwin":1262,"Ġtop":1263,"conom":1264,"ned":1265,"Ġav":1266,"ĠSe":1267,"Ġbetter":1268,"lection":1269,",000":1270,"ĊĊR":1271,"ĠUS":1272,"ten":1273,"Ġide":1274,"Ġlittle":1275,"ĊĊD":1276,"anc":1277,"Ġlet":1278,"Ġtalk":1279,"Ġdist":1280,"ĊĊN":1281,"Ġpost":1282,"rat":1283,"ever,":1284,"ah":1285,"Ġstand":1286,"Ġinterest":1287,"ple":1288,"ption":1289,"ired":1290,"Ġfour":1291,"ĠAmerican":1292,"We":1293,"Ġturn":1294,"Ġkeep":1295,"ers,":1296,"Ġcalled":1297,"Ġcase":1298,"Ġpartic":1299,"ĠLe":1300,"aim":1301,"ize":1302,"Ġann":1303,"Ġpolice":1304,"Ġpay":1305,"chn":1306,"Ġbeh":1307,"Ġappro":1308,"ield":1309,"Ġthings":1310,"Ġattack":1311,"Ġhum":1312,"ĠAr":1313,"Ġmil":1314,"ash":1315,"Ġmove":1316,"uc":1317,"Ġleft":1318,"line":1319,"Ġtri":1320,"ajor":1321,"ĠThere":1322,"ĠSh":1323,"thing":1324,"ished":1325,"Ġel":1326,"Ġless":1327,"Ġfull":1328,"Ġusing":1329,"erv":1330,"Ġserv":1331,"ars":1332,"Ġprogram":1333,"Ġ8":1334,"Ġrest":1335,"Ġprev":1336,"ature":1337,"Ġmain":1338,"Ġpop":1339,".\"":1340,"ral":1341,"ways":1342,"ized":1343,"ages":1344,"Ġpresident":1345,"ined":1346,"Ġeconom":1347,"Ġmod":1348,"osed":1349,"ices":1350,"Ġgl":1351,"imate":1352,"ĠInd":1353,"Ġlist":1354,"Ġtest":1355,"leg":1356,"Ġcurrent":1357,"Ġit's":1358,"ertain":1359,"Ġwomen":1360,"Ġschool":1361,"inal":1362,"ody":1363,"Ġchange":1364,"'re":1365,"Ġform":1366,"ex":1367,"Ġsmall":1368,"Ġeas":1369,"Ġalread":1370,"Ġeffect":1371,"ably":1372,"Ġofficial":1373,"Ġrece":1374,"Ġlevel":1375,"ĠDe":1376,"Ġgr":1377,"ug":1378,"le,":1379,"Ġfun":1380,"Ġdri":1381,"Ġ9":1382,"iness":1383,"Ġexpect":1384,"Ġrese":1385,"ers.":1386,"Ġprom":1387,"ĠUnited":1388,"ives":1389,"Ġval":1390,"Ġmone":1391,"Ġchar":1392,"Ġhappen":1393,"It":1394,"aign":1395,"orn":1396,"o,":1397,"Ġjob":1398,"Ġhist":1399,"Ġreason":1400,"Ġproject":1401,"ama":1402,"Ġalready":1403,"hat":1404,"Ġclaim":1405,"Ġable":1406,"Ġthing":1407,"Ġmarket":1408,"ĠBl":1409,"Ġunt":1410,"Ġnews":1411,"Ġmajor":1412,"ience":1413,"ploy":1414,"Ġlater":1415,"ĠOb":1416,"ĊĊBut":1417,"uck":1418,"Ġhealth":1419,"Ġ--":1420,"ĊĊIt":1421,"ins":1422,"Ġcap":1423,"Ġstory":1424,"Ġalways":1425,"Ġdesign":1426,"Ġtechn":1427,"Ġcity":1428,"Ġpast":1429,"iversity":1430,"ĊĊL":1431,"ott":1432,"uro":1433,"rem":1434,"ĠHow":1435,"Ġty":1436,"Ġaway":1437,"Ġchang":1438,"ided":1439,"Ġwhy":1440,"ohn":1441,"Ġbre":1442,"ised":1443,"Ġorgan":1444,"atter":1445,"ĠAt":1446,"Ġsol":1447,"Ġcampaign":1448,"ering":1449,"ĠChr":1450,"Ġimportant":1451,"Ġbook":1452,",\"":1453,"Ġspec":1454,"hor":1455,"Ġleast":1456,"Ġvis":1457,"Ġfree":1458,"pped":1459,"the":1460,"less":1461,"ission":1462,"Ġgrow":1463,"ling":1464,"gy":1465,"Ġcame":1466,"ode":1467,"Ġmaking":1468,"Ġhop":1469,"Ġprof":1470,"ĠPres":1471,"ration":1472,"Ġremain":1473,"ern":1474,"urity":1475,"ird":1476,"Ġkill":1477,"ants":1478,"Ġtell":1479,"Ġenough":1480,"Ġold":1481,"Ġoper":1482,"Ġcost":1483,"Ġmust":1484,"stand":1485,"reen":1486,"work":1487,"Ġfamily":1488,"Ġdeal":1489,"used":1490,"ari":1491,"Ġear":1492,"outh":1493,"Ġevent":1494,"ĠCan":1495,"Ġrecord":1496,"ĠRepublic":1497,"Ġvide":1498,"ior":1499,"Ġlarge":1500,"Ġuntil":1501,"ĠShe":1502,"Ġkind":1503,"Ġtax":1504,"Ġpolic":1505,"Ġpolitical":1506,"Ġmen":1507,"Ġest":1508,"iend":1509,"Ġcompany":1510,"Ġtook":1511,"oss":1512,"Ġfriend":1513,"Ġaccording":1514,"ier":1515,"ĠPro":1516,"Ġview":1517,"Ġformer":1518,"Ġpur":1519,"Ġmean":1520,"ured":1521,"Ġsit":1522,"Ġaff":1523,"Ġbecome":1524,"r.":1525,"Ġdra":1526,"ĠI'":1527,"Ġdata":1528,"side":1529,"Ġactually":1530,"arent":1531,"ĊĊThis":1532,"Ġproblem":1533,"Ġdr":1534,"vert":1535,"Ġpat":1536,"Ġquestion":1537,"Ġline":1538,"Ġvot":1539,"Ġla":1540,"ĠJohn":1541,"Ġwon":1542,"nes":1543,"Ġbas":1544,"atur":1545,"Ġgive":1546,"Ġconst":1547,"Ġfund":1548,"Ġworking":1549,"Ġintern":1550,"Ġoften":1551,"ending":1552,"ocrat":1553,"Ġhuman":1554,"here":1555,"Ġdeb":1556,"Ġmeet":1557,"ment.":1558,"ĠPh":1559,"ĊĊE":1560,"ister":1561,"ency":1562,"ness":1563,"ik":1564,"Ġsk":1565,"Ġcomplet":1566,"Ġlo":1567,"Ġsever":1568,"ional":1569,"Ġever":1570,"Ġbusiness":1571,"crib":1572,"Ġve":1573,"Ġgener":1574,"ĠRuss":1575,"wit":1576,"ĠPresident":1577,"Ġtoday":1578,"Ġbro":1579,"Ġdon't":1580,"gin":1581,"eng":1582,"cu":1583,"Ġmedia":1584,"ĠEuro":1585,"Ġreturn":1586,"most":1587,"Ġbit":1588,"uture":1589,"Ġgra":1590,"Ġseen":1591,"ĠDem":1592,"Ġwhether":1593,"Ġes":1594,"Ġhaving":1595,"Ġclass":1596,"Ġair":1597,"ĠComm":1598,"Ġappear":1599,"Ġinformation":1600,"Ġlear":1601,"ware":1602,"Ġ=":1603,"Ġseveral":1604,"ĠAd":1605,"ror":1606,"Ġnight":1607,"Ġname":1608,"Ġperform":1609,"Ġwent":1610,"Ġedit":1611,"Ġword":1612,"e.":1613,"ruct":1614,"Ġearly":1615,"Ġfore":1616,"iol":1617,"ets":1618,"ember":1619,"Ġyoung":1620,"Ġsure":1621,"Ġchildren":1622,"ov":1623,"ived":1624,"e,":1625,"ies,":1626,"ĠYork":1627,"augh":1628,"Ġsci":1629,"Ġlikely":1630,"ality":1631,"ither":1632,"Ġmembers":1633,"Ġdev":1634,"Ġcharact":1635,"Ġfive":1636,"ĠMay":1637,"Ġprocess":1638,"Ġsucc":1639,"aken":1640,"mber":1641,"ator":1642,"Ġpot":1643,"ient":1644,"Ġaction":1645,"Ġalong":1646,"Ġcertain":1647,"ĠItâĢĻs":1648,"Ġorder":1649,"ety":1650,"Ġmoney":1651,"Ġmilit":1652,"ĠBe":1653,"Ġdone":1654,"Ġcrit":1655,"ying":1656,"Ġcontrol":1657,"ider":1658,"alf":1659,"Ġinvol":1660,"Ġsocial":1661,"Ġ0":1662,"Ġhour":1663,"ĠEurope":1664,"artment":1665,"Ġfac":1666,"Ġsing":1667,"Ġamong":1668,"Ġfuture":1669,"Ġinvestig":1670,"Ġbra":1671,"Ġfight":1672,"Ġvers":1673,"Ġcourse":1674,"Ġexamp":1675,"o.":1676,"ortun":1677,"ush":1678,"idence":1679,"Ġthought":1680,"Ġ12":1681,"aring":1682,"Ġside":1683,"Ġarg":1684,"Ġwater":1685,"ney":1686,"ĠSy":1687,"ĠIâĢĻm":1688,"ĠMan":1689,"âĢĻve":1690,"Ġpress":1691,"ream":1692,"Ġwithin":1693,"Ġlocal":1694,"ides":1695,"bs":1696,"ison":1697,"Ġacross":1698,"Ġris":1699,"ified":1700,"-y":1701,"Ġcommunity":1702,"Ġdoing":1703,"Ġavail":1704,"Ġauthor":1705,"Ġeng":1706,"Ġknown":1707,"Ġonce":1708,"Ġmakes":1709,"Ġyet":1710,"Ġpossible":1711,"Ġunderstand":1712,"com":1713,"Ġshort":1714,"ederal":1715,"Ġprop":1716,"Ġben":1717,"Ġgetting":1718,"Ġviol":1719,"Ġsex":1720,"ĠAll":1721,"Ġocc":1722,"Ġannoun":1723,"Ġhold":1724,"ential":1725,"ĠSp":1726,"Ġsaid,":1727,"Ġstat":1728,"ague":1729,"ina":1730,"Ġequ":1731,"ggest":1732,"ĠHouse":1733,"Ġprotect":1734,"ued":1735,"ĠState":1736,"Ġpriv":1737,"ies.":1738,"Ġsuggest":1739,"empt":1740,"Ġbelieve":1741,"ĠQ":1742,"Ġproduct":1743,"co":1744,"ĠWhen":1745,"ĠPl":1746,"be":1747,"Ġ2016":1748,"..":1749,"Ġgiven":1750,"ubl":1751,"--":1752,"Ġactiv":1753,"verage":1754,"Ġwrit":1755,"Ġ15":1756,"Ġfail":1757,"-year":1758,"Ġland":1759,"ĠObama":1760,"ĠMar":1761,"Ġpa":1762,"ron":1763,"Ġorig":1764,"Ġelect":1765,"oot":1766,"ĠDemocrat":1767,"Ġstrong":1768,"Ġjo":1769,"ĠâĢľI":1770,"ĠUniversity":1771,"icle":1772,"Ġit,":1773,"ĠPr":1774,"Ġplayers":1775,"Ġclose":1776,"ĠCol":1777,"Ġmeans":1778,"idd":1779,"ched":1780,"Ġcut":1781,"ining":1782,"Ġ199":1783,"cl":1784,"Ġdi":1785,"iqu":1786,"Ġ&":1787,"ained":1788,"Ġsent":1789,"ivid":1790,"ended":1791,"ensive":1792,"Ġavailable":1793,"Ġissue":1794,"Ġnational":1795,"ĠOn":1796,"ĠZ":1797,"ĠSen":1798,"ged":1799,"Ġcomes":1800,"ĠOr":1801,"ĠSc":1802,"Ġident":1803,"nect":1804,"Ġsour":1805,"urs":1806,"Ġposition":1807,"Ġcreat":1808,"Ġ18":1809,"Ġfilm":1810,"ox":1811,"rew":1812,"soci":1813,"ble":1814,"Ġsaf":1815,"Ġ,":1816,"Ġmus":1817,"aps":1818,"Ġtrying":1819,"ony":1820,"lement":1821,"ball":1822,"ology":1823,"urther":1824,"Ġbased":1825,"ially":1826,"Ġlove":1827,"Ġalmost":1828,"Ġindust":1829,"ober":1830,"reet":1831,"Ġfoc":1832,"Ġvideo":1833,"ĠWhat":1834,"Ġdays":1835,"Ġlight":1836,"ĠdidnâĢĻt":1837,"Ġhistory":1838,"Ġnet":1839,"ards":1840,"Ġ2015":1841,"iting":1842,"ĊĊAs":1843,"Ġasked":1844,"ashing":1845,"Ġcourt":1846,"Ġemploy":1847,"ks":1848,"Ġsuccess":1849,"Ġtoget":1850,"Ġtogether":1851,"Ġlim":1852,"Ġfollowing":1853,"Ġaccount":1854,"itive":1855,"You":1856,"Ġclear":1857,"ĠCar":1858,"Ġdeath":1859,"Ġaddition":1860,"Ġmom":1861,"Ġhig":1862,"Ġexperience":1863,"iron":1864,"iving":1865,"Ġlooking":1866,"ĠCent":1867,"ians":1868,"âĢĻll":1869,"ĠChrist":1870,"ger":1871,"Ġstarted":1872,"cially":1873,"lex":1874,"Ġelection":1875,"Ġrul":1876,"on,":1877,"book":1878,"ĊĊHe":1879,"por":1880,"Ġcond":1881,"ment,":1882,"Ġbill":1883,"Ġreported":1884,"Ġimpro":1885,"Ġrepres":1886,"ĠCon":1887,"by":1888,"Ġpar":1889,"rest":1890,"ion,":1891,"Ġtrad":1892,"ion.":1893,"orld":1894,"Ġlive":1895,"ĠCanad":1896,"Ġtaken":1897,"ately":1898,"rop":1899,"Ġeffort":1900,"Ġ]":1901,"Ġsecurity":1902,"ay,":1903,"Ġbehind":1904,"Ġ2014":1905,"ament":1906,"ĠOne":1907,"Ġdecision":1908,"ilar":1909,"Ġaccess":1910,"ases":1911,"ising":1912,"Ġentire":1913,"ely":1914,"Ġpract":1915,"minist":1916,"ief":1917,"ald":1918,"Ġcou":1919,"ĠMin":1920,"for":1921,"though":1922,"Ġfav":1923,"gress":1924,"ĠClint":1925,"ium":1926,"Ġ30":1927,"Ġmilitary":1928,"uge":1929,"Ġpick":1930,"Ġvict":1931,"iously":1932,"ustom":1933,"Ġlow":1934,"Ġthreat":1935,"ĠMc":1936,"iber":1937,"Ġcompet":1938,"Ġi":1939,"rict":1940,"Ġsix":1941,"Ġbad":1942,"erence":1943,"Ġsomeone":1944,"uly":1945,"Ġrather":1946,"rael":1947,"app":1948,"ĠthatâĢĻs":1949,"Ġ11":1950,"Ġbring":1951,"Ġpresent":1952,"Ġanal":1953,"Ġpubl":1954,"Ġindivid":1955,"ĠCo":1956,"hile":1957,"Ġface":1958,"Ġgames":1959,"Ġtaking":1960,"Ġtimes":1961,"Ġphot":1962,"Ġdiscuss":1963,"Ġnear":1964,"Ġquick":1965,"Ġmor":1966,"ĠNorth":1967,"Ġmiss":1968,"Ġpret":1969,"Ġtot":1970,"ries":1971,"ĠTe":1972,"ury":1973,"to":1974,"Ġhalf":1975,"Ġthem.":1976,"ĠDon":1977,"ĠdoesnâĢĻt":1978,"Ġproper":1979,"use":1980,"ĠNational":1981,"unch":1982,"Ġfall":1983,"ĊĊG":1984,"Ġtime,":1985,"Ġattempt":1986,"Ġfood":1987,"aff":1988,"ift":1989,"Ġspecial":1990,"ran":1991,"Ġthat,":1992,").":1993,"ĠAm":1994,"iver":1995,"Ġprobably":1996,"Ġwanted":1997,"not":1998,"ĠDep":1999,"Ġindividual":2000,"Ġfre":2001,"rug":2002,"ulation":2003,"ashington":2004,"ization":2005,"ories":2006,"Ġmar":2007,"Ġresearch":2008,"Ġyear,":2009,"ĊĊJ":2010,"Ġtoward":2011,"ĠSec":2012,"ĠCity":2013,"rown":2014,"ĠAf":2015,"une":2016,"Ġmess":2017,"lo":2018,"ia,":2019,"Ġdetail":2020,"uff":2021,"Ġnothing":2022,"Ġmodel":2023,"ster":2024,"ĠJan":2025,"Ġhit":2026,"Ġspace":2027,"oice":2028,"oint":2029,"Ġ$1":2030,"Ġredu":2031,"ply":2032,"aster":2033,"ĠâĢľThe":2034,"ĠBrit":2035,"ĠPol":2036,"Ġfederal":2037,"ĠWar":2038,"Ġidea":2039,"ots":2040,"ĠIsrael":2041,"Ġmatter":2042,"ctions":2043,"cher":2044,"back":2045,"Ġ/":2046,"Ġfoot":2047,"Ġsus":2048,"Ġcomb":2049,"ĠEng":2050,"erman":2051,"Ġwrote":2052,"Ġmind":2053,"Ġsimilar":2054,"Ġcreate":2055,"Ġdescrib":2056,"Ġelse":2057,"Ġcult":2058,"Ġbegin":2059,"ĠWorld":2060,"Ġbenef":2061,"Ġblack":2062,"Ġconnect":2063,"Ġchall":2064,"Ġexist":2065,"eb":2066,"Ġkey":2067,"Ġmanag":2068,"ĊĊâĢľI":2069,"Ġeither":2070,"irl":2071,"ĠBr":2072,"Ġbank":2073,"viron":2074,"ley":2075,"ĠTo":2076,"Ġsingle":2077,"Ġsum":2078,"Ġservice":2079,"Ġfront":2080,"ĠWashington":2081,"icult":2082,"ĊĊAnd":2083,"Ġfurther":2084,"rodu":2085,"Ġcoming":2086,"ĠWith":2087,"Ġstop":2088,"pite":2089,"ĠAust":2090,"Ġsaying":2091,"ann":2092,"Ġtarg":2093,"ĠyouâĢĻre":2094,"Ġrepl":2095,"Ġsignific":2096,"Ġmonths":2097,"ĠClinton":2098,"Ġcand":2099,"Ġparty":2100,"unt":2101,"Ġsal":2102,"Ġfig":2103,"enn":2104,"Ġthird":2105,"Ġwatch":2106,"Ġfinal":2107,"Ġblock":2108,"gle":2109,"Ġdue":2110,"ability":2111,"Ġstep":2112,"Ġexec":2113,"Ġcontinue":2114,"elt":2115,"Ġseems":2116,"Ġconv":2117,"Ġhouse":2118,"Ġoutside":2119,"Ġ2013":2120,"Ġenc":2121,"Ġprovide":2122,"Ġbegan":2123,"Ġfield":2124,"Ġtime.":2125,"witter":2126,"Ġwa":2127,"Ġant":2128,"pecially":2129,"Ġcustom":2130,"Ġer":2131,"osp":2132,"Ġmeas":2133,"or,":2134,"irm":2135,"Ġseries":2136,"alif":2137,"Ġoffice":2138,"Th":2139,"Ġmass":2140,"an,":2141,"cing":2142,"ĠFl":2143,"Ġamount":2144,"ĊĊIf":2145,"ĠSouth":2146,"ourn":2147,"Ġroom":2148,"Ġfire":2149,"Ġemail":2150,"ĠDav":2151,"lling":2152,"arter":2153,"Ġ2017":2154,"Ġrunning":2155,"ored":2156,"Ġgoal":2157,"acy":2158,"Ġinterview":2159,"raph":2160,"Ġ2012":2161,"Ġcheck":2162,"Ġscen":2163,"Ġreleased":2164,"ĊĊU":2165,"Ġener":2166,"ĊĊWe":2167,"Ġlarg":2168,"Ġbecame":2169,"Ġdocu":2170,"Ġfeat":2171,"Ġgeneral":2172,"Ġwhole":2173,"Ġhimself":2174,"Ġstri":2175,"Ġimm":2176,"Ġthemsel":2177,"Ġsound":2178,"my":2179,"Ġrepresent":2180,"asing":2181,"ilt":2182,"ands":2183,"Ġanything":2184,"ĠInst":2185,"Ġeveryone":2186,"Ġadminist":2187,"Ġtreat":2188,"Ġitself":2189,"acebook":2190,"Ġsimply":2191,"Ġspecific":2192,"obal":2193,"ĠIntern":2194,"arm":2195,"Ġabove":2196,"Ġdam":2197,"ribut":2198,"Ġrelease":2199,"ĠJust":2200,"Ġinit":2201,"Ġyear.":2202,"ĠStates":2203,"Ġrole":2204,"dd":2205,"Ġinfl":2206,"Ġappe":2207,"Ġrelations":2208,"Ġdifficult":2209,"Ġbreak":2210,"Ġbelow":2211,"Ġsitu":2212,"ivil":2213,"amed":2214,"Ġgun":2215,"Ġprofess":2216,"ĠRepublican":2217,"Ġforward":2218,"Ġmult":2219,"Ġtre":2220,"Ġsignificant":2221,"Ġagree":2222,"Ġpretty":2223,"ĠIm":2224,"ĊĊ\"I":2225,"ffic":2226,"Ġcandid":2227,"olution":2228,"Ġtrue":2229,"Ġalleg":2230,"Ġindustry":2231,"Ġquite":2232,"ĊĊFor":2233,"play":2234,"Ġinj":2235,"Ġnetwork":2236,"Ġbillion":2237,"Ġcharg":2238,"Ġevidence":2239,"ĠX":2240,"ones":2241,"Ġlegal":2242,"Ġlab":2243,"par":2244,"abl":2245,"ault":2246,"ĠTwitter":2247,"ĊĊ1":2248,"Ġdrug":2249,"Ġsaw":2250,"ĠPart":2251,"Ġans":2252,"Ġplayer":2253,"Ġinclude":2254,"Ġground":2255,"itted":2256,"Ġwalk":2257,"ĠEx":2258,"Ġey":2259,"ĠcanâĢĻt":2260,"Ġneg":2261,"ination":2262,"Ġmusic":2263,"ly.":2264,"Ġtyp":2265,"Ġstay":2266,"Ġespecially":2267,"Ġrespons":2268,"Ġ\"I":2269,"20":2270,"Ġvote":2271,"ains":2272,"Ġsw":2273,"Ġeconomic":2274,"Ġcoun":2275,"ccording":2276,"Ġ25":2277,"Ġearli":2278,"Ġstudy":2279,"ĠHowever,":2280,"ibility":2281,"ĠApp":2282,"Ġlost":2283,"Ġdeep":2284,"Ġleaders":2285,"m.":2286,"pping":2287,"Ġplayed":2288,"Ġdou":2289,"ances":2290,"Ġlate":2291,"ĠHar":2292,"Ġofficials":2293,"oid":2294,"Ġinstead":2295,"ape":2296,"Ġplaying":2297,"Ġball":2298,"-old":2299,"ĠGerman":2300,"aul":2301,"ĠHis":2302,"ane":2303,"ring":2304,"Ġsense":2305,"Ġyears,":2306,"ĠBar":2307,"lim":2308,"Ġmoment":2309,"ĠGe":2310,"Ġcop":2311,"Ġothers":2312,"Ġz":2313,"Ġopportun":2314,"iod":2315,"Ġenviron":2316,"ĠWhite":2317,"Ġbar":2318,"ĊĊThere":2319,"Ġ16":2320,"ĠAfter":2321,"Ġsite":2322,"Ġplac":2323,"Ġshare":2324,"Ġcommon":2325,"Ġdom":2326,"Ġ)":2327,"Ġhost":2328,"Ġwhite":2329,"Ġtrack":2330,"ify":2331,"arth":2332,"ournal":2333,"ĠAmerica":2334,"Ġonline":2335,"Ġbuilding":2336,"ĊĊOn":2337,"Ġadded":2338,"Ġshoot":2339,"atic":2340,"Ġeverything":2341,"Ġcondition":2342,"Ġversion":2343,"Ġpolicy":2344,"Ġ100":2345,"iday":2346,"Ġcra":2347,"Ġ13":2348,"'ve":2349,"Ġkid":2350,"Ġaddress":2351,"Ġpotential":2352,"Ġcompanies":2353,"amer":2354,"Ġrisk":2355,"Ġtarget":2356,"Ġwebs":2357,"ancial":2358,"Ġmov":2359,"Ġphys":2360,"ĠSyri":2361,"Ġrad":2362,"Ġheld":2363,"Ġtem":2364,"ĠOct":2365,"ĠWest":2366,"Ġshot":2367,"ĠCong":2368,"Ġdest":2369,"ural":2370,"Ġpie":2371,"Ġ14":2372,"ival":2373,"Ġdecl":2374,"Ġlink":2375,"Ġneeds":2376,"Ġshows":2377,"oogle":2378,"Ġpoints":2379,"Ġled":2380,"ĠSept":2381,"Ġvalue":2382,"Ġaccept":2383,"Ġjud":2384,"ĠI'm":2385,"-p":2386,"Ġwoman":2387,"ĠMarch":2388,"attle":2389,"ler":2390,"iddle":2391,"Ġreve":2392,"ogn":2393,"Ġminut":2394,"Ġanim":2395,"This":2396,"ĠDepartment":2397,"sh":2398,"lege":2399,"Ġple":2400,"iam":2401,"-year-old":2402,"Ġfocus":2403,"lf":2404,"ĊĊâĢľThe":2405,"Ġabs":2406,"Ġanyone":2407,"angu":2408,"Ġwrong":2409,"-f":2410,"ĠEd":2411,"Ġstru":2412,"Ġ|":2413,"ĠRes":2414,"Ġperiod":2415,"Ġannounced":2416,"Ġparent":2417,"ance,":2418,"Ġconcern":2419,"Ġopt":2420,"Ġeduc":2421,"Ġpain":2422,"uesday":2423,"Ġexc":2424,"ĠMond":2425,"now":2426,"Ġdeter":2427,"ateg":2428,"ried":2429,"Ġyears.":2430,"ev":2431,"Ġconsum":2432,"ĠMus":2433,"Ġstudents":2434,"medi":2435,"Ġrights":2436,"ularly":2437,"ached":2438,"ĠMed":2439,"irt":2440,"Ġcred":2441,"ators":2442,"Ġpersonal":2443,"Ġarea":2444,"mb":2445,"ĠFacebook":2446,"Ġtotal":2447,"Ġdel":2448,"where":2449,"ĠThese":2450,"Ġgam":2451,"Ġupd":2452,"Ġconsider":2453,"Ġhope":2454,"Ġpopular":2455,"Ġsold":2456,"Ġreview":2457,"Ġvar":2458,"indow":2459,"Ġhigher":2460,"ĠWill":2461,"Ġtit":2462,"ĠNot":2463,"Ġ:":2464,"Ġrelig":2465,"Ġport":2466,"cle":2467,"ask":2468,"ĠIt's":2469,"ĠMich":2470,"BC":2471,"ĠTuesday":2472,"itution":2473,"Ġgirl":2474,"Ġcreated":2475,"Ġbody":2476,"Ġrate":2477,"Ġcode":2478,"Ġfunction":2479,"Ġcontract":2480,"Ġ198":2481,"ĠSu":2482,"Ġfavor":2483,"Ġmot":2484,"Ġsurpr":2485,"Ġnearly":2486,"cy":2487,"ĠGu":2488,"Ġprivate":2489,"Ġap":2490,"-t":2491,"onse":2492,"sc":2493,"Ġdidn't":2494,"Ġansw":2495,"Ġmag":2496,"Ġfamil":2497,"Ġsuper":2498,"Ġhowever,":2499,"Ġsoon":2500,"Ġincrease":2501,"ity.":2502,"ĠAug":2503,"Ġapplic":2504,"Ġage":2505,"Ġscient":2506,"ats":2507,"Ġobject":2508,"Ġce":2509,"pril":2510,"-c":2511,"Ġimpact":2512,"right":2513,"Ġneeded":2514,"Ġcharacter":2515,"ittee":2516,"sec":2517,"Ġexecut":2518,"Ġinvolved":2519,"epend":2520,"head":2521,"ully":2522,"Ġstaff":2523,"uary":2524,"ends":2525,"Ġlonger":2526,"Ġsen":2527,"iding":2528,"lam":2529,"ien":2530,"sy":2531,"Ġprim":2532,"ĠNo":2533,"Ġdevelopment":2534,"Ġaud":2535,"cil":2536,"Ġcomput":2537,"Ġexact":2538,"Ġargu":2539,"istic":2540,"Ġ50":2541,"Ġcannot":2542,"ograph":2543,"lev":2544,"ĠisnâĢĻt":2545,"Ġbase":2546,"Ġcir":2547,"uel":2548,"ĠheâĢĻs":2549,"ĠDo":2550,"Ġspok":2551,"Ġdead":2552,"ai":2553,"Ġarrest":2554,"Ġreceived":2555,"ĠAustral":2556,"Ġpack":2557,"Ġnecess":2558,"Ġforce":2559,"itting":2560,"Ġrecently":2561,"ĠHill":2562,"ĠGen":2563,"Ġinternational":2564,"Ġspeak":2565,"Ġpred":2566,"Ġinside":2567,"Ġep":2568,"Ġvari":2569,"Ġleave":2570,"age.":2571,"ĠMr.":2572,"ĠWed":2573,"Ġrespect":2574,"Ġexpress":2575,"oke":2576,"Ġaverage":2577,"Ġ17":2578,"hern":2579,"Ġ2011":2580,"Ġred":2581,"nesday":2582,"Ġclub":2583,"ently":2584,"hood":2585,"Ġcontent":2586,"aut":2587,"Ġenergy":2588,"isl":2589,"over":2590,"Ġoriginal":2591,"Ġextrem":2592,"ursday":2593,"Ġden":2594,"Ġ'":2595,"body":2596,"omm":2597,"ĠGo":2598,"ĠApril":2599,"ilities":2600,"Ġworth":2601,"Ġcomment":2602,"Ġterror":2603,"Ġfinancial":2604,"Ġste":2605,"iet":2606,"Ġhours":2607,"Ġoppos":2608,"Ġglobal":2609,"hod":2610,"Ġresponse":2611,"Ġbecom":2612,"vertise":2613,"set":2614,"Ġrelationship":2615,"Ġcivil":2616,"Ġstatement":2617,"Ġrespond":2618,"ĠAb":2619,"Ġimmedi":2620,"ĠCount":2621,"ĠMy":2622,"ĊĊWhat":2623,"ĠWednesday":2624,"ery":2625,"ourt":2626,"Ġpublished":2627,"ĠWhile":2628,"fect":2629,"'ll":2630,"Ġsource":2631,"Ġlangu":2632,"ĊĊWhen":2633,"Ġability":2634,"Ġphone":2635,"oring":2636,"Ġtakes":2637,"Ġprice":2638,"Ġord":2639,"Ġstates":2640,"ĠThursday":2641,"haps":2642,"go":2643,"ĊĊAn":2644,"urd":2645,"Ġ\"The":2646,"Ġcurrently":2647,"Ġdecided":2648,"Ġrequest":2649,"ively":2650,"ray":2651,"Ġlat":2652,"rought":2653,"umb":2654,"ity,":2655,"Ġbroad":2656,"Ġoil":2657,"Ġexpected":2658,"Ġmoder":2659,"af":2660,"Ġchance":2661,"ĠSund":2662,"Ġgave":2663,"ĊĊSt":2664,"Ġlack":2665,"Ġtype":2666,"Ġarticle":2667,"Ġissues":2668,"ĊĊ\"The":2669,"Ġmater":2670,"yn":2671,"ender":2672,"Ġwhose":2673,"ĠCalif":2674,"Ġchanges":2675,"itiz":2676,"ĠGoogle":2677,"Ġdirector":2678,"itten":2679,"Ġstudent":2680,"Ġvol":2681,"Ġforeign":2682,"ĠthereâĢĻs":2683,"Ġcouple":2684,"-b":2685,"Ġtradition":2686,"__":2687,"Ġhuge":2688,"Ġestabl":2689,"joy":2690,"ming":2691,"Ġsoft":2692,"ĠJap":2693,"Ġstra":2694,"Ġmember":2695,"Ġsoci":2696,"ech":2697,"ovember":2698,"ctor":2699,"ĠSome":2700,"ĠJuly":2701,"Ġrev":2702,"ally,":2703,"Ġemer":2704,"urch":2705,"Ġweap":2706,"aving":2707,"Ġroad":2708,"Ġsort":2709,"Ġbuy":2710,"Ġrequire":2711,"action":2712,"ĠNow":2713,"ging":2714,"Ġworked":2715,"Ġsays.":2716,"tain":2717,"Ġemb":2718,"Ġarri":2719,"Ġvia":2720,"Ġturned":2721,"ĊĊHow":2722,"ĠNews":2723,"ĠSan":2724,"Ġadm":2725,"Ġsimple":2726,"Ġintrodu":2727,"Ġthat's":2728,"Ġclos":2729,"Ġdiv":2730,"ĠJanuary":2731,"reg":2732,"Ġexample,":2733,"Ġpict":2734,"lt":2735,"Ġgroups":2736,"Ġ2010":2737,"),":2738,"-d":2739,"Ġareas":2740,"ĠGeor":2741,"ael":2742,"Ġboard":2743,"Ġliving":2744,"Ġsubject":2745,"ellig":2746,"Ġaffect":2747,"ĠâĢĺ":2748,"Ġtim":2749,"Ġspent":2750,"Ġassoci":2751,"ĠFeb":2752,"Ġwebsite":2753,"Ġcoll":2754,"Ġheart":2755,"oll":2756,"Ġmother":2757,"Ġvisit":2758,"Ġpoll":2759,"ches":2760,"ĠEuropean":2761,"Ġheav":2762,"duct":2763,"isc":2764,"rom":2765,"ĠTV":2766,"ĠSeptember":2767,"fer":2768,"Ġthemselves":2769,"atural":2770,"Ġnation":2771,"ĠDavid":2772,"ĠChina":2773,"Ġfelt":2774,"Ġnumbers":2775,"ript":2776,"off":2777,"Ġapproach":2778,"ĠNovember":2779,"Ġlaws":2780,"Ġimprove":2781,"Ġreveal":2782,"Ġcell":2783,"ighb":2784,"Ġ24":2785,"Ġbuilt":2786,"ĠPe":2787,"Ġregard":2788,"Ġinflu":2789,"Ġeasy":2790,"Ġindic":2791,"ought":2792,"Ġearlier":2793,"like":2794,"ĠMr":2795,"ĠIslam":2796,"Ġrace":2797,"Ġsecret":2798,"Ġrecogn":2799,"Ġthous":2800,"onst":2801,"ĊĊAd":2802,"ĠSte":2803,"ructure":2804,"Ġheard":2805,"Ġparticip":2806,"Ġdeli":2807,"ĠIâĢĻve":2808,"ĠCourt":2809,"ĠSm":2810,"Ġmorning":2811,"Ġvictim":2812,"Ġengine":2813,"Ġpull":2814,"Ġfem":2815,"ĠAct":2816,"ĠGod":2817,"ĠAfric":2818,"Ġcard":2819,"put":2820,"Ġcover":2821,"gest":2822,"Ġenjoy":2823,"load":2824,"Ġcountries":2825,"Ġlegisl":2826,"Ġtool":2827,"ser":2828,"ĊĊThat":2829,"Ġdefin":2830,"ĠJune":2831,"cast":2832,"come":2833,"ruction":2834,"AT":2835,"Ġtravel":2836,"ĠPaul":2837,"Ġlatest":2838,"Ġexample":2839,"Ġcapital":2840,"Ġnon":2841,"Ġmaterial":2842,"ĠRed":2843,"ĠCaliforn":2844,"Ġlearn":2845,"Ġdemand":2846,"Ġsuff":2847,"Ġur":2848,"aily":2849,"Ġrepe":2850,"Ġgoes":2851,"Ġround":2852,"age,":2853,"oard":2854,"Ġwants":2855,"Ġtrade":2856,"Ġhim.":2857,"anger":2858,"ĠRussian":2859,"Ġcollect":2860,"Ġprevious":2861,"ĠweâĢĻre":2862,"Ġfriends":2863,"ĠBy":2864,"ĠOctober":2865,"Ġproduction":2866,"Ġgets":2867,"ĠPal":2868,"ung":2869,"Ġlog":2870,"Ġmethod":2871,"Ġknew":2872,"Ġenvironment":2873,"Ġis,":2874,"ĊĊSo":2875,"Ġ21":2876,"Ġkilled":2877,"oto":2878,"hel":2879,"Ġneighb":2880,"Ġwide":2881,"light":2882,"Ġcal":2883,"Ġhear":2884,"Ġoffer":2885,"br":2886,"Ġreach":2887,"Ġbrought":2888,"Ġnorm":2889,"Ġfather":2890,"Ġmatch":2891,"ĠAugust":2892,"Ġdoesn't":2893,"Ġtown":2894,"ĠKore":2895,"âĢĻd":2896,"cember":2897,"Ġallowed":2898,"Ġthat.":2899,"Ġperfect":2900,"Ġens":2901,"aturday":2902,"ĠUK":2903,"Ġcoach":2904,"ĠPark":2905,"in,":2906,"ĠSenate":2907,"ique":2908,"ĠCongress":2909,"ĠBritish":2910,"Ġdig":2911,"alt":2912,"Ġtried":2913,"Ġ197":2914,"ana":2915,"Ġattention":2916,"Ġsto":2917,"Ġimag":2918,"Ġhon":2919,"Ġ{":2920,"50":2921,"Ġgrowth":2922,"ations.":2923,"Ġmat":2924,"Ġcause":2925,"Ġtext":2926,"Ġsepar":2927,".m.":2928,"Ġvarious":2929,"Ġveh":2930,"Ġlower":2931,"Ġet":2932,"Ġlooks":2933,"Ġparticular":2934,"Ġquestions":2935,"Ġsqu":2936,"Ġspokes":2937,"chie":2938,"Ġban":2939,"Ġplans":2940,"Ġmeeting":2941,"Ġbud":2942,"Ġfear":2943,"oose":2944,"Ġresults":2945,"Ġcritic":2946,"ĠStreet":2947,"Ġcontact":2948,"Ġmention":2949,"Ġfans":2950,"ĠJapan":2951,"Ġhom":2952,"ext":2953,"ĠEn":2954,"els":2955,"Ġweeks":2956,"Ġresident":2957,"Ġstar":2958,"omb":2959,"of":2960,"ĠRussia":2961,"iter":2962,"Ġcapt":2963,"ĠtheyâĢĻre":2964,"any":2965,"Ġcrim":2966,"Ġsearch":2967,"Ġexplain":2968,"Ġusers":2969,"Ġmedical":2970,"val":2971,"ĠFriday":2972,"ĠDecember":2973,"ners":2974,"Ġoption":2975,"-m":2976,"yond":2977,"ological":2978,"ients":2979,"Ġill":2980,"undred":2981,"Ġfair":2982,"urning":2983,"Ġbehav":2984,"Ġperformance":2985,"Ġhere.":2986,"Ġterms":2987,"estern":2988,"idered":2989,"Ġeight":2990,"ĠAmericans":2991,"Ġincluded":2992,"ĠSaturday":2993,"yle":2994,"ĠEm":2995,"Ġexam":2996,"He":2997,"igr":2998,"ĠMonday":2999,"Ġcitiz":3000,"Ġstrugg":3001,"vertisement":3002,"Ġprep":3003,".5":3004,"Ġsize":3005,"ples":3006,"Ġdocument":3007,"ĠDonald":3008,"ĠPar":3009,"che":3010,"Ġbiggest":3011,"ades":3012,"Ġboy":3013,"Ġself":3014,"lled":3015,"Ġtechnology":3016,"Ġ40":3017,"Ġseek":3018,"Ġextra":3019,"ires":3020,"oura":3021,"Ġindepend":3022,"Ġconsidered":3023,"ham":3024,"Ġstandard":3025,"Ġdespite":3026,"Ġhot":3027,"Ġwond":3028,"-1":3029,"ĠIran":3030,"Ġworks":3031,"Ġtalking":3032,"Ġsong":3033,"Ġess":3034,"Ġ#":3035,"force":3036,"lear":3037,"ees":3038,"Ġsexual":3039,"Ġslow":3040,"raq":3041,"uth":3042,"Ġteams":3043,"ĠTex":3044,"ER":3045,"Ġcy":3046,"ĊĊAt":3047,"Ġprotest":3048,"Ġways":3049,"arily":3050,"Ġru":3051,"oon":3052,"raft":3053,"Ġdoll":3054,"ĠAg":3055,"Ġyou're":3056,"ecause":3057,"Ġpers":3058,"ĠPer":3059,"oe":3060,"ean":3061,"Ġclimate":3062,"Ġprevent":3063,"Ġconduct":3064,"Ġincreasing":3065,"reed":3066,"elligence":3067,"Ġwritten":3068,"oph":3069,"Ġminutes":3070,"Ġachie":3071,"Ġviolence":3072,"Ġterm":3073,"Ġscreen":3074,"Ġparticularly":3075,"ĠPost":3076,"Ġsurve":3077,"Ġpaper":3078,"Ġjournal":3079,"rap":3080,"ospital":3081,"ĠMuslim":3082,"SA":3083,"Ġfast":3084,"Ġserious":3085,"Ġreports":3086,"Ġincident":3087,"ĠIraq":3088,"ĊĊYou":3089,"Ġquarter":3090,"Ġconserv":3091,"icro":3092,"ure,":3093,"Ġsport":3094,"Ġnow,":3095,"Ġpaid":3096,"Ġplat":3097,"iple":3098,"ishing":3099,"Ġcorre":3100,"ris":3101,"Ġseven":3102,"na":3103,"ations,":3104,"Ġbox":3105,"Ġupon":3106,"aur":3107,"Ġobv":3108,"Ġpark":3109,"Ġreb":3110,"Ġcarry":3111,"Ġloss":3112,"Ġcompl":3113,"Ġcompletely":3114,"sequ":3115,"ĠwasnâĢĻt":3116,"Ġcourse,":3117,"Ġdefense":3118,"Ġadministration":3119,"Ġthem,":3120,"Ġdraw":3121,"eter":3122,"ruary":3123,"Ġworkers":3124,"or.":3125,"atives":3126,"Ġsett":3127,"Ġsummer":3128,"Ġcertainly":3129,"Ġleading":3130,"ĠLond":3131,"Ġchief":3132,"iment":3133,"Ġfeature":3134,"Ġdoub":3135,"al,":3136,"Ġrange":3137,"Ġresear":3138,"Ġhundred":3139,"Ġmanage":3140,"Ġinstall":3141,"Ġstarting":3142,"ĠDemocratic":3143,"Ġliber":3144,"i-":3145,"ude":3146,"Ġprior":3147,"Ġ}":3148,"atory":3149,"ibly":3150,"Ġ...":3151,"face":3152,"chers":3153,"Ġquickly":3154,"ĠMark":3155,"Ġmach":3156,"Ġexactly":3157,"ĊĊWhile":3158,"Ġgas":3159,"Ġresour":3160,"ledge":3161,"entially":3162,"ĠBill":3163,"Ġstore":3164,"Ġgiving":3165,"ĠBlack":3166,"Ġhor":3167,"Ġassist":3168,"eg":3169,"Ġprison":3170,"Ġmovie":3171,"Ġrequired":3172,"bit":3173,"ĠCor":3174,"Ġcan't":3175,"Ġpractice":3176,"ĠJew":3177,"Ġbott":3178,"Ġproblems":3179,"Ġavoid":3180,"Ġservices":3181,"Ġ+":3182,"ĠSunday":3183,"key":3184,"ĠCont":3185,"Ġfill":3186,"Ġquality":3187,"Ġ2008":3188,"Ġhy":3189,"uclear":3190,"Ġskill":3191,"Ġlay":3192,"Ġlooked":3193,"ground":3194,"Ġshowed":3195,"Ġbudget":3196,"Ġscience":3197,"Ġchalleng":3198,".,":3199,"ate,":3200,"ĠLeague":3201,"ened":3202,"oud":3203,"rast":3204,"Ġpolitic":3205,"aught":3206,"Ġhistor":3207,"Ġnatural":3208,"Ġoccur":3209,"ĠFebruary":3210,"ĠEast":3211,"Ġmodern":3212,"Ġrout":3213,"Ġcommunic":3214,"orters":3215,"orter":3216,"ĠMore":3217,"ceed":3218,"Ġ(and":3219,"ĊĊAfter":3220,"Ġconvers":3221,"Ġregul":3222,"Ġstuff":3223,"Ġfigure":3224,"ĠIS":3225,"ĠEven":3226,"en,":3227,"Ġdescribed":3228,"ĠMichael":3229,"Ġflo":3230,"Ġpurch":3231,"ese":3232,"ysis":3233,"Ġguy":3234,"Ġmultiple":3235,"----":3236,"Ġfootball":3237,"Ġdro":3238,"Ġ2009":3239,"Ġrock":3240,"Ġnamed":3241,"ĠStat":3242,"Ġremains":3243,"Ġtable":3244,"fully":3245,"Ġexcept":3246,"Ġassum":3247,"Ġsens":3248,"IS":3249,"Ġaw":3250,"hem":3251,"Ġincludes":3252,"Ġletter":3253,"ltimate":3254,"Ġand,":3255,"Ġorganiz":3256,"Ġme.":3257,"ĊĊTo":3258,"Ġrank":3259,"Ġmajority":3260,"Ġhous":3261,"ate.":3262,"ĠTexas":3263,"Ġhappened":3264,"Ġdemonst":3265,"enge":3266,"ĊĊOne":3267,"Ġwell.":3268,"ĠMinister":3269,"Ġcamer":3270,"Ġsurv":3271,"Ġ22":3272,"Ġbi":3273,"Ġme,":3274,"Ġcirc":3275,"apt":3276,"Ġfan":3277,"Ġthroughout":3278,"ĠSand":3279,"Ġmid":3280,"Ġimage":3281,"Ġwrite":3282,"Ġ(w":3283,"ted":3284,"Ġmiddle":3285,"Ġusually":3286,"Ġopportunity":3287,"Ġprogress":3288,"Ġplatform":3289,"Ġfinally":3290,"Ġgrowing":3291,"istan":3292,"ĠNet":3293,"hest":3294,"Ġahead":3295,"Ġprovided":3296,"Ġbeyond":3297,"ĠPat":3298,"Ġcris":3299,"Ġcele":3300,"Ġlos":3301,"ĠGl":3302,"inese":3303,"Ġalthough":3304,"ĠIndian":3305,"Ġfeatures":3306,"Ġ196":3307,"ĠLab":3308,"ĊĊAl":3309,"Ġfact,":3310,"Ġspeech":3311,"Ġout.":3312,"Ġtowards":3313,"hold":3314,"usion":3315,"Ġpropos":3316,"it,":3317,"ĠÂ":3318,"Ġadditional":3319,"Ġalone":3320,"Ġlaunch":3321,"Ġtraining":3322,"Ġreceive":3323,"ia.":3324,"Ġment":3325,"lying":3326,"Ġmob":3327,"ĠRom":3328,"ĠBra":3329,"rench":3330,"ĠEl":3331,"Ġ(1":3332,"ĠThatâĢĻs":3333,"cer":3334,"it.":3335,"overed":3336,"ĠKing":3337,"anced":3338,"omp":3339,"Ġimplement":3340,"ĠâĢľWe":3341,"Ġpen":3342,"Ġsometimes":3343,"Ġalleged":3344,"Ġchoice":3345,"Ġdisplay":3346,"Ġleader":3347,"Ġbord":3348,"Ġgone":3349,"Ġsell":3350,"Ġpiece":3351,"aged":3352,"Ġforces":3353,"Ġconsist":3354,"Ġwife":3355,"Ġhe's":3356,"Ġsoftware":3357,"Ġmis":3358,"ĠChar":3359,"Ġfile":3360,"Ġdesigned":3361,"te":3362,"Ġrecomm":3363,"ĠSw":3364,"ĠFirst":3365,"Ġmoved":3366,"Ġmill":3367,"Ġfirm":3368,"Ġcomplete":3369,"Ġitem":3370,"ollow":3371,"Ġtwe":3372,"Ġpan":3373,"Ġil":3374,"Ġremember":3375,"ĠHer":3376,"Ġsuspect":3377,"Ġfix":3378,"Ġprin":3379,"ĊĊâĢľWe":3380,"Ġthousands":3381,"Ġevents":3382,"Ġago":3383,"Ġpresidential":3384,"Ġincreased":3385,"ĠCoun":3386,"Ġblog":3387,"30":3388,"Ġpurp":3389,"Ġclaims":3390,"al.":3391,"Ġhelped":3392,"Ġworld.":3393,"Ġspend":3394,"Ġund":3395,"ĠAssoci":3396,"Ġsituation":3397,"ening":3398,"ips":3399,"Ġcas":3400,"uf":3401,"Ġlives":3402,"itute":3403,"ĊĊWith":3404,"Ġcomplex":3405,"Ġbeginning":3406,"Ġepis":3407,"Ġmoving":3408,"Ġcorpor":3409,"Ġpath":3410,"Ġdanger":3411,"lish":3412,"Ġrob":3413,"ĠChinese":3414,"het":3415,"Ġcases":3416,"ĠJames":3417,"OR":3418,"Ġconference":3419,"Ġpopulation":3420,"ises":3421,"Ġleague":3422,"Ġson":3423,"Ġopin":3424,"Ġcontinu":3425,"Ġexecutive":3426,"Ġblood":3427,"Ġnuclear":3428,"Ġrelative":3429,"ĠwonâĢĻt":3430,"Ġdevice":3431,"Ġspeed":3432,"Ġperhaps":3433,"Ġmovement":3434,"fort":3435,"Ġencoura":3436,"Ġofficers":3437,"Ġcontain":3438,"Ġimmediately":3439,"inary":3440,"Ġdrive":3441,"Ġpit":3442,"Ġwords":3443,"Ġselect":3444,"Ġappears":3445,"ges":3446,"ĠCounty":3447,"ession":3448,"Ġcontribut":3449,"Ġperm":3450,"Ġready":3451,"Ġmessage":3452,"Ġlargest":3453,"iring":3454,"Ġ1.":3455,"Ġcollege":3456,"Ġaim":3457,"rowd":3458,"Ġinteresting":3459,"Ġsenior":3460,"ights":3461,"Ġcareer":3462,"ĠPhil":3463,"ance.":3464,"iant":3465,"ĊĊ2":3466,"Ġforced":3467,"Ġcompared":3468,"ĠJack":3469,"-s":3470,"Ġnom":3471,"Ġ23":3472,"ibr":3473,"Ġconcept":3474,"ĠThen":3475,"inc":3476,"wo":3477,"Ġcalls":3478,"ĠRepublicans":3479,"acher":3480,"ĠWilliam":3481,"iction":3482,"ams":3483,"ĠâĢ¦":3484,"-w":3485,"coin":3486,"ĊĊAdvertisement":3487,"-h":3488,"ĠTur":3489,"ĠRo":3490,"Ġmyself":3491,"Ġpage":3492,"Ġpowerful":3493,"Ġsaid:":3494,"Ġfa":3495,"Ġbrand":3496,"Ġdifference":3497,"Ġdied":3498,"hib":3499,"Ġparents":3500,"rim":3501,"Ġdirectly":3502,"Ġcast":3503,"Ġeventually":3504,"aughter":3505,"ĠParty":3506,"Ġuser":3507,"Ġmeant":3508,"Ġparts":3509,"reng":3510,"ops":3511,"Ġhands":3512,"Ġgame.":3513,"Ġestim":3514,"Ġsubst":3515,"atever":3516,"Ġreading":3517,"imum":3518,"Ġup.":3519,"ĠHere":3520,"Ġallows":3521,"ĠApple":3522,"ampions":3523,"Ġthis,":3524,"izing":3525,"onent":3526,"uses":3527,"eed":3528,"Ġplant":3529,"ĠRich":3530,"ure.":3531,"Ġrefer":3532,"Ġinn":3533,"Ġarm":3534,"ugh":3535,"Ġaware":3536,"Ġpus":3537,"erc":3538,"ĠAnge":3539,"Ġshown":3540,"rab":3541,"Ġpositive":3542,"Ġdraft":3543,"Ġbod":3544,"Ġgives":3545,"ĠOff":3546,"Ġanswer":3547,"Ġrules":3548,"Ġilleg":3549,"Ġdog":3550,"olute":3551,"exic":3552,"Ġtouch":3553,"ĊĊ\"We":3554,"ĠMcC":3555,"Ġcommand":3556,"ino":3557,"Ġspot":3558,"Ġstories":3559,"ĠSpe":3560,"Ġoverall":3561,"Ġcriminal":3562,"Ġthrow":3563,"FL":3564,"ĠCanada":3565,"Ġeasily":3566,"Ġtrain":3567,"ĠStar":3568,"ĠPolice":3569,"Ġnar":3570,"venue":3571,"Ġpoor":3572,"Ġappeared":3573,"Ġband":3574,"Ġpeople,":3575,"ĠServ":3576,"ĠRober":3577,"Ġfra":3578,"room":3579,"Ġdeg":3580,"ĠGreen":3581,"Ġwriting":3582,"Ġmaybe":3583,"Ġign":3584,"ĠLondon":3585,"Ġdisapp":3586,"using":3587,"Ġunf":3588,"idge":3589,"Ġstreet":3590,"sych":3591,"ension":3592,"ĠOf":3593,"Ġten":3594,"ĠPlay":3595,"Ġsle":3596,"Ġdark":3597,"Ġcomments":3598,"ItâĢĻs":3599,"Ġtrust":3600,"Ġphysical":3601,"Ġdetails":3602,"urt":3603,"Ġcrowd":3604,"Ġcopy":3605,"Ġyourself":3606,"ĠCenter":3607,"us,":3608,"Ġnature":3609,"Ġclean":3610,"Ġsigned":3611,"Ġtro":3612,"ĠEnglish":3613,"Ġnecessary":3614,"Ġweek,":3615,"adem":3616,"Ġcross":3617,"ufact":3618,"ĠFrench":3619,"erve":3620,"ĠCons":3621,"Ġwall":3622,"Ġsmart":3623,"egr":3624,"Ġanaly":3625,"down":3626,"Ġincome":3627,"Ġchallenge":3628,"Ġdrink":3629,"Ġgrad":3630,"rief":3631,"Ġswe":3632,"ites":3633,"Ġnice":3634,"ĠBro":3635,"ĠDes":3636,"Ph":3637,"Ġout,":3638,"is,":3639,"ine,":3640,"ĠTimes":3641,"Ġanalysis":3642,"ban":3643,"ĠDay":3644,"et,":3645,"Ġinvestigation":3646,"Ġmeaning":3647,"Ġefforts":3648,"Ġsusp":3649,"Ġcool":3650,"Ġreligious":3651,"ĠMexic":3652,"Ġday,":3653,"Ġstreng":3654,"Ġorganization":3655,"Ġlevels":3656,"ĠChristian":3657,"Ġpromot":3658,"Ġpassed":3659,"Ġmix":3660,"Ġapparent":3661,"Ġbal":3662,"Ġcentral":3663,"Ġchanged":3664,"Ġlimited":3665,"Ġautom":3666,"Ġsubs":3667,"Ġcrime":3668,"lease":3669,"Ġvoters":3670,"inated":3671,"ĠAnt":3672,"mon":3673,"ĠInternational":3674,"BI":3675,"Ġ26":3676,"Ġexpand":3677,"Ġcontinued":3678,"ĠII":3679,"ously":3680,"Ġisn't":3681,"Ġmarri":3682,"Ġideas":3683,"Ġcharge":3684,"Ġsil":3685,"Ġcomplain":3686,"ĠInt":3687,"Ġbenefit":3688,"Ġimpress":3689,"Ġhospital":3690,"ĠGO":3691,"ĊĊAccording":3692,"hy":3693,"Ġut":3694,"Ġdrop":3695,"astic":3696,"Ġseason.":3697,"Ġthinking":3698,"Ġ<":3699,"Ġ27":3700,"Ġsat":3701,"mp":3702,"Ġregular":3703,"Ġ28":3704,"Ġdire":3705,"Ġbrain":3706,"Ġclearly":3707,"ĠGra":3708,"Ġminister":3709,"ences":3710,"ĠEU":3711,"Ġsuccessful":3712,"irth":3713,"Ġall,":3714,"ĠTH":3715,"Ġago,":3716,"icles":3717,"Ġthere's":3718,"Ġintelligence":3719,"ĠGeorge":3720,"ĠSchool":3721,"ĠSer":3722,"Ġreached":3723,"orid":3724,"Ġlaun":3725,"Ġprimary":3726,"Ġfailed":3727,"orney":3728,"Ġrelated":3729,"Ġsave":3730,"ĠMor":3731,"Ġlanguage":3732,"rupt":3733,"Ġremo":3734,"ĠMart":3735,"Ġ$2":3736,"ĠKe":3737,"ĠAir":3738,"Ġkept":3739,"secut":3740,"iar":3741,"field":3742,"ĠFin":3743,"Ġbeaut":3744,"Ġyou.":3745,"Ġweekend":3746,"Ġfrequ":3747,"ester":3748,"Ġguys":3749,"Ġadvant":3750,"Ġsn":3751,"Ġpressure":3752,"Ġthere.":3753,"Ġpreviously":3754,"Ġrise":3755,"ĠDan":3756,"rely":3757,"indows":3758,"Ġpeople.":3759,"ĠCouncil":3760,"itness":3761,"Ġsend":3762,"ze":3763,"Ġspread":3764,"ju":3765,"Ġseemed":3766,"Ġconflic":3767,"-up":3768,"Ġdisp":3769,"ĠQu":3770,".0":3771,"alent":3772,"Ġfreed":3773,"Ġaltern":3774,"ĠIndia":3775,"Ġmeasure":3776,"ĠTim":3777,"Ġfavorite":3778,"ps":3779,"wise":3780,"Ġdestro":3781,"ĠDemocrats":3782,"ĠCalifornia":3783,"bum":3784,"Ġcredit":3785,"Ġmanufact":3786,"ĠSmith":3787,"Ġfully":3788,"ĊĊY":3789,"Ġfollowed":3790,"Ġdise":3791,"Ġpredict":3792,"Ġultimate":3793,"Ġexch":3794,"Ġspending":3795,"Ġlic":3796,"Ġattacks":3797,"Ġuses":3798,"ny":3799,"Ġeconomy":3800,"Ġminor":3801,"Ġbattle":3802,"enty":3803,"Ġtitle":3804,"Ġhighly":3805,"Ġfeed":3806,"Ġbasic":3807,"Ġexperien":3808,"anch":3809,"Ġinsp":3810,"Ġcalling":3811,"ĠGr":3812,"ĠTor":3813,"cul":3814,"ĠGeneral":3815,"Ġcities":3816,"Ġprinci":3817,"Ġofficer":3818,"Ġstraight":3819,"lin":3820,"Ġreform":3821,"Ġpeace":3822,"Ġhim,":3823,"Ġsolution":3824,"ĠFranc":3825,"Ġsay,":3826,"Ġagency":3827,"aper":3828,"ĠJer":3829,"resh":3830,"Ġbrother":3831,"Ġarch":3832,"Ġsupposed":3833,"Ġrap":3834,"ĠFlorid":3835,"Ġwilling":3836,"Ġcosts":3837,"Ġauthorities":3838,"ux":3839,"Ġesc":3840,"Ġdeveloped":3841,"ĠHillary":3842,"Ġ60":3843,"pper":3844,"levision":3845,"Ġtour":3846,"craft":3847,"Ġchair":3848,"Ġjobs":3849,"Ġcaused":3850,"aker":3851,"Ġensure":3852,"Ġcreating":3853,"Ġkids":3854,"uit":3855,"itely":3856,"unk":3857,"Ġcat":3858,"Ġadding":3859,"Ġnow.":3860,"3.":3861,"Ġtruth":3862,"ĠBrown":3863,"nces":3864,"Ġprem":3865,"Ġhappy":3866,"ine.":3867,"Ġmission":3868,"ĠScott":3869,"Ġhaven":3870,"ĠComp":3871,"itor":3872,"Ġgreater":3873,"vent":3874,"Ġcontinues":3875,"icag":3876,"isions":3877,"Ġmist":3878,"Ġcorrect":3879,"arian":3880,"Ġoffered":3881,"-in":3882,"oti":3883,"ĠSuper":3884,"ĠEngland":3885,"Ġlarger":3886,"EO":3887,"Ġinsur":3888,"ĠSim":3889,"rated":3890,"Ġsafety":3891,"Ġposted":3892,"Ġabsolute":3893,"Ġren":3894,"Ġfemale":3895,"Ġstrateg":3896,"omen":3897,"Ġproducts":3898,"ĠEarth":3899,"aves":3900,"Ġrat":3901,"Ġconfir":3902,"band":3903,"ĠFrom":3904,"Ġknowledge":3905,"Ġemot":3906,"Ġday.":3907,"ĊĊK":3908,"Ġmassive":3909,"verse":3910,"Ġshut":3911,"Ġcenter":3912,"Ġtraditional":3913,"eff":3914,"ĠSci":3915,"Ġseeing":3916,"yan":3917,"Ġproces":3918,"ĠBen":3919,"Ġcandidate":3920,"Ġorigin":3921,"Ġdamage":3922,"Ġresearchers":3923,"ĊĊNow":3924,"et.":3925,"Ġbeat":3926,"ays":3927,"akers":3928,"Ġlik":3929,"Ġkick":3930,"Ġslight":3931,"'d":3932,"aging":3933,"Ġtrou":3934,"Ġclaimed":3935,"Ġ>":3936,"ĠEvery":3937,"ification":3938,"Ġregion":3939,"Ġalbum":3940,"Ġhar":3941,"Ġdefend":3942,"Ġjump":3943,"ĠTra":3944,"Ġweb":3945,"ariju":3946,"Ġactual":3947,"Ġintegr":3948,"eth":3949,"ĠSch":3950,"Ġ*":3951,"Ġones":3952,"Ġraised":3953,"Ġp.m.":3954,"-time":3955,"Ġchoose":3956,"Ġpush":3957,"Ġbehavior":3958,"iny":3959,"Ġvirt":3960,"Ġvoice":3961,"Ġcomputer":3962,"Ġbelieved":3963,"ĠArab":3964,"Ġlife.":3965,"Ġ(the":3966,"Ġwe're":3967,"Ġlawy":3968,"ll,":3969,"ĠAccording":3970,"t.":3971,"Ġliter":3972,"ĠâĢľA":3973,"Ġenforce":3974,"Ġleaving":3975,"Ġmostly":3976,"ribution":3977,"Ġseason,":3978,"ĠMost":3979,"ope":3980,"Ġ1,":3981,"Ġgreen":3982,"oper":3983,"while":3984,"Ġindependent":3985,"term":3986,"Ġgain":3987,"Ġsystems":3988,"Ġeffects":3989,"Ġknows":3990,"Ġassault":3991,"aid":3992,"Ġcommer":3993,"Ġreflect":3994,"ĠChicag":3995,"Ġfreedom":3996,"Ġdebate":3997,"ĠTom":3998,"Ġeffective":3999,"Ġway.":4000,"ĠHigh":4001,"Ġstock":4002,"aches":4003,"Ġcelebr":4004,"Ġlimit":4005,"igration":4006,"Ġfighting":4007,"Ġagenc":4008,"Ġpros":4009,"5.":4010,"ON":4011,"Ġlose":4012,"Ġcounter":4013,"AR":4014,"Ġshowing":4015,"just":4016,"chan":4017,"Ġup,":4018,"Ġunique":4019,"Ġbrief":4020,"Ġfuel":4021,"acc":4022,"Ġspir":4023,"Ġyou,":4024,"ĊĊV":4025,"Ġopposition":4026,"ĠâĢľthe":4027,"Ġway,":4028,"Ġtechnolog":4029,"uty":4030,"Ġnote":4031,"Ġjudge":4032,"Ġadop":4033,"-l":4034,"ĠUp":4035,"Ġthey're":4036,"Ġcritical":4037,"Ġdistrict":4038,"Ġweight":4039,"c.":4040,"Ġdigital":4041,"vil":4042,"ken":4043,"Ġpow":4044,"Ġculture":4045,"reme":4046,"Ġprofessional":4047,"Ġwhatever":4048,"more":4049,"ky":4050,"ĠHam":4051,"Ġdriver":4052,"Ġfeeling":4053,"Ġadvoc":4054,"Ġended":4055,"Ġasking":4056,"IN":4057,"Ġbur":4058,"Ġgovern":4059,"ĠCommittee":4060,"Ġwhom":4061,"ĠPeople":4062,"Ġnegoti":4063,"Ġproduce":4064,"ĠMe":4065,"Ġenem":4066,"Ġacqu":4067,"ipp":4068,"Ġcrisis":4069,"Ġbirth":4070,"ston":4071,"Ġadult":4072,"Ġpsych":4073,"Ġgame,":4074,"Ġprint":4075,"Ġcommit":4076,"ales":4077,"Ġprovides":4078,"ĠBel":4079,"Ġshooting":4080,"ĠSecret":4081,"etro":4082,"Ġtend":4083,"Ġproduced":4084,"Ġcompetition":4085,"Ġstream":4086,"ford":4087,"Ġrule":4088,"Ġdetermin":4089,"ST":4090,"ĠMatt":4091,"Ġteacher":4092,"Ġdaily":4093,"ĠAlex":4094,"Ġaward":4095,"iers":4096,"Ġeducation":4097,"Ġon.":4098,"Ġtick":4099,"Ġsubm":4100,"alled":4101,"Ġresponsible":4102,"liament":4103,"Ġlock":4104,"bed":4105,"ĠJustice":4106,"Ġannounce":4107,"Ġ2007":4108,"1,":4109,"Ġwat":4110,"ĠDef":4111,"ĠLet":4112,"ĠI've":4113,"ĠBank":4114,"aud":4115,"Ġwonder":4116,"ĠCommission":4117,"ĠMike":4118,"iled":4119,"4.":4120,"ĠBush":4121,"Ġrevealed":4122,"ĠNFL":4123,"ĠTrumpâĢĻs":4124,"Ġworld,":4125,"Ã©":4126,"AN":4127,"Ġtoo.":4128,"Ġcitizens":4129,"Ġinfluence":4130,"Ġ29":4131,"Ġmap":4132,"Ġappl":4133,"ĠOffice":4134,"ĠCup":4135,"ole":4136,"Ġwork.":4137,"ors,":4138,"estic":4139,"Ġtemper":4140,"Ġwait":4141,"Ġnoted":4142,"Ġconcer":4143,"ls":4144,"ĠGold":4145,"Ġreplace":4146,"Ġowners":4147,"Ġmechan":4148,"Ġgold":4149,"Ġworse":4150,"ĠâĢľW":4151,"ices.":4152,"Ġtelevision":4153,"Ġfinding":4154,"Ġlearning":4155,"Ġ\"We":4156,"Ġlater,":4157,"ĊĊShe":4158,"istry":4159,"Ġsection":4160,"Ġsales":4161,"Ġproperty":4162,"ĠCanadian":4163,"Ġlearned":4164,"Ġwinning":4165,"Ġmanager":4166,"roid":4167,"Ġship":4168,"Ġver":4169,"ĠHealth":4170,"ĊĊ\"It":4171,"Ġonto":4172,"Ġwild":4173,"Ġmount":4174,"Ġhundreds":4175,"Ġlong-":4176,"Ġflow":4177,"ipe":4178,"earch":4179,"ĠJohnson":4180,"Ġtreatment":4181,"Ġcase,":4182,"Ġhighest":4183,"Ġenter":4184,"Ġmariju":4185,"Ġcharacters":4186,"Ġobser":4187,"ĠOur":4188,"Ġwasn't":4189,"Ġoffers":4190,"ports":4191,"Ġsurround":4192,"ĠBecause":4193,"Ġpun":4194,"ĠSecurity":4195,"Ġphoto":4196,"Ġbecoming":4197,"Ġaccused":4198,"Ġrid":4199,"ĠIslamic":4200,"Ġmillions":4201,"Ġbeg":4202,"Ġjoin":4203,"soft":4204,"Ġmaintain":4205,"Ġissu":4206,"ĠPalest":4207,"Ġrestrict":4208,"Ġanti-":4209,"Ġopening":4210,"Ġproposed":4211,"ĠRob":4212,"asc":4213,"ares":4214,"iced":4215,"Ġconfirmed":4216,"Ġoccas":4217,"ĠOh":4218,"Ġcontrovers":4219,"ĠVal":4220,"ĠWhy":4221,"Ġknow,":4222,"Ġputting":4223,"ĠWestern":4224,"Ġextremely":4225,"outhern":4226,"Ġsafe":4227,"Ġserved":4228,"Ġshared":4229,"utions":4230,"Ġunlike":4231,"Ġcustomers":4232,"ĠPort":4233,"Ġgrand":4234,"Ġweek.":4235,"Ġmobile":4236,"tt":4237,"Ġstage":4238,"ĠarenâĢĻt":4239,"ength":4240,"Ġlaunched":4241,"ĠWall":4242,"Ġscene":4243,"ĠGet":4244,"Ġpattern":4245,"Ġstructure":4246,"orthern":4247,"Ġserve":4248,"ĠItal":4249,"Ġborn":4250,"Ġelectric":4251,"Ġeth":4252,"Ġagain.":4253,"Ġfunding":4254,"ĠDis":4255,"aced":4256,"Ġscore":4257,"Ġreject":4258,"Ġreduce":4259,"Ġachieve":4260,"Ġpicture":4261,"Ġwind":4262,"Ġdirection":4263,"ĠAP":4264,"Ġattract":4265,"Ġincred":4266,"Ġtask":4267,"Ġcommittee":4268,"Ġimpl":4269,"nown":4270,"ĠMon":4271,"Ġdaughter":4272,"Ġinterested":4273,"ĠLou":4274,"Ġbenefits":4275,"ĠOther":4276,"icrosoft":4277,"C.":4278,"ĊĊHere":4279,"Ġchem":4280,"ĊĊItâĢĻs":4281,"Ġcru":4282,"Ġdefe":4283,"ĠLaw":4284,"Ġreality":4285,"Ġconstant":4286,"Ġdream":4287,"Ġbecomes":4288,"Ġstrik":4289,"Ġneighbor":4290,"inian":4291,"Ġfat":4292,"Ġfamilies":4293,"Ġvill":4294,"ĠInternet":4295,"Ġarrested":4296,"Ġcomfort":4297,"icit":4298,"Ġactions":4299,"ĠMany":4300,"Ġstick":4301,"Ġdefinitely":4302,"ĠStud":4303,"Ġeffic":4304,"Ġthough,":4305,"Ġindividuals":4306,"mine":4307,"ett":4308,"Ġexisting":4309,"ĠLos":4310,"ĠFound":4311,"alse":4312,"Ġbab":4313,"Ġconservative":4314,"Ġvictory":4315,"olic":4316,"Ġsetting":4317,"Ġus.":4318,"Ġruns":4319,"rian":4320,"Ġcoverage":4321,"Ġpopul":4322,"Ġamaz":4323,"Ġ(or":4324,"ĠLiber":4325,"Ġhero":4326,"Ġone.":4327,"Ġran":4328,"Ġaudience":4329,"Ġcore":4330,"ĠUk":4331,"âĢĻm":4332,"Ġele":4333,"Ġwealth":4334,"Ġcommunities":4335,"Ġleadership":4336,"Ġspoke":4337,"ĊĊCh":4338,"ĠBre":4339,"ĠInstitute":4340,"mage":4341,"Ġmemory":4342,"Ġmale":4343,"Ġremark":4344,"Ġdetect":4345,"ĠNo.":4346,"Ġinitial":4347,"coming":4348,"ĠBay":4349,"ĠSt.":4350,"Ġbomb":4351,"Ġactive":4352,"Ġfresh":4353,"Ġrates":4354,"Ġnotice":4355,"But":4356,"Ġrac":4357,"ables":4358,"Ġsolid":4359,"Ġspokesman":4360,"Ġdepartment":4361,"Ġcry":4362,"ĠFBI":4363,"Ġassociated":4364,"That":4365,"ĠYour":4366,"anks":4367,"St":4368,"Ġice":4369,"Ġnormal":4370,"Ġseparate":4371,"Ġdriving":4372,"bon":4373,"ĠweâĢĻve":4374,"aries":4375,"ĠGreat":4376,"Ġthere,":4377,"ĠBit":4378,"Ġdebt":4379,"wood":4380,"ription":4381,"Ġstyle":4382,"Ġagreed":4383,"Ġrepeated":4384,"Ġtalent":4385,"ĠDr.":4386,"Ġnegative":4387,"board":4388,"Ġtraffic":4389,"Ġgenerally":4390,"Ġdecade":4391,"Ġlif":4392,"ĠChe":4393,"ghan":4394,"Ġopened":4395,"Ġepisode":4396,"Ġprec":4397,"Ġheavy":4398,"Ġcolor":4399,"Ġbottom":4400,"orial":4401,"Ġfit":4402,"ĠBig":4403,"ĠJon":4404,"ĠRobert":4405,"Ġfarm":4406,"ĠAss":4407,"Ġdiscovered":4408,"Ġinvestment":4409,"Ġload":4410,"**":4411,"Ġwell,":4412,"Ġexperiment":4413,"etic":4414,"Ġannual":4415,"Ġissued":4416,"ĊĊThey":4417,"Ġcollection":4418,"Ġgoals":4419,"zz":4420,"Ġworst":4421,"Ġrestaur":4422,"Ġteach":4423,"Ġconcerns":4424,"Ġthis.":4425,"Ġmiles":4426,"ĠGOP":4427,"Ġraise":4428,"Ġallowing":4429,"Ġuns":4430,"Ġdestroy":4431,"Ġunc":4432,"Ġframe":4433,"Ġx":4434,"Ġbelief":4435,"ume":4436,"Ġpair":4437,"ĠSince":4438,"Ġtrend":4439,"Ġplaces":4440,"onents":4441,"ĠSun":4442,"Ġmer":4443,"Ġagreement":4444,"Ġcoal":4445,"i,":4446,"Ġasse":4447,"Ġinjur":4448,"Ġ(wh":4449,"Ġafford":4450,"IA":4451,"Ġ0.":4452,"wide":4453,"Ġbackground":4454,"Ġreasons":4455,"Ġchurch":4456,"Ġcaught":4457,"Ġconsid":4458,"ĠBritain":4459,"Ġsleep":4460,"iven":4461,"Ġattend":4462,"ĠLike":4463,"Ġlargely":4464,"Ġdoz":4465,"ĠCarol":4466,"Ġshock":4467,"les,":4468,"able.":4469,"Ġtheory":4470,"Ġwatching":4471,"Ġtelling":4472,"lick":4473,"ĊĊHowever,":4474,"Ġpurpose":4475,"ĠChris":4476,"Ġemerg":4477,"ĠMil":4478,"Ġswit":4479,"Ġweapon":4480,"Ġnine":4481,"Ġradio":4482,"Ġsays,":4483,"ĠUnion":4484,"ram":4485,"Ġstudies":4486,"ĠFox":4487,"Ġgrant":4488,"Ġhighlight":4489,"sing":4490,"Ġweapons":4491,"Ġsociety":4492,"Ġflag":4493,"ampionship":4494,"ĠWindows":4495,"Ġdate":4496,"Ġall.":4497,"Ġagain,":4498,"Ġcommercial":4499,"abor":4500,"cell":4501,"Ġcountry.":4502,"ĊĊSome":4503,"Ġpurs":4504,"eal":4505,"Ġanimal":4506,"ario":4507,"Ġbelieves":4508,"Ġdoubt":4509,"Ġholding":4510,"irgin":4511,"Ġharm":4512,"bur":4513,"Ġcharged":4514,"Ġplanning":4515,"mark":4516,"ĠBer":4517,"Ġstated":4518,"Ġnorth":4519,"Ġtransport":4520,"Ġresidents":4521,"Ġdism":4522,"Ġtruly":4523,"Ġfaith":4524,"Ġwel":4525,"ĠMad":4526,"box":4527,"annel":4528,"Ġdoor":4529,"ĠUkra":4530,"Ġplease":4531,"Ġimmigr":4532,"Ġemployees":4533,"as,":4534,"ĠCEO":4535,"Ġtells":4536,"Ġprices":4537,"Ġrecommend":4538,"Ġresist":4539,"0s":4540,"Ġshift":4541,"Ġthen,":4542,"Ġnames":4543,"ĠDist":4544,"Ġrefuge":4545,"known":4546,"Ġstor":4547,"iful":4548,"Ġrefere":4549,"ĠwouldnâĢĻt":4550,"ĠyouâĢĻll":4551,"Ġconstruction":4552,"Ġsystem.":4553,"Ġbooks":4554,"Ġrequires":4555,"Ġconditions":4556,"Ġcash":4557,"ĠSup":4558,"Ġded":4559,"Ġtrip":4560,"icip":4561,"Ġdeliver":4562,"Ġschools":4563,"Ġnor":4564,"Ġcharges":4565,"Ġhus":4566,"Ġclick":4567,"Ġhere,":4568,"Ġunderstanding":4569,"ĠHall":4570,"Ġproviding":4571,"ĠInstead":4572,"Ġjoined":4573,"ĠAfghan":4574,"Ġpatients":4575,"Ġfeet":4576,"lant":4577,"Ġsurface":4578,"Ġimages":4579,"dom":4580,"Ġhack":4581,"Ġillegal":4582,"Ġdie":4583,"ĊĊ(":4584,"Ġaspect":4585,"Ġrough":4586,"Ġresources":4587,"Ġstatus":4588,"Ġsuggested":4589,"Ġexcl":4590,"ĠTod":4591,"see":4592,"ategy":4593,"umn":4594,"atically":4595,"Ġboo":4596,"Ġang":4597,"Ġwon't":4598,"Ġiniti":4599,"overy":4600,"ĠAfrican":4601,"ĠCommun":4602,"ĠIâĢĻd":4603,"Ġintroduced":4604,"ĠRead":4605,"ĠRec":4606,"ĠMicrosoft":4607,"Ġprojects":4608,"Ġ(2":4609,"ĠSanders":4610,"Ġscientists":4611,"Ġjustice":4612,"Ġoffensive":4613,"ĠIsraeli":4614,"Ġlines":4615,"Ġreturned":4616,"Ġdisease":4617,"5,":4618,"ĠThom":4619,"Ġsho":4620,"Ġthus":4621,"Ġsources":4622,"ĠSupreme":4623,"Ġgay":4624,"Ġexerc":4625,"Ġmore.":4626,"Ġactivities":4627,"Ġliv":4628,"Ġamb":4629,"cious":4630,"rof":4631,"Ġveter":4632,"Ġder":4633,"Ġstrength":4634,"Ġhappens":4635,"ĠMod":4636,"ĠLa":4637,"Ġnovel":4638,"Ġpresence":4639,"oul":4640,"ĠAdd":4641,"pri":4642,"Ġtypes":4643,"Ġkeeping":4644,"gen":4645,"Ġfalse":4646,"ĠJim":4647,"OS":4648,"Ġplaced":4649,"usive":4650,"ma":4651,"Ġeasier":4652,"igned":4653,"ĠAndroid":4654,"rick":4655,"Ġtransfer":4656,"Ġsun":4657,"Ġdownload":4658,"ĠMill":4659,"Ġ\"It":4660,"Ġsupported":4661,"ĠDirect":4662,"6.":4663,"Ġeyes":4664,"ĊĊâĢ¢":4665,"ĠAre":4666,"Ġhol":4667,"Ġbasis":4668,"ĠMag":4669,"ĠJewish":4670,"Ġnewsp":4671,"Ġcompar":4672,"Ġpolicies":4673,"Ġabuse":4674,"ĠIsland":4675,"ĠPak":4676,"ĠNA":4677,"Ġspl":4678,"rative":4679,"Ġaccur":4680,"Ġserver":4681,"while,":4682,"Ġestablish":4683,"rial":4684,"ĠChurch":4685,"Ġwindow":4686,"Ġfinished":4687,"BA":4688,"ribute":4689,"Ġ2.":4690,"Ġarrived":4691,"uman":4692,"ĠArt":4693,"ices,":4694,"Ġdo.":4695,"Ġremoved":4696,"ĊĊ-":4697,"ĠAustralia":4698,"Ġmur":4699,"Ġapplication":4700,"cknow":4701,"aâĢĻs":4702,"Ġvehicle":4703,"Ġtough":4704,"Ġtweet":4705,"Ġcateg":4706,"ĠSam":4707,"Ġdefensive":4708,"Ġwaiting":4709,"inn":4710,"Ġscale":4711,"ĠcouldnâĢĻt":4712,"Ġeat":4713,"Ġoptions":4714,"ED":4715,"ighter":4716,"Ġpartners":4717,"Ġconsequ":4718,"ĠGame":4719,"99":4720,"-se":4721,"Ġcatch":4722,"Ġmanaged":4723,"Ġfeels":4724,"ĠAtt":4725,"Ġfocused":4726,"Ġrelatively":4727,"ĠReg":4728,"Ġeye":4729,"Ġadvantage":4730,"Ġacknow":4731,"orrow":4732,"aked":4733,"pre":4734,"Ġus,":4735,"ĠRichard":4736,"Ġunit":4737,"ront":4738,"Ġfellow":4739,"icated":4740,"Ġcentur":4741,"Ġin.":4742,"Ġhearing":4743,"ĠGree":4744,"ĠTrans":4745,"Ġestablished":4746,"ene":4747,"ĠJeff":4748,"11":4749,"cript":4750,"Ġcommission":4751,"Ġexchange":4752,"Ġprograms":4753,"Ġwork,":4754,"ĊĊBy":4755,"en.":4756,"Ġlength":4757,"Ġconclud":4758,"Ġappeal":4759,"ĠQue":4760,"ĠBu":4761,"ĠMac":4762,"Ġ194":4763,"ĠSyrian":4764,"Ġhusband":4765,"Ġfell":4766,"phone":4767,"going":4768,"ĠNe":4769,"Ġsmaller":4770,"ĠGovernment":4771,"Ġexpert":4772,"ĠThat's":4773,"Ġuseful":4774,"ĠVirgin":4775,"vention":4776,"iel":4777,"Ġwitness":4778,"Ġfourth":4779,"Ġmax":4780,"Ġargument":4781,"Ġmarijuana":4782,"ĠChicago":4783,"arant":4784,"Ġconfirm":4785,"Ġremind":4786,"Ġsouth":4787,"Ġguard":4788,"Ġassess":4789,"Ġfant":4790,"Ġgraph":4791,"berg":4792,"oted":4793,"ipped":4794,"Ġir":4795,"ossible":4796,"Ġcommitted":4797,"Ġhelping":4798,"Ġstation":4799,"Ġblue":4800,"Ġcook":4801,"Ġspeaking":4802,"Ġkilling":4803,"Ġdomestic":4804,"ic,":4805,"isher":4806,"vere":4807,"s:":4808,"Ġdouble":4809,"ĠJud":4810,"Ġdecide":4811,"Ġidentified":4812,"ota":4813,"pective":4814,"ĠAmaz":4815,"Ġcontext":4816,"urb":4817,"Ġvalu":4818,"Ġcove":4819,"ĠAut":4820,"ibrary":4821,"Ġstrategy":4822,"ĠGroup":4823,"-based":4824,"ĠOp":4825,"Ġprefer":4826,"yl":4827,"osh":4828,"roll":4829,"NN":4830,"Ġsan":4831,"Ġfine":4832,"ĠFrancis":4833,"Ġhair":4834,"Ġrecords":4835,"cient":4836,"Ġdollars":4837,"ube":4838,"Ġotherwise":4839,"ference":4840,"ism,":4841,"Ġfamiliar":4842,"inct":4843,"Ġobvious":4844,"ĠDel":4845,"ĠTHE":4846,"ĠStep":4847,"Ġpropert":4848,"Ġcapac":4849,"ronic":4850,"Ġbusines":4851,"ivity":4852,"Ġpatient":4853,"ĠKen":4854,"Ġentirely":4855,"Ġstrike":4856,"Ġplays":4857,"hlet":4858,"inate":4859,"ĠSecretary":4860,"ĠTheir":4861,"Ġsociet":4862,"Ġborder":4863,"ĠFrank":4864,"ĠMiss":4865,"rate":4866,"le.":4867,"Ġtrail":4868,"ero":4869,"Ġtherefore":4870,"Ġactivity":4871,"____":4872,"nel":4873,"Ġcarried":4874,"Ġfiled":4875,"ĠPri":4876,"4,":4877,"GB":4878,"Ġoccup":4879,"Ġpil":4880,"Ġflight":4881,"ĠImages":4882,"Ġparties":4883,"ĠCollege":4884,"Ġoperating":4885,"Ġtack":4886,"adium":4887,"Ġ;":4888,"Ġsudd":4889,"Ġregist":4890,"do":4891,"ĠPrime":4892,"ĠPM":4893,"Ġmental":4894,"Ġappropri":4895,"6,":4896,"Ġstress":4897,"sey":4898,"how":4899,"Ġtrial":4900,"Ġbatter":4901,"Ġseat":4902,"Ġthanks":4903,"Ġcars":4904,"ĠFlorida":4905,"Ġincreasingly":4906,"ĠRyan":4907,"Ġsust":4908,"ĊĊAll":4909,"Ġmanagement":4910,"Ġappoint":4911,"vest":4912,"Ġsupporters":4913,"Ġenvironmental":4914,"Ġsched":4915,"ĠAlthough":4916,"ĠToront":4917,"Ġschedul":4918,"ulf":4919,"Ġneighborhood":4920,"oyal":4921,"Ġscientific":4922,"Ġpaying":4923,"ĠProf":4924,"ĠFore":4925,"ĠTre":4926,"urer":4927,"Ġwish":4928,"Ġnone":4929,"ĠMP":4930,"Ġaggress":4931,"ĠResearch":4932,"anging":4933,"Ġcrew":4934,"on.":4935,"ĠWil":4936,"Ġseeking":4937,"ounds":4938,"Ġaccident":4939,"Ġ\"A":4940,"Ġsequ":4941,"ager":4942,"ifying":4943,"Ġon,":4944,"Ġagent":4945,"Ġobs":4946,"ocra":4947,"Ġweak":4948,"Ġsolar":4949,"Ġolder":4950,"Ġago.":4951,"Ġtoday.":4952,"Ġ90":4953,"ĠAlso":4954,"ov.":4955,"Ġconnection":4956,"ĠCle":4957,"Ġvolunt":4958,"raw":4959,"ĠJoe":4960,"ĠCap":4961,"-A":4962,"ortunate":4963,"Ġslightly":4964,"Ġ2018":4965,"Ġcolle":4966,"Ġdepend":4967,"Ġpossibly":4968,"Ġdram":4969,"rol":4970,"ĠTeam":4971,"Ġlegislation":4972,"Ġworry":4973,"add":4974,"time":4975,"ĠLast":4976,"ĠJose":4977,"ĠOver":4978,"Ġmurder":4979,"ĠAtlant":4980,"Ġ80":4981,"ĠHoll":4982,"ata":4983,"Ġtransl":4984,"Ġvast":4985,"Ġbul":4986,"Ġconcerned":4987,"Ġstanding":4988,"ĠDistrict":4989,"Ġstopped":4990,"Ġlosing":4991,"Ġwarning":4992,"ĠJapanese":4993,"rastructure":4994,"Ġvictims":4995,"itude":4996,"in.":4997,"ĠMos":4998,"Ġdangerous":4999,"Ġregarding":5000,"Ġprofessor":5001,"Ġerror":5002,"ĠService":5003,"Ġcorporate":5004,"Ġexpensive":5005,"ha":5006,"Ġconflict":5007,"Ġteen":5008,"OT":5009,"bert":5010,"Ġconvention":5011,"Ġtwice":5012,"Ġclosed":5013,"ĠGermany":5014,"Ġsystem,":5015,"Ġtransform":5016,"Ġlabor":5017,"Ġinternet":5018,"rump":5019,"Ġenforcement":5020,"Ġmentioned":5021,"ĠLouis":5022,"night":5023,"Ġge":5024,"Ġisland":5025,"FC":5026,"Ġalternative":5027,"Ġdeveloping":5028,"Ġfle":5029,"ĠMal":5030,"vant":5031,"Ġexplained":5032,"Ġathlet":5033,"Ġroll":5034,"ess.":5035,"2,":5036,"Ġbeautiful":5037,"Ġabsolutely":5038,"onald":5039,"Ġacadem":5040,"Ġinsurance":5041,"olf":5042,"Ġrich":5043,"Ġhonest":5044,"Ġopinion":5045,"Ġvalues":5046,"Ġturns":5047,"Ġapart":5048,"Ġimpossible":5049,"Ġ(A":5050,"Ġstre":5051,"ĊĊMore":5052,"ĠAM":5053,"Ġpolitics":5054,"tained":5055,"rig":5056,"3,":5057,"Ġdegree":5058,"Ġgradu":5059,"EA":5060,"Ġsurvey":5061,"ĠDN":5062,"EN":5063,"Ġsudden":5064,"Ġphil":5065,"ain,":5066,"zy":5067,"ĠCentral":5068,"icy":5069,"stitution":5070,"erry":5071,"ĠUN":5072,"no":5073,"Ġcamera":5074,"Ġdeploy":5075,"Ġprosecut":5076,"Ġmedic":5077,"owl":5078,"ĠwhatâĢĻs":5079,"Ġpossibility":5080,"Ġdiscussion":5081,"Ġbringing":5082,"ĠSyria":5083,"Ġcovered":5084,"Ġlife,":5085,"Ġviews":5086,"ism.":5087,"Ġuniversity":5088,"Ġbigger":5089,"Ġbatt":5090,"Ġdocuments":5091,"Ġvariety":5092,"Ġmissing":5093,"Ġmonth,":5094,"Ġvul":5095,"ĠPC":5096,"Ġinnov":5097,"iable":5098,"Ġsurprise":5099,"Ġequip":5100,"ĠMary":5101,"Ġcountri":5102,"ocal":5103,"ĠThose":5104,"Ġsitting":5105,"Ġsuggests":5106,"Ġpet":5107,"edd":5108,"Ġpotentially":5109,"ĠMont":5110,"ĠBost":5111,"Ġearth":5112,"Ġplenty":5113,"ĠRock":5114,"Ġunless":5115,"cription":5116,"Ġjail":5117,"Ġestimated":5118,"ĠSil":5119,"201":5120,"Ġcandidates":5121,"Ġoffering":5122,"Ġappre":5123,"Ġterrit":5124,"Ġspirit":5125,"Ġdecades":5126,"Ġaid":5127,"Ġvision":5128,"Ġscript":5129,"Ġupdate":5130,"Ġdoct":5131,"icide":5132,"Ġresponsibility":5133,"Ġterrorist":5134,"Ġfired":5135,"Ġadvis":5136,"Ġfundament":5137,"Ġone,":5138,"Ġpanel":5139,"ara":5140,"Ġguess":5141,"ado":5142,"Ġplanned":5143,"Ġoperations":5144,"Ġinternal":5145,"9.":5146,"ĠChief":5147,"Ġprove":5148,"ĠyouâĢĻve":5149,"Ġmarriage":5150,"Ġguarant":5151,"ors.":5152,"erous":5153,"ĠPakistan":5154,"Ġbag":5155,"Ġapparently":5156,"Ġpartner":5157,"Ġhate":5158,"Ġâ":5159,"Ġdropped":5160,"Ġelim":5161,"Ġtransition":5162,"ĠAustralian":5163,"gypt":5164,"ancy":5165,"Ġdetermine":5166,"Ġ2,":5167,"Ġunion":5168,"ĠUSA":5169,"Ġcorner":5170,"amm":5171,"Ġmagaz":5172,"Ġretail":5173,"IT":5174,"Ġcircum":5175,"Ġspect":5176,"Ġrare":5177,"Ġtesting":5178,"onym":5179,"ĠLeg":5180,"Ġhelps":5181,"Ġdevices":5182,"equ":5183,"ĠPlease":5184,"son,":5185,"van":5186,"ĠPut":5187,"CA":5188,"esterday":5189,"-st":5190,"Ġprime":5191,"PA":5192,"Ġpoint,":5193,"men":5194,"Ġlocated":5195,"Ġadjust":5196,"Ġinstru":5197,"Ġunivers":5198,"Ġoccurred":5199,"In":5200,"Ġtalks":5201,"Ġcold":5202,"Ġultimately":5203,"Ġinfrastructure":5204,"itable":5205,"ection":5206,"Ġprepared":5207,"Ġ2000":5208,"Ġstarts":5209,"Ġlived":5210,"Ġvoted":5211,"ES":5212,"Ġselling":5213,"rad":5214,"What":5215,"ĠPeter":5216,"Ġbroke":5217,"ource":5218,"ĊĊBe":5219,"ĠOnce":5220,"ĠBern":5221,"Ġfamous":5222,"Ġhousing":5223,"ĠIr":5224,"Ġreward":5225,"-to":5226,"pir":5227,"Ġamazing":5228,"icon":5229,"Ġque":5230,"agn":5231,"Ġinsist":5232,"Ġ2014,":5233,"Ġ2015,":5234,"Ġcloser":5235,"Ġcouncil":5236,"Ġplace.":5237,"Ġitems":5238,"ĠJun":5239,"iation":5240,"ĠBitcoin":5241,"Ġtools":5242,"h,":5243,"Ġpointed":5244,"ĠIâĢĻll":5245,"resp":5246,"roud":5247,"Ġtast":5248,"Ġartist":5249,"Ġelement":5250,"ence,":5251,"lig":5252,"ona":5253,"Ġthank":5254,"Ġton":5255,"ĠThomas":5256,"Ġconsult":5257,"Ġvulner":5258,"Ġfaster":5259,"Ġheat":5260,"ĠAc":5261,"Ġoriginally":5262,"iles":5263,"Ġsumm":5264,"ĠFederal":5265,"Ġsteps":5266,"Ġremove":5267,"Ġcurren":5268,"Ġso,":5269,"Ġbought":5270,"Ġlocation":5271,"ĠPublic":5272,"Ġrecru":5273,"Ġlob":5274,"ugg":5275,"Ġfacing":5276,"Ġfinish":5277,"inger":5278,"Ġexpressed":5279,"Ġdown.":5280,"ĠMiddle":5281,"Ġ70":5282,"Ġgrew":5283,"Ġengage":5284,"When":5285,"Ġapply":5286,"Ġrapid":5287,"Ġtight":5288,"ĠAri":5289,"For":5290,"Ġluck":5291,"âĢ¦":5292,"Ġodd":5293,"ĊĊNot":5294,"Ġspecies":5295,"ĠTime":5296,"Ġchanging":5297,"what":5298,"Ġmachine":5299,"Ġnotes":5300,"ĠHeâĢĻs":5301,"Ġpresented":5302,"ĠJo":5303,"alu":5304,"Ġschem":5305,"Ġhand,":5306,"ĠEgypt":5307,"ocol":5308,"airs":5309,"Ġowner":5310,"ĠSteve":5311,"Ġrestaurant":5312,"Ġoptim":5313,"ception":5314,"ĠChin":5315,"ĠPress":5316,"ĠWeb":5317,"ĠSaud":5318,"s.âĢĿ":5319,"Ġclient":5320,"Ġsports":5321,"Ġphotos":5322,"Ġdepart":5323,"ĠMartin":5324,"Ġtourn":5325,"Ġsale":5326,"itect":5327,"lock":5328,"Ġgeneration":5329,"Ġcomplic":5330,"Ġreci":5331,"Ġsupporting":5332,"Ġlisten":5333,"Ġgar":5334,"Ġgreatest":5335,"ĠMedic":5336,"Ġchemical":5337,"Ġpurchase":5338,"porary":5339,"ynam":5340,"ĠLee":5341,"Ġhurt":5342,"ĠNor":5343,"Ġexpans":5344,"ĠFire":5345,"ented":5346,"Ġconsidering":5347,"isf":5348,"Ġbrow":5349,"Ġmeasures":5350,"stream":5351,"Ġfol":5352,"Ġcultural":5353,"Ġcaption":5354,"ill,":5355,"Ġ\"the":5356,"Ġbusinesses":5357,"Ġturning":5358,"Ġclas":5359,"ĠTwo":5360,"Ġsites":5361,"Ġrevenue":5362,"iance":5363,"Ġinvolve":5364,"Ġconducted":5365,"ander":5366,"Ġphilos":5367,"ĠDaily":5368,"Ġhome.":5369,"ĠGuard":5370,"Ġtruck":5371,"ĠObam":5372,"ĠGood":5373,"Ġminimum":5374,"Ġclim":5375,"ĠJones":5376,"ĠKorea":5377,"coh":5378,"Ġrevolution":5379,"HL":5380,"Ġadded.":5381,"istics":5382,"Ġwearing":5383,"Ġprotection":5384,"Ġin,":5385,"Ġboost":5386,"Ġfigures":5387,"Ġteam.":5388,"osure":5389,"ĠBoth":5390,"iverse":5391,"Ġbasically":5392,"ĠDuring":5393,"Ġimmigration":5394,"Ġsounds":5395,"useum":5396,"Ġgirls":5397,"Ġexperienced":5398,"Ġopportunities":5399,"oly":5400,"itation":5401,"oman":5402,"Ġstret":5403,"ĠBob":5404,"Ġyouth":5405,"vis":5406,"uct":5407,"Ġsupply":5408,"Ġcopyright":5409,"Ġher.":5410,"Ġclin":5411,"udd":5412,"Ġprospect":5413,"Ġgiant":5414,"Ġdollar":5415,"adow":5416,"ĠD.":5417,"Ġreaction":5418,"asy":5419,"ĠWork":5420,"Ġlong-term":5421,"Ġconcl":5422,"Ġreportedly":5423,"Ġopponent":5424,"Ġlike,":5425,"Ġintended":5426,"Ġcards":5427,"icted":5428,"Ġabort":5429,"Ġbanks":5430,"Ġshape":5431,"1.":5432,"Ġhopes":5433,"ĠArmy":5434,"Ġregime":5435,"Ġfunds":5436,"Ġpulled":5437,"ulate":5438,"ears":5439,"range":5440,"Ġexplo":5441,"Ġ(R":5442,"ĊĊâĢľA":5443,"ces,":5444,"Ġcombat":5445,"enced":5446,"Ġthemselv":5447,"ĊĊThese":5448,"Ġbroken":5449,"ĠRiver":5450,"ĠBBC":5451,"ĠFrance":5452,"Ġetc.":5453,"Ġtrig":5454,"ĠiPh":5455,"ĠJes":5456,"Ġye":5457,"Ġrefused":5458,"Ġrand":5459,"Ġbed":5460,"Ġsector":5461,"ĠPet":5462,"ces.":5463,"ĠHome":5464,"Ġtreated":5465,"Ġapproved":5466,"Ġattorney":5467,"Ġimagine":5468,"500":5469,"Ġclot":5470,"ĠBrad":5471,"Ġcountry,":5472,"dule":5473,"'m":5474,"Ġfailure":5475,"ĠTy":5476,"ĠAny":5477,"Ġidentify":5478,"Ġcarbon":5479,"ĠColor":5480,"Ġremained":5481,"ĠJ.":5482,"ĠCath":5483,"ĠSocial":5484,"Ġback.":5485,"Ġmotiv":5486,"ĠConserv":5487,"ĠCru":5488,"les.":5489,"Ġtalked":5490,"Ġis.":5491,"Ġrent":5492,"ĊĊLast":5493,"ĊĊRead":5494,"ĠDen":5495,"Ġlots":5496,"aded":5497,"ĠPlan":5498,"ĠJournal":5499,"Ġsymb":5500,"Ġtoday,":5501,"Ġcontest":5502,"Ġ3.":5503,"ĠForce":5504,"Ġexperts":5505,"Ġtypically":5506,"Ġdecisions":5507,"Ġwords,":5508,"eration":5509,"BS":5510,"Ġnot.":5511,"Ġrandom":5512,"Ġadapt":5513,"uke":5514,"ĠCamp":5515,"rel":5516,"Ġcontrast":5517,"Ġ32":5518,"ingly":5519,"Ġappreci":5520,"Ġherself":5521,"anche":5522,"Ġshop":5523,"Ġdevelopers":5524,"Ġ35":5525,"ivered":5526,"Ġexcited":5527,"Ġpercentage":5528,"Ġreact":5529,"i.":5530,"Ġthr":5531,"la":5532,"Ġbound":5533,"ĠâĢľIt":5534,"osition":5535,"lymp":5536,"ship":5537,"Ġ(which":5538,"Ġcentury":5539,"ĠThereâĢĻs":5540,"ĠCharl":5541,"ĠLabour":5542,"Ġreduced":5543,"Ġgender":5544,"Ġleads":5545,"Ġminute":5546,"Ġcrack":5547,"ureau":5548,"ĠJav":5549,"idel":5550,"Ġexplos":5551,"Ġconversation":5552,"us.":5553,"DA":5554,"==":5555,"eanwhile,":5556,"-g":5557,"Ġremaining":5558,"Ġ2013,":5559,"ĠAssociation":5560,"Ġdismiss":5561,"Ġ36":5562,"Ġswitch":5563,"uk":5564,"Ġdebut":5565,"aks":5566,"Ġupgr":5567,"estival":5568,"gar":5569,"Ġelements":5570,"ij":5571,"Ġvs.":5572,"ĠOlymp":5573,"Ġdelivered":5574,"inent":5575,"Ġcuts":5576,"-M":5577,"ĠOhio":5578,"Ġcolumn":5579,"aling":5580,"Ġsuffered":5581,"Ġzone":5582,"aint":5583,"ah,":5584,"Ġaircraft":5585,"Ġdiscl":5586,"orne":5587,"ĠhavenâĢĻt":5588,"Ġhowever":5589,"Ġdeck":5590,"Ġvir":5591,"Ġinjured":5592,"Ġunable":5593,"Ġproposal":5594,"ĠWho":5595,"uters":5596,"ownt":5597,"Ġcho":5598,"Ġsecure":5599,"Ġfrust":5600,"Ġviolent":5601,"Ġdays,":5602,"Ġprompt":5603,"ĠShow":5604,"Ġloved":5605,"iling":5606,"ry,":5607,"Ġ2012,":5608,"Ġbelong":5609,"Ġfuture.":5610,"ĠAndrew":5611,"Ġrenew":5612,"Ġpra":5613,"ĠUnder":5614,"Ġdress":5615,"ĠMer":5616,"ĠSen.":5617,"Ġconfidence":5618,"ĠFollow":5619,"ancing":5620,"ulated":5621,"makers":5622,"Ġnewspaper":5623,"Ġspecifically":5624,"Ġcapable":5625,"Ġconfident":5626,"Ġvoting":5627,"ĠSant":5628,"Ġmaster":5629,"ading":5630,"house":5631,"an.":5632,"Ġproud":5633,"Ġdeclared":5634,"ĠSo,":5635,"Ġopposed":5636,"ĠSpace":5637,"ĠDec":5638,"Ġfiles":5639,"Ġstruct":5640,"Ġsigns":5641,"ĠNav":5642,"ĠVer":5643,"Ġtrick":5644,"phas":5645,"imately":5646,"Ġpicked":5647,"Ġordered":5648,"Ġtact":5649,"Ġwarm":5650,"Ġbalance":5651,"ĠSing":5652,"Ġelected":5653,"Ġplus":5654,"kin":5655,"Ġbroadcast":5656,"Ġproced":5657,"ĠProt":5658,"Ġprogramm":5659,"Ġhigh-":5660,"ĠSur":5661,"issions":5662,"Ġcollabor":5663,"Ġconstitution":5664,"Ġmarg":5665,"Ġstorm":5666,"ĠAngeles":5667,"Ġforget":5668,"Ġlabel":5669,"Ġbreat":5670,"riend":5671,"Ġchamp":5672,"rd":5673,"Ġlin":5674,"--------":5675,"Ġnumerous":5676,"ids":5677,"Ġtemperature":5678,"Ġdelay":5679,"ĠweâĢĻll":5680,"Ġdenied":5681,"ss":5682,"Ġwidely":5683,"Ġcoord":5684,"Ġvisual":5685,"Ġpassing":5686,"otic":5687,"ĊĊAnother":5688,"Ġtechnical":5689,"Ġpitch":5690,"odes":5691,"Ġdetermined":5692,"Ġrecorded":5693,"Ġadvice":5694,"ĠRoad":5695,"Ġquarterback":5696,"Ġsch":5697,"Ġshar":5698,"izes":5699,"Ġsides":5700,"7.":5701,"gn":5702,"Ġsecretary":5703,"Ġreference":5704,"Ġdisappoint":5705,"itch":5706,"Ġalt":5707,"hered":5708,"que":5709,"ashed":5710,"ress.":5711,"Ġbeer":5712,"Ġdesire":5713,"gment":5714,"Ġtun":5715,"ĠBarack":5716,"Ġadvert":5717,"Ġhealthy":5718,"Ġruling":5719,"Ġdrugs":5720,"Ġgather":5721,"Ġweather":5722,"ĊĊDes":5723,"ĠRub":5724,"ruption":5725,"rage":5726,"Ġcentre":5727,"ous,":5728,"Ġobviously":5729,"Ġanimals":5730,"place":5731,"Ġnight,":5732,"ence.":5733,"Ġquiet":5734,"ĠOut":5735,"Ġrealize":5736,"ili":5737,"Ġemergency":5738,"ĠPhoto":5739,"Ġargue":5740,"Ġcoast":5741,"ĊĊMr":5742,":00":5743,"Ġarmy":5744,"arsh":5745,"hens":5746,"Ġentertain":5747,"Ġreporter":5748,"rey":5749,"mas":5750,"Ġimmediate":5751,"CC":5752,"ĠProject":5753,"Ġexcell":5754,"mosp":5755,"ĠMichig":5756,"ipping":5757,"Ġconcent":5758,"Ġgames.":5759,"rant":5760,"olved":5761,"Ġdefault":5762,"Ġ2016,":5763,"cohol":5764,"Ġhandle":5765,"ĠFe":5766,"ĠCr":5767,"agon":5768,"Ġliberal":5769,"Ġperspective":5770,"ĠLat":5771,"ĠToronto":5772,"ache":5773,"EC":5774,"Ġdoctor":5775,"ĠPalestinian":5776,"zil":5777,"ĠMur":5778,"Ġessentially":5779,"Ġwear":5780,"plom":5781,"inating":5782,"OU":5783,"Ġinitially":5784,"aces":5785,"Ġ31":5786,"ĠGar":5787,"Ġphotograph":5788,"Ġprocess.":5789,"Ġ500":5790,"Ġscheduled":5791,"Ġsea":5792,"abilities":5793,"Ġsignificantly":5794,"actions":5795,"Ġyesterday":5796,"Ġburn":5797,"Ġ(a":5798,"gers":5799,"andon":5800,"ĠBur":5801,"-day":5802,"Ġsoldiers":5803,"ression":5804,"Ġdeclined":5805,"Ġfloor":5806,"ic.":5807,"Ġmodels":5808,"Ġwood":5809,"ĠiPhone":5810,"apter":5811,"Ġnav":5812,"Ġa.m.":5813,"ĠWal":5814,"Ġargued":5815,"Ġvotes":5816,"Ġrecall":5817,"Ġplayoff":5818,"land,":5819,"Ġaway.":5820,"ell,":5821,"Ġearn":5822,"ĠFree":5823,"ive,":5824,"Ġresolution":5825,"Ġcraft":5826,"ĠCal":5827,"Ġyards":5828,"Ġto.":5829,"ĠMet":5830,"Ġscored":5831,"Ġinstitution":5832,"Ġblow":5833,"Ġanalyst":5834,"Ġapprox":5835,"oms":5836,"ĠWell,":5837,"Ġadmitted":5838,"Ġequal":5839,"Ġaffected":5840,"ĠPac":5841,"ortunately,":5842,"ĠPre":5843,"Ġcoff":5844,"2.":5845,"Ġsurprising":5846,"Ġdiscrim":5847,"ĠCNN":5848,"Ġchannel":5849,"ĠIre":5850,"Ġcloud":5851,"Ġshall":5852,"ica":5853,"ĠSpr":5854,"agues":5855,"Ġperman":5856,"Ġmonth.":5857,"Ġmut":5858,"0.":5859,"ĠPenn":5860,"Ġnecessarily":5861,"Ġmand":5862,"Ġcells":5863,"Ġtournament":5864,"Ġattempts":5865,"Ġbutton":5866,"ĊĊ\"A":5867,"Ġdin":5868,"Ġvalid":5869,"illing":5870,"Ġsubscrib":5871,"Ġtroops":5872,"SP":5873,"IC":5874,"Ġthis:":5875,"Ġedge":5876,"Ġfranch":5877,"ĠScot":5878,"Ġarmed":5879,"ress,":5880,"Ġcalcul":5881,"Ġgames,":5882,"Ġtech":5883,"Ġoffense":5884,"Ġsubstant":5885,"Ġteam,":5886,"Ġallegedly":5887,"Ġfilled":5888,"evin":5889,"Ġpushed":5890,"Ġoursel":5891,"Ġroughly":5892,"9,":5893,"Ġhomes":5894,"Ġothers.":5895,"Ġpieces":5896,"Ġwriter":5897,"ĠInter":5898,"erved":5899,"Ġpasseng":5900,"astern":5901,"ĠAmazon":5902,"amb":5903,"Ġthinks":5904,"Ġcontains":5905,"ĠHuman":5906,"ID":5907,"Ġtoo,":5908,"ords":5909,"ample":5910,"Ġexercise":5911,"ĠFed":5912,"Ġadvanced":5913,"Ġguest":5914,"idden":5915,"Ġproceed":5916,"Ġarchitect":5917,"Ġbrings":5918,"Ġhappening":5919,"ĠDirector":5920,"ive.":5921,"Ġbull":5922,"Ġagencies":5923,"ienc":5924,"ho":5925,"Ġongoing":5926,"Ġemphas":5927,"ĠSaudi":5928,"ĊĊEven":5929,"ous.":5930,"Ġlinked":5931,"Ġplanet":5932,"pret":5933,"Ġwound":5934,"Ġsatisf":5935,"Ġinterests":5936,"Ġmort":5937,"ste":5938,"Ġpool":5939,"ĠNBA":5940,"ompl":5941,"Ġ195":5942,"aming":5943,"ĊĊSince":5944,"Ġnot,":5945,"ĠBoston":5946,"Ġdiplom":5947,"Ġdemocra":5948,"...":5949,"Ġintention":5950,"Ġidentity":5951,"Ġsubsequ":5952,"eed,":5953,"Ġsought":5954,"ĠSub":5955,"ĠworldâĢĻs":5956,"Ġoperation":5957,"Ġorganizations":5958,"Ġimproved":5959,"LL":5960,"ĠâĢľa":5961,"lyn":5962,"Ġwe've":5963,"Ġcircumst":5964,"ET":5965,"Ġconsistent":5966,"Ġtotally":5967,"Ġfaced":5968,"Ġrail":5969,"Ġjoint":5970,"Ġcombined":5971,"Ġdatab":5972,"Ġconstruct":5973,"Ġcooper":5974,"Ġhotel":5975,"Ġstands":5976,"ĠWeek":5977,"ĠKorean":5978,"Ġskills":5979,"Ġneither":5980,"Ġstood":5981,"Ġdo,":5982,"ĠSign":5983,"oty":5984,"Ġforms":5985,"Ġseriously":5986,"ĠPower":5987,"Ġthing.":5988,"Ġcapacity":5989,"ifth":5990,"ĠMass":5991,"Ġmagn":5992,"Ġauthority":5993,"Ġreceiving":5994,"Ġwalking":5995,"Ġsurrounding":5996,"osen":5997,"Ġaccompl":5998,"My":5999,"rible":6000,"Ġride":6001,"Ġbond":6002,"ist,":6003,"Ġgrab":6004,"Ġinstance,":6005,"Ġlisted":6006,"Ġpray":6007,"Ġnight.":6008,"Ġdays.":6009,"Ġhoping":6010,"oore":6011,"endment":6012,"Ġnative":6013,"Ġbreaking":6014,"Ġbe.":6015,"ĠStates,":6016,"ios":6017,"Ġparliament":6018,"-called":6019,"ĠPhot":6020,"Ġwouldn't":6021,"RA":6022,"Ġmyster":6023,"ĊĊPh":6024,"Ġsquare":6025,"Ġtrouble":6026,"ates,":6027,"8.":6028,"Ġaccounts":6029,"Ġrepresents":6030,"ĠDra":6031,"ĠSal":6032,"Ġcancer":6033,"Ġdistribution":6034,"Ġit?":6035,"Ġlegit":6036,"able,":6037,"Ġconnected":6038,"ĠYouT":6039,"Ġentered":6040,"Ġorganis":6041,"ĊĊâĢľIt":6042,"ĠLake":6043,"PS":6044,"Ġabandon":6045,"Ġbrew":6046,"Ġquant":6047,"real":6048,"Ġjour":6049,"ĊĊUn":6050,"ĠAriz":6051,"Ġatmosp":6052,"-e":6053,"ĠGrand":6054,"Ġmoney.":6055,"ĠDr":6056,"ĠParis":6057,"Ġpublicly":6058,"Ġupcoming":6059,"Ġdivision":6060,"Ġmigr":6061,"ĠHaw":6062,"ĠPrem":6063,"10":6064,"Ġso-called":6065,"ics,":6066,"ĊĊNew":6067,"Ġmissed":6068,"Ġresponded":6069,"ĠIts":6070,"ĠBoard":6071,"Ġanyth":6072,"Ġchart":6073,"Ġgovernments":6074,"ĊĊFollow":6075,"ĠOpen":6076,"Ġbike":6077,"employ":6078,"Ġstate.":6079,"Ġwarned":6080,"Ġnewslet":6081,"Ġ2015.":6082,"Ġsad":6083,"ĠBrazil":6084,"Ġdynam":6085,"Ġevalu":6086,"ĠColumb":6087,"ĠBook":6088,"Ġaren't":6089,"Ġdistribut":6090,"iday,":6091,"alax":6092,"Ġemp":6093,"Ġheavily":6094,"ĠEach":6095,"Ġcart":6096,"ket":6097,"Ġreporting":6098,"esome":6099,"ĠTO":6100,"ĠCur":6101,"Ġbaby":6102,"cel":6103,"Ġagend":6104,"Ġbuying":6105,"Ġinjury":6106,"upp":6107,"Ġfairly":6108,"ĊĊFirst":6109,"Ġdefinition":6110,"ĠHou":6111,"Ġgovernment.":6112,"ĠWin":6113,"Ġexplan":6114,"Ġanywhere":6115,"ĠAN":6116,"Ġfish":6117,"Ġ3D":6118,"Ġflood":6119,"Ġfewer":6120,"Ġfacility":6121,"atures":6122,"ĠML":6123,"Ġ2016.":6124,"Ġcann":6125,"ĠKell":6126,"Ġcouldn't":6127,"Ġchallenges":6128,"Ġcombination":6129,"Ġhousehold":6130,"respond":6131,"ĠFrancisco":6132,"ĠDevelop":6133,"ĠÃ":6134,"Ġbare":6135,"ĊĊMy":6136,"road":6137,"ĠKim":6138,"de":6139,"ĠImage":6140,"Ġhistory.":6141,"ĠAnother":6142,"Ġencourage":6143,"Ġforg":6144,"Ġselection":6145,"ĠSwed":6146,"ĠChristmas":6147,"Ġhistorical":6148,"Ġpushing":6149,"Ġmoral":6150,"th,":6151,"Ġrow":6152,"ĠStan":6153,"ĠSecond":6154,"Ġtests":6155,"Ġhardware":6156,"DP":6157,"ĠGeorg":6158,"ĠOnly":6159,"Ġcompleted":6160,"Ġknock":6161,"Ġpromise":6162,"Ġleaves":6163,"Ġfactor":6164,"Ġtimes,":6165,"ĠMedia":6166,"ĠMount":6167,"Ġ45":6168,"ĠStates.":6169,"ĠTer":6170,"Ġtaxes":6171,"Ġstudio":6172,"Ġcontroversial":6173,"ĠJackson":6174,"ĊĊIt's":6175,"Ġunits":6176,"ĠMem":6177,"standing":6178,"season":6179,"Ġwithd":6180,"Ġmal":6181,"Ġacknowled":6182,"-0":6183,"Ġmonths,":6184,"Ġpoliticians":6185,"Ġalongside":6186,"ĠVict":6187,"ĊĊOther":6188,"ĊĊDuring":6189,"OM":6190,"Ġsomewhat":6191,"Ġcup":6192,"Ġenh":6193,"rees":6194,"ĠMel":6195,"ent,":6196,"Ġqual":6197,"Ġright.":6198,"Ġincor":6199,"oom":6200,"ĠMexico":6201,"Ġsees":6202,"Ġdim":6203,"Ġskin":6204,"ĠGM":6205,"ists,":6206,"Ġlibrary":6207,"ĠâĢľItâĢĻs":6208,"oral":6209,"ĠBet":6210,"abin":6211,"Ġarms":6212,"Ġdown,":6213,"ogue":6214,"Ġchairman":6215,"Ġwell-":6216,"xual":6217,"Ġast":6218,"Ġtree":6219,"sen":6220,"Ġsigning":6221,"Ġsche":6222,"Ġradical":6223,"ĊĊOf":6224,"Ġsuc":6225,"Ġalcohol":6226,"oes":6227,"ĠCarolina":6228,"ĠClub":6229,"Ġsets":6230,"Ġ$3":6231,"Ġ//":6232,"Ġappearance":6233,"ĠRod":6234,"awn":6235,"Ġgrown":6236,"ĠLin":6237,"Ġfeatured":6238,"Ġ2014.":6239,"Ġvolunte":6240,"Ġvice":6241,"Ġextreme":6242,"Ġdedicated":6243,"Ġcompetitive":6244,"Ġrising":6245,"Ġcarrying":6246,"Ġeffectively":6247,"Ġstruck":6248,"ĠRight":6249,"athan":6250,"Ġstatement.":6251,"Ġsac":6252,"Ġoutput":6253,"at,":6254,"ĠletâĢĻs":6255,"cean":6256,"Ġadvance":6257,"Ġupdated":6258,"Ġbright":6259,"lor":6260,"oung":6261,"Ġoverw":6262,"Ġprohib":6263,"Ġopposite":6264,"ores":6265,"Ġscr":6266,"ĊĊFrom":6267,"Ġcase.":6268,"Ġsustain":6269,"Ġaf":6270,"Ġfaces":6271,"Ġfraud":6272,"Ġdownt":6273,"ĠSystem":6274,"acing":6275,"Ġ2011,":6276,"mond":6277,"Ġglass":6278,"ĠEner":6279,"Ġhall":6280,"ĠWalk":6281,"Ġsquad":6282,"ĊĊImage":6283,"Ġprivacy":6284,"Ġemotional":6285,"Ġcreative":6286,"cket":6287,"Ġchange.":6288,"Ġapplied":6289,"Ġembra":6290,"Ġreporters":6291,"Ġconvin":6292,"ĠSov":6293,"Ġtow":6294,"Ġregional":6295,"Ġpled":6296,"ywood":6297,"Ġappropriate":6298,"Ġsister":6299,"ĠSher":6300,"Ġunus":6301,"ĠCruz":6302,"Ġvan":6303,"ĠSee":6304,"esters":6305,"ĠYear":6306,"Ġearned":6307,"Ġholds":6308,"ĠBlue":6309,"Ġunderst":6310,"Ġrally":6311,"izz":6312,"Ġfly":6313,"ĠCatholic":6314,"Ġphilosoph":6315,"Ġrot":6316,"ooth":6317,"Ġserving":6318,"Ġsurveill":6319,"ĠJul":6320,"Ġlit":6321,"ternal":6322,"Ġinspired":6323,"ĠSqu":6324,"Ġmurd":6325,"Ġperformed":6326,"Ġgovernment,":6327,"ĊĊHis":6328,"Ġcitizen":6329,"ĠhasnâĢĻt":6330,"ĊĊ*":6331,"Ġessential":6332,"hew":6333,"Ġec":6334,"Ġsurprised":6335,"Ġmonit":6336,"Ġske":6337,"ĠCub":6338,"Ġconsumers":6339,"Ġ(b":6340,"Ġdecline":6341,"Ġpure":6342,"lder":6343,"ĠTechn":6344,"8,":6345,"Ġpipe":6346,"Ġrelevant":6347,"Ġinteract":6348,"Ġcomed":6349,"Ġtele":6350,"wards":6351,"Ġdecad":6352,"Ġapproval":6353,"Ġmainstream":6354,"Ġdial":6355,"Ġ3,":6356,"Ġ4.":6357,"han":6358,"Ġstars":6359,"Ġfavour":6360,"Ġrival":6361,"Ġoff.":6362,"enses":6363,"kins":6364,"Ġlaw,":6365,"uster":6366,"Ġclassic":6367,"Ġdecre":6368,"at.":6369,"Ġsending":6370,"Ġefficient":6371,"Ġpictures":6372,"Ġreferred":6373,"0s,":6374,"Ġfash":6375,"Ġcausing":6376,"ĠMaybe":6377,"Ġbon":6378,"Ġ(S":6379,"part":6380,"Ġgap":6381,"ĠSeattle":6382,"ilty":6383,"Ġwatched":6384,"Ġnut":6385,"Ġexcellent":6386,"Ġdescribe":6387,"Ġvideos":6388,"7,":6389,"Ġends":6390,"Ġing":6391,"Ġattempted":6392,"Ġdifferences":6393,"ighters":6394,"ess,":6395,"anda":6396,"ĠAff":6397,"Ġconfig":6398,"Ġguide":6399,"Ġancient":6400,"Ġwire":6401,"Ġsam":6402,"Ġapplications":6403,"Ġcorrespond":6404,"Ġspr":6405,"Ġdetailed":6406,"Ġstruggle":6407,"Ġco-":6408,"Ġback,":6409,"Ġdealing":6410,"ĠRem":6411,"gent":6412,"rison":6413,"Ġvehicles":6414,"Ġsuit":6415,"ĠLib":6416,"Ġwas,":6417,"Ġhome,":6418,"noon":6419,"Ġvac":6420,"ĠWhe":6421,"ĠBus":6422,"Ġinterpret":6423,"Ġillust":6424,"Ġcheap":6425,"-2":6426,"Ġlie":6427,"Ġentry":6428,"ĠRomney":6429,"ĠInstead,":6430,"ĠLife":6431,"ĠStephen":6432,"ionally":6433,"Ġinput":6434,"EL":6435,"ym":6436,"Ġfactors":6437,"Ġfundamental":6438,"Ġstrange":6439,"ĠRel":6440,"Ġchain":6441,"Ġpossible.":6442,"Ġpayment":6443,"Ġvirtual":6444,"Ġmir":6445,"Ġdesk":6446,"TC":6447,"Ġ(s":6448,"Ġinvolving":6449,"Ġlater.":6450,"Ġkinds":6451,"Ġallegations":6452,"Ġconsumer":6453,"Ġwalked":6454,"Ġtens":6455,"Ġstandards":6456,"ĠCIA":6457,"ĊĊAlthough":6458,"Ġhumans":6459,"ĠRad":6460,"Ġowned":6461,"Ġunlikely":6462,"ĠDefense":6463,"Ġcommitment":6464,"Ġthings,":6465,"Ġ@":6466,"Ġputs":6467,"ĠâĢľS":6468,"Ġmonths.":6469,"ĠBrook":6470,"Ġaside":6471,"E:":6472,"ails":6473,"Ġfort":6474,"Ġwake":6475,"ĠTen":6476,"Ġoverwhel":6477,"ĊĊPol":6478,"ĠNetwork":6479,"Ġmotor":6480,"ansas":6481,"Ġ(I":6482,"ĠSpan":6483,"Ġlawsuit":6484,"Ġnorthern":6485,"Ġso.":6486,"00,000":6487,"Ġrum":6488,"Ġusual":6489,"Ġafternoon":6490,"Ġrepeatedly":6491,"ula":6492,"ĠSol":6493,"Ġempt":6494,"Ġcere":6495,"Ġsand":6496,"Ġlaugh":6497,"Ġemails":6498,"ĊĊTrump":6499,"Ġsymbol":6500,"ĊĊQ":6501,"Ġhyp":6502,"Ġaccepted":6503,"ĠWilliams":6504,"Ġrein":6505,"Ġstreets":6506,"Ġevolution":6507,"Ġbird":6508,"Ġsuicide":6509,"Ġapps":6510,"Ġpregn":6511,"Ġdiss":6512,"Ġtiny":6513,"Ġschol":6514,"Ġmarried":6515,"Ġmethods":6516,"Ġgift":6517,"Ġrape":6518,"Ġoutl":6519,"Ġchose":6520,"Ġblame":6521,"bing":6522,"eople":6523,"ĠAT":6524,"Ġeating":6525,"Ġtom":6526,"Ġreput":6527,"Ġguilty":6528,"ĠTrump's":6529,"Ġsubsid":6530,"Ġisol":6531,"Ġlaw.":6532,"Ġnomine":6533,"Ġcauses":6534,"ĠConstitution":6535,"Ġwelcome":6536,"Ġwinter":6537,"ĠFoundation":6538,"Ġdrivers":6539,"ĠKevin":6540,"fficient":6541,"ĠWatch":6542,"Ġunemploy":6543,"Ġpromote":6544,"Ġauth":6545,"Ġdiscussed":6546,"Ġexplore":6547,"Ġloan":6548,"Ġannouncement":6549,"Ġtechniqu":6550,"vey":6551,"Ġwave":6552,"Ġplot":6553,"Ġare,":6554,"Ġyounger":6555,"ĠDou":6556,"Ġend,":6557,"ĠThank":6558,"oses":6559,"Ġreplaced":6560,"Ġnearby":6561,"Ġindustrial":6562,"Ġbug":6563,"Ġremote":6564,"Ġmoves":6565,"ĠOffic":6566,"Ġcoffee":6567,"ĠHen":6568,"ĠID":6569,"anged":6570,"Ġbegins":6571,"ĊĊSh":6572,"een":6573,"AS":6574,"ĠFriday,":6575,"ait":6576,"ĠDie":6577,"Ġknowing":6578,"Ġcriticism":6579,"Ġupdates":6580,"Ġyou'll":6581,"Ġcreation":6582,"Ġinstit":6583,"usal":6584,"duc":6585,"ĠNow,":6586,"unning":6587,"Ġsick":6588,"ĠAdam":6589,"Ġmore,":6590,"ĠDetro":6591,"onna":6592,"Ġactivists":6593,"Ġbefore.":6594,"ĠBack":6595,"ĠLead":6596,"Ġcongress":6597,"Ġadopt":6598,"ville":6599,"rid":6600,"imal":6601,"Ġrating":6602,"Ġtypical":6603,"ĠâĢľO":6604,"Ġfranchise":6605,"rog":6606,"ĠWood":6607,"Ġsplit":6608,"Ġthings.":6609,"Ġtimes.":6610,"ĠSports":6611,"order":6612,"Ġacting":6613,"Ġapproximately":6614,"Ġreaders":6615,"ĠISIS":6616,"ĠSl":6617,"Ġsharing":6618,"Ġtrib":6619,"Ġtank":6620,"Ġexamples":6621,"ications":6622,"Ġhunt":6623,"Ġcrash":6624,"Ġsession":6625,"Ġstring":6626,"ĠRoman":6627,"Ġmarkets":6628,"Ġproblem.":6629,"Ġadvent":6630,"Ġsym":6631,"Ġdomin":6632,"Ġstory.":6633,"ĠTuesday,":6634,"Ġthoughts":6635,"Ġreligion":6636,"Ġpositions":6637,"Ġmicro":6638,"Ġtargeted":6639,"reens":6640,"Ġdeeply":6641,"Ġprovid":6642,"Ġdefined":6643,"Photo":6644,"Ġvo":6645,"ĠEric":6646,"atell":6647,"essor":6648,"Ġseconds":6649,"Ġeditor":6650,"ĠSoci":6651,"onom":6652,"Ġprecise":6653,"aled":6654,"AC":6655,"Ġmessages":6656,"Ġcert":6657,"PD":6658,"Ġpackage":6659,"hab":6660,"ĠIll":6661,"Ġheight":6662,"Ġfindings":6663,"Ġurban":6664,"icial":6665,"Ġequipment":6666,"Ġstate,":6667,"ĠSomet":6668,"ĠSoviet":6669,"ĠVirginia":6670,"oney":6671,"ĠHol":6672,"ĠMonday,":6673,"Ġbunch":6674,":30":6675,"ae":6676,"ĊĊNo":6677,"ĊĊ[":6678,"Ġbid":6679,"olve":6680,"well":6681,"EM":6682,"Ġbehavi":6683,"Ġdiscover":6684,"Ġrecognize":6685,"point":6686,"Ġcutting":6687,"ĠYet":6688,"Ġright,":6689,"Ġstatements":6690,"less,":6691,"ĠHollywood":6692,"ĠCard":6693,"Ġ$4":6694,"Ġegg":6695,"ĊĊâĢľItâĢĻs":6696,"Ġgovernor":6697,"ĠInc":6698,"Ġclosely":6699,"ĠJord":6700,"Ġindeed":6701,"Ġanyway":6702,"Ġ2010,":6703,"ĠNHL":6704,"Ġsmok":6705,"Ġphen":6706,"Ġmarketing":6707,"ĠTay":6708,"etary":6709,"ĊĊMany":6710,"Ġpoint.":6711,"Ġcustomer":6712,"Ġcoalition":6713,"Ġeverybody":6714,"formation":6715,"Ġimportance":6716,"Ġsouthern":6717,"Ġlatter":6718,"ĠMiam":6719,"Ġcomponent":6720,"Ġmerely":6721,"Ġarea.":6722,"Ġliterally":6723,"ĠWik":6724,"Ġapolog":6725,"Ġincreases":6726,"Ġexpansion":6727,"Ġmistake":6728,"Ġuniverse":6729,"Ġofficially":6730,"Ġclaiming":6731,"ages.":6732,"ih":6733,"ĠWashington,":6734,"Ġsomehow":6735,"Ġtag":6736,"lier":6737,"Ġfacilities":6738,"Ġgotten":6739,"Ġretire":6740,"ĠAmerica,":6741,"ĠCamer":6742,"ĠDaniel":6743,"Ġlikes":6744,"ates.":6745,"ages,":6746,"ĠScience":6747,"Ġsurger":6748,"ĠAsian":6749,"Ġ(in":6750,"Ġuncle":6751,"ĊĊDespite":6752,"ĠEv":6753,"Ġspring":6754,"Ġveteran":6755,"ĠEconom":6756,"ĠSum":6757,"Ġcomparison":6758,"ĠOk":6759,"lets":6760,"ĠFord":6761,"Ġpages":6762,"Ġlicense":6763,"Ġrealized":6764,"ĠAfghanistan":6765,"Ġto,":6766,"Ġfemin":6767,"Ġexplains":6768,"ĊĊâĢĵ":6769,"ĠJu":6770,"uration":6771,"Ġdistance":6772,"ĠNASA":6773,"ĠRights":6774,"aine":6775,"illa":6776,"Ġmaximum":6777,"ĠsheâĢĻs":6778,"ĠCharles":6779,"Ġobserv":6780,"ocratic":6781,"bre":6782,"eria":6783,"Ġharder":6784,"ĠHist":6785,"Ġterritory":6786,"Ġtermin":6787,"Ġassistant":6788,"Ġsupports":6789,"ĠAttorney":6790,"ĠAcc":6791,"Ġenemy":6792,"ours":6793,"Ġmetal":6794,"ĠEnter":6795,"ĠAfrica":6796,"Ġroute":6797,"Ġpromised":6798,"Ġtransp":6799,"iot":6800,"pay":6801,"orough":6802,"ĠDiv":6803,"ĊĊ1.":6804,"Ġwest":6805,"Ġpowers":6806,"icing":6807,"Ġbelow.":6808,"Ġmoney,":6809,"ĠcountryâĢĻs":6810,"Ġemployee":6811,"Ġunknown":6812,"Ġnarrow":6813,"antly":6814,"aren":6815,"Ġdriven":6816,"ĊĊ2.":6817,"ixt":6818,"Ġbear":6819,"Ġpossess":6820,"Ġextended":6821,"Ġbasket":6822,"Ġnon-":6823,"Ġdoctors":6824,"hi":6825,"ĠDespite":6826,"Ġeast":6827,"Ġcommunity.":6828,"Ġstretch":6829,"amin":6830,"Ġagents":6831,"ated.":6832,"Ġsomewhere":6833,"Ġexhib":6834,"Ġartic":6835,"ĠAnn":6836,"Ġanonym":6837,"Ġcondem":6838,"Ġdesper":6839,"Ġkit":6840,"Ġliqu":6841,"GBT":6842,"ĠAdminist":6843,"Ġdepth":6844,"Ġsimpl":6845,"Ġseed":6846,"ĠEnergy":6847,"Ġassume":6848,"Ġcomplaint":6849,"Ġconfront":6850,"Ġroot":6851,"Ġlinks":6852,"Ġregularly":6853,"ĠIreland":6854,"Ġdatabase":6855,"apers":6856,"Ġruled":6857,"Ġwrites":6858,"Ġpilot":6859,"Ġobtain":6860,"Ġdiagn":6861,"Ġforest":6862,"Ġaddition,":6863,"Ġhur":6864,"ĠLord":6865,"Ġprovince":6866,"Ġunderstood":6867,"Ġformed":6868,"ilit":6869,"ĠRev":6870,"Ġobserved":6871,"Ġcomfortable":6872,"ĊĊLet":6873,"Ġhabit":6874,"ĠtheyâĢĻve":6875,"Ġdrawn":6876,"Ġbodies":6877,"ĠâĢľYou":6878,"ĠA.":6879,"Ġkeeps":6880,"Ġtort":6881,"ĠI'd":6882,"Ġscenario":6883,"Ġregistered":6884,"Ġfrequently":6885,"Ġnoticed":6886,"Ġincredibly":6887,"ary,":6888,"itz":6889,"Ġtogether.":6890,"Ġfilms":6891,"ĠBest":6892,"Ġsole":6893,"Ġinfect":6894,"ĠYoung":6895,"Ġcaptured":6896,"ĊĊWhy":6897,"rier":6898,"oles":6899,"Ġrespective":6900,"Ġevil":6901,"Ġcases,":6902,"Ġhell":6903,"asp":6904,"Ġbook,":6905,"ya":6906,"person":6907,"ĊĊThen":6908,"Ġsuddenly":6909,"Ġcolleagues":6910,"Ġharass":6911,"Ġenth":6912,"illed":6913,"Ġraising":6914,"ent.":6915,"Ġbench":6916,"adel":6917,"Ġincredible":6918,"angers":6919,"ĠWomen":6920,"Ġproof":6921,"Ġversions":6922,"rie":6923,"ĠJava":6924,"Ġdozen":6925,"sp":6926,"ĠThough":6927,"Ġprimarily":6928,"ĠRep.":6929,"ĠWednesday,":6930,"ola":6931,"Ġprofit":6932,"ĠFer":6933,"Ġshel":6934,"Ġobtained":6935,"Ġcontributed":6936,"Ġdirected":6937,"ĠEll":6938,"Ġcrucial":6939,"Ġassemb":6940,"ĠLo":6941,"ĠSouthern":6942,"Ġmouth":6943,"Ġextensive":6944,"Ġfasc":6945,"Ġlawyer":6946,"Ġcomprom":6947,"Ġstrongly":6948,"ĠSpanish":6949,"Ġacts":6950,"ĠIrish":6951,"Ġ193":6952,"ĠCy":6953,"Ġbaseball":6954,"ĠMinnes":6955,"Ġfinds":6956,"icious":6957,"ĠMoore":6958,"ĠBrian":6959,"Ġexperiences":6960,"Ġholiday":6961,"Ġplants":6962,"s,âĢĿ":6963,"cipl":6964,"Ġedition":6965,"ĠWild":6966,"orse":6967,"PU":6968,"ellect":6969,"Ġ2013.":6970,"Ġdisag":6971,"Ġpassion":6972,"outs":6973,"ĠHouston":6974,"ĠOld":6975,"Ġsevere":6976,"ĠPy":6977,"ĠI'll":6978,"Ġitself.":6979,"usi":6980,"Ġreturning":6981,"Ġequival":6982,"Ġtied":6983,"ĠTw":6984,"ograp":6985,"ĠChild":6986,"Ġtroub":6987,"den":6988,"ady":6989,"Ġsnow":6990,"Ġwaste":6991,"Ġescape":6992,"ĠHe's":6993,"ĠReport":6994,"ĊĊâĢľThis":6995,"Ġstuck":6996,"ideo":6997,"Ġpunish":6998,"ument":6999,"Ġworried":7000,"ĠâĢľThis":7001,"Ġstorage":7002,"Ġresulting":7003,"Ġboss":7004,"Ġqualif":7005,"Ġaimed":7006,"ĠJr.":7007,"Ġsuppl":7008,"intend":7009,"ĠTop":7010,"Ġencoun":7011,"Ġprofile":7012,"ĠThursday,":7013,"ĠMichigan":7014,"ĠDall":7015,"ĠFam":7016,"ĊĊ\"It's":7017,"Ġher,":7018,"ĠSenator":7019,"ĠChampionship":7020,"ĠIP":7021,"Ġconvert":7022,"efully":7023,"Ġprotected":7024,"abled":7025,"Ġhistory,":7026,"Ġworldwide":7027,"Ġfifth":7028,"merican":7029,"Ġphase":7030,"Ġawesome":7031,"Ġselected":7032,"Ġparking":7033,"edia":7034,"Ġdeleg":7035,"Ġprotests":7036,"Ġmanufacturer":7037,"Ġarticles":7038,"Ġnarrative":7039,"Ġlift":7040,"Ġphenomen":7041,"ĊĊJust":7042,"Ġalg":7043,"Ġearning":7044,"Ġproved":7045,"ius":7046,"ĠPutin":7047,"Ġamounts":7048,"ishes":7049,"Ġlies":7050,"ĊĊ'":7051,"Ġbefore,":7052,"Ġgang":7053,"Ġsav":7054,"Ġfalling":7055,"Ġera":7056,"gon":7057,"Ġinvestors":7058,"Ġman,":7059,"Ġattacked":7060,"isters":7061,"Ġairport":7062,"Ġgood.":7063,"Ġ2006":7064,"Ġpleas":7065,"Ġhat":7066,"Ġnobody":7067,"Ġticket":7068,"Ġ4,":7069,"Ġplane":7070,"ockey":7071,"Ġvacc":7072,"ĠOF":7073,"Ġflex":7074,"Ġsuffering":7075,"Ġchampion":7076,"Ġdisaster":7077,"Ġatmosphere":7078,"Ġflu":7079,"resident":7080,"ĠContin":7081,"pet":7082,"ĠVan":7083,"ĠMuslims":7084,"ĠWay":7085,"Ġboys":7086,"Ġneut":7087,"Ġoutcome":7088,"Ġplastic":7089,"ĠTurk":7090,"ĠâĢľw":7091,"Ġsurveillance":7092,"nell":7093,"Ġgroup,":7094,"Ġassert":7095,"Ġelsewhere":7096,"friend":7097,"Ġcontinuing":7098,"ĠyearâĢĻs":7099,"Ġchildren,":7100,"Ġsatell":7101,"Ġfeedback":7102,"Ġsight":7103,"Ġshots":7104,"ĠNY":7105,"Ġoblig":7106,"Ġdeaths":7107,"aped":7108,"Ġapartment":7109,"cow":7110,"ĠMo":7111,"ĠLabor":7112,"Ġchildren.":7113,"Ġtransm":7114,"Ġcontrolled":7115,"Ġgenerate":7116,"ĠTurkey":7117,"utch":7118,"abis":7119,"Ġenthusi":7120,"ĠIow":7121,"ives,":7122,"Ġtested":7123,"Ġanx":7124,"erâĢĻs":7125,"aly":7126,"apse":7127,"Ġpace":7128,"apping":7129,"Ġflav":7130,"Ġdowntown":7131,"ĠDC":7132,"Ġicon":7133,"ĠDNA":7134,"raid":7135,"Ġbetter.":7136,"ĠForeign":7137,"Ġparticipants":7138,"How":7139,"ĠLGBT":7140,"Ġauthors":7141,"greg":7142,"Ġid":7143,"ner,":7144,"Ġreport.":7145,"aug":7146,"Ġcycle":7147,"ĠWars":7148,"Ġautomatically":7149,"ĠFar":7150,"Ġthreatened":7151,"Ġrus":7152,"ĊĊ3":7153,"Ġconstantly":7154,"under":7155,"ĠWhere":7156,"pes":7157,"Ġinqu":7158,"Ġmarket.":7159,"Ġbattery":7160,"Ġdistinct":7161,"iat":7162,"Ġmoments":7163,"Ġaudio":7164,"Ġpower.":7165,"ĠPolit":7166,"Ġrecovery":7167,"Ġexposed":7168,"Ġsolve":7169,"Ġunp":7170,"Ġbitcoin":7171,"Ġreturns":7172,"ĊĊMost":7173,"ĠAcadem":7174,"ĠBoy":7175,"Ġdepending":7176,"Ġchosen":7177,"Ġwinner":7178,"ĠB.":7179,"west":7180,"ĠSupp":7181,"Ġthread":7182,"Ġthreats":7183,"ĠâĢľHe":7184,"ĠYouTube":7185,"Ġdecent":7186,"Ġforth":7187,"ĠDown":7188,"ĠAvenue":7189,"ĠSky":7190,"Ġ33":7191,"Ġsucceed":7192,"itan":7193,"ĠÐ":7194,"Ġenable":7195,"Ġ2012.":7196,"rist":7197,"Ġseasons":7198,"hetic":7199,"ĠBowl":7200,"chen":7201,"lines":7202,"Ġthing,":7203,"ĊĊ3.":7204,"oming":7205,"ĠWeâĢĻre":7206,"opher":7207,"Ġother.":7208,"Ġcrimes":7209,"Ġfake":7210,"ically,":7211,"Ġanymore":7212,"Ġscand":7213,"ĠStand":7214,"Ġwomen,":7215,"iscal":7216,"ĠLong":7217,"och":7218,"Ġcategory":7219,"Ġpercent.":7220,"ĠItalian":7221,"ĠPacific":7222,"unction":7223,"alty":7224,"ĠVictor":7225,"Ġtaught":7226,"Ġprominent":7227,"Ġthousand":7228,"Ġpartnership":7229,"Ġtrading":7230,"Ġ\"a":7231,"Ġsomebody":7232,"Ġprotesters":7233,"ĠAv":7234,"ĠAPI":7235,"Ġflying":7236,"ĊĊOver":7237,"adelph":7238,"weight":7239,"Ġheads":7240,"ĠParliament":7241,"Ġinformed":7242,"Ġexciting":7243,"uing":7244,"Ġchampionship":7245,"lls":7246,"pool":7247,"otal":7248,"ĠObamaâĢĻs":7249,"Ġfuck":7250,"Ġties":7251,"Ġelections":7252,"Ġanticip":7253,"Ġmatters":7254,"ĠJosh":7255,"iest":7256,"gl":7257,"Ġcompany,":7258,"ĠCivil":7259,"man,":7260,"ĠAuthor":7261,"Ġinstitutions":7262,"arden":7263,"Ġimpressive":7264,"usse":7265,"Ġvent":7266,"Ġoverse":7267,"Ġrain":7268,"Ġenerg":7269,"Ġtall":7270,"Ġclar":7271,"ĠNBC":7272,"ĠNick":7273,"Ġfounder":7274,"ceived":7275,"Ġconven":7276,"Ġwith.":7277,"ador":7278,"ĠExp":7279,"ĊĊUp":7280,"Ġdefeat":7281,"Ġexperience.":7282,"ĠwerenâĢĻt":7283,"Ġsignal":7284,"Ġprote":7285,"Ġplace,":7286,"ĠCarl":7287,"ĠMic":7288,"ĠFour":7289,"Ġacademic":7290,"ĠUt":7291,"iscons":7292,"ĠMoscow":7293,"Ġfar,":7294,"Ġstead":7295,"Ġaccomp":7296,"Ġcampaign.":7297,"Ġunusual":7298,"gender":7299,"ilarly":7300,"ĠNorthern":7301,"ooking":7302,"ĠDavis":7303,"ĠOreg":7304,"Ġvisited":7305,"Ġfolks":7306,"Ġsongs":7307,"Ġframework":7308,"ows":7309,"arters":7310,"Ġenjoyed":7311,"as.":7312,"Ġothers,":7313,"Ġelite":7314,"ĠCoast":7315,"Ġintellect":7316,"Ġmode":7317,"ĠZeal":7318,"vin":7319,"Ġracial":7320,"ĠView":7321,"opy":7322,"Ġobjects":7323,"ĠMax":7324,"Ġwid":7325,"Ġconsumption":7326,"Ġintense":7327,"ĊĊLike":7328,"Ġfamily,":7329,"Ġelectronic":7330,"ĠâĢľIf":7331,"Ġdozens":7332,"ĠRand":7333,"/or":7334,"Ġattended":7335,"Ġourselves":7336,"Ġincl":7337,"Ġaspects":7338,"ĠArm":7339,"ĊĊPolice":7340,"ĠGaz":7341,"Ġpersonally":7342,"Ġprocess,":7343,"ĠBut,":7344,"Ġfirst,":7345,"ĠColorado":7346,"ĠLinux":7347,"Ġweird":7348,"Ġcomic":7349,"Ġwestern":7350,"Ġcampus":7351,"everal":7352,"Ġbuildings":7353,"ĠRam":7354,"ar,":7355,"Ġfought":7356,"care":7357,"0,000":7358,"ĠPremier":7359,"Ġafraid":7360,"Ġspark":7361,"Ġextent":7362,"Ġmotion":7363,"ĠTurn":7364,"Ġpersonnel":7365,"ingu":7366,"ĠDisney":7367,"ĠTony":7368,"ĠNight":7369,"Ġconstit":7370,"woman":7371,"Ġrejected":7372,"Ġmainly":7373,"Ġmarked":7374,"Ġabortion":7375,"Ġresulted":7376,"met":7377,"Ġending":7378,"Ġcompens":7379,"Ġadds":7380,"ĠWat":7381,"ada":7382,"Ġcited":7383,"Ġ(C":7384,"ography":7385,"Ġpermanent":7386,"Ġself-":7387,"Ġcurrency":7388,"Ġmaterials":7389,"Ġmagazine":7390,"lay":7391,"Ġand/or":7392,"Ġ300":7393,"Ġlawmakers":7394,"Ġwhat's":7395,"ĠEduc":7396,"ensus":7397,"Ġtaxpay":7398,"Ġdescribes":7399,"ĠIT":7400,"ĠMot":7401,"ĠLove":7402,"Ġrepresented":7403,"ĠTrump,":7404,"ĠCome":7405,"nic":7406,"Ġdry":7407,"Ġinnoc":7408,"Ġpermission":7409,"Ġexcess":7410,"ĠRog":7411,"arr":7412,"ĠIN":7413,"ness,":7414,"stein":7415,"ĠJoseph":7416,"ĠTest":7417,"Ġuncertain":7418,"rence":7419,"Ġregulation":7420,"CL":7421,"Ġmanner":7422,"erves":7423,"pread":7424,"Ġchick":7425,"ĠZealand":7426,"CH":7427,"ĠST":7428,"Ġbacked":7429,"Ġalert":7430,"ĠSar":7431,"ĠW.":7432,"Ġmanufacturing":7433,"Ġissue.":7434,"ĠPhiladelph":7435,"Ġupper":7436,"ING":7437,"ĠEastern":7438,"Ġven":7439,"irty":7440,"Ġportion":7441,"ato":7442,"class":7443,"Ġresult,":7444,"Ġring":7445,"esy":7446,"Ġrobot":7447,"-th":7448,"Ġforum":7449,"ĠKurd":7450,"ĠBefore":7451,"isan":7452,"ĠElect":7453,"-C":7454,"Ġ191":7455,"Ġsympt":7456,"Ġcorruption":7457,"ĠYe":7458,"ĠAlab":7459,"Ġstim":7460,"ĠLew":7461,"Ġguns":7462,"-le":7463,"ĠThanks":7464,"Ġnewsletter":7465,"Ġ(as":7466,"Ġsample":7467,"Ġsuccessfully":7468,"Ġreasonable":7469,"Ġperfectly":7470,"ĠAmerica.":7471,"ĠBru":7472,"itarian":7473,"ĠLight":7474,"Ġcontem":7475,"ĊĊAlso":7476,"Ġphr":7477,"ication":7478,"Ġhistoric":7479,"Ġmixed":7480,"Ġ5.":7481,"ĠWiscons":7482,"Ġpod":7483,"ĠFil":7484,"Donald":7485,"Ġdemonstr":7486,"ĊĊAb":7487,"Ġmovies":7488,"Ġinformation.":7489,"Ġzero":7490,"omin":7491,"Ġwins":7492,"ccer":7493,"fortunately,":7494,"Ġrequests":7495,"Ġexpression":7496,"Ġideal":7497,"Ġplay.":7498,"Ġrig":7499,"nam":7500,"rehens":7501,"Ġdu":7502,"Ġrely":7503,"Ġbehalf":7504,"essions":7505,"Ġnewly":7506,"ĠClass":7507,"Ġregardless":7508,"-prof":7509,"Ġaggressive":7510,"Ġgenerated":7511,"Ġissues.":7512,"Ġcapture":7513,"lete":7514,"Ġrarely":7515,"ĠGreek":7516,"Ġorganized":7517,"Ġbusiness.":7518,"Ġwheel":7519,"ked":7520,"Ġyou've":7521,"ki":7522,"ĠJesus":7523,"Ġlevel.":7524,"Ġcreates":7525,"celer":7526,"Ġ2009,":7527,"Ġ2017.":7528,"ĠTake":7529,"ĠBat":7530,"Ġenorm":7531,"icul":7532,"ils":7533,"Ġnations":7534,"Ġiron":7535,"Ġcivilian":7536,"Ġbasketball":7537,"mental":7538,"ant,":7539,"Ġrub":7540,"agram":7541,"Ġdata.":7542,"iform":7543,"Ġentit":7544,"ĠâĢľN":7545,"ĠBalt":7546,"pass":7547,"Ġfacts":7548,"Ġstores":7549,"Ġconsequences":7550,"ller":7551,"Ġhonor":7552,"Ġjourney":7553,"Ġthemselves.":7554,"Ġvisible":7555,"fl":7556,"Ġcity.":7557,"Ġgear":7558,"Ġwonderful":7559,"Ġpractices":7560,"Ġwage":7561,"Ġstadium":7562,"Ġcampaign,":7563,"ao":7564,"Ġeverywhere":7565,"ĠJason":7566,"Ġslowly":7567,"ĠUkraine":7568,"Ġflat":7569,"obile":7570,"ĠVeg":7571,"Ġadults":7572,"otten":7573,"Ġpetition":7574,"Ġcommunications":7575,"z,":7576,"ĠAnth":7577,"p.":7578,"alaxy":7579,"Ġhired":7580,"ĠAlso,":7581,"Ġriver":7582,"Ġlegend":7583,"ĊĊAdd":7584,"Ġreport,":7585,"Ġdeals":7586,"ĠIns":7587,"Ġteachers":7588,"Ġgenu":7589,"Ġexclusive":7590,"Ġengaged":7591,"ĠSpecial":7592,"Ġtherap":7593,"ĊĊIs":7594,"athered":7595,"AM":7596,"Ġarea,":7597,"Ġwrong.":7598,"Ġbrut":7599,"Ġelection.":7600,"ĊĊEx":7601,"Ġinev":7602,"Ġprivile":7603,"Ġlaid":7604,"ĠRick":7605,"Ġstory,":7606,"Ġartists":7607,"Ġdiscipl":7608,"Ġequivalent":7609,"ĠReal":7610,"Ġtheme":7611,"Ġ2005":7612,"Ġmanip":7613,"top":7614,"Ġgained":7615,"ĠWilson":7616,"Ġstrict":7617,"ĊĊ\"This":7618,"Ġ34":7619,"ĠFood":7620,"Ġvolume":7621,"Ġshadow":7622,"redit":7623,"Ġfighter":7624,"ĠValley":7625,"Ġtargets":7626,"ĊĊSpe":7627,"Ġdeveloper":7628,"orith":7629,"Ġfamily.":7630,"Ġrecording":7631,"Ġ(The":7632,"Ġworld's":7633,"Ġ(N":7634,"ĠGames":7635,"ĠDark":7636,"Ġsufficient":7637,"Ġteaching":7638,"rum":7639,"ĠVol":7640,"Ġentering":7641,"Ġcollected":7642,"Ġline.":7643,"Ġunw":7644,"Ġcompete":7645,"Ġdrinking":7646,"Ġlicens":7647,"Ġintent":7648,"Ġhaven't":7649,"mates":7650,"cue":7651,"cks":7652,"Ġsuffer":7653,"80":7654,"Ġchances":7655,"Ġcolon":7656,"Ġshares":7657,"Ġparam":7658,"Ġrisks":7659,"ĠOrgan":7660,"anchester":7661,"can":7662,"ĠMajor":7663,"Ġorders":7664,"Ġoff,":7665,"Ġbridge":7666,"Ġopponents":7667,"Ġcontaining":7668,"uild":7669,"Ġservices.":7670,"ĠStr":7671,"Ġrefugees":7672,"Ġfixed":7673,"Ġhidden":7674,"Ġangry":7675,"itud":7676,"ĠYes,":7677,"Ġwarrant":7678,"Ġtopic":7679,"uzz":7680,"Ġprogram.":7681,"ĠCare":7682,"idespread":7683,"Ġkil":7684,"Ġproduc":7685,"ns":7686,"uls":7687,"Ġinterface":7688,"Ġble":7689,"Ġcommunication":7690,"Ġown.":7691,"Ġinjuries":7692,"Ġdrawing":7693,"osing":7694,"ĠOak":7695,"ĠDar":7696,"Ġscoring":7697,"rect":7698,"Ġmulti":7699,"ĠÂ£":7700,"Ġdata,":7701,"ĠPS":7702,"Ġgri":7703,"ĠGlobal":7704,"Ġ(Photo":7705,"ĠScotland":7706,"zer":7707,"Ġking":7708,"Ġimmigrants":7709,"Ġsweet":7710,"rain":7711,"Ġposts":7712,"Ġretired":7713,"Ġcrop":7714,"Ġhits":7715,"Ġped":7716,"ĠProgram":7717,"Ġelev":7718,"Ġgod":7719,"Ġevening":7720,"ĠUs":7721,"Ġsaved":7722,"Ġfollows":7723,"Ġsupporter":7724,"ĠJews":7725,"Ġ2008,":7726,"ĠDetroit":7727,"Ġjournalist":7728,"ĠCentre":7729,"ĠRoyal":7730,"ĊĊRel":7731,"Ġspons":7732,"Ġcritics":7733,"Ġbat":7734,"Ġoperate":7735,"Ġplug":7736,"Ġrelief":7737,"rive":7738,"ĠshouldnâĢĻt":7739,"Ġmillion.":7740,"Ġhitting":7741,"ĠRobin":7742,"ĠOper":7743,"ĊĊNow,":7744,"Ġheaded":7745,"Ġcounsel":7746,"Ġproven":7747,"ĠMayor":7748,"Ġregulations":7749,"Ġyet,":7750,"Ġshortly":7751,"Ġstruggling":7752,"Ġstack":7753,"inals":7754,"Ġwe'll":7755,"IV":7756,"Ġroutine":7757,"Ġ1,000":7758,"Ġsty":7759,"Ġfir":7760,"ĠGreg":7761,"Ġmayor":7762,"Ġsem":7763,"otted":7764,"ĠViet":7765,"-3":7766,"Ġyield":7767,"Ġvaluable":7768,"ĠConference":7769,"ĊĊSo,":7770,"Ġspin":7771,"Ġit.âĢĿ":7772,"ibilities":7773,"Ġexplicit":7774,"SPN":7775,"Ġloud":7776,"ĠOS":7777,"Ġgaming":7778,"##":7779,"ricult":7780,"ĠHel":7781,"Ġdelivery":7782,"RE":7783,"Ġbarely":7784,"amsung":7785,"oen":7786,"Ġlevel,":7787,"Ġfounded":7788,"Ġestimates":7789,"rific":7790,"ĠBernie":7791,"Ġtip":7792,"Ġagricult":7793,"ĠHot":7794,"Ġmeat":7795,"Ġblind":7796,"ĠJudge":7797,"Ġstronger":7798,"Ġasset":7799,"Ġfunctions":7800,"ĠUFC":7801,"ether":7802,"Ġwidespread":7803,"Ġabout.":7804,"Ġinformation,":7805,"ĠAgency":7806,"Ġattribut":7807,"Ġindex":7808,"ĠAbout":7809,"Ġpaint":7810,"Ġfiscal":7811,"ĠâĢľThere":7812,"Ġalgorith":7813,"Ġstem":7814,"ĠOs":7815,"Ġsharp":7816,"Ġclock":7817,"obe":7818,"Ġ49":7819,"Ġreaching":7820,"Ġfeaturing":7821,"Ġlandsc":7822,"ness.":7823,"Ġgonna":7824,"Ġreduction":7825,"lvan":7826,"Ġborrow":7827,"ĠTurkish":7828,"Ġpump":7829,"Ġwrote.":7830,"Ġcounty":7831,"Ġconspir":7832,"ĠFall":7833,"0,":7834,"Ġachieved":7835,"Ġtransaction":7836,"Ġshow.":7837,"ĠSunday,":7838,"Ġupset":7839,"ĠNaz":7840,"Ġhardly":7841,"ĠWater":7842,"?âĢĿ":7843,"Ġ(th":7844,"ĠBusiness":7845,"Ġexistence":7846,"Ġtogether,":7847,"Ġmorning,":7848,"Ġadopted":7849,"Ġestate":7850,"Ġbegun":7851,"Ġwithdraw":7852,"Ġarray":7853,"Ġproject.":7854,"Ġ5,":7855,"word":7856,"Ġcompe":7857,"ĠInvest":7858,"Ġreducing":7859,"ĠDam":7860,"Ġsuggesting":7861,"ĠNations":7862,"Ġ$5":7863,"luding":7864,"Ġjournalists":7865,"ĠArizona":7866,"Ġemerged":7867,"ĊĊTwo":7868,"ogan":7869,"ĠCall":7870,"Ġveget":7871,"Ġthick":7872,"mont":7873,"Ġcomplicated":7874,"Ġarguments":7875,"Ġadministr":7876,"Ġgall":7877,"ĠCast":7878,"pal":7879,"Ġbes":7880,"Ġbusy":7881,"Ġempty":7882,"Ġdescription":7883,"Ġthrown":7884,"Ġmatches":7885,"ĠGall":7886,"Ġjoining":7887,"ills":7888,"Ġclasses":7889,"ĠArch":7890,"alle":7891,"ĠVR":7892,"ĠIndepend":7893,"water":7894,"ials":7895,"run":7896,"ĠChina,":7897,"resent":7898,"ĠAI":7899,"Ġextend":7900,"ographic":7901,"A.":7902,"Ġcable":7903,"Ġprepare":7904,"ĠJordan":7905,"ĊĊAr":7906,"Ġacceler":7907,"Ġschedule":7908,"Ġphysic":7909,"Ġrepresentative":7910,"Ġrose":7911,"ĠXbox":7912,"Ġok":7913,"Ġaccus":7914,"Ġcontribute":7915,"Ġfor.":7916,"Ġ37":7917,"ĠFC":7918,"Ġconclusion":7919,"sylvan":7920,"Ġballot":7921,"Ġjob.":7922,"Ġuniform":7923,"Ġindicate":7924,"Ġarrange":7925,"ĠNSA":7926,"ga":7927,"Ġinitiative":7928,"Ġgenuine":7929,"cuit":7930,"Ġschool,":7931,"Ġincent":7932,"Ġpower,":7933,"Ġpublisher":7934,"Ġprogram,":7935,"ĠDonâĢĻt":7936,"Ġelig":7937,"Ġsettlement":7938,"Ġterrible":7939,"-and":7940,"ĠToday":7941,"Ġelectricity":7942,"Ġvillage":7943,"xy":7944,"ĠKent":7945,"Ġmean,":7946,"Ġproducing":7947,"Ġ=>":7948,"roc":7949,"Ġflaw":7950,"Ġhandful":7951,"Ġmail":7952,"Ġ\"It's":7953,"Ġgathered":7954,"Ġdict":7955,"Ġpal":7956,"Ġblast":7957,"ĠCD":7958,"ĠThere's":7959,"Ġfighters":7960,"ĠBull":7961,"ter,":7962,"Ġmountain":7963,"Ġpart,":7964,"Ġnetworks":7965,"Ġsentence":7966,"gged":7967,"ĠOnt":7968,"ĠMinistry":7969,"Ġ(F":7970,"Ġdone.":7971,"igure":7972,"ĠOlympic":7973,"Ġreferring":7974,"ĊĊâĢľThere":7975,"Ġ\"S":7976,"Ġmyth":7977,"Ġbe,":7978,"raction":7979,"ĠâĢľThey":7980,"Ġamid":7981,"ĠMen":7982,"Ġaver":7983,"lix":7984,"Ġ75":7985,"agan":7986,"Ġfault":7987,"Ġsensitive":7988,"ilton":7989,"Ġassets":7990,"Ġvulnerable":7991,"Ġrelationships":7992,"arlier":7993,"Ġmedium":7994,"Ġlimits":7995,"ensity":7996,"Ġpolitician":7997,"Ġover.":7998,"Ġconscious":7999,"ĊĊOur":8000,"Ġpeak":8001,"eping":8002,"Ġcountries,":8003,"Ġbail":8004,"Ġalien":8005,"ĠEr":8006,"Ġrecognition":8007,"herent":8008,"pected":8009,"ĠFoot":8010,"illy":8011,"Ġoffice.":8012,"ĠKar":8013,"ouver":8014,"Ġattempting":8015,"ĠAli":8016,"ĠAmericaâĢĻs":8017,"Ġexceed":8018,"Ġwing":8019,"Ġdisg":8020,"Ġstab":8021,"Ġconvinced":8022,"Ġregister":8023,"g.":8024,"ĠPennsylvan":8025,"Ġsynt":8026,"ĊĊMeanwhile,":8027,"Ġcannabis":8028,"Ġdeputy":8029,"Ġconcluded":8030,"Ġliked":8031,"ancouver":8032,"Ġsenator":8033,"ĠHenry":8034,"Ġprinciple":8035,"Ġcommunity,":8036,"ĠCa":8037,"Ġdemands":8038,"ĠMedical":8039,"ENT":8040,"ĠDid":8041,"Ġshow,":8042,"ĠMiami":8043,"Ġindicated":8044,"Ġactor":8045,"Ġside,":8046,"oration":8047,"Ġsugar":8048,"date":8049,"Ġinvited":8050,"Ġinvestigating":8051,"Ġproperly":8052,"ĠBas":8053,"Ġnavig":8054,"ĠNote":8055,"bl":8056,"Ġ10,":8057,"Ġrecover":8058,"ĠPatrick":8059,"Ġgranted":8060,"ĠBrand":8061,"itional":8062,"Ġformal":8063,"Ġbanned":8064,"ĠSnow":8065,"Ġgood,":8066,"Ġpropag":8067,"ĠThree":8068,"Ġdeliber":8069,"cus":8070,"Ġuse.":8071,"Ġcollapse":8072,"ĠEnd":8073,"Ġsaving":8074,"Ġfinance":8075,"ĠDun":8076,"ĠGov.":8077,"Ġresign":8078,"Ġrural":8079,"Ġnormally":8080,"ĠDead":8081,"Ġsubt":8082,"rett":8083,"Ġtemporary":8084,"Ġuncom":8085,"Ġ2017,":8086,"Ġinstalled":8087,"erences":8088,"Ġpossession":8089,"Ġmonitor":8090,"ĠESPN":8091,"oma":8092,"Ġvital":8093,"Ġdestruction":8094,"Ġlibert":8095,"Ġstrategic":8096,"Ġtouchdown":8097,"Ġaway,":8098,"Ġwelf":8099,"Ġrecognized":8100,"Ġemissions":8101,"ĠBeach":8102,"imore":8103,"Ġproject,":8104,"Ġwelfare":8105,"Ġneutral":8106,"ĊĊAm":8107,"Ġbranch":8108,"Ġchange,":8109,"Ġsor":8110,"âĢĶ":8111,"Ġcrazy":8112,"-sc":8113,"Ġeastern":8114,"ĠTal":8115,"Ġ6,":8116,"veland":8117,"ĠABC":8118,"ĠPerhaps":8119,"Ġparticipate":8120,"Ġpayments":8121,"ĠHT":8122,"Ġgroup.":8123,"ĠS.":8124,"ĊĊRep":8125,"Ġtox":8126,"ĠKingdom":8127,"Ġsmooth":8128,"Ġknow.":8129,"ĠSeason":8130,"Ġdiscovery":8131,"Ġeveryth":8132,"Ġjun":8133,"ĠCalifornia,":8134,"Ġactivist":8135,"cking":8136,"Ġpresident,":8137,"Ġrequirement":8138,"ĠPack":8139,"portion":8140,"rical":8141,"ce,":8142,"Ġpin":8143,"Ġare.":8144,"ĠManchester":8145,"Ġconstitutional":8146,"Ġwomen.":8147,"Ġportray":8148,"Ġgenetic":8149,"Ġdestroyed":8150,"Ġserves":8151,"ĠKelly":8152,"Ġforever":8153,"\\x":8154,"Ġoverl":8155,"Ġproperties":8156,"ĠSaturday,":8157,"ĠReview":8158,"Ġformat":8159,"Ġtackle":8160,"ĠGuardian":8161,"Ġownership":8162,"Ġtear":8163,"ives.":8164,"esh":8165,"Ġhang":8166,"Ġseemingly":8167,"ndum":8168,"ĠMS":8169,"Ġrook":8170,"ĠLand":8171,"Ġ(see":8172,"Ġfashion":8173,"bour":8174,"ĠIranian":8175,"Ġmenu":8176,"ĠRadio":8177,"Ġelse.":8178,"MA":8179,"Ġobst":8180,"Ġjur":8181,"ants,":8182,"PR":8183,"Ġingred":8184,"Ġequally":8185,"reedom":8186,"Ġcontained":8187,"Ġbath":8188,"ĠNext":8189,"Ġheadqu":8190,"Ġspokesperson":8191,"Ġaccompan":8192,"Ġheading":8193,"burgh":8194,"Ġversus":8195,"Ġ48":8196,"Ġhasn't":8197,"Ġdramatic":8198,"FP":8199,"Ġranked":8200,"ĠServices":8201,"Ġyes,":8202,"ĊĊOnce":8203,"Ġbehaviour":8204,"ĠSquare":8205,"agu":8206,"Ġtoler":8207,"otes":8208,"Ġsettle":8209,"Ġlegitimate":8210,"Ġallies":8211,"Ġlocations":8212,"Ġcrypt":8213,"Ġburd":8214,"ĊĊ4.":8215,"Ġcity,":8216,"Ġdevast":8217,"Ġconvicted":8218,"Ġreceiver":8219,"ĠFort":8220,"ĠLas":8221,"ĠStadium":8222,"Ġminority":8223,"ita":8224,"Ġpolls":8225,"Ġextension":8226,"Ġpractical":8227,"Ġtransgender":8228,"ĠHy":8229,"uted":8230,"Ġdeath.":8231,"ĊĊWh":8232,"Ġdefence":8233,"ĠNavy":8234,"Ġnotion":8235,"Ġpenalty":8236,"Ġissues,":8237,"Ġfestival":8238,"Ġmedia,":8239,"Ġtap":8240,"ĊĊSee":8241,"Ġmas":8242,"ĠYork,":8243,"cho":8244,"Ġmilk":8245,"Ġfailing":8246,"Ġignore":8247,"achuse":8248,"Ġprogressive":8249,"ĠHarry":8250,"ĠPolicy":8251,"Ġattacking":8252,"ĠConservative":8253,"ĠDivision":8254,"Ġcountries.":8255,"ĠPoint":8256,"Ġconcert":8257,"iverpool":8258,"Ġunclear":8259,"Ġdefine":8260,"ĠCO":8261,"Ġinvolves":8262,"ĠMatthew":8263,"ĠcompanyâĢĻs":8264,"Ġpasses":8265,"ATO":8266,"ĠVancouver":8267,"Ġsyn":8268,"To":8269,"ĠCir":8270,"ĠCam":8271,"Ġletters":8272,"ĠGeorgia":8273,"Ġsaying,":8274,"cribe":8275,"ounced":8276,"ĠField":8277,"Ġsuspected":8278,"Ġpurchased":8279,"Ġsmoke":8280,"Ġmagic":8281,"Ġpast,":8282,"Ġthrowing":8283,"ĠAward":8284,"sea":8285,"hent":8286,"oked":8287,"Ġcollective":8288,"ĠRay":8289,"Ġhide":8290,"Ġreferendum":8291,"ĠDig":8292,"ually,":8293,"ĠSaf":8294,"Ġintellectual":8295,"ĠBry":8296,"ĠGetty":8297,"Ġelection,":8298,"Ġestimate":8299,"ĠTheyâĢĻre":8300,"Ġlawyers":8301,"owed":8302,"Ġreputation":8303,"rich":8304,"Ġmeetings":8305,"ances,":8306,"Ġutil":8307,"Ġexternal":8308,"Ġattached":8309,"Ġunex":8310,"ĊĊThatâĢĻs":8311,"Ġchoo":8312,"Ġchapter":8313,"ĊĊâĢľO":8314,"Ġ->":8315,"Ġvirtually":8316,"Ġfootage":8317,"Ġviewed":8318,"ĠCity,":8319,"fast":8320,"aron":8321,"Ġpresum":8322,"ĠNob":8323,"ĠAnd,":8324,"Ġaffili":8325,"ĠRon":8326,"ĠL.":8327,"Ġother,":8328,"ĠSociety":8329,"ĠSamsung":8330,"host":8331,"fe":8332,"utes":8333,"chain":8334,"Ġexperienc":8335,"Ġdid.":8336,"Ġexport":8337,"Ġincorpor":8338,"ions,":8339,"Ġaccurate":8340,"Ġ2004":8341,"ĠDallas":8342,"ĠJersey":8343,"Ġresistance":8344,"ĠMuseum":8345,"Ġethnic":8346,"ĠheâĢĻd":8347,"ĠPan":8348,"upid":8349,"Ġcountry's":8350,"Ġ7,":8351,"Ġremem":8352,"Ġscream":8353,"ĠSept.":8354,"Ġseries,":8355,"Ġmissile":8356,"ĊĊDo":8357,"ĊĊRelated":8358,"Ġhouses":8359,"Ġyet.":8360,"umber":8361,"ĠMassachuse":8362,"Ġyard":8363,"Ġwriters":8364,"Ġright?":8365,"Ġ2011.":8366,"ĠAng":8367,"Ġblocks":8368,"Ġenough,":8369,"ĠFund":8370,"Ġeconomy.":8371,"Ġstudy,":8372,"phy":8373,"ĠRose":8374,"Ġemployment":8375,"Ġprogramming":8376,"Ġrequirements":8377,"ĠChair":8378,"Ġreven":8379,"Ġhyd":8380,"Ġhole":8381,"oric":8382,"Ġvary":8383,"Ġju":8384,"Ġhanded":8385,"iency":8386,"Ġfantastic":8387,"Ġresearcher":8388,"heast":8389,"Ġsay.":8390,"Ġdrew":8391,"ĊĊRe":8392,"ĠAnthony":8393,"Ġe-m":8394,"Ġoffice,":8395,"ĠAlbert":8396,"ĠâĢľBut":8397,"ĠLu":8398,"Ġperpet":8399,"Ġimprovement":8400,"Ġinquir":8401,"Ġinvent":8402,"Ġsoph":8403,"Ġindustry.":8404,"Ġintervention":8405,"Ġtrained":8406,"pan":8407,"ĠAnderson":8408,"vious":8409,"aed":8410,"Ġcomprehens":8411,"ĠMiller":8412,"Ġtestim":8413,"Ġsubstantial":8414,"Ġsanctions":8415,"ĠBell":8416,"Ġmine":8417,"ĠFurther":8418,"ĠCleveland":8419,"ĠC.":8420,"Ġridicul":8421,"ĠProfessor":8422,"VER":8423,"Ġcompany.":8424,"ĠAction":8425,"Ġstake":8426,"Ġbrill":8427,"Ġtone":8428,"prise":8429,"Ġthrew":8430,"ĠLittle":8431,"Ġraw":8432,"Ġguarantee":8433,"oster":8434,"ĠSanta":8435,"ĠShare":8436,"Ġlets":8437,"Ġstayed":8438,"Ġmidfield":8439,"Ġ(D":8440,"ĠGovern":8441,"Ġwater,":8442,"Ġchallenging":8443,"etime":8444,"ĠBaltimore":8445,"Ġpremium":8446,"Ġ\"O":8447,"ĠyouâĢĻd":8448,"aire":8449,"Ġnoting":8450,"Ġimproving":8451,"Ġnoise":8452,"Ġ38":8453,"Ġinvas":8454,"Ġwar.":8455,"Ġdad":8456,"Ġgo.":8457,"Ġoverwhelming":8458,"ĠAssociated":8459,"ĠGolden":8460,"cked":8461,"life":8462,"Ġexplanation":8463,"ĠMake":8464,"zen":8465,"ogether":8466,"Ġprotecting":8467,"iversary":8468,"ĠAnton":8469,"Ġtrue.":8470,"ĠTuesday.":8471,"Ġdiversity":8472,"Ġinject":8473,"Ġfed":8474,"Ġ(3":8475,"ĠEnviron":8476,"Ġbom":8477,"Ġpref":8478,"Ġcontribution":8479,"ĠPhilipp":8480,"ĠBa":8481,"kel":8482,"ĠFred":8483,"Ġgoods":8484,"Ġ11,":8485,"ĠHospital":8486,"ĠVis":8487,"Ġspeaks":8488,"Ġtaste":8489,"Ġcontrols":8490,"Ġimper":8491,"Ġseats":8492,"ĠIraqi":8493,"Ġfees":8494,"ĠMcCain":8495,"ances.":8496,"ĠM.":8497,"Ġcovering":8498,"Ġscheme":8499,"Ġfactory":8500,"-sh":8501,"Ġwater.":8502,"Ġfoss":8503,"ĠTaylor":8504,"Ġdemocratic":8505,"m,":8506,"ĠKenned":8507,"ĠWhich":8508,"Ġthin":8509,"________":8510,"Ġcomponents":8511,"Ġside.":8512,"secution":8513,"ressed":8514,"ints":8515,"Ġphotograp":8516,"Ġexpanded":8517,"ĊĊBefore":8518,"ĠBrew":8519,"amber":8520,"arry":8521,"Ġcasual":8522,"ĠPay":8523,"Ġwar,":8524,"Ġguit":8525,"Ġ8,":8526,"war":8527,"Ġadmit":8528,"ĠiP":8529,"ĠWithout":8530,"ĠMoh":8531,"Ġstartup":8532,"Ġminutes.":8533,"Ġdisagree":8534,"Ġengineering":8535,"Ġlives.":8536,"ĠCS":8537,"fall":8538,"ĠKansas":8539,"Ġcareful":8540,"ĠIllino":8541,"Ġovert":8542,"ĠiOS":8543,"ĠJam":8544,"over,":8545,"Ġcongressional":8546,"ĊĊ\"There":8547,"Ġsolutions":8548,"Ġinvestigate":8549,"Ġexposure":8550,"Ġ(for":8551,"-sex":8552,"Ġstol":8553,"ĠHoward":8554,"ĠDevelopment":8555,"Ġ42":8556,"ĊĊGet":8557,"osexual":8558,");":8559,"Ġouts":8560,"Ġcabin":8561,"rary":8562,"Ġadvertising":8563,"Ġfallen":8564,"Ġ192":8565,"Ġdogs":8566,"flix":8567,"Ġsect":8568,"ĠHas":8569,"Ġproblems.":8570,"anges":8571,"ĠIntelligence":8572,"ĠgovernmentâĢĻs":8573,"Ġend.":8574,"Ġsubsequent":8575,"Ġeither.":8576,"ico":8577,"ologist":8578,"Ġ20,":8579,"Ġtheat":8580,"ey":8581,"eline":8582,"Ġanswers":8583,"ĠcityâĢĻs":8584,"pire":8585,"Ġtomorrow":8586,"ĠPR":8587,"Ġdinner":8588,"rete":8589,"Ġhorror":8590,"Ġappreciate":8591,"-S":8592,"ĠNever":8593,"Ġliquid":8594,"Ġfirms":8595,"ĠQueen":8596,"ĠOK":8597,"ĊĊâĢľIf":8598,"shire":8599,"Image":8600,"Ġname,":8601,"Every":8602,"rors":8603,"Ġsup":8604,"Ġfoundation":8605,"ĠCommunity":8606,"ĠEdward":8607,"Ġpolicy.":8608,"vy":8609,"-wing":8610,"Ġ\"W":8611,"ĠMonday.":8612,"ĠAsia":8613,"Ġlobby":8614,"Ġfears":8615,"ĠAcademy":8616,"way,":8617,"Ġmedia.":8618,"ĠInformation":8619,"Ġbills":8620,"Ġimplementation":8621,"Ġencounter":8622,"Ġrhet":8623,"Ġlistening":8624,"Ġdiverse":8625,"ommod":8626,"ĠOâĢĻ":8627,"ĠTem":8628,"ĠHarris":8629,"Ġurged":8630,"ĠNation":8631,"Ġupgrade":8632,"ĠBrother":8633,"Ġtries":8634,"ĠSpain":8635,"rik":8636,"Ġclients":8637,"Ġmen,":8638,"ĠLink":8639,"Ġschool.":8640,"ĠCA":8641,"ĠSuch":8642,"Ġrepresenting":8643,"Ġconsistently":8644,"Ġsalary":8645,"Ġlowest":8646,"Ġads":8647,"ĠMexican":8648,"ley,":8649,"Ġenormous":8650,"Ġletting":8651,"Ġhung":8652,"Ġlong,":8653,"ĠCore":8654,"Ġ\"You":8655,"Ġwith,":8656,"Ġarrive":8657,"Ġ\"This":8658,"ĠAND":8659,"Ġtrem":8660,"Ġworker":8661,"Ġwebsite.":8662,"Ġbusiness,":8663,"ities.":8664,"Ġtechnologies":8665,"Get":8666,"ĠMs.":8667,"Ġregions":8668,"ĠMinnesota":8669,"Ġdegrees":8670,"ĠâĢľb":8671,"Ġ20th":8672,"apol":8673,"Ġrecommended":8674,"ĠCompany":8675,"emen":8676,"lah":8677,"Ġacquired":8678,"ortunately":8679,"Ġdepends":8680,"ĠCameron":8681,"ĠNATO":8682,"arrass":8683,"Ġdisrupt":8684,"ĠtodayâĢĻs":8685,"-on":8686,"ĠSpring":8687,"is.":8688,"Ġassistance":8689,"Ġweeks,":8690,"Ġflash":8691,"Ġpound":8692,"Ġextraord":8693,"Ġtail":8694,"ĠSeries":8695,"ied.":8696,"oured":8697,"Ġaccommod":8698,"ĠDenver":8699,"ĠwomenâĢĻs":8700,"Ġaction.":8701,"ĠKn":8702,"Ġloyal":8703,"Ġ\"He":8704,"inem":8705,"OW":8706,"Ġextract":8707,"ĠEurope,":8708,"ĠCat":8709,"Ġmarket,":8710,"ĠPent":8711,"Ġsoil":8712,"Ġdeeper":8713,"Ġstupid":8714,"Ġestablishment":8715,"Ġembarrass":8716,"ĠHit":8717,"list":8718,"Ġstrikes":8719,"Ġcyber":8720,"Ġcust":8721,"Ġreprodu":8722,"ĠMarvel":8723,"ĠFootball":8724,"iary":8725,"Ġpersonality":8726,"ĠDoes":8727,"orted":8728,"antic":8729,"Ġvoter":8730,"Ġdynamic":8731,"ĠLiberal":8732,"ĠEp":8733,"ĠOct.":8734,"ĠStone":8735,"wered":8736,"ĠTown":8737,"Ġroster":8738,"Ġfarmers":8739,"ĠJac":8740,"Ġnatur":8741,"ĠCra":8742,"ĠMa":8743,"ĠIce":8744,"ĠFamily":8745,"Ġfuture,":8746,"ĠOntario":8747,"ĠCheck":8748,"ĠLiverpool":8749,"Ġracist":8750,"ĠColl":8751,"Ġfulf":8752,"intendo":8753,"ĊĊCl":8754,"ĠLetâĢĻs":8755,"Ġtor":8756,"ĠLive":8757,"Ġexclus":8758,"Ġ15,":8759,"ĊĊPhoto":8760,"Ġreported.":8761,"ants.":8762,"ĠCapt":8763,"ities,":8764,"ĠKey":8765,"Ġdrove":8766,"ĠCBS":8767,"Ġencouraged":8768,"Ġclosing":8769,"ĠFriday.":8770,"prene":8771,"reprene":8772,"Ġmembership":8773,"Ġfab":8774,"ĠFreedom":8775,"Ġplayers,":8776,"aser":8777,"Ġstates,":8778,"ĠMOR":8779,"Ġham":8780,"Ġceleb":8781,"Ġline,":8782,"Ġprovision":8783,"ĠBo":8784,"Ġinvolvement":8785,"Ġfilm,":8786,"Ġmusical":8787,"acare":8788,"Ġ(f":8789,"ĠJay":8790,"Ġordinary":8791,"Ġbrowser":8792,"Ġsuspended":8793,"-to-":8794,"Ġastron":8795,"ĠNov.":8796,"Ġ64":8797,"Ġprotocol":8798,"Ġscenes":8799,"verty":8800,"ĠLuc":8801,"Ġauthent":8802,"Ġsurf":8803,"Ġhappen.":8804,"ĠOtt":8805,"ĠTrump.":8806,"interest":8807,"ĠInf":8808,"Ġporn":8809,"Ġpoverty":8810,"ĠLatin":8811,"Ġenough.":8812,"Ġwrest":8813,"Ġspokeswoman":8814,"Ġthough.":8815,"Ġdemocracy":8816,"ĠOregon":8817,"ĠFair":8818,"Ġcourts":8819,"TA":8820,"Ġvisiting":8821,"ource:":8822,"Ġtab":8823,"ĠWednesday.":8824,"essel":8825,"ĠDave":8826,"ĠstateâĢĻs":8827,"Ġignored":8828,"Ġsite.":8829,"itions":8830,"Ġhandling":8831,"Ġmarch":8832,"Ġocean":8833,"arty":8834,"ocation":8835,"rient":8836,"ĠTri":8837,"ĠIII":8838,"Ġintroduce":8839,"ĠId":8840,"Ġbact":8841,"Ġexperience,":8842,"Ġmos":8843,"Ġpresid":8844,"Ġvs":8845,"Ġnegotiations":8846,"Ġattack.":8847,"Ġspoken":8848,"Ġcapabilities":8849,"onso":8850,"Ġhook":8851,"Ġsupport.":8852,"ĠSea":8853,"IP":8854,"Ġspace.":8855,"Ġwarming":8856,"Ġfeelings":8857,"Ġrapidly":8858,"Ġcovers":8859,"Ġtracks":8860,"Ġshout":8861,"stone":8862,"Ġdemonstrated":8863,"ĊĊTod":8864,"Ġshif":8865,"ĊĊ\"O":8866,"Ġrescue":8867,"utive":8868,"Ġinner":8869,"Ġdeem":8870,"Ġweeks.":8871,"Ġattorne":8872,"Ġplayers.":8873,"ĠBureau":8874,"ĠGi":8875,"Ġneck":8876,"Ġstable":8877,"Ġ30,":8878,"Ġagenda":8879,"Ġfocusing":8880,"Ġlocked":8881,"Ġacknowledged":8882,"Ġcriticized":8883,"semb":8884,"Ġ6.":8885,"Ġproblem,":8886,"Ġapproached":8887,"Ġchoices":8888,">>":8889,"ĠN.":8890,"ĠSteven":8891,"Ġpercent,":8892,"Ġ$6":8893,"ĠPitt":8894,"ĠAmendment":8895,"Ġcyc":8896,"ĠChel":8897,"Ġduty":8898,"Ġcha":8899,"Le":8900,"FA":8901,"Ġitself,":8902,"ĠpeopleâĢĻs":8903,"ines,":8904,"Ġpursue":8905,"Ġ#1":8906,"Ġtitles":8907,"Ġjury":8908,"ĠwhoâĢĻs":8909,"ĠKh":8910,"Ġchip":8911,"Ġhelpful":8912,"Ġalter":8913,"Ġintroduction":8914,"vard":8915,"Ġpreced":8916,"ĠMusic":8917,"Ġtrave":8918,"iments":8919,"ĠEag":8920,"US":8921,"Ġterrorism":8922,"Ġpreparing":8923,"Ġtweeted":8924,"ystem":8925,"Ġbureau":8926,"Ġaround.":8927,"Ġcommonly":8928,"ĠUniversity,":8929,"EW":8930,"-off":8931,"Ġlandscape":8932,"Ġcomplaints":8933,"unicip":8934,"ĠSony":8935,"ĠMarket":8936,"ĠCommon":8937,"alo":8938,"Ġsame-sex":8939,"Ġwhenever":8940,"Ġpersist":8941,"Ġratio":8942,"Ġevent,":8943,"Ġconventional":8944,"ĊĊ\"He":8945,"ĊĊâĢľHe":8946,"ĠRen":8947,"ĠConf":8948,"Ġmoment,":8949,"Ġtrees":8950,"Ġsignature":8951,"ĠObamacare":8952,"Ġfriendly":8953,"Ġtechniques":8954,"ĠBeij":8955,"Ġlegislative":8956,"ĠBuild":8957,"ĠData":8958,"Ġmeasured":8959,"Ġequality":8960,"Ġsoul":8961,"Ġinspir":8962,"inding":8963,"ated,":8964,"Ġconso":8965,"Ġproducer":8966,"Ġ2020":8967,"ĊĊ4":8968,"ĠPatri":8969,"ntil":8970,"Ġpipeline":8971,"Ġsmartphone":8972,"ĠHistory":8973,"ions.":8974,"ĠE.":8975,"Ġfinger":8976,"Ġ9,":8977,"abeth":8978,"Ġforcing":8979,"ĠJustin":8980,"ĠKong":8981,"igen":8982,"Ġstates.":8983,"ĠCook":8984,"Ġwhich,":8985,"ĠPrince":8986,"Ġtargeting":8987,"Ġscientist":8988,"Ġsatellite":8989,"Ġadvocates":8990,"Ġjoke":8991,"Ġsilver":8992,"Ġswim":8993,"sters":8994,"ĠThursday.":8995,"Ġ7.":8996,"Ġmorning.":8997,"boy":8998,"ammed":8999,"Ġactively":9000,"Ġtickets":9001,"Ġsteel":9002,"Ġfold":9003,"Ġrevel":9004,"ĠAdministration":9005,"Ġrookie":9006,"ĠEducation":9007,"Ġperforming":9008,"Ġstudied":9009,"Ġ100%":9010,"Ġabroad":9011,"Ġdump":9012,"Ġvehic":9013,"ĠOklah":9014,"Ġmind,":9015,"Ġforecast":9016,"Ġ400":9017,"Ġweigh":9018,"onic":9019,"Ġ44":9020,"Ġtape":9021,"Ġinstruct":9022,"-class":9023,"Ġappointed":9024,"Ġmuseum":9025,"Ġartific":9026,"Ġmonthly":9027,"Ġrestrictions":9028,"Ġunemployment":9029,"burg":9030,"ĠClark":9031,"Ġhealthcare":9032,"Ã¡":9033,"Ġfriends,":9034,"bo":9035,"Ġ12,":9036,"ĊĊInd":9037,"Ġcarefully":9038,"ĠTreas":9039,"Ġclubs":9040,"mun":9041,"Ġinvestigators":9042,"Ġmemor":9043,"a's":9044,"Ġclassified":9045,"Ġtouc":9046,"Ġexists":9047,"ĠUse":9048,"ĠRoy":9049,"Ġcoc":9050,"Ġscholars":9051,"ĠReuters":9052,"ĠHead":9053,"ĠHD":9054,"Ġlights":9055,"Ġsurvive":9056,"ĠnationâĢĻs":9057,"ĠNetflix":9058,"senal":9059,"state":9060,"ucky":9061,"Ġlineup":9062,"-of":9063,"ĠExec":9064,"Ġprocessing":9065,"Ġskept":9066,"Ġmatter.":9067,"Ġdut":9068,"Ġfunded":9069,"idelines":9070,"Ġprinciples":9071,"ĠDiego":9072,"ĠBattle":9073,"ĠClick":9074,"Ġspiritual":9075,"ĠSir":9076,"Ġcanc":9077,"Ġcameras":9078,"ĠON":9079,"Ġdivided":9080,"Ġcompare":9081,"ĊĊBoth":9082,"ucks":9083,"Ġsky":9084,"Ġdeal.":9085,"Ġrush":9086,"Ġwife,":9087,"Ġ(with":9088,"aze":9089,"ĠControl":9090,"Script":9091,"/2":9092,"Ġasks":9093,"Ġwider":9094,"Ġlist.":9095,"Ġaccomplish":9096,"igare":9097,"Ġ18,":9098,"Ġdistributed":9099,"Ġgrass":9100,"Ġhorse":9101,"inity":9102,"Ġencry":9103,"Ġsurviv":9104,"Ġman.":9105,"ĠStart":9106,"Ġinsisted":9107,"Ġpriority":9108,"essed":9109,"ĠTour":9110,"Ġroom.":9111,"ĠNev":9112,"ifest":9113,"Ġfantasy":9114,"erm":9115,"Ġconce":9116,"Ġsear":9117,"ĊĊ5.":9118,"ĠAmong":9119,"ĠGalaxy":9120,"osit":9121,"ĠJan.":9122,"Ġbrilliant":9123,"Ġ%":9124,"Ġmachines":9125,"Ġresource":9126,"Ġpage.":9127,"Ġdemanding":9128,"Ġfields":9129,"ĊĊCont":9130,"ĠCapit":9131,"Ġyear's":9132,"Ġunpre":9133,"ensions":9134,"ĠClintonâĢĻs":9135,"ĠLA":9136,"ĠScottish":9137,"zed":9138,"Ġwedd":9139,"Ġbroader":9140,"ĠHave":9141,"Ġdiscussions":9142,"Ġcontracts":9143,"Ġ150":9144,"Ġ2003":9145,"Ġpatterns":9146,"Ġbrown":9147,"Ġfrequent":9148,"ĠAbb":9149,"cy.":9150,"Ġgrid":9151,"ulating":9152,"iger":9153,"Ġmining":9154,"ĊĊRes":9155,"ĊĊÂ":9156,"Ġarguing":9157,"Ġtrillion":9158,"ĠAh":9159,"Ġovers":9160,"ĠRevolution":9161,"Ġyellow":9162,"Ġrocket":9163,"By":9164,"Ġevent.":9165,"anes":9166,"Ġfing":9167,"Ġvisitors":9168,"ĠNintendo":9169,"Ġstepped":9170,"Ġministry":9171,"ĠSyd":9172,"Ġtur":9173,"Ġrender":9174,"Ġtracking":9175,"rators":9176,"Ġstruggled":9177,"Ġviewers":9178,"Ġmind.":9179,"Ġremov":9180,"Ġentreprene":9181,"ĠFinal":9182,"People":9183,"Ġmanaging":9184,"uous":9185,"Ġsociety.":9186,"Ġnominee":9187,"ĠBang":9188,"Ġfee":9189,"ĠAlabama":9190,"ĊĊInst":9191,"HS":9192,"ĠLind":9193,"Ġmarks":9194,"Ġscan":9195,"Ġmuch.":9196,"ĠTed":9197,"cuse":9198,"Ġwra":9199,"Ġlosses":9200,"Ġrear":9201,"iability":9202,"SL":9203,"Ġpointing":9204,"Ġcentury,":9205,"Ġindustry,":9206,"Ġrif":9207,"osm":9208,"Ġquoted":9209,"Ġgroups,":9210,"ĠtheyâĢĻll":9211,"ĠHarvard":9212,"ĊĊThose":9213,"Ġsurge":9214,"uction":9215,"Ġcontrol.":9216,"Ġhosted":9217,"Ġ(e.":9218,"ĠGulf":9219,"Ġassign":9220,"Ġservice.":9221,"Ġdisappear":9222,"Ġtie":9223,"Ġissue,":9224,"Ġhoped":9225,"Ġrecruit":9226,"Ġname.":9227,"Ġinequ":9228,"ĠWarren":9229,"Ġfalls":9230,"ĠBall":9231,"ĠIowa":9232,"ifies":9233,"Ġphrase":9234,"Ġmortg":9235,"eath":9236,"Ġquote":9237,"ĠWisconsin":9238,"Ġdeny":9239,"Ġanybody":9240,"Ġramp":9241,"Ġshe's":9242,"Ġstored":9243,"ĠBrex":9244,"ĠEngine":9245,"Ġreliable":9246,"Ġawareness":9247,"Ġmonitoring":9248,"Ġpatch":9249,"Ġparty.":9250,"ĠâĢľIâĢĻm":9251,"Ġ21,":9252,"Ġdeserve":9253,"ĊĊMr.":9254,"Ġsituation.":9255,"ĠLyn":9256,"ĠMars":9257,"Ġ2010.":9258,"Ġscores":9259,"AA":9260,"ĠMain":9261,"Ġbub":9262,"Ġsafet":9263,"Ġdub":9264,"Ġweekly":9265,"Ġphones":9266,"Ġcontacted":9267,"Ġanti":9268,"Ġ8.":9269,"ML":9270,"Ġdust":9271,"Ġpast.":9272,"ĠHard":9273,"fire":9274,"ĠFull":9275,"ta":9276,"awa":9277,"Ġles":9278,"ĠPhiladelphia":9279,"Ġswing":9280,"Ġliterature":9281,"Ġ16,":9282,"izabeth":9283,"Ġaffair":9284,"ĠMcG":9285,"ĠHop":9286,"Ġthey've":9287,"Ġinteraction":9288,"Ġhimself.":9289,"Ġshr":9290,"enders":9291,"Ġmere":9292,"Ġrecipe":9293,"ĠConnect":9294,"Ġ1st":9295,"itionally,":9296,"Ġwanting":9297,"ĠGraham":9298,"ĠIndeed,":9299,"Ġaddressed":9300,"Ġalone.":9301,"Ġdrone":9302,"ĠNOT":9303,"ĠNic":9304,"usalem":9305,"ĠWe're":9306,"Ġ2007,":9307,"Ġalarm":9308,"Ġinning":9309,"Ġrequested":9310,"Ġstability":9311,"Ġfossil":9312,"ĠSwit":9313,"ĠBuff":9314,"Ġadded:":9315,"then":9316,"Ġ65":9317,"Ġvessel":9318,"Ġhomeless":9319,"Ġoutrage":9320,"Ġparalle":9321,"Ġeligible":9322,"ifications":9323,"Ġabsence":9324,"Ġdomain":9325,"scribe":9326,"Ġaccessible":9327,"otype":9328,"Ġtechnique":9329,"Ġinterviews":9330,"Ġprepar":9331,"Ġcelebrate":9332,"icate":9333,"Ġlayer":9334,"Ġengineer":9335,"ĠCorpor":9336,"ĠCanada,":9337,"Ġchildhood":9338,"ihad":9339,"ĊĊ\"If":9340,"Ġconspiracy":9341,"Ġscreens":9342,"ĠJerusalem":9343,"win":9344,"enth":9345,"Ġcircumstances":9346,"Ġpolicy,":9347,"Ġstaying":9348,"rating":9349,"Ġcod":9350,"Ġpromoting":9351,"ĠAgain":9352,"ctic":9353,"Ġroles":9354,"Ġdating":9355,"Ġawarded":9356,"Ġburning":9357,"Ġsurely":9358,"Ġparty,":9359,"Ġsurvival":9360,"ĠEmail":9361,"Ġ22,":9362,"Ġ55":9363,"Ġtremend":9364,"ĠRos":9365,"ĠAsh":9366,"ĠBron":9367,"Ġ39":9368,"Ġdeadly":9369,"Ġ19,":9370,"ĠIR":9371,"Ġreveals":9372,"ĊĊJohn":9373,"Ġsubmitted":9374,"ĊĊFin":9375,"ĠD.C.":9376,"ĠFI":9377,"-term":9378,"Ġentitled":9379,"Ġbreast":9380,"acle":9381,"Ġassociation":9382,"ora":9383,"Ġ$7":9384,"Ġships":9385,"Ġhappened.":9386,"inction":9387,"ĠDi":9388,"Ġfield.":9389,"Ġabandoned":9390,"ĠWW":9391,"ught":9392,"ĠAle":9393,"Ġpublic.":9394,"Ġcoordin":9395,"iate":9396,"Ġboat":9397,"Ġsetup":9398,"ĊĊâĢĶ":9399,"Ġimprovements":9400,"Ġshopping":9401,"ĠBroad":9402,"dict":9403,"Ġabilities":9404,"Ġmeaningful":9405,"Ġ25,":9406,"Ġneighbour":9407,"ĠManage":9408,"ĠPrice":9409,"ĠMu":9410,"Ġpounds":9411,"Ġstations":9412,"Ġ2nd":9413,"Ġenemies":9414,"assador":9415,"Ġarrival":9416,"ĠKir":9417,"ĠItaly":9418,"Ġdoors":9419,"Ġplay,":9420,"Ġdispute":9421,"Ġanniversary":9422,"ĠMid":9423,"ĠInstagram":9424,"ĠHamilton":9425,"ĠDec.":9426,"Ġpolitically":9427,"Ġexecution":9428,"Ġmillion,":9429,"ĊĊBecause":9430,"Ġabsor":9431,"Ġchest":9432,"Ġprocesses":9433,"Ġstone":9434,"Ġpromises":9435,"Ġ24,":9436,"Ġexpectations":9437,"Ġ17,":9438,"ka":9439,"Ġblocked":9440,"ĠDutch":9441,"ĠJonathan":9442,"ĠBridge":9443,"ĠScient":9444,"active":9445,"ĠInc.":9446,"Ġhours.":9447,"ultane":9448,"ĠTro":9449,"Ġimplemented":9450,"Ġepisodes":9451,"Ġtonight":9452,"ĊĊEvery":9453,"ĠRedd":9454,"Ġkilomet":9455,"Ġrelease.":9456,"bor":9457,"Ġmole":9458,"Ġprol":9459,"IM":9460,"Ġloose":9461,"Ġcream":9462,"Ġrational":9463,"Ġentr":9464,"Ġthreatening":9465,"Ġbeating":9466,"Ġcompeting":9467,"Ġmathem":9468,"ĠLim":9469,"Ġreports.":9470,"ĠUber":9471,"Ġpicking":9472,"Ġdemonstrate":9473,"Ġpolice.":9474,"Ġdismissed":9475,"Ġlists":9476,"Ġ(M":9477,"Ġthorough":9478,"Ġit.\"":9479,"ses":9480,"Ġstreaming":9481,"Ġstolen":9482,"Ġexit":9483,"II":9484,"Ġposition.":9485,"ĠSean":9486,"Ġdisturb":9487,"icks":9488,"cy,":9489,"Ġendorse":9490,"ĠAssad":9491,"Ġhire":9492,"Ġfiring":9493,"Ġ43":9494,"Ġplain":9495,"Ġcomprehensive":9496,"ĠSarah":9497,"ĠDO":9498,"ĠEmpire":9499,"ĠGord":9500,"Ġ41":9501,"Ġfilter":9502,"cott":9503,"Ġshame":9504,"uce":9505,"Ġservices,":9506,"Ġabove,":9507,"Ġfather,":9508,"Ġconversations":9509,"Ġdifferent.":9510,"ĠHay":9511,"pm":9512,"Ġ14,":9513,"ĠTit":9514,"Ġcorporations":9515,"ĠTennes":9516,"ĠLook":9517,"0s.":9518,"Ġemerging":9519,"pro":9520,"inations":9521,"Ġregulatory":9522,"Ġhypot":9523,"zing":9524,"ĠCross":9525,"Ġalive":9526,"Ġcoaches":9527,"ĊĊAbout":9528,"Ġpenalt":9529,"ĠAllen":9530,"ĠRet":9531,"Ġeducational":9532,"ĠMarsh":9533,"Ġseries.":9534,"Ġlunch":9535,"ennis":9536,"Ġbreaks":9537,"Ġease":9538,"ĠAge":9539,"lands":9540,"Ġciting":9541,"Ġ\"If":9542,"ĠGovernor":9543,"Ġe-mail":9544,"aching":9545,"Ġlapt":9546,"Ġlying":9547,"Ġhelp.":9548,"urrent":9549,"Ġgains":9550,"Ġdialogue":9551,"Ġcogn":9552,"Ġdiscussing":9553,"ĠMaster":9554,"ĠVice":9555,"ĠBudd":9556,"ĠHong":9557,"Ġremarks":9558,"izon":9559,"Ġretain":9560,"Ġsmell":9561,"ĠOrig":9562,"onâĢĻt":9563,"ĠPen":9564,"ĠAssemb":9565,"Ġanything,":9566,"Ġclothing":9567,"ĠBible":9568,"Ġ2001":9569,"ĊĊAny":9570,"Ġrepair":9571,"ĠTes":9572,"Ġconnections":9573,"ources":9574,"ĠBelg":9575,"Ġquestioned":9576,"ĠGirl":9577,"Ġpossible,":9578,"ĊĊFacebook":9579,"Ġanother.":9580,"Ġ28,":9581,"za":9582,"Ġprovin":9583,"Ġbanking":9584,"eman":9585,"Ġlad":9586,"Ġpoints.":9587,"ĠTrib":9588,"ĠMorgan":9589,"ĠMat":9590,"Ġaged":9591,"Ġnaturally":9592,"Ġbow":9593,"ĠâĢľThat":9594,"bec":9595,"Ġcaptain":9596,"Ġchat":9597,"Ġeconomy,":9598,"ĠBelow":9599,"Ġsamples":9600,"Ġplate":9601,"Ġacid":9602,"Ġexception":9603,".com":9604,"riers":9605,"Ġmargin":9606,"Ġcycl":9607,"lessly":9608,"Ġdiscrimination":9609,"Ġfundra":9610,"Ġsecondary":9611,"Ġbody.":9612,"Ġdefending":9613,"Ġself-d":9614,"ĠStore":9615,"Ġ\"N":9616,"Ġ(201":9617,"Ġnic":9618,"Ġ26,":9619,"onnell":9620,"Ġjok":9621,"ĠVietnam":9622,"Ġdiet":9623,"Ġranks":9624,"Ġbullet":9625,"Ġsimultane":9626,"-the":9627,"ĠFre":9628,"ĊĊHereâĢĻs":9629,"Ġcontributions":9630,"Ġreverse":9631,"Ġcareer.":9632,"ĠSn":9633,"Ġgenre":9634,"Ġdeath,":9635,"Ġ9/":9636,"ĠEurope.":9637,"ĠDesign":9638,"ĠCost":9639,"enny":9640,"iner":9641,"Ġkitchen":9642,"Ġrom":9643,"Ġrelax":9644,"ĠGreece":9645,"Ġroom,":9646,"ant.":9647,"Ġguitar":9648,"Ġdelic":9649,"appy":9650,"Ġho":9651,"BO":9652,"ĠâĢľM":9653,"Ġreplacement":9654,"Ġstatistics":9655,"Ġit,âĢĿ":9656,"Ġjob,":9657,"Ġleft,":9658,"fare":9659,"Ġpulling":9660,"Ġgraduate":9661,"enez":9662,"Ġknee":9663,"Ġtransportation":9664,"ious,":9665,"ĠChristians":9666,"Ġsentenced":9667,"wan":9668,"ĠThrough":9669,"ĠStill,":9670,"Ġtitled":9671,"Ġmechanism":9672,"Ġcomputers":9673,"ishop":9674,"Ġ23,":9675,"Ġassigned":9676,"Ġroof":9677,"Ġavailable.":9678,"ĠHun":9679,"ĠAp":9680,"Ġexplaining":9681,"oil":9682,"Ġcounterpart":9683,"ĊĊPer":9684,"AL":9685,"vertisements":9686,"Ġsuperior":9687,"Ġemployed":9688,"Ġcopies":9689,"Ġ13,":9690,"haust":9691,"Ġincidents":9692,"Ġexpanding":9693,"Ġlobb":9694,"Ġdeficit":9695,"Ġrequiring":9696,"Ġunderlying":9697,"Ġlucky":9698,"Ġtoxic":9699,"Ġunpreced":9700,"Ġabst":9701,"Ġinstance":9702,"Ġlean":9703,"Ġconvince":9704,"Ġtired":9705,"ĠLeader":9706,"-4":9707,"Ġgrav":9708,"Ġgrade":9709,"Ġstudying":9710,"ĠCrime":9711,"Ġstriking":9712,"Ġhighlights":9713,"bal":9714,"Ġtechnology,":9715,"Ġspectrum":9716,"ĠSC":9717,"Ġ27,":9718,"Ġbacking":9719,"ĠBruce":9720,"ĠâĢľh":9721,"Ġhip":9722,"Ġenhance":9723,"Ġsmile":9724,"Ġpredicted":9725,"Ġdeadline":9726,"Ġlegally":9727,"Ġprompted":9728,"Ġof,":9729,"ĠHor":9730,"Ġranking":9731,"Ġhun":9732,"iveness":9733,"ĠJere":9734,"Ġthat?":9735,"Ġinsight":9736,"Ġnerv":9737,"-game":9738,"Ġopenly":9739,"ĠGary":9740,"Ġsuccess.":9741,"Ġopinions":9742,"Ġinterf":9743,"Ġshirt":9744,"Ġ$1.":9745,"Ġunve":9746,"Ġleak":9747,"ĠO'":9748,"ĠBlock":9749,"Ġboot":9750,"Ġkm":9751,"olph":9752,"====":9753,"ĠHind":9754,"ĠTrade":9755,"Ġrebel":9756,"Ġprocedure":9757,"more,":9758,"lad":9759,"itors":9760,"ylum":9761,"Ġpassengers":9762,"Ġeveryday":9763,"ĠCode":9764,"Ġvote.":9765,"Ġdocumentary":9766,"acy.":9767,"-P":9768,"ĠElizabeth":9769,"Ġunexpected":9770,"Ġquestion.":9771,"Ġresults.":9772,"Ġfruit":9773,"ĊĊâĢľYou":9774,"ĠRa":9775,"-American":9776,"Ġstarter":9777,"oor":9778,"ination.":9779,"ĠMir":9780,"Ġadded,":9781,"ĠSyria,":9782,"Ġwhereas":9783,"Ġautonom":9784,"Ġriding":9785,"ĠHereâĢĻs":9786,"arn":9787,"ĠWhether":9788,"Ġopens":9789,"dated":9790,"Ġreviews":9791,"me":9792,"ĠWas":9793,"Ġviolation":9794,"Ġclinical":9795,"ĊĊThough":9796,"Ġsurgery":9797,"ĊĊUnder":9798,"Ġsymp":9799,"Ġnam":9800,"ĠThomp":9801,"Ġassessment":9802,"Ġrecip":9803,"ini":9804,"ĠRather":9805,"Ġpreferred":9806,"ology,":9807,"-out":9808,"Ġdiscount":9809,"ĠâĢľWhat":9810,"ouri":9811,"Ġwebsites":9812,"Ġmanifest":9813,"Ġexhaust":9814,"Ġbreath":9815,"Ġdistingu":9816,"Ġanger":9817,"Ġcoaching":9818,"ĠBoe":9819,"ĠIndust":9820,"Ġphysically":9821,"Ġhelic":9822,"Ġjudges":9823,"Ġfunny":9824,"Ġcontrad":9825,"ĠFestival":9826,"Ġrace,":9827,"Ġlux":9828,"Ġtrigger":9829,"Ġ$10":9830,"Ġbread":9831,"ĠTok":9832,"Ġsoccer":9833,"Ġrepresentatives":9834,"Ġdiplomatic":9835,"attered":9836,"Ġmask":9837,"Ġfacilit":9838,"ĠUsing":9839,"ĠAtlanta":9840,"ĠBase":9841,"ette":9842,"Ġconcrete":9843,"ĠâĢ¢":9844,"Ġclip":9845,"Ġtransit":9846,"Ġhockey":9847,"Ġindicates":9848,"ĠBloom":9849,"Ġshield":9850,"Ġprecisely":9851,"Ġassumed":9852,"Ġbillions":9853,"lical":9854,"Ġhelicop":9855,"Ġanything.":9856,"ĠET":9857,"Ġperceived":9858,"Ġpromising":9859,"Ġpuzz":9860,"IL":9861,"ĠRussia,":9862,"Ġbonus":9863,"ĠKat":9864,"ĠFront":9865,"Ġcheaper":9866,"Ġpoints,":9867,"Ġovercome":9868,"Ġpollution":9869,"Ġcolour":9870,"Ġperiod.":9871,"D.":9872,"Ġvert":9873,"ĠExecutive":9874,"Ġprosecutors":9875,"ĠAR":9876,"mar":9877,"Ġlet's":9878,"ĠKeep":9879,"Ġstructures":9880,"aware":9881,"mad":9882,"t,":9883,"isms":9884,"ĠCharlie":9885,"Ġunlock":9886,"ule":9887,"Ġsits":9888,"Ġsettled":9889,"Ġacknowledge":9890,"Ġdramatically":9891,"Ġwas.":9892,"ĊĊIâĢĻm":9893,"Ġcance":9894,"ĠâĢľf":9895,"ĠIntel":9896,"ĠChildren":9897,"mit":9898,"Ġentertainment":9899,"Ġprofession":9900,"ĠEconomic":9901,"Ġre-":9902,"Ġregion.":9903,"Ġsite,":9904,"Ġrecre":9905,"Ġpublishing":9906,"pled":9907,"OL":9908,"weet":9909,"ĠIC":9910,"Ġanswered":9911,"ĠFirst,":9912,"Ġcontroversy":9913,"Ġwine":9914,"Ġaround,":9915,"Ġprotein":9916,"Ġrecently,":9917,"Ġfood,":9918,"Ġgig":9919,"Ġunfair":9920,"Ġeliminate":9921,"Ġgreatly":9922,"Ġbirthday":9923,"Ġ[the":9924,"Ġpartly":9925,"erald":9926,"ĠCapital":9927,"ĠMLS":9928,"Ġreserved":9929,"mail":9930,"rics":9931,"Ġmaintained":9932,"ĠKennedy":9933,"Ġpriest":9934,"Ġdisord":9935,"Ġaffordable":9936,"25":9937,"ĠâĢľs":9938,"Ġpersu":9939,"Ġlegacy":9940,"ahu":9941,"Ġcounts":9942,"Ġscrut":9943,"gun":9944,"Ġje":9945,"Ġtemperatures":9946,"Ġextraordinary":9947,"Ġattitude":9948,"pse":9949,"Ġcomment.":9950,"Ġmovements":9951,"Ġ(P":9952,"Ġdevelopment.":9953,"ĠSometimes":9954,"ĊĊâĢľS":9955,"igenous":9956,"ĠSk":9957,"Ġground.":9958,"Ġglad":9959,"Ġcomedy":9960,"Ġ\\":9961,"ĠHarper":9962,"Ġsituations":9963,"Ġsearching":9964,"ĠStory":9965,"Ġsummer,":9966,"ĠYOU":9967,"Ġhopefully":9968,"umer":9969,"ĠEs":9970,"Ġscope":9971,"Ġbuff":9972,"ĠPict":9973,"Ġposting":9974,"Ġfor,":9975,"athy":9976,"Ġspell":9977,"Ġ(inc":9978,"ĠâĢľB":9979,"Ġvideo,":9980,"ĠDet":9981,"Ġcul":9982,"Ġproviders":9983,"Ġ\"w":9984,"Ġactors":9985,"Ġ\"There":9986,"ency.":9987,"Ġreserv":9988,"Ġover,":9989,"Ġjoy":9990,"Ġhead.":9991,"Ġ3rd":9992,"Ġoppose":9993,"ĠH.":9994,"ker":9995,"ĊĊPr":9996,"ĠSheriff":9997,"Ġ?":9998,"gic":9999,"ĠRepresent":10000,"ĠPhotos":10001,"asm":10002,"Ġcorrel":10003,"Ġ2002":10004,"Ġthink,":10005,"rous":10006,"Ġwal":10007,"Ġeager":10008,"ĠAlexander":10009,"Ġsorts":10010,"Ġdrum":10011,"ĠteamâĢĻs":10012,"Ġminutes,":10013,"Ġdrag":10014,"Ġtiss":10015,"ĠDeath":10016,"Ġsuspic":10017,"inking":10018,"orious":10019,"bian":10020,"encies":10021,"related":10022,"Ġold,":10023,"ĠMeanwhile,":10024,"Ġrights.":10025,"50,000":10026,"cover":10027,"ourse":10028,"Ġstatement,":10029,"opyright":10030,"ĠR.":10031,"ĠVik":10032,"Ġphilosophy":10033,"Ġgross":10034,"ington":10035,"Ġgathering":10036,"Ġelder":10037,"Ġfirst.":10038,"iser":10039,"Ġvirus":10040,"Ġchecks":10041,"Ġweren't":10042,"Ġhours,":10043,"Ġdivor":10044,"Ġlanding":10045,"Ġowns":10046,"ĠElection":10047,"Ġfict":10048,"ĠEPA":10049,"ĠUtah":10050,"unicipal":10051,"Ġcampaigns":10052,"ione":10053,"Ġtips":10054,"Ġintim":10055,"Ġ47":10056,"ĠAtlantic":10057,"Ġproposals":10058,"oenix":10059,"ĠâĢľD":10060,"Ġleast,":10061,"Ġbol":10062,"itary":10063,"ĠCharlott":10064,"ĠAntonio":10065,"ĠAdv":10066,"Ġsoon.":10067,"Ġtwist":10068,"Ġecho":10069,"Ġ51":10070,"Ġmad":10071,"ĠHawai":10072,"Ġ$100":10073,"TV":10074,"Ġwho,":10075,"ĠCapitol":10076,"bered":10077,"iana":10078,"Ġforward.":10079,"ĠJavaScript":10080,"osystem":10081,"ĠVideo":10082,"rs":10083,"apped":10084,"k,":10085,"Ġwebsite,":10086,"Ġcompany's":10087,"Ġcoinc":10088,"Ġhand.":10089,"ĠNorm":10090,"Ġservice,":10091,"Ġpresident.":10092,"ĠAndre":10093,"Ġdid,":10094,"istan,":10095,"Ġassociate":10096,"Ġloves":10097,"Ġsee,":10098,"hers":10099,"Ġnews,":10100,"ĠGDP":10101,"front":10102,"isation":10103,"ĠHold":10104,"gered":10105,"ĠiPad":10106,"rell":10107,"Ġspace,":10108,"Ġtea":10109,"Ġmit":10110,"Ġuse,":10111,"sburgh":10112,"Ġpsychological":10113,"Ġinnocent":10114,"Ġdominant":10115,"ĠLondon,":10116,"Ġdesktop":10117,"Ġbowl":10118,"ĠNov":10119,"ĠWalker":10120,"Ġbeach":10121,"enezuel":10122,"Ġcompanies,":10123,"Ġquestion,":10124,"Ġjumped":10125,"Ġbrothers":10126,"ĠSilver":10127,"ĊĊ\"S":10128,"ĠRusse":10129,"Ġrevers":10130,"Ġwealthy":10131,"Ġglob":10132,"Ġdance":10133,"5)":10134,"Ġ29,":10135,"Ġremarkable":10136,"Ġbackup":10137,"Ġfro":10138,"ĠPu":10139,"ĠKick":10140,"Ġ(200":10141,"Ġuniversal":10142,"Ġupload":10143,"Ġopposing":10144,"ĠPot":10145,"Ġeuro":10146,"Ġboast":10147,"ĠBad":10148,"Ġpermit":10149,"Ġmainten":10150,"Ġetc":10151,"Ġmaintaining":10152,"Ġ\"They":10153,"Ġscandal":10154,"tra":10155,"Ġelectoral":10156,"Ġodds":10157,"Ġ10,000":10158,"Ġly":10159,"ĠList":10160,"Ġaims":10161,"Ġbathroom":10162,"ines.":10163,"Ġconservatives":10164,"Ġbut,":10165,"Ġdeport":10166,"ĠAct,":10167,"Ġutility":10168,"Ġ10.":10169,"Ġmen.":10170,"Ġsymptoms":10171,"âĢĶâĢĶ":10172,"king":10173,"Ġcar,":10174,"Ġoccasional":10175,"ĠBrooklyn":10176,"Ġmath":10177,"Ġartificial":10178,"Ġcompat":10179,"Ġveterans":10180,"Ġorganic":10181,"Ġpoison":10182,"Ġ46":10183,"Ġcontrast,":10184,"Ġinterior":10185,"itage":10186,"Ġblank":10187,"asks":10188,"ĠBow":10189,"Ġ19th":10190,"ĠâĢľIn":10191,"elling":10192,"Ġdecades,":10193,"Ġinsult":10194,"Ġperson,":10195,"Ġassass":10196,"Ġoffices":10197,"ĠWel":10198,"ĠMagic":10199,"Ġoperator":10200,"Ġterrorists":10201,"Ġbreed":10202,"ĠColumbia":10203,"Ġchicken":10204,"ĠPop":10205,"ĠLewis":10206,"Ġwalls":10207,"anny":10208,"LC":10209,"inians":10210,"Ġfur":10211,"hatt":10212,"Ġperiod,":10213,"Ġdepress":10214,"Ġbetter,":10215,"ĠToday,":10216,"Ġrepeat":10217,"Ġal-":10218,"orge":10219,"Ġresolve":10220,"ĠHunt":10221,"ĠOrland":10222,"all,":10223,"Ġlawsu":10224,"ĠThen,":10225,"ĠGiven":10226,"Ġwages":10227,"Ġperson.":10228,"ĠTai":10229,"Ġemploye":10230,"Ġbot":10231,"Ġsovere":10232,"Ġpolice,":10233,"Ġblockchain":10234,"Ġdates":10235,"ĠReserve":10236,"Ġpublication":10237,"Ġstrip":10238,"ĠCow":10239,"Ġkeyboard":10240,"ules":10241,"avid":10242,"ĠArk":10243,"Ġlogic":10244,"ĠCre":10245,"Ġreader":10246,"erate":10247,"Ġnotable":10248,"away":10249,"Ġinequality":10250,"Ġmel":10251,"ĠHur":10252,"Ġbik":10253,"mal":10254,"ĠDigital":10255,"Ġgrounds":10256,"gus":10257,"Ġtons":10258,"ĠTech":10259,"Ġecosystem":10260,"aping":10261,"ĠPhoenix":10262,"ĠSat":10263,"Ġcow":10264,"Ġshort,":10265,"Ġcollaps":10266,"uts":10267,"Ġcar.":10268,"ĠUnfortunately,":10269,"ĊĊâĢľThey":10270,"Ġattack,":10271,"Ġsubjects":10272,"Ġpron":10273,"ĠLeft":10274,"Ġfled":10275,"Ġ190":10276,"Ġloop":10277,"ĠBab":10278,"itals":10279,"Ġsurrounded":10280,"ĊĊStill,":10281,"Ġjack":10282,"Ġdescribing":10283,"Ġdrama":10284,"fol":10285,"ĠGT":10286,"Ġremoving":10287,"bell":10288,"Ġshell":10289,"gency":10290,"Ġburst":10291,"Ġmusic,":10292,"ĠWeâĢĻve":10293,"Ġdone,":10294,"Ġunderground":10295,"ĠHouse,":10296,"iety":10297,"Ġcarries":10298,"ĠTalib":10299,"ĠAD":10300,"ĠVill":10301,"ĠAlask":10302,"ĠPerson":10303,"Ġseized":10304,"Ġface.":10305,"Ġasylum":10306,"ĠRoss":10307,"Ġmood":10308,"ĠArabia":10309,"ones,":10310,"Ġnod":10311,"Ġclosest":10312,"ias":10313,"Ġminds":10314,"Ġgroups.":10315,"Ġpainting":10316,"Ġdemanded":10317,"Ġgo,":10318,"Ġreplied":10319,"Ġhanging":10320,"Ġsame.":10321,"J.":10322,"Ġlifest":10323,"Ġunb":10324,"Ġcertific":10325,"Ġpleased":10326,"rator":10327,"Ġshipping":10328,"Ġ21st":10329,"âĢĵ":10330,"Ġlesson":10331,"Ġcontemporary":10332,"Ġstatist":10333,"PG":10334,"ĠWell":10335,"ĠIndia,":10336,"Ġfool":10337,"ĠBeck":10338,"Ġpopularity":10339,"ĠVenezuel":10340,"Ġfriends.":10341,"ĠCreat":10342,"da":10343,"Ġfabric":10344,"Ġtraum":10345,"ĠAug.":10346,"ĊĊSpeaking":10347,"Ġvocal":10348,"ĠEvent":10349,"Ġpeaceful":10350,"Ġtalented":10351,"Ġlanded":10352,"ĠCould":10353,"Ġmomentum":10354,"ĊĊPro":10355,"ĠGermany,":10356,"ĠFollowing":10357,"Ġreason,":10358,"Ġsubsc":10359,"Ġunprecedented":10360,"ĠForm":10361,"ĠMichel":10362,"Ġdisput":10363,"ĊĊThereâĢĻs":10364,"Ġinstant":10365,"Ġtrue,":10366,"Ġbold":10367,"anted":10368,"Ġtraged":10369,"Ġconstitu":10370,"Ġkicked":10371,"Ġthemselves,":10372,"Ġdecision.":10373,"ĠMs":10374,"Ġargues":10375,"ĠUS,":10376,"Ġembrace":10377,"Ġconclus":10378,"ateful":10379,"Ġprofits":10380,"ĠFeb.":10381,"Ġbiological":10382,"ritten":10383,"ĠCredit":10384,"Ġplan,":10385,"argo":10386,"ano":10387,"Ġcreature":10388,"ĠSunday.":10389,"Ġnew,":10390,"Ġlike.":10391,"ency,":10392,"esc":10393,"ĠPentagon":10394,"ĠPittsburgh":10395,"-hand":10396,"ĠMetro":10397,"Ġpre-":10398,"ĊĊ\"They":10399,"Ġhomosexual":10400,"Ġinherent":10401,"Ġdominated":10402,"Ġpapers":10403,"ass.":10404,"ĠMissouri":10405,"Ġ(@":10406,"ĠPhill":10407,"Ġ(1)":10408,"Ġrolling":10409,"prof":10410,"Ġcompound":10411,"Ġrefugee":10412,"Ġutter":10413,"ewart":10414,"ĠRoberts":10415,"ective":10416,"Ġow":10417,"Ġ(including":10418,"ĠConvention":10419,"Ġtwenty":10420,"Ġinterviewed":10421,"Ġexpects":10422,"Ġescal":10423,"Ġrights,":10424,"-found":10425,"Ġindependence":10426,"Ġresponses":10427,"Ġ(4":10428,"ni":10429,"Ġdeemed":10430,"ĠMountain":10431,"Ġvend":10432,"ĠoneâĢĻs":10433,"Ġbin":10434,"Ġincomp":10435,"Ġloans":10436,"ierce":10437,"Ġhouse,":10438,"ĊĊâĢľW":10439,"Ġrefuse":10440,"ĊĊ\"You":10441,"ĠPD":10442,"ĠProv":10443,"Ġheadquarters":10444,"ĠLeon":10445,"Ġbeauty":10446,"Ġpatent":10447,"ffick":10448,"Ġdrives":10449,"ĠTherefore":10450,"Ġways.":10451,"Ġjunior":10452,"ĠBatman":10453,"Ġtremendous":10454,"Ġinches":10455,"Ġ1950":10456,"Ġ52":10457,"Ġhouse.":10458,"Ġaer":10459,"ĠSport":10460,"Ġsixth":10461,"ĠMoon":10462,"Ġwis":10463,"ĠCoal":10464,"ĠTransport":10465,"ĠCooper":10466,"Ġ(19":10467,"ĠOrle":10468,"Ġplan.":10469,"Ġdevelopment,":10470,"omal":10471,"rolled":10472,"ĠAlan":10473,"ĠChannel":10474,"ĊĊEn":10475,"Ġminim":10476,"Ġtechnology.":10477,".S.":10478,"Ġcircle":10479,"Ġmoment.":10480,"ĠhadnâĢĻt":10481,"Ġprincipal":10482,"Ġpodcast":10483,"ĠHaving":10484,"mate":10485,"Ġobjective":10486,"Ġmerch":10487,"ati":10488,"ĊĊYet":10489,"Ġencouraging":10490,"ĠAud":10491,"Ġcivilians":10492,"Ġbill,":10493,"ĠComey":10494,"Ġexecutives":10495,"encing":10496,"ĠPA":10497,"ĠAS":10498,"Ġillness":10499,"Ġlect":10500,"Ġcorrupt":10501,"ĠAC":10502,"-round":10503,"Ġage,":10504,"Ġarbit":10505,"Ġdifficulty":10506,"RL":10507,"Ġpassword":10508,"ĠChelsea":10509,"ĠUkrainian":10510,"Ġyou?":10511,"Ġmuscle":10512,"Ġgent":10513,"Ġmother,":10514,"Ġbody,":10515,"Ġpharm":10516,"TS":10517,"Ġcrus":10518,"Ġstudents,":10519,"Ġstere":10520,"ĠWarri":10521,"Ġgeneral,":10522,"umin":10523,"Ġ\"But":10524,"ĠBud":10525,"Ġfigured":10526,"Ġroads":10527,"Ġsorry":10528,"Ġ50%":10529,"Ġvoices":10530,"Ġroy":10531,"Ġsavings":10532,"Ġmirror":10533,"achel":10534,"Ġwin.":10535,"Ġdeployed":10536,"Ġtraveling":10537,"Ġjustify":10538,"ĠâĢľAnd":10539,"Ġspaces":10540,"ixed":10541,"mony":10542,"ĠParent":10543,"Ġsexually":10544,"thon":10545,"Ġrefers":10546,"Ġlibr":10547,"Ġmaps":10548,"Ġlands":10549,"Ġtut":10550,"Ġattracted":10551,"ĠDream":10552,"ĊĊMay":10553,"hes,":10554,"Ġpicks":10555,"ĊĊOb":10556,"ocolate":10557,"cies":10558,"Ġresort":10559,"Ġexpense":10560,"Ġparticular,":10561,"tts":10562,"ĊĊBack":10563,"ifer":10564,"Ġdesert":10565,"Ġstating":10566,"Ġimposed":10567,"Ġnurs":10568,"ĠCaption":10569,"Ġsin":10570,"change":10571,"Ġtestimony":10572,"Ġdesc":10573,"Ġburden":10574,"Ġobsc":10575,"ĠChinaâĢĻs":10576,"Ġeducation,":10577,"ice,":10578,"ĠAustin":10579,"Ġreleasing":10580,"ĠWolf":10581,"ĠPortland":10582,"Ġwelcom":10583,"ĠTwitter.":10584,"Ġ2006,":10585,"Ġhave.":10586,"held":10587,"Ġax":10588,"Ġsubmit":10589,"ĠLeban":10590,"Ġscar":10591,"ÂŃ":10592,"Ġidea.":10593,"Ġmemo":10594,"ĠSix":10595,"Ġlifetime":10596,"Ġcourse.":10597,"ĠProtection":10598,"Ġanalysts":10599,"Ġrepeal":10600,"Ġpill":10601,"Ġinvestigation.":10602,"Ġinbox":10603,"Ġchoosing":10604,"Ġmic":10605,"ĊĊCon":10606,"Ġ2009.":10607,"rep":10608,"Ġblamed":10609,"apore":10610,"Ġguid":10611,"ĠChina.":10612,"Ġadequ":10613,"-hour":10614,"----------------":10615,"Ġ2:":10616,"ĊĊSec":10617,"Ġendors":10618,"Ġconsensus":10619,"Ġoccasionally":10620,"Ġtasks":10621,"Ġretirement":10622,"ĠAndy":10623,"Ġdeclar":10624,"Ġmodified":10625,"Ġpride":10626,"Ġcompromise":10627,"cest":10628,"Ġdisplayed":10629,"Ġdefeated":10630,"Ġ2008.":10631,"mm":10632,"Ġexclud":10633,"Ġcommunicate":10634,"Ġattending":10635,"Ġbeliefs":10636,"ez":10637,"i.e.":10638,"ounce":10639,"Ġracing":10640,"Ġcourtesy":10641,"ĠOnline":10642,"Ġamendment":10643,"ixture":10644,"Ġfortun":10645,"ĠJeremy":10646,"IG":10647,"Ġtempor":10648,"ĠLine":10649,"Ġacquis":10650,"Ġslot":10651,"Ġmodest":10652,"Ġusage":10653,"ĠObama's":10654,"ĠMarine":10655,"ĠLy":10656,"Ġdecades.":10657,"Ġproducers":10658,"ĠCarter":10659,"Ġdefended":10660,"Ġpunch":10661,"ĠTechnology":10662,"Ġclass.":10663,"ĊĊStory":10664,"Ġson,":10665,"umes":10666,"Ġnationwide":10667,"Ġimplications":10668,"arms":10669,"-third":10670,"ĠGaza":10671,"ĠFal":10672,"ĠHamp":10673,"Ġimpression":10674,"ĠEveryone":10675,"ious.":10676,"oln":10677,"Ġundert":10678,"ĠVegas":10679,"Ġcentury.":10680,"Ġstrengthen":10681,"ĠLibrary":10682,"ĠIndones":10683,"Ġrace.":10684,"lers":10685,"ĠOklahoma":10686,"Ġrend":10687,"Ġfiction":10688,"Ġcareer,":10689,"Ġtempl":10690,"Ġ!":10691,"Ġal.":10692,"Ġsupport,":10693,"ĊĊSe":10694,"ĠManhatt":10695,"Ġstages":10696,"Ġsophistic":10697,"Ġbankrupt":10698,"ĠCaptain":10699,"ĠDuke":10700,"ĠStaff":10701,"stal":10702,"Ġhimself,":10703,"onsored":10704,"ĠCounty,":10705,"ĠMaryland":10706,"ĠRef":10707,"ccup":10708,"Ġconver":10709,"Star":10710,"Ġparticipation":10711,"Ġconsole":10712,"Ġinflation":10713,"Ġmile":10714,"orship":10715,"Ġdefic":10716,"Ġdamaged":10717,"inder":10718,"ĠIron":10719,"rif":10720,"Ġconcerning":10721,"Ġleaked":10722,"rand":10723,"Ġstamp":10724,"Ġhint":10725,"Ġcler":10726,"AP":10727,"ĠPriv":10728,"ĠJacob":10729,"ĠMassachusetts":10730,"uros":10731,"N.":10732,"Ġdiam":10733,"EAD":10734,"Ġappearances":10735,"Ġbars":10736,"Ġprofound":10737,"Ġrecovered":10738,"Ġarticle,":10739,"Ġconsecut":10740,"Ġdrunk":10741,"Ġcooperation":10742,"Ġenvironment.":10743,"ĠMedicaid":10744,"Ġdropping":10745,"ĠOakland":10746,"ĊĊLetâĢĻs":10747,"Ġmuch,":10748,"Ġattitud":10749,"UST":10750,"Ġboom":10751,"Ġlabour":10752,"Ġsmoking":10753,"Ġratings":10754,"ĠSet":10755,"Ġpacked":10756,"ĠAaron":10757,"iev":10758,"Ġnowhere":10759,"ropri":10760,"Ġpig":10761,"Ġnose":10762,"Ġrobust":10763,"Ġlaunching":10764,"Ġsupplies":10765,"ĠSus":10766,"Ġcourt.":10767,"Ġdeal,":10768,"ĠEth":10769,"ĊĊCan":10770,"ĠDick":10771,"ĠWould":10772,"bow":10773,"Ġuncon":10774,"-season":10775,"ĠWright":10776,"ĠDV":10777,"Ġshouldn't":10778,"Ġhave,":10779,"Ġnomination":10780,"Ġsummer.":10781,"Ġsheet":10782,"Ġengaging":10783,"incoln":10784,"Ġraises":10785,"Ġcity's":10786,"ĠYes":10787,"Ġsubsequently":10788,"Ġjihad":10789,"Ġcare.":10790,"Ġburied":10791,"Ġproblems,":10792,"Ġplayer,":10793,"Ġexclusively":10794,"ĠFrance,":10795,"Ġcolors":10796,"gu":10797,"Ġparallel":10798,"new":10799,"Ġfar.":10800,"Ġjobs.":10801,"Ġ(i.e.":10802,"ĠSingapore":10803,"Ġit!":10804,"ĠPennsylvania":10805,"ĠNo,":10806,"iti":10807,"Ġconsecutive":10808,"Ġknife":10809,"ĠYan":10810,"Ġown,":10811,"ĠCustom":10812,"Ġlongtime":10813,"Ġconsiderable":10814,"ition,":10815,"ĠEdit":10816,"Ġnonprof":10817,"Ġplayer.":10818,"ĠExt":10819,"orous":10820,"ĠBeijing":10821,"Ġdesperate":10822,"urren":10823,"Ġ$20":10824,"ĠVlad":10825,"ĊĊâĢľIn":10826,"ĠCraig":10827,"Ġunne":10828,"Ġpublish":10829,"urance":10830,"abet":10831,"ard,":10832,"Ġenact":10833,"ĠAL":10834,"Ġresearch,":10835,"Ġsegment":10836,"ĠContinue":10837,"Ġmoderate":10838,"Ġsli":10839,"Ġfatal":10840,"ĠProp":10841,"aimed":10842,"Ġstimul":10843,"lly":10844,"Ġevident":10845,"pel":10846,"ĠGun":10847,"Ġefficiency":10848,"ĠEntertain":10849,"Ġsolely":10850,"ĠLis":10851,"ĠCurrent":10852,"Ġteeth":10853,"Ġauto":10854,"ĠBrexit":10855,"ccess":10856,"owned":10857,"Ġdelight":10858,"Ġsystems.":10859,"ĠWH":10860,"ĠOl":10861,"As":10862,"Ġrestore":10863,"Ġexploit":10864,"ĠLow":10865,"ĠArgent":10866,"ĠMay,":10867,"Ġmigrants":10868,"Ġvig":10869,"ĠFacebook,":10870,"euters":10871,"Ġfunctionality":10872,"Ġintellig":10873,"Ġhiring":10874,"Ġprosecution":10875,"Ġwhis":10876,"Ġgirlfriend":10877,"Ġsociety,":10878,"ĠStewart":10879,"ental":10880,"Ġcharging":10881,"Ġinnovation":10882,"Ġsuspects":10883,"Ġlegs":10884,"ĠUSB":10885,"Ġshoulder":10886,"Ġrenewable":10887,"Ġchecking":10888,"ĠChristopher":10889,"Ġexamine":10890,"Ġdonations":10891,"istol":10892,"ĠMurray":10893,"ĠSimon":10894,"you":10895,"Ġathletic":10896,"Ġpost,":10897,"Ġlaptop":10898,"osis":10899,"Ġsequence":10900,"ĠMach":10901,"riving":10902,"Ġtransactions":10903,"Ġanonymous":10904,"izar":10905,"ĠRussell":10906,"Ġadvocate":10907,"Ġtransparen":10908,"ua":10909,"Ġareas.":10910,"Ġaffairs":10911,"Ġevents,":10912,"ateral":10913,"ences.":10914,"Ġcalm":10915,"Ġco-found":10916,"ĠIllinois":10917,"Ġof.":10918,"Ġtelephone":10919,"ĠExpl":10920,"ĠExper":10921,"ricane":10922,"odox":10923,"imir":10924,"Ġhash":10925,"Ġimportantly,":10926,"ppers":10927,"ĠâĢĿ":10928,"Ġclimb":10929,"Ġtraffick":10930,"brid":10931,"Ġkeen":10932,"Ġevolved":10933,"Ġhalt":10934,"Ġshelter":10935,"Ġhe'd":10936,"oved":10937,"ĠSS":10938,"Ġview,":10939,"Ġcognitive":10940,"Ġgovernment's":10941,"phones":10942,"ĠTax":10943,"Ġorbit":10944,"rogen":10945,"Ġproportion":10946,"ethe":10947,"pted":10948,"acy,":10949,"Ġrounds":10950,"ĠJen":10951,"ĠTwitter,":10952,"Ġpassage":10953,"Ġ31,":10954,"Ġblocking":10955,"Ġdetention":10956,"Ġmembers,":10957,"Ġremoval":10958,"ĠRome":10959,"Ġreleases":10960,"ĠChairman":10961,"eared":10962,"ina,":10963,"abb":10964,"itche":10965,"Ġ(Photo:":10966,"ĠhereâĢĻs":10967,"Station":10968,"-right":10969,"Ġcode.":10970,"starter":10971,"Ġ10%":10972,"ĠDod":10973,"elson":10974,"Ġeditorial":10975,"Ġways,":10976,"ĠKnow":10977,"ĠSydney":10978,"Ġraces":10979,"Ġevents.":10980,"ĠTrust":10981,"Ġinnovative":10982,"ĠHampshire":10983,"via":10984,"Ġtransferred":10985,"Ġsystems,":10986,"ĠShould":10987,"ĠChrome":10988,"aeda":10989,"Ġannoy":10990,"azz":10991,"Ġsettings":10992,"Ġresidential":10993,"break":10994,"ĠDon't":10995,"Ġtiming":10996,"Ġaccepting":10997,"ĠLear":10998,"Ġdying":10999,"ĠEgyptian":11000,"Ġweekend,":11001,"lynn":11002,"ĠLincoln":11003,"Ġ202":11004,"rong":11005,"Ġsmall,":11006,"ĠâĢĺI":11007,"-level":11008,"Ġ2019":11009,"Ġgest":11010,"Ġproduces":11011,"Ġcollaboration":11012,"ĠCase":11013,"Ġrebuild":11014,"ĠPortug":11015,"Ġchronic":11016,"ĠStanford":11017,"ĠMario":11018,"Ġinstructions":11019,"Ġunnecess":11020,"Ġprisoners":11021,"Ġoutdo":11022,"ĠThus,":11023,"ĠAssembly":11024,"ĠManagement":11025,"):":11026,"ĠLater":11027,"Ġlanguages":11028,"ĠTower":11029,"****":11030,"ĊĊInstead":11031,"Ġjobs,":11032,"Ġinaug":11033,"Ġfield,":11034,"Ġathe":11035,"Ġwaters":11036,"Ġaccum":11037,"ĠweâĢĻd":11038,"Ġparticipating":11039,"ĠRuby":11040,"bourne":11041,"ĠBol":11042,"Ġinvestigations":11043,"ĠArsenal":11044,"Ġprinted":11045,"Ġintegrated":11046,"Ġprogramme":11047,"Ġaddresses":11048,"Ġpremie":11049,"Ġgraphic":11050,"Ġscared":11051,"Ġinvested":11052,"Ġpolitics.":11053,"ĠIndiana":11054,"oret":11055,"Ġseeks":11056,"Ġpresents":11057,"Ġuniversities":11058,"Ġraid":11059,"Ġflee":11060,"Ġtheft":11061,"Ġqualified":11062,"ĠRubio":11063,"/1":11064,"ves,":11065,"Ġfrequency":11066,"Ġspots":11067,"inite":11068,"Ġwaves":11069,"Ġv.":11070,"Ġaction,":11071,"assy":11072,"ĠSound":11073,"GO":11074,"Ġstops":11075,"ĠMail":11076,"ĠEqu":11077,"ĠPoland":11078,"Ġevac":11079,"ĠUnlike":11080,"Ġforgotten":11081,"Ġpersons":11082,"ves.":11083,"ĠSteel":11084,"Ġconvict":11085,"Ġsevent":11086,"Ġcenters":11087,"Ġpreventing":11088,"Ġwoman,":11089,"euters)":11090,"Ġorder.":11091,"ivals":11092,"Ġpreserve":11093,"dog":11094,"Ġinfluential":11095,"Ġabout,":11096,"Ġiconic":11097,"Ġflour":11098,"Ġharsh":11099,"Ġexpecting":11100,"Ġdish":11101,"Ġprog":11102,"Ġlist,":11103,"asters":11104,"ĠPlace":11105,"ĠMississ":11106,"Ġsense,":11107,"Ġinspect":11108,"Ġathletes":11109,"Ġearthqu":11110,"ĠMedicare":11111,"ĠEve":11112,"ĠAFP":11113,"Ġworks.":11114,"Ġnin":11115,"Ġthreaten":11116,"60":11117,"Ġmanagers":11118,"Ġcro":11119,"Ġspan":11120,"Ġoutcom":11121,"ATCH":11122,"Ġ1:":11123,"ĊĊApp":11124,"itual":11125,"Ġjer":11126,"Ġshit":11127,"Ġcorn":11128,"Ġ(not":11129,"ĠSupport":11130,"ĊĊEarlier":11131,"Ġ95":11132,"ĠDak":11133,"Ġgraphics":11134,"Ġit,\"":11135,"Ġfavourite":11136,"Ġprojected":11137,"ĠBox":11138,"ĠPlayer":11139,"Ġshowc":11140,"Ġenv":11141,"Ġanother,":11142,"Ġassumption":11143,"keep":11144,"Ġfinishing":11145,"Ġtactics":11146,"Ġcompli":11147,"Ġsteady":11148,"Ġkeys":11149,"ĠBerlin":11150,"ĠGordon":11151,"etch":11152,"omes":11153,"print":11154,"ĠBC":11155,"Ġcoup":11156,"Ġcigare":11157,"ney,":11158,"Ġsupposedly":11159,"Ġplatforms":11160,"Ġrolled":11161,"inning":11162,"Ġsalt":11163,"olving":11164,"Ġaffects":11165,"Ġwondering":11166,"net":11167,"ĠAffairs":11168,"Ġ(J":11169,"ĊĊWill":11170,"Ġperception":11171,"sect":11172,"ĊĊâĢľIâĢĻm":11173,"ĠTreasury":11174,"Ġranging":11175,"Ġrun.":11176,"ĠRun":11177,"Ġreluct":11178,"Ġought":11179,"ĠMah":11180,"rates":11181,"ĠChange":11182,"ĠPass":11183,"ĠBM":11184,"ĠJerry":11185,"Ġinfluenced":11186,"Ġindu":11187,"Ġrelation":11188,"Ġuncomfort":11189,"Ġreflects":11190,"Ġsimilarly":11191,"ĊĊ6.":11192,"ased.":11193,"anyahu":11194,"Ġidentical":11195,"lan":11196,"ĠU.S.,":11197,"Ġfilm.":11198,"Ġviolence.":11199,"Ġalone,":11200,"ocument":11201,"Ġ2.0":11202,"ĠDoctor":11203,"ĠSon":11204,"Ġrecept":11205,"ĠCPU":11206,"Ġdecrease":11207,"Ġna":11208,"-scale":11209,"ĠNone":11210,"ton,":11211,"Ġisolated":11212,"Ġclass,":11213,"Ġdesigns":11214,"Trump":11215,"Ġalgorithm":11216,"Ġspotted":11217,"Ġcleared":11218,"Ġones.":11219,"ye":11220,"Ġshocked":11221,"Ġharassment":11222,"aus":11223,"-income":11224,"Ġcolleg":11225,"ue,":11226,"ĠNether":11227,"Ġwounded":11228,"Ġcens":11229,"ĠF.":11230,"ĠheâĢĻll":11231,"ties":11232,"Ġcock":11233,"ĠPalestinians":11234,"Ġclothes":11235,"Ġsentiment":11236,"Ġengineers":11237,"Ġbook.":11238,"ĠAst":11239,"anna":11240,"Ġstance":11241,"ĠKurdish":11242,"Ġcomposition":11243,"Ġstro":11244,"Ġ100,000":11245,"Ġpro-":11246,"Ġattractive":11247,"eless":11248,"Ġoutf":11249,"omed":11250,"Ġinvestments":11251,"Ġreally,":11252,"Ġlessons":11253,"ĠPlayStation":11254,"Ġsituation,":11255,"Ġoldest":11256,"lihood":11257,"Ġscene.":11258,"Ġmovement.":11259,"ĠP.":11260,"Ġwireless":11261,"Ġoccupied":11262,"ĠPow":11263,"Ġtweets":11264,"acco":11265,"ĠFinancial":11266,"-party":11267,"ĠToky":11268,"Ġadviser":11269,"Ġaccompanied":11270,"Ġmoon":11271,"Ġvoid":11272,"ĠFive":11273,"Ġoutlet":11274,"Ġexcuse":11275,"Ġsecre":11276,"Ġprivilege":11277,"Ġmatter,":11278,"Ġcourage":11279,"Ġambit":11280,"ĠDragon":11281,"igation":11282,"Ġperformance.":11283,"ĠChampions":11284,"oting":11285,"Ġpassenger":11286,"olves":11287,"Ġbottle":11288,"ĠSeveral":11289,"Ġokay":11290,"ĊĊ201":11291,"Ġneur":11292,"Ġ).":11293,"Ġsignals":11294,"ĊĊRec":11295,"ĠFant":11296,"ĊĊAdvertisements":11297,"ĠManning":11298,"Ġloaded":11299,"Ġpension":11300,"Ġhosting":11301,"ĠPrin":11302,"ĠPhoto:":11303,"ĠAccess":11304,"Ġ0.0":11305,"Ġcrisis.":11306,"2)":11307,"Ġpromoted":11308,"ĠAren":11309,"Ġbriefly":11310,"Ġbeneath":11311,"Ġconsists":11312,"Ġ1.5":11313,"ii":11314,"Ġunions":11315,"eries":11316,"Ġsustainable":11317,"Ġdesign,":11318,"Ġancest":11319,"Ġoffseason":11320,"ĠModel":11321,"ĠForest":11322,"Ġpose":11323,"ĠSaturday.":11324,"Ġpropaganda":11325,"ĠBeing":11326,"Ġchallenged":11327,"ches,":11328,"ĠYouâĢĻre":11329,"oned":11330,"ĠClinton,":11331,"Ġdependent":11332,"Ġcommander":11333,"Ġrealistic":11334,"ĠJimmy":11335,"EP":11336,"ĠEver":11337,"ĠDev":11338,"Ġbulk":11339,"Ġtables":11340,"ĠHouse.":11341,"ĠGil":11342,"Ġ53":11343,"ĠJanuary,":11344,"ĠCompan":11345,"Ġwedding":11346,"ĠState,":11347,"ig.":11348,"ĠOsc":11349,"Ġorient":11350,"ĠMarch,":11351,"Ġmedicine":11352,"Ġbutt":11353,"Ġintimid":11354,"Ġpraised":11355,"Ġpir":11356,"Ġdefender":11357,"Ġparamet":11358,"Ġensuring":11359,"Ġbombing":11360,"Ġcontent.":11361,"arity":11362,"ĠtheyâĢĻd":11363,"uten":11364,"ĠMarc":11365,"ĊĊNote":11366,"ĠOfficer":11367,"Ġgolf":11368,"Ġadvertisement":11369,"Ġregarded":11370,"Ġbother":11371,"Ġfishing":11372,"Ġhumanity":11373,"-spe":11374,"UT":11375,"Ġbadly":11376,"Ġcontrol,":11377,"Ġreforms":11378,"Ġbrutal":11379,"Ġoperated":11380,"Ġaddict":11381,"Ġbureauc":11382,"Ġfel":11383,"icket":11384,"Ġexample.":11385,"Ġmemories":11386,"-min":11387,"ĊĊFinally,":11388,"Ġarc":11389,"Ġpurpos":11390,"bb":11391,"Ġventure":11392,"ĠJune,":11393,"Ġfits":11394,"ĠFuture":11395,"Ġpolling":11396,"ĠThink":11397,"Ġfull-time":11398,"Ġinstruction":11399,"ĠWarner":11400,"annels":11401,"Ġevacu":11402,"ĠJean":11403,"walk":11404,"ĠMalays":11405,"Ġpolitics,":11406,"Ġautomatic":11407,"Ġtheater":11408,"OD":11409,"Ġelse,":11410,"Ġcharity":11411,"Ġonline.":11412,"ĠGriff":11413,"Ġsake":11414,"ĠDrug":11415,"ĠUb":11416,"Ġmeal":11417,"ĠThompson":11418,"ĠNews.":11419,"ĠWord":11420,"Ġcountless":11421,"ĊĊWell,":11422,"Ġexplicitly":11423,"Ġages":11424,"ĊĊPlease":11425,"ĠMadrid":11426,"ĠSyria.":11427,"ĠCenter,":11428,"Ġfunctional":11429,"Ġadventure":11430,"Ġimmune":11431,"Ġresemb":11432,"Ġeverything.":11433,"Ġdepict":11434,"Ġemployers":11435,"ĠCity.":11436,"ĠCole":11437,"Ġpainful":11438,"Ġsense.":11439,"ĊĊWhere":11440,"Ġdelivering":11441,"Ġadj":11442,"Ġright-wing":11443,"Ġsteal":11444,"Ġaddressing":11445,"Ġbizar":11446,"Ġbutter":11447,"Ġguidelines":11448,"ĠHeart":11449,"Ġaccord":11450,"Ġthis?":11451,"Ġstopping":11452,"Ġrebels":11453,"Ġcomplained":11454,"Ġpresentation":11455,"er:":11456,"Ġfacult":11457,"Ġ(p":11458,"ĊĊ\"W":11459,"Ġric":11460,"Ġwrong,":11461,"hot":11462,"Ġmovement,":11463,"rome":11464,"ĠHoly":11465,"ĠHon":11466,"itter":11467,"ĠNazi":11468,"ala":11469,"Ġ'I":11470,"name":11471,"ĠCry":11472,"Ġsne":11473,"atar":11474,"ĠBarb":11475,"Ġstrategies":11476,"ĠâĢľm":11477,"owing":11478,"Ġfolk":11479,"Ġminimal":11480,"Ġdevastating":11481,"Ġapplies":11482,"wich":11483,"Ġgameplay":11484,"ĠClimate":11485,"ĊĊAmong":11486,"heim":11487,"iley":11488,"Ġwell-known":11489,"Ġpurposes":11490,"Ġformation":11491,"Ġamongst":11492,"ioned":11493,"arl":11494,"Ġsections":11495,"Ġhub":11496,"ass,":11497,"ĠHart":11498,"ĠWayne":11499,"ĠStreet,":11500,"ĠAbu":11501,"Ġ9/11":11502,"Ġpledge":11503,"Ġappearing":11504,"Ġovernight":11505,"ĠVladimir":11506,"Ġ(U":11507,"ĠHIV":11508,"oca":11509,"iders":11510,"Ġguaranteed":11511,"Ġbooks,":11512,"ĠNCA":11513,"oning":11514,"Ġtwo,":11515,"Ġhosp":11516,"ropol":11517,"ologists":11518,"Ġconvenient":11519,"ĠRs":11520,"ĠKickstarter":11521,"Ġhandled":11522,"ĠWhatâĢĻs":11523,"Ġweekend.":11524,"Ġcinem":11525,"ĊĊStep":11526,"ĠCongressional":11527,"irts":11528,"ination,":11529,"Ġpocket":11530,"Ġteam's":11531,"-elect":11532,"Ġinevit":11533,"Ġparad":11534,"rite":11535,"Ġis:":11536,"Ġlong.":11537,"ĠOil":11538,"Ġfucking":11539,"Ġceremony":11540,"ĊĊHer":11541,"Ġfiling":11542,"Ġdealt":11543,"Ġenfor":11544,"Ġwarn":11545,"Ġirre":11546,"Ġmeets":11547,"Ġmilitants":11548,"ĠStudio":11549,"ĠJob":11550,"ĠUC":11551,"Ġbattles":11552,"Ġrecommendations":11553,"Ġpublic,":11554,"amous":11555,"Ġ54":11556,"ĠSP":11557,"bling":11558,"Ġ(Reuters)":11559,"Ġpopulation.":11560,"Ġreality,":11561,"ĠTotal":11562,"Ġareas,":11563,"Ġmurdered":11564,"Ġterr":11565,"Ġmanufacturers":11566,"Ġadministrative":11567,"Ġrestaurants":11568,"ĠFilm":11569,"MP":11570,"Ġdemonstration":11571,"Ġda":11572,"ĠAustralia,":11573,"Ġwore":11574,"Ġsustained":11575,"ĠBerke":11576,"ras":11577,"Ġintercept":11578,"ĠPope":11579,"Ġjuris":11580,"Ġepic":11581,"Ġbill.":11582,"Ġdressed":11583,"ĠAirport":11584,"Ġexperiments":11585,"Ġoverseas":11586,"Ġit:":11587,"Ġsubstance":11588,"ĠThings":11589,"Ġcollecting":11590,"Ġtraded":11591,"author":11592,"Ġvalue.":11593,"ĠHung":11594,"ins,":11595,"ĠMPs":11596,"aved":11597,"ĠMoreover,":11598,"ĠOrder":11599,"Ġinher":11600,"Ġprize":11601,"mes":11602,"Ġabove.":11603,"Ġpossibilities":11604,"Ġoxy":11605,"Ġmade.":11606,"ĠBurn":11607,"ĠTexas,":11608,"Ġ9.":11609,"ĠTimes,":11610,"Ġthought,":11611,"Ġtale":11612,"ĠâĢľL":11613,"Ġvote,":11614,"ĠLarry":11615,"ĠMess":11616,"ĠPark,":11617,"ĠShort":11618,"Ġrhetoric":11619,"Ġintrig":11620,"Ġmanual":11621,"Ġmunicipal":11622,"ĠÎ":11623,"Ġcouples":11624,"Ġreserve":11625,"Ġluxury":11626,"ĠDog":11627,"Ġawful":11628,"Ġquit":11629,"Ġquestions.":11630,"Ġtends":11631,"Ġcalend":11632,"ĠThey're":11633,"Ġclassroom":11634,"Ġarr":11635,"Ġimpose":11636,"Ġ(al":11637,"Ġtreas":11638,"ĊĊArt":11639,"ĠGrant":11640,"ernand":11641,"Ġreasons.":11642,"Ġcrossing":11643,"Ġyou'd":11644,"udeau":11645,"Ġbirds":11646,"ĊĊThat's":11647,"Ġignor":11648,"Ġanyway.":11649,"ĠRonald":11650,"ĠGod,":11651,"Ġavailability":11652,"ĠNative":11653,"ases.":11654,"ĠAnna":11655,"ĠFlynn":11656,"Ġregret":11657,"Ġwise":11658,"ilst":11659,"Ġsolo":11660,"Ġoutlets":11661,"Ġsilence":11662,"Ġservers":11663,"Ġreferences":11664,"Ġstunning":11665,"ĠStanley":11666,"ĠMcDonald":11667,"Ġinsert":11668,"Ġcurious":11669,"pton":11670,"Ġmistakes":11671,"&T":11672,"ĠConst":11673,"Ġtoug":11674,"writ":11675,"inter":11676,"Ġcompensation":11677,"Ġpredec":11678,"Ġ2005,":11679,"Ġchecked":11680,"early":11681,"Ġbarg":11682,"ĠCo.":11683,"Ġexcite":11684,"berry":11685,"Ġconsent":11686,"Ġprobe":11687,"Ġsomething.":11688,"umble":11689,"reshold":11690,"Ġsou":11691,"Ġconsol":11692,"ĠFergus":11693,"ĊĊPresident":11694,"Ġweakness":11695,"Ġturb":11696,"ĠNetanyahu":11697,"Ġmaintenance":11698,"iture":11699,"ĠStandard":11700,"Ġrelease,":11701,"ĠObama,":11702,"Ġgut":11703,"Ġschools,":11704,"Ġsummit":11705,"ĠReid":11706,"Ġpowered":11707,"ĠIraq,":11708,"Ġregion,":11709,"Ġprospects":11710,"Ġreplacing":11711,"ĠMelbourne":11712,"Ġstate's":11713,"Ġreads":11714,"ĠKnight":11715,"ĠCro":11716,"ĠHell":11717,"Ġeru":11718,"mble":11719,"Ġneeded.":11720,"Ġpopulations":11721,"Ġ\"b":11722,"Ġpour":11723,"math":11724,"Ġimprison":11725,"Ġdisappointed":11726,"Ġbust":11727,"Ġune":11728,"ĠEb":11729,"ĠMississipp":11730,"Ġmembers.":11731,"Ġvolunteers":11732,"Ġdimin":11733,"ĊĊOr":11734,"ĊĊWatch":11735,"ĠMagaz":11736,"ĠCommer":11737,"Ġinstrument":11738,"ĠOx":11739,"gel":11740,"ĠMORE":11741,"Ġacted":11742,"agers":11743,"ĠReagan":11744,"Ġexploring":11745,"Ġjudgment":11746,"ĠSwedish":11747,"onth":11748,"Ġtrends":11749,"Ġintr":11750,"that":11751,"Ġpost.":11752,"Ġtablet":11753,"Ġbump":11754,"Ġmotivated":11755,"ĠCold":11756,"Ġstuff.":11757,"Ġinfo":11758,"ĠCommand":11759,"ems":11760,"Ġdies":11761,"Ġbicy":11762,"Ġhere:":11763,"Ġcabinet":11764,"onz":11765,"Ġreck":11766,"Ġimpacts":11767,"ĠGard":11768,"Ġbrows":11769,"6)":11770,"ĠCongress,":11771,"ition.":11772,"Ġphenomenon":11773,"ĠGiants":11774,"Ġconstra":11775,"ue.":11776,"ĠTesla":11777,"Ġproducts.":11778,"bridge":11779,"Ġreflected":11780,"Ġjet":11781,"Ġchannels":11782,"ĠShar":11783,"Ġemphasis":11784,"ĠPerry":11785,"ĠNothing":11786,"Ġculture,":11787,"-minute":11788,"ĠMove":11789,"Ġwisdom":11790,"Ġwrote:":11791,"ĠNature":11792,"Ġmusic.":11793,"ĠEnvironmental":11794,"riends":11795,"Ġtunnel":11796,"Ġministers":11797,"ĠMarx":11798,"Ġposition,":11799,"ĠSteam":11800,"Ġfert":11801,"Ġstruggles":11802,"ĠPant":11803,"Ġoccurs":11804,"ĠModi":11805,"ION":11806,"Ġhighlighted":11807,"ĊĊNext":11808,"Ġsed":11809,"Ġreality.":11810,"Ġchoice.":11811,"Ġspectac":11812,"alysis":11813,"Ġoutstanding":11814,"Ġconverted":11815,"Ġ\"That":11816,"MS":11817,"ĠDelhi":11818,"Ġ\"I'm":11819,"ocated":11820,"ĊĊGoogle":11821,"Ġfate":11822,"Ġspray":11823,"Ġcompil":11824,"Ġantib":11825,"Ġabsurd":11826,"Ġfascinating":11827,"Ġconsideration":11828,"ĠReds":11829,"Ġrecord,":11830,"Ġrules.":11831,"Ġgenes":11832,"ĊĊSub":11833,"Ġmice":11834,"aunt":11835,"Ġarchitecture":11836,"arks":11837,"Ġbizarre":11838,"Ġinstances":11839,"Ġcoordinator":11840,"Ġmac":11841,"xide":11842,"Ġhosts":11843,"Ġseve":11844,"Ġview.":11845,"Ġpoly":11846,"inds":11847,"Ġstudents.":11848,"Ġpraise":11849,"ĠPage":11850,"Ġlineback":11851,"Ġforward,":11852,"Ġrelie":11853,"theless,":11854,"Ġ(like":11855,"Ġverify":11856,"Ġcosm":11857,"Ġwindows":11858,"ĠEverything":11859,"Ġno,":11860,"Ġfocuses":11861,"ĠDer":11862,"iece":11863,"aining":11864,"Ġsubur":11865,"Ġtechnological":11866,"igg":11867,"ĠJapan,":11868,"Ġsenators":11869,"Ġdesignated":11870,"Ġelectrical":11871,"Ġviolence,":11872,"Ġnews.":11873,"ĠMcK":11874,"Ġracism":11875,"ĠCanada.":11876,"Ġlogo":11877,"Ġsuprem":11878,"Ġmodule":11879,"Ġenjoying":11880,"ĠZim":11881,"On":11882,"ĠGam":11883,"Ġwars":11884,"ĠRic":11885,"Ġdesigner":11886,"TIS":11887,"ogen":11888,"ocurren":11889,"ĠNCAA":11890,"Ġbip":11891,"ĠQuebec":11892,"Ġaccount.":11893,"Ġtheories":11894,"isons":11895,"Ġleft.":11896,"ĠIndependent":11897,"ĠNash":11898,"Ġsurre":11899,"ĠYemen":11900,"Ġmysterious":11901,"ĠSeptember,":11902,"ases,":11903,"erto":11904,"ĠIsrael,":11905,"ĠJane":11906,"Ġequipped":11907,"Ġguests":11908,"Ġcredits":11909,"ĠAssist":11910,"Ġanalys":11911,"ĠNovember,":11912,"col":11913,"hes.":11914,"ĠLuke":11915,"Ġtopics":11916,"ĠSweden":11917,"Ġwitnessed":11918,"thur":11919,"ĠUr":11920,"thodox":11921,"Ġdoing.":11922,"Ġfru":11923,"ĠCult":11924,"ĠBlu":11925,"Ġcome.":11926,"Ġug":11927,"ĠDrive":11928,"Ġfollowers":11929,"ĠHug":11930,"Ġpreview":11931,"Ġhypothes":11932,"Ġtorn":11933,"ĠStri":11934,"Ġintend":11935,"Ġinquiry":11936,"awks":11937,"ĠFCC":11938,"gments":11939,"ĠSmith,":11940,"Ġrooms":11941,"Ġold.":11942,"igious":11943,"Ġmelt":11944,"Ġattention.":11945,"ĠWiki":11946,"Ġvariable":11947,"ently,":11948,"iller":11949,"ĠMap":11950,"Ġrepresentation":11951,"izza":11952,"ĠBarcel":11953,"Ġvery,":11954,"Ġslide":11955,"power":11956,"Ġconcepts":11957,"Ġcustody":11958,"ĠHTML":11959,"Ġcelebrated":11960,"Ġbecause,":11961,"iffs":11962,"Ġanch":11963,"EMENT":11964,"ĊĊSim":11965,"Ġcompr":11966,"Ġearlier,":11967,"Ġimpressed":11968,"Just":11969,"Ġrevolutionary":11970,"Ġamend":11971,"Ġthreshold":11972,"Ġalign":11973,"oded":11974,"Ġbarrel":11975,"Ġcompanies.":11976,"ĠâĢľt":11977,"ublished":11978,"Ġgaining":11979,"ura":11980,"Ġeffect.":11981,"Ġarguably":11982,"Ġcare,":11983,"Ġ20%":11984,"Ġconditions.":11985,"Ġburned":11986,"Ġtowns":11987,"Ġdevoted":11988,"Ġbone":11989,"Ġapproaches":11990,"Ġworkers,":11991,"ested":11992,"Ġrecord.":11993,"Ġelectron":11994,"el,":11995,"ĠProdu":11996,"-D":11997,"Ġingredients":11998,"Ġcrossed":11999,"ĠLocal":12000,"ĠFinally,":12001,"ĠCitiz":12002,"ĠOrange":12003,"Ġ2,000":12004,"ĠAuthority":12005,"Ġtorture":12006,"Ġhead,":12007,"Ġsoldier":12008,"Ġenabled":12009,"Ġexperimental":12010,"ĠJuly,":12011,"ĊĊYour":12012,"Ġwhist":12013,"aven":12014,"limited":12015,"maker":12016,"ĠGib":12017,"ĠFrancisc":12018,"Ġdecor":12019,"ĠGal":12020,"Ġspeaker":12021,"Ġinspiration":12022,"Ġscrew":12023,"akh":12024,"ĊĊPeople":12025,"VERTIS":12026,"Ġcaution":12027,"atives,":12028,"Ġhunting":12029,"onder":12030,"Ġpatri":12031,"Ġsafely":12032,"15":12033,"Ġbreach":12034,"cia":12035,"ouch":12036,"Ġflew":12037,"Ġgate":12038,"ĠSH":12039,"Ġ(who":12040,"Ġwre":12041,"Ġmouse":12042,"Ġsecular":12043,"Ġneeded]":12044,"-a":12045,"ĠMitche":12046,"Ġregistration":12047,"Ġconviction":12048,"Ġattacks.":12049,"Ġplacing":12050,"cribed":12051,"ĠLes":12052,"Ġuniqu":12053,"ĠTaliban":12054,"Ġperiods":12055,"Ġreviewed":12056,"Ġtension":12057,"ones.":12058,"ugby":12059,"ĠUniversity.":12060,"mann":12061,"Ġwomen's":12062,"ĠTennessee":12063,"ĠOcean":12064,"ĠYah":12065,"ĠThird":12066,"ĠBJ":12067,"Ġfights":12068,"ĠUI":12069,"ĠAbbott":12070,"Ġinvasion":12071,"Ġremembered":12072,"pha":12073,"Ġanxiety":12074,"full":12075,"BM":12076,"Ġwho's":12077,"Ġimportant,":12078,"hether":12079,"Ġgreenhouse":12080,"Ġlives,":12081,"ĠSab":12082,"Ġelabor":12083,"Ġfastest":12084,"ĠRussia.":12085,"Ġfrustrated":12086,"asty":12087,"Ġanymore.":12088,"ĠUnivers":12089,"Ġsanction":12090,"Ġunre":12091,"ĠFA":12092,"ĠHad":12093,"Ġcease":12094,"Ġbox.":12095,"Ġvit":12096,"Ġcategories":12097,"agine":12098,"Ġinterview,":12099,"Ġmandatory":12100,"ĠBloomberg":12101,"Ġconcentration":12102,"ĠYork.":12103,"Ġabund":12104,"Ġimportant.":12105,"Ġleader,":12106,"Ġsurvived":12107,"Ġreign":12108,"Ġ4th":12109,"Ġconced":12110,"Ġpartially":12111,"Ġ$500":12112,"nest":12113,"Ġorder,":12114,"ĠBon":12115,"Ġguilt":12116,"ĠAgainst":12117,"Ġspeculation":12118,"ĠâĢľWhen":12119,"Ġerrors":12120,"DS":12121,"Ġshed":12122,"ĠMother":12123,"Ġ(d":12124,"open":12125,"Ġholes":12126,"ĊĊ\"I'm":12127,"Ġnervous":12128,"ĊĊGo":12129,"rations":12130,"ĠMontreal":12131,"annon":12132,"Ġannouncing":12133,"Ġbackl":12134,"Ġtraveled":12135,"ĊĊOffic":12136,"Ġpregnant":12137,"Ġinterview.":12138,"Ġground,":12139,"ĠTrek":12140,"ĠOthers":12141,"Ġor,":12142,"Ġapplying":12143,"Ġorange":12144,"Ġmortgage":12145,"Ġdispl":12146,"ĠTodd":12147,"Ġstrongest":12148,"Ġbacks":12149,"Ġlens":12150,"Ġbeaten":12151,"rowing":12152,"Ġbeef":12153,"kee":12154,"Ġcontributing":12155,"ĠApril,":12156,"Ġsupplement":12157,"Ġ1999":12158,"Ġexplosion":12159,"Ġexpertise":12160,"agger":12161,"Ġdestination":12162,"Ġusers.":12163,"Ġwrap":12164,"ĊĊCons":12165,"Ġvisits":12166,"Ġdisappeared":12167,"bod":12168,"llor":12169,"Ġofficials,":12170,"Ġfoods":12171,"tains":12172,"Ġapprove":12173,"Ġdamn":12174,"Ġexamined":12175,"ichael":12176,"Ġpromotion":12177,"Ġawk":12178,"ĊĊFurther":12179,"ĠFO":12180,"Ġlogical":12181,"Ġtransmission":12182,"ĠStock":12183,"Ġ(c":12184,"Ġnetwork.":12185,"ĠAmerica's":12186,"Ġwalks":12187,"ĠType":12188,"Ġtreating":12189,"Ġalike":12190,"Ġchamber":12191,"Ġtaxpayers":12192,"Ġcitizenship":12193,"Ġgarden":12194,"Ġtheoret":12195,"PP":12196,"ĊĊ\"In":12197,"ĠTimes.":12198,"Ġsuspension":12199,"ĠCanadians":12200,"ĊĊ#":12201,"Ġcombine":12202,"Ġlone":12203,"ĠKentucky":12204,"Ġdeparture":12205,"shore":12206,"ĠFact":12207,"Ġtob":12208,"gging":12209,"Ġpledged":12210,"Ġcompelling":12211,"Ġpressing":12212,"Ġtoll":12213,"Ġsid":12214,"Ġprosecutor":12215,"elve":12216,"ĠJenn":12217,"ĠTamp":12218,"Ġreass":12219,"Ġtwo.":12220,"Ġcreatures":12221,"Ġspeech,":12222,"Ġtrials":12223,"Ġintegration":12224,"Ġembedd":12225,"Ġflights":12226,"Ġspacecraft":12227,"Ġhumanitarian":12228,"Ġwallet":12229,"Ġhostile":12230,"Ġaccusations":12231,"Ġsparked":12232,"ĠBuddh":12233,"Ġprevented":12234,"Ġnation's":12235,"ĠEff":12236,"Ġfleet":12237,"Ġoversight":12238,"onduct":12239,"Ġsecured":12240,"ĠBenj":12241,"Ġfirearm":12242,"Ġrefusing":12243,"Ġconfiguration":12244,"ably,":12245,"ĠFlash":12246,"untu":12247,"NBC":12248,"Ġdeserves":12249,"Ġgene":12250,"Ġculture.":12251,"Ġconfused":12252,"Ġangle":12253,"ĠMuch":12254,"apes":12255,"ingham":12256,"ĠSummer":12257,"Ġdoes.":12258,"ĠHuff":12259,"Ġtransparent":12260,"ĊĊâĢľWhen":12261,"Ġrestricted":12262,"Ġmonetary":12263,"ĠTrudeau":12264,"Ġprototype":12265,"Ġaccomplished":12266,"Ġinhab":12267,"oyd":12268,"Ġarts":12269,"ĠTherefore,":12270,"Ġhealth,":12271,"Ġbands":12272,"ĠReddit":12273,"Ġstir":12274,"Ġperformances":12275,"Ġgradually":12276,"ĠSection":12277,"Ġcapability":12278,"enger":12279,"Ġpm":12280,"Ġcurve":12281,"uan":12282,"Ġdecision,":12283,"DVERTIS":12284,"Ġtroop":12285,"ime,":12286,"ĠRio":12287,"ĊĊFollowing":12288,"ĊĊ7.":12289,"-long":12290,"ĠOpp":12291,"ĊĊClick":12292,"Ġinterven":12293,"âĸ":12294,"Ġbits":12295,"ĠUltimate":12296,"Ġviewing":12297,"Ġroots":12298,"Ġlifestyle":12299,"Ġunderstands":12300,"ĠRoger":12301,"Ġrecon":12302,"Ġlevels.":12303,"Ġstudy.":12304,"ĠTea":12305,"Ġgenerations":12306,"ĠOctober,":12307,"1)":12308,"ussel":12309,"Ġgrowth.":12310,"Ġunderw":12311,"Ġpolar":12312,"Ġrules,":12313,"ĠRemember":12314,"Ġpaper,":12315,"ashes":12316,"Ġviable":12317,"ĠLawrence":12318,"ĠAll-":12319,"Ġi.":12320,"Ġaltogether":12321,"Ġcryptocurren":12322,"Ġcourt,":12323,"Ġhiding":12324,"Ġweaken":12325,"Ġfans,":12326,"instein":12327,"ĠRangers":12328,"Ġambitious":12329,"core":12330,"ĠDur":12331,"Ġnonprofit":12332,"Ġworse.":12333,"ichol":12334,"ĠSN":12335,"Ġpending":12336,"Ġquantum":12337,"ĠSpeaker":12338,"ĠKhan":12339,"Ġdeclare":12340,"Ġjudicial":12341,"Ġminister,":12342,"Ġstatic":12343,"omic":12344,"Ġtutorial":12345,"ĊĊTop":12346,"Ġpainted":12347,"appropri":12348,"Ġhands.":12349,"aints":12350,"Ġindication":12351,"Ġexecuted":12352,"Ġinvestigated":12353,"Ġadvised":12354,"Ġpeer":12355,"ĠTel":12356,"ela":12357,"ow,":12358,"ĠMorm":12359,"Ġenterprise":12360,"aver":12361,"Ġcan.":12362,"Ġproductive":12363,"Ġflexible":12364,"ĠFather":12365,"ĠHispan":12366,"ĠEmer":12367,"wart":12368,"Ġrun,":12369,"Ġexperiencing":12370,"ĠKerry":12371,"Ġpunishment":12372,"ctive":12373,"Ġauthentic":12374,"Ġresponding":12375,"Ġformally":12376,"Ġsophisticated":12377,"ĠIan":12378,"born":12379,"Ġdate,":12380,"Ġcosts.":12381,"ĊĊDe":12382,"Ġawkward":12383,"-profile":12384,"umph":12385,"Ġshake":12386,"Ġ85":12387,"Ġinstead.":12388,"-month":12389,"Ġfood.":12390,"ĠDA":12391,"Ġfound.":12392,"Ġdetained":12393,"Ġemerge":12394,"Ġgreet":12395,"ĠLad":12396,"Ġmissions":12397,"era":12398,"Ġmarry":12399,"Ġprocedures":12400,"Ġcontroll":12401,"Ġrevealing":12402,"ĠArea":12403,"Ġdocumented":12404,"Ġattach":12405,"Ġ\"And":12406,"ĠRobinson":12407,"Ġadvocacy":12408,"Ġcaps":12409,"ĠSpir":12410,"Ġpsychiat":12411,"ĠQueens":12412,"ĠOrlando":12413,"Ġtent":12414,"Ġidea,":12415,"Ġdate.":12416,"Ġvague":12417,"Ġsends":12418,"Ġdivide":12419,"Ġprovincial":12420,"Ġknocked":12421,"ches.":12422,"Ġgolden":12423,"Ġhospitals":12424,"leting":12425,"ĠCommissioner":12426,"Ġbalanced":12427,"Ġpays":12428,"Ġtransf":12429,"LE":12430,"ĠPear":12431,"Ġqualify":12432,"Ġlongest":12433,"Ġdrafted":12434,"Ġparliamentary":12435,"Ġthey'll":12436,"ĊĊWho":12437,"VP":12438,"ĠBlake":12439,"ami":12440,"ĠPuerto":12441,"Ġchanges.":12442,"acon":12443,"ped":12444,"Ġclear,":12445,"Ġviolations":12446,"Ġhighway":12447,"Ġappointment":12448,"Ġcalculated":12449,"Ġtouched":12450,"Ġom":12451,"Ġgrave":12452,"ĠNO":12453,"ĠAgain,":12454,"Ġcategor":12455,"ĠImm":12456,"Ġhoriz":12457,"Ġenvironment,":12458,"Ġlot.":12459,"Ġviolated":12460,"ĠWinter":12461,"ĠStation":12462,"Ġdual":12463,"ĊĊInt":12464,"ĊĊPerhaps":12465,"liminary":12466,"apolis":12467,"Ġgreat.":12468,"ĠCB":12469,"Ġfriendship":12470,"lack":12471,"ĠSEC":12472,"Ġsacrif":12473,"Ġbrands":12474,"ptions":12475,"Ġ99":12476,"Ġconstructed":12477,"Ġthen.":12478,"ĠBenn":12479,"ĠPers":12480,"Ġrushed":12481,"Ġconducting":12482,"Ġdeciding":12483,"Ġmeanwhile,":12484,"Ġpractice,":12485,"Ġ(B":12486,"Ġclicking":12487,"Ġinvesting":12488,"ali":12489,"ailed":12490,"ĠWales":12491,"Ġreceives":12492,"Ġacceptable":12493,"ĠPo":12494,"Ġattorneys":12495,"Ġinfection":12496,"Ġlegislature":12497,"Ġincorrect":12498,"Ġcontrolling":12499,"Ġcommentary":12500,"Ġreminded":12501,"Ġ120":12502,"Ġcous":12503,"ĠFurthermore,":12504,"Ġtriggered":12505,"Ġlegendary":12506,"Ġwet":12507,"Ġendless":12508,"ĠCowboy":12509,"Ġgym":12510,"ĠBrandon":12511,"ĠQuest":12512,"Ġbeloved":12513,"Ġposed":12514,"viously":12515,"Ġreaches":12516,"Ġcrown":12517,"Ġ\"M":12518,"hite":12519,"Ġpage,":12520,"ĠAT&T":12521,"Ġdevelopments":12522,"Ġdesign.":12523,"ĠPeace":12524,"Ġidentifying":12525,"ĠAugust,":12526,"Ġseparated":12527,"Ġorganisation":12528,"Ġguards":12529,"Ġreflection":12530,"ĠPatriots":12531,"Ġritual":12532,"Ġrobber":12533,"byn":12534,"Ġflexibility":12535,"Ġresidence":12536,"Ġpoet":12537,"Ġrhy":12538,"ĠEst":12539,"inton":12540,"Ġscene,":12541,"ikh":12542,"ĠAdditionally,":12543,"?\"":12544,"Ġanalog":12545,"-back":12546,"Ġfun.":12547,"Ġboard.":12548,"ĠChristie":12549,"DVERTISEMENT":12550,"heck":12551,"Ġever.":12552,"uther":12553,"ĠMitt":12554,"tle":12555,"Ġprofessionals":12556,"Ġscratch":12557,"Ġtempt":12558,"ltra":12559,"ĠSwiss":12560,"Ġfilling":12561,"ĠEagles":12562,"Ġtill":12563,"Ġalliance":12564,"ĠâĢĻ":12565,"HE":12566,"Ġspy":12567,"Ġcondemned":12568,"Ġcharacter,":12569,"Ġinvestigation,":12570,"Ġfails":12571,"Ġwrapped":12572,"olit":12573,"ĠSaint":12574,"Ġprovisions":12575,"ille":12576,"Ġagricultural":12577,"Ġquickly.":12578,"Ġpione":12579,"yer":12580,"Ġcontradict":12581,"ĠToy":12582,"Ġ);":12583,"Ġheadlines":12584,"ATE":12585,"Ġillegally":12586,"ĠPir":12587,"ĠTry":12588,"Ġtoy":12589,"Ġlanguage,":12590,"Ġattributed":12591,"Ġgrateful":12592,"Ġchur":12593,"Ġassembly":12594,"ĠNelson":12595,"ĊĊQu":12596,"Ġchocolate":12597,"ĠKyle":12598,"Ġnu":12599,"Ġhopeful":12600,"Ġnumbers,":12601,"ĠLions":12602,"Ġ56":12603,"ĠSnowden":12604,"Ġanimated":12605,"Ġideological":12606,"Ġ(if":12607,"Ġdelayed":12608,"ĠKa":12609,"Ġbias":12610,"atives.":12611,"Ġreports,":12612,"Fi":12613,"Ġtoday's":12614,"QL":12615,"Ġclever":12616,"Ġharvest":12617,"Ġrall":12618,"Ġmeeting,":12619,"mart":12620,"ĠpresidentâĢĻs":12621,"++":12622,"Ġsomething,":12623,"dy":12624,"Ġcondemn":12625,"Ġeggs":12626,"Ġengagement":12627,"Ġdead.":12628,"Ġbund":12629,"ĠEdition":12630,"Ġcatast":12631,"ĠHond":12632,"ĠLam":12633,"Ġfare":12634,"ĠMotor":12635,"Ġbillion.":12636,"Ġsecurity.":12637,"Ġintegrity":12638,"ixel":12639,"Ġmeters":12640,"Ġ72":12641,"ĠAfrica,":12642,"Ġundermine":12643,"Ġ57":12644,"D,":12645,"ĊĊâĢľN":12646,"security":12647,"idem":12648,"Ġdisorder":12649,"Ġriders":12650,"Ġdepression":12651,"Ġurge":12652,"//":12653,"Ġdesired":12654,"Ġsubscribe":12655,"ists.":12656,"ĠRussiaâĢĻs":12657,"Ġhouseholds":12658,"Ġhelicopter":12659,"ĠCohen":12660,"ĠRaid":12661,"Ġborders":12662,"ĠDeep":12663,"ĠSoft":12664,"Ġ$8":12665,"Ġscreen.":12666,"viously,":12667,"wise,":12668,"chest":12669,"Ġdisabled":12670,"ĠFlorida,":12671,"ixon":12672,"Ġmystery":12673,"Ġage.":12674,"3)":12675,"Ġ[1":12676,"Ġsher":12677,"Ġ00":12678,"Ġambassador":12679,"Ġacquire":12680,"Ġdelet":12681,"ĠTalk":12682,"Ġwitnesses":12683,"Ġpad":12684,"Ġgrabbed":12685,"grad":12686,"Ġpedest":12687,"ĠT.":12688,"Ġgoal.":12689,"ĠSwitzer":12690,"Ġinevitable":12691,"ĠCalifornia.":12692,"Ġtoile":12693,"Ġsleeping":12694,"erent":12695,"Ġfloating":12696,"ĠEntertainment":12697,"Ġmathemat":12698,"ĠDeputy":12699,"7)":12700,"HP":12701,"Ġhaz":12702,"Ġsilent":12703,"ĠTerry":12704,"Ġpackages":12705,"Ġtoken":12706,"Ġfans.":12707,"ĠNS":12708,"Ġcode,":12709,"\\x6":12710,"iro":12711,"ĠLaur":12712,"Ġriot":12713,"ĠDal":12714,"Ġprosper":12715,"Ġdistinction":12716,"Ġal.,":12717,"Ġwelcomed":12718,"ĠMobile":12719,"ĠU.N.":12720,"Ġcolleague":12721,"ĠHitler":12722,"Ġshort-term":12723,"ulse":12724,"ĠDraft":12725,"Ġwrote,":12726,"Ġoptimistic":12727,"Ġbuilding,":12728,"Ġbelow,":12729,"Ġharmful":12730,"Ġheroes":12731,"Ġportfol":12732,"Ġkiss":12733,"Ġcompass":12734,"Ġshorter":12735,"ĊĊSeveral":12736,"Ġbreakfast":12737,"-profit":12738,"Ġdevices.":12739,"Ġtherapy":12740,"Ġdirty":12741,"ĠRest":12742,"Ġauction":12743,"Ġinex":12744,"Ġteammates":12745,"ĠGab":12746,"-life":12747,"Ġmany,":12748,"Ġvegan":12749,"Ġheadline":12750,"Ġrecalled":12751,"Ġassuming":12752,"Ġfrank":12753,"Ġworkers.":12754,"Ġtrailer":12755,"Ġassured":12756,"Ġ1998":12757,"ĠRussians":12758,"outheast":12759,"Ġoperational":12760,"ĠLynch":12761,"Ġthat.âĢĿ":12762,"ĠOscar":12763,"cular":12764,"ĠCC":12765,"Ġquestioning":12766,"Ġdirt":12767,"Ġdirection.":12768,"Ġsee.":12769,"riminal":12770,"ĠBrussel":12771,"Ġresearch.":12772,"Ġquestions,":12773,"Ġforb":12774,"ĊĊRef":12775,"Ġproducts,":12776,"ĠGray":12777,"Ġmechanical":12778,"Ġfurn":12779,"Ġfraction":12780,"Ġboxes":12781,"ĠPok":12782,"Ġentrance":12783,"Ġtemporarily":12784,"Ġ600":12785,"ĠSD":12786,"Ġconflicts":12787,"ĠUntil":12788,"jud":12789,"Ġbuilds":12790,"Ġcraz":12791,"rint":12792,"ĠTurke":12793,"Ġlaws.":12794,"Ġderived":12795,"Ġ250":12796,"Ġtable.":12797,"ima":12798,"Ġeconomics":12799,"ĠFacebook.":12800,"Ġhistorically":12801,"ĠDoug":12802,"ĠKings":12803,"ĠMorris":12804,"ĠUK,":12805,"Ġfluid":12806,"ĠDean":12807,"Ġceremon":12808,"liver":12809,"Ġdrops":12810,"Ġstory:":12811,"Ġno.":12812,"Ġcomics":12813,"Ġbest.":12814,"ĊĊDavid":12815,"Ġcases.":12816,"ĠSafety":12817,"Ġdisplays":12818,"ĠMerkel":12819,"Ġfuneral":12820,"Ġcontent,":12821,"Ġbuilding.":12822,"abling":12823,"ĠYahoo":12824,"ĠComb":12825,"ĠLegisl":12826,"Ġquietly":12827,"ĠFind":12828,"ĠFDA":12829,"ĠAdams":12830,"Ġpock":12831,"law":12832,"va":12833,"Ġvoc":12834,"Ġ2004,":12835,"ier,":12836,"rank":12837,"player":12838,"Ġspreading":12839,"ĠLog":12840,"Ġsynd":12841,"ĠFight":12842,"Ġmodel,":12843,"ĠRound":12844,"ĠGPU":12845,"Ġridiculous":12846,"Ġform.":12847,"Ġunnecessary":12848,"bits":12849,"ĊĊFormer":12850,"cles":12851,"Ġdeliberately":12852,"ĠKu":12853,"ĠPosts":12854,"artial":12855,"ĠweekâĢĻs":12856,"ĠCloud":12857,"ĠAz":12858,"Ġ2.5":12859,"Ġsess":12860,"Ġ12.":12861,"Ġsure,":12862,"Ġprojects.":12863,"Ġbedroom":12864,"Ġsinger":12865,"Ġtraditionally":12866,"Ġi.e.":12867,"TP":12868,"Ġdonated":12869,"Ġstressed":12870,"Ġcoin":12871,"ĠPinterest":12872,"ĠRy":12873,"ĠHowever":12874,"Ġinterpretation":12875,"Ġcelebration":12876,"ĠWikiLe":12877,"Ġparents,":12878,"Ġhes":12879,"omach":12880,"ĠSav":12881,"Ġ\"B":12882,"ĊĊ.":12883,"ĠâĢľH":12884,"Ġappeals":12885,"Ġparticipated":12886,"ĠNews,":12887,"Ġlayers":12888,"Ġcultiv":12889,"ĠPlus":12890,"Ġcommod":12891,"ĠHans":12892,"Ġdonors":12893,"Ġguidance":12894,"Ġmisle":12895,"ĠBul":12896,"Ġradar":12897,"Ġnotably":12898,"Ġ(O":12899,"ĠVin":12900,"5,000":12901,"alling":12902,"Ġoperates":12903,"Ġcomposed":12904,"Ġturn,":12905,"ĠLi":12906,"ener":12907,"Ġmisc":12908,"Ġearnings":12909,"ĠGill":12910,"ĠDecember,":12911,"isp":12912,"ĠRap":12913,"Ġdistract":12914,"Ġsimultaneously":12915,"Ġasked.":12916,"ĠCorbyn":12917,"Ġstaff,":12918,"Ġvideo.":12919,"ĊĊYes,":12920,"Ġcops":12921,"Ġworthy":12922,"ĊĊâĢľThat":12923,"Ġpursuing":12924,"Ġmosqu":12925,"Ġface,":12926,"Ġtrips":12927,"Ġearliest":12928,"Ġdecides":12929,"Ġdecade,":12930,"Ġbeta":12931,"Ġafterno":12932,"Ġphotographs":12933,"ĠAlliance":12934,"Ġhybrid":12935,"ĊĊthe":12936,"Ġsecurity,":12937,"uy":12938,"Ġdivid":12939,"ailable":12940,"Ġindicating":12941,"Ġarriving":12942,"Ġeffect,":12943,"ĠOrleans":12944,"ĠFOR":12945,"Ġastronom":12946,"grade":12947,"inally":12948,"Ġexplosive":12949,"ĠKeith":12950,"Ġpractice.":12951,"Ġcave":12952,"Ġfriend,":12953,"incinn":12954,"ĠPhilip":12955,"Ġurging":12956,"ĊĊLe":12957,"ader":12958,"ancer":12959,"ĠBenjamin":12960,"Ġradiation":12961,"ĊĊTe":12962,"uate":12963,"onymous":12964,"Ġstomach":12965,"Ġhigh-profile":12966,"ĠParty,":12967,"ilarly,":12968,"oog":12969,"Ġpeople's":12970,"-free":12971,"Ġinterse":12972,"ropolitan":12973,"ĊĊ:":12974,"rust":12975,"ĠHide":12976,"Ġcircuit":12977,"cip":12978,"ĠVictoria":12979,"Ġlanguage.":12980,"Ġbitter":12981,"Ġwast":12982,"Ġsuitable":12983,"Ġphotographer":12984,"ĠChuck":12985,"ĠMun":12986,"ĊĊFirst,":12987,"Ġuncertainty":12988,"ĠIM":12989,"Ġwant.":12990,"Ġmarginal":12991,"Ġdistant":12992,"Ġcomparing":12993,"Ġ\"h":12994,"ĠTheat":12995,"Ġdistricts":12996,"Ġcake":12997,"ĊĊADVERTISEMENT":12998,"Ġgover":12999,"Ġemission":13000,"Ġfree.":13001,"ĠEarly":13002,"ĠModern":13003,"ĠWWE":13004,"dge":13005,"Ġresolved":13006,"Ġcrisis,":13007,"ĊĊUpdate":13008,"Ġbombs":13009,"Ġarticle.":13010,"Ġpleaded":13011,"ĠNichol":13012,"Ġaftermath":13013,"Ġavailable,":13014,"ĠMA":13015,"Ġprocl":13016,"ĊĊâĢľWhat":13017,"Ġbacteria":13018,"icut":13019,"ĠWashington.":13020,"Ġ\"D":13021,"Ġconfirmation":13022,"Ġseventh":13023,"Ġspeakers":13024,"Ġmagical":13025,"roph":13026,"Ġexem":13027,"Ġsubscription":13028,"Ġhappened,":13029,"Ġtar":13030,"Ġgoverning":13031,"K.":13032,"Ġmonster":13033,"oons":13034,"ĠFebruary,":13035,"Ġfeminist":13036,"Ġglim":13037,"Ġneighbors":13038,"ois":13039,"ences,":13040,"ani":13041,"Ġhatred":13042,"Ġopinion,":13043,"Ġcharacteristics":13044,"Ġdecade.":13045,"Ġkiller":13046,"ĠSingh":13047,"Ġformula":13048,"Ġinappropri":13049,"ĠRecord":13050,"ĠUS.":13051,"ĠArticle":13052,"Ġpurely":13053,"ĠBand":13054,"Ġgreat,":13055,"Ġused.":13056,"rine":13057,"Ġmild":13058,"artisan":13059,"-cont":13060,"on't":13061,"Ġpricing":13062,"cos":13063,"ĠHere's":13064,"Ġ\"In":13065,"Ġ\"What":13066,"earchers":13067,"ĠAmericans,":13068,"Ġembedded":13069,"Ġcreator":13070,"-T":13071,"Ġrespectively.":13072,"Ġthrough.":13073,"Ġenergy,":13074,"Ġtu":13075,"Ġpermitted":13076,"ĠChall":13077,"Ġfine.":13078,"ĠSac":13079,"Ġcrime.":13080,"Ġcooking":13081,"ĠBlog":13082,"nered":13083,"-ch":13084,"ĠVe":13085,"Ġfire.":13086,"Ġroutes":13087,"inge":13088,"Ġimmense":13089,"-run":13090,"ĠPython":13091,"bar":13092,"Ġverdict":13093,"Ġwaited":13094,"ĠProfile":13095,"Ġafterward":13096,"ena":13097,"unes":13098,"Ġeyes.":13099,"pa":13100,"RI":13101,"Ġrate,":13102,"hand":13103,"ĠMorning":13104,"Ġmandate":13105,"father":13106,"ĠOw":13107,"ĠHamas":13108,"Ġnumbers.":13109,"ĠChance":13110,"ÃŃ":13111,"ko":13112,"ĠpartyâĢĻs":13113,"Ġconsiders":13114,"named":13115,"ĊĊ--":13116,"Ġassists":13117,"ĠBor":13118,"Ġtrains":13119,"Ġmyself,":13120,"Ġstreak":13121,"iano":13122,"Ġhal":13123,"adesh":13124,"ĠÂ©":13125,"ĠâĢľg":13126,"ĠIndia.":13127,"ĠJess":13128,"ĊĊEach":13129,"Ġsessions":13130,"atile":13131,"Ġintroducing":13132,"....":13133,"Ġroutinely":13134,"Ġsuggestion":13135,"Ġenthusiast":13136,"ĠWar,":13137,"ĠDNC":13138,"Ġdesp":13139,"Ġdemo":13140,"hero":13141,"Ġagreements":13142,"ĠNatural":13143,"ĠSU":13144,"ĠVermont":13145,"ĠCampaign":13146,"Ġ58":13147,"Ġleverage":13148,"ĠLady":13149,"ĠLet's":13150,"Ġrespondents":13151,"ĠChron":13152,"Ġactress":13153,"isive":13154,"Ġinfring":13155,"Ġindict":13156,"Ġdiagnosed":13157,"Ġsharehold":13158,"ĠIsraelâĢĻs":13159,"Ġvolunteer":13160,"Ġdetain":13161,"Ġsponsored":13162,"Ġloving":13163,"Ġneeds.":13164,"ier.":13165,"Ġ189":13166,"Ġgrasp":13167,"ĠVery":13168,"ĠIslamist":13169,"Ġpressed":13170,"Ġmodel.":13171,"ĠEC":13172,"roduction":13173,"Ġtechnically":13174,"Ġacquisition":13175,"ophob":13176,"ĠHeat":13177,"Ġadoption":13178,"kes":13179,"Ġdestroying":13180,"iens":13181,"Ġinvolved.":13182,"Ġfight.":13183,"Ġtrapped":13184,"ĠFormer":13185,"Ġlaws,":13186,"oking":13187,"Ġsubtle":13188,"cons":13189,"ĠBlood":13190,"ĠMemorial":13191,"ĠLevel":13192,"reek":13193,"Ġnation.":13194,"Ġpink":13195,"Ġindustries":13196,"Ġanimation":13197,"Ġrecount":13198,"ERS":13199,"ĠPsych":13200,"ĠOrganization":13201,"Ġenables":13202,"ics.":13203,"Ġ()":13204,"Ġ10th":13205,"Ġawa":13206,"mare":13207,"ĠNeed":13208,"worth":13209,"Ġtum":13210,"Ġsquee":13211,"Ġcau":13212,"ĠSubscribe":13213,"ĠHu":13214,"ĠOccup":13215,"Ġstructural":13216,"ĠSessions":13217,"Ġinterrupt":13218,"Ġposter":13219,"Ġdrill":13220,"ĠMcConnell":13221,"ĠAmb":13222,"iac":13223,"ĠDomin":13224,"Ġunveiled":13225,"Ġchanged.":13226,"Ġdubbed":13227,"Ġattacks,":13228,"Ġwinners":13229,"Ġadministration,":13230,"ĠYang":13231,"ĠNik":13232,"Ġserial":13233,"Ġincident.":13234,"ĠCincinn":13235,"Ġoptions.":13236,"Ġsword":13237,"ĠOxford":13238,"Ġhealth.":13239,"ĠWe've":13240,"ĠPhotos:":13241,"Ġexplained.":13242,"cific":13243,"NA":13244,"ĠQual":13245,"ĠConnecticut":13246,"Ġterm,":13247,"Ġsink":13248,"ĠCommons":13249,"ĊĊThank":13250,"Ġwondered":13251,"ĊĊSource:":13252,"ĠPakistani":13253,"Ġexcessive":13254,"Ġoutright":13255,"Ġdreams":13256,"Ġepidem":13257,"Ġannually":13258,"Ġsacrifice":13259,"oin":13260,"ĠIRS":13261,"Ġghost":13262,"Ġexisted":13263,"ĠHann":13264,"Ġdamaging":13265,"Ġ1000":13266,"Ġrushing":13267,"Ġmedian":13268,"Ġdil":13269,"ĠBJP":13270,"ĊĊ\"That":13271,"Ġoxygen":13272,"Ġsteep":13273,"-point":13274,"Ġshifted":13275,"ology.":13276,"Ġmovie,":13277,"Ġmarijuan":13278,"ĠZe":13279,"Ġaveraged":13280,"armed":13281,"Ġlasted":13282,"sa":13283,"Ġethical":13284,"ĠIV":13285,"ĠName":13286,"-B":13287,"leep":13288,"Ġgrants":13289,"Ġcheese":13290,"Ġlung":13291,"ĠNeil":13292,"Ġmutual":13293,"Ġbreakdown":13294,"Ġpoorly":13295,"Ġlicensed":13296,"Ġprovider":13297,"ĠJohnson,":13298,"Ġempire":13299,"ĠWeâĢĻll":13300,"Ġsla":13301,"ĠBarry":13302,"eds":13303,"Ġfrom.":13304,"g.,":13305,"Ġlobbying":13306,"Ġneglect":13307,"Ġdisclosure":13308,"ĠMadison":13309,"ighed":13310,"ĠMarg":13311,"td":13312,"Ġpitcher":13313,"Ġchild,":13314,"Ġbabies":13315,"ĊĊThree":13316,"Ġ3:":13317,"Ġemotions":13318,"Ġ\"s":13319,"Ġsummary":13320,"Ġmini":13321,"Ġlake":13322,"Ġfinan":13323,"oub":13324,"Ġbad.":13325,"40":13326,"Ġfaculty":13327,"Ġdispar":13328,"ĠSenior":13329,"Ġphone.":13330,"ĠPel":13331,"mir":13332,"Ġyourself.":13333,"Ġ2007.":13334,"Ġwildlife":13335,"Ġnick":13336,"Ġlane":13337,"Ġstage.":13338,"Ġslavery":13339,"Ġperspective,":13340,"ĠMrs.":13341,"Ġaired":13342,"ĠOttawa":13343,"ĠBear":13344,"Ġcamps":13345,"ĠWikip":13346,"Ġpassionate":13347,"Ġoffset":13348,"If":13349,"rix":13350,"Ġhorrible":13351,"ATED":13352,"ERE":13353,"Ġpreliminary":13354,"Ġwillingness":13355,"Ġtendency":13356,"Ð¾":13357,"ĠManager":13358,"Ġprice.":13359,"Ġsecond,":13360,"Ġfeared":13361,"Ġpreparation":13362,"ĊĊIm":13363,"ĠDanny":13364,"Ġpursuit":13365,"Ġessay":13366,"Ġunfold":13367,"Ġgentle":13368,"Ġcalendar":13369,"through":13370,"Ġconnecting":13371,"ĠRodrig":13372,"ville,":13373,"Ġconditions,":13374,"err":13375,"Ġmassac":13376,"Ġscience,":13377,"ĠSor":13378,"-5":13379,"Ġmigration":13380,"wau":13381,"Ġoperators":13382,"ountered":13383,"p,":13384,"forward":13385,"Ġencountered":13386,"Ġhacking":13387,"ĠâĢľG":13388,"Ġshocking":13389,"Ġmaxim":13390,"oft":13391,"ĠBond":13392,"Ġexecute":13393,"Ġshoes":13394,"Ġinspe":13395,"Ġcompiled":13396,"Ġtower":13397,"Ġsuggestions":13398,"Ġinvite":13399,"Ġstart.":13400,"Ġcharacter.":13401,"Ġstats":13402,"70":13403,"ĠPlayers":13404,"Ġfingers":13405,"Ġpresumably":13406,"ĠProgress":13407,"Ġrole.":13408,"ĠTemple":13409,"ĠRaj":13410,"Ġdraws":13411,"Ġdifferently":13412,"Ġcartoon":13413,"ĠCoalition":13414,"lementary":13415,"Ġdelegates":13416,"anim":13417,"ĠUbuntu":13418,"New":13419,"Ġresigned":13420,"Ġlayout":13421,"Ġsheer":13422,"Ġcasting":13423,"ĠâĢľd":13424,"ĊĊQ:":13425,"Ġrehab":13426,"aka":13427,"ĠDa":13428,"Ġafternoon,":13429,"ĠJake":13430,"Ġdign":13431,"isode":13432,"Ġdirector,":13433,"Ġcriteria":13434,"ĠEditor":13435,"ĠHunter":13436,"ĠHa":13437,"iciary":13438,"Ġally":13439,"4)":13440,"Ġchanges,":13441,"ĠSide":13442,"Ġcompos":13443,"ria":13444,"ĠCircuit":13445,"ĠTheatre":13446,"Ġprinting":13447,"Ġreasons,":13448,"ĠVen":13449,"Ġinfant":13450,"ĠDVD":13451,"ĠOR":13452,"Ġnutr":13453,"Ġperformance,":13454,"ĠFisher":13455,"Ġresponse,":13456,"Ġintelligent":13457,"PM":13458,"ĠMarshall":13459,"ĠJefferson":13460,"ĊĊPart":13461,"cience":13462,"ĠSox":13463,"Ġinstantly":13464,"Ġreason.":13465,"ry.":13466,"Ġbasis.":13467,"ĠBeng":13468,"Ġworship":13469,"Ġsinging":13470,"Ġbless":13471,"Ġengines":13472,"ĠHolland":13473,"Ġtransparency":13474,"ĠArctic":13475,"ĠWrit":13476,"ĠWATCH":13477,"Ġstage,":13478,"ilateral":13479,"ĠColomb":13480,"Ġsize,":13481,"Ġrisk.":13482,"rait":13483,"Ġnothing.":13484,"Ġcan,":13485,"Ġhik":13486,"Ġteams.":13487,"Ġmamm":13488,"itb":13489,"Ġpleasure":13490,"Ġbubble":13491,"Ġteenage":13492,"Ġworkplace":13493,"Ġendorsed":13494,"Ġsheriff":13495,"ĠCrown":13496,"Ġconfusion":13497,"Ġ2018.":13498,"Ġthereby":13499,"Ġballs":13500,"Ġproduction.":13501,"Ġadministration.":13502,"Ġavoiding":13503,"Ġrewards":13504,"Ġsurprisingly":13505,"Ġpreference":13506,"Ġimplementing":13507,"Ġoutbreak":13508,"Ġbelieving":13509,"Ġprotections":13510,"Ġnode":13511,"ĠTig":13512,"Ġcredibility":13513,"beit":13514,"ĠPod":13515,"osted":13516,"Ġgarb":13517,"Ġfounding":13518,"Ġ(m":13519,"Ġfierce":13520,"Ġeducation.":13521,"Ġprograms.":13522,"Ġpresidency":13523,"Ġwill,":13524,"Ġreferen":13525,"angle":13526,"Ġworkforce":13527,"ĠFarm":13528,"Ġalbum,":13529,"Ġsued":13530,"ĠFederation":13531,"Ġconqu":13532,"idal":13533,"Ĥ¬":13534,"Ġcrude":13535,"ulations":13536,"ĊĊâĢĺ":13537,"Ġawards":13538,"afe":13539,"Ġinstallation":13540,"Ġreminder":13541,"Ġincident,":13542,"Ġwhile,":13543,"vas":13544,"Ġ$50":13545,"Ġachievement":13546,"leton":13547,"Ġrumors":13548,"Ġrevenues":13549,"Ġco-founder":13550,"Ġ(L":13551,"Ġgenerating":13552,"ĠDougl":13553,"Ġslower":13554,"ĠInn":13555,"Ġentrepreneur":13556,"ĊĊ8.":13557,"ĠCommittee,":13558,"Ġpopulation,":13559,"rans":13560,"Ġinteractions":13561,"ĠStudies":13562,"ĊĊ\"When":13563,"Ġair.":13564,"Ġbreathing":13565,"u,":13566,"Ġsuppose":13567,"Ġeconomist":13568,"Ġsuperv":13569,"Ġcarrier":13570,"ĠSusan":13571,"Ġroad.":13572,"Ġouter":13573,"Ġsuccess,":13574,"Ġscout":13575,"ĠSalt":13576,"ĠCommunist":13577,"pace":13578,"Ġresid":13579,"cling":13580,"Ġ11.":13581,"Ġenhanced":13582,"ĠConfed":13583,"ĠHand":13584,"ĊĊAsked":13585,"ĠDJ":13586,"Ġbags":13587,"ĠEngland,":13588,"Ġadmission":13589,"ĠSmart":13590,"Ġflavor":13591,"Ġworse,":13592,"ĠOliver":13593,"ĠResp":13594,"ĠState.":13595,"Ġportfolio":13596,"Ġbroadband":13597,"Ġplaint":13598,"Ġdiseases":13599,"Ġestablishing":13600,"Ġarrests":13601,"valid":13602,"Ġofficials.":13603,"Ġfut":13604,"Ġbillionaire":13605,"ĠManhattan":13606,"Ġhigh.":13607,"Ġspeeds":13608,"ĠRail":13609,"archy":13610,"Ġ(at":13611,"Ġlengthy":13612,"8)":13613,"Ġprobability":13614,"Ġrecy":13615,"Ġstatistical":13616,"Ġrespected":13617,"Ġhistorian":13618,"Ġtensions":13619,"Ġbeings":13620,"Ġworks,":13621,"ĠG.":13622,"ĠMitchell":13623,"Ġanalyt":13624,"Ġevaluate":13625,"ĊĊThanks":13626,"Ġsmugg":13627,"Ġbears":13628,"Ġtune":13629,"Ġinterference":13630,"ĠTable":13631,"ĠFiref":13632,"ĠAct.":13633,"Ġsacrific":13634,"ĠMission":13635,"ĠCav":13636,"ĠMcD":13637,"nie":13638,"Ġdirectory":13639,"thal":13640,"ĊĊShare":13641,"Ġhappen,":13642,"DAY":13643,"Ġbeneficial":13644,"Ġimmigrant":13645,"ĠNevada":13646,"Ġgro":13647,"Ġdispos":13648,"bably":13649,"Ġeleph":13650,"ĠSomal":13651,"Ġ(such":13652,"ĠHotel":13653,"ĠBE":13654,"Ġaest":13655,"Ġinstinct":13656,"Ġcontents":13657,"ĠParenthood":13658,"Ġresur":13659,"Ġaffecting":13660,"Ġaudience.":13661,"Ġsampl":13662,"Ġlight.":13663,"ĠâĢľC":13664,"Ġshops":13665,"er's":13666,"itbart":13667,"Ġmixture":13668,"gary":13669,"ĠPlanned":13670,"Ġcontinuous":13671,"Ġfunn":13672,"Ġinch":13673,"Ġschools.":13674,"Ġlighting":13675,"ĠâĢľto":13676,"Ġfirmly":13677,"Ġrecruiting":13678,"iences":13679,"ĠWatson":13680,"Ġoffshore":13681,"Ġmarine":13682,"Ġcrashed":13683,"HING":13684,"Ġrobots":13685,"ĠNig":13686,"ĠHend":13687,"Ġscary":13688,"Ġash":13689,"Ġyes":13690,"TON":13691,"Ġdio":13692,"Ġinfected":13693,"Ġtoss":13694,"Ġfract":13695,"Ġfright":13696,"Ġshifting":13697,"Ġfrustration":13698,"ĠIran,":13699,"Ġrice":13700,"Ġzomb":13701,"Ġeliminated":13702,"ĠPhotograph":13703,"Ġdetails.":13704,"Ġform,":13705,"Ġdemol":13706,"ĠBelgium":13707,"Ġconservation":13708,"Ġ(l":13709,"Ġmakers":13710,"Ġseiz":13711,"Ġairline":13712,"Ġdose":13713,"Ġcontra":13714,"Ġhorm":13715,"ĠEV":13716,"ĠIsrael.":13717,"Ġdoes,":13718,"Ġonline,":13719,"Ġaccount,":13720,"ĠRT":13721,"Ġmothers":13722,"Ġoption.":13723,"ĠHP":13724,"ĠFantasy":13725,"Ġdeclaration":13726,"ardo":13727,"emit":13728,"ĊĊIâĢĻve":13729,"ĠYou're":13730,"ĠMilwau":13731,"iated":13732,"Ġcommitt":13733,"Ġ1996":13734,"ĠI,":13735,"Ġ2001,":13736,"Ġcontam":13737,"oj":13738,"Ġlikelihood":13739,"ĠMcM":13740,"shop":13741,"Ġwooden":13742,"Ġadmits":13743,"Ġlight,":13744,"Ġlip":13745,"amil":13746,"ĠWy":13747,"ĠGuide":13748,"ĠKorea,":13749,"ĊĊComp":13750,"Ġauthorized":13751,"eep":13752,"Ġdebate.":13753,"Ġdefect":13754,"ĠWithin":13755,"Ġquotes":13756,"ĠCongress.":13757,"Getty":13758,"Ġtel":13759,"Ġdoor.":13760,"Ġchemicals":13761,"ĠLeaf":13762,"Ġ66":13763,"Ġbest,":13764,"attoo":13765,"ĠAmericans.":13766,"Ġscreening":13767,"Ġleaders,":13768,"Ġplayback":13769,"Ġfloor.":13770,"Ġspare":13771,"even":13772,"Ġfrozen":13773,"Ġbases":13774,"Ġcriminals":13775,"ĠKy":13776,"ĠBrazilian":13777,"Ġcorresponding":13778,"Ġfulfill":13779,"Ġresponse.":13780,"Ġfeeding":13781,"Ġshore":13782,"Ġmove.":13783,"Ġsnap":13784,"ĠRice":13785,"ĠBan":13786,"ĊĊ\"N":13787,"Ġretreat":13788,"Ġtobacco":13789,"Ġ(2)":13790,"C.,":13791,"Ġedited":13792,"Ġphysics":13793,"Ġthrows":13794,"ĠSeah":13795,"ordable":13796,"Ġinfamous":13797,"Ġlicensing":13798,"Ġther":13799,"Ġdamage.":13800,"Ġmagnetic":13801,"ĠMarco":13802,"Ġ62":13803,"Ġtub":13804,"ĠNovember.":13805,"Ġorganization,":13806,"Ġencryption":13807,"ĠArts":13808,"erving":13809,"uper":13810,"ĠComput":13811,"Ġ1930":13812,"ĠUniverse":13813,"Ġethics":13814,"Ġlarge,":13815,"ĠStorm":13816,"Ġdenial":13817,"ĠSud":13818,"Ġintens":13819,"Ġtrusted":13820,"Ġmyself.":13821,"Ġlove,":13822,"Ġsignificance":13823,"terror":13824,"-cent":13825,"Ġlady":13826,"Ġunrest":13827,"rocery":13828,"Ġvertical":13829,"ĠOh,":13830,"ĠLaure":13831,"-winning":13832,"ĠMurphy":13833,"-election":13834,"Ġadvertis":13835,"Ġforce.":13836,"Ġrebound":13837,"Ġexempt":13838,"Ġearthquake":13839,"arat":13840,"Ġtransformed":13841,"Ġseverely":13842,"Ġbuyers":13843,"Ġimperial":13844,"ĠCenter.":13845,"Ġresults,":13846,"pen":13847,"ĠHomeland":13848,"Ġacceptance":13849,"ĠInvalid":13850,"Ġdeployment":13851,"Ġhadn't":13852,"ĠArthur":13853,"ifts":13854,"ortheast":13855,"Ġabstract":13856,"Ġdebate,":13857,"Ġtrop":13858,"Ġaddress.":13859,"Ġfiref":13860,"Ġdepartments":13861,"Ġvibr":13862,"There":13863,"Ġchaos":13864,"Ġcelebrating":13865,"Ġ(e.g.":13866,"Ġlandmark":13867,"Ġapproaching":13868,"Ġpurchasing":13869,"Ġinterrog":13870,"Ġwherever":13871,"Ġteams,":13872,"backs":13873,"Ġtheory,":13874,"Ġconj":13875,"ĊĊPlay":13876,"Ġcharacters,":13877,"ĠTory":13878,"Ġnewest":13879,"Ġincentive":13880,"plus":13881,"Ġindigenous":13882,"Ġgoals.":13883,"Ġunfortunate":13884,"Ġfires":13885,"ĠURL":13886,"Ġenergy.":13887,"ĠâĢľF":13888,"Ġreson":13889,"Ġsauce":13890,"Ġconversion":13891,"ĊĊEd":13892,"Ġbelt":13893,"Ġdocumentation":13894,"ĠForum":13895,"imes,":13896,"Ġdevice.":13897,"Ġpanels":13898,"Ġjournalism":13899,"Ġpor":13900,"Ġrate.":13901,"Ġseeds":13902,"Ġdiscoura":13903,"Ġuncomfortable":13904,"Ġmissiles":13905,"urities":13906,"Ġhe'll":13907,"Ġboards":13908,"Ġvaccine":13909,"ĠMexico,":13910,"12":13911,"Ġsurpris":13912,"Ġunh":13913,"Ġlove.":13914,"ĠMand":13915,"ĠForces":13916,"Ġcompatible":13917,"Ġmillenn":13918,"Ġswitched":13919,"ĠMilitary":13920,"Ġthemes":13921,"Ġ2003,":13922,"ĠFle":13923,"RC":13924,"Ġcities,":13925,"Ġtragic":13926,"Ġoverlook":13927,"large":13928,"Ġjumping":13929,"-gen":13930,"Ġregards":13931,"Ġcars,":13932,"Ġpatrol":13933,"Ġguy.":13934,"Ġworn":13935,"Ġbehavior.":13936,"ĠCelt":13937,"Ġaccommodate":13938,"ways,":13939,"avor":13940,"Ġbrave":13941,"Ġ59":13942,"Ġexpose":13943,"oding":13944,"Ġ63":13945,"ĠGlenn":13946,"Ġphone,":13947,"alid":13948,"ĠTampa":13949,"Ġfirearms":13950,"Ġ800":13951,"Ġanticipated":13952,"Ġaverage,":13953,"Ġoutdoor":13954,"Ġelections.":13955,"ĠPoll":13956,"ĊĊAre":13957,"Ġlun":13958,"Ġexpend":13959,"Ġofficer,":13960,"Ġcomply":13961,"ĠTokyo":13962,"Ġscholarship":13963,"Ġrelating":13964,"Ġmetap":13965,"Ġtradem":13966,"Ġ==":13967,"eling":13968,"Ġdioxide":13969,
[...]
